{
  "version": "1.0",
  "truncation": null,
  "padding": null,
  "added_tokens": [],
  "normalizer": null,
  "pre_tokenizer": {
    "type": "Whitespace"
  },
  "post_processor": null,
  "decoder": null,
  "model": {
    "type": "BPE",
    "dropout": null,
    "unk_token": null,
    "continuing_subword_prefix": null,
    "end_of_word_suffix": null,
    "fuse_unk": false,
    "byte_fallback": false,
    "ignore_merges": false,
    "vocab": {
      "!": 0,
      "\"": 1,
      "#": 2,
      "%": 3,
      "&": 4,
      "'": 5,
      "(": 6,
      ")": 7,
      "*": 8,
      "+": 9,
      ",": 10,
      "-": 11,
      ".": 12,
      "/": 13,
      "0": 14,
      "1": 15,
      "2": 16,
      "3": 17,
      "4": 18,
      "5": 19,
      "6": 20,
      "7": 21,
      "8": 22,
      "9": 23,
      ":": 24,
      ";": 25,
      "<": 26,
      "=": 27,
      ">": 28,
      "?": 29,
      "@": 30,
      "A": 31,
      "B": 32,
      "C": 33,
      "D": 34,
      "E": 35,
      "F": 36,
      "G": 37,
      "H": 38,
      "I": 39,
      "J": 40,
      "K": 41,
      "L": 42,
      "M": 43,
      "N": 44,
      "O": 45,
      "P": 46,
      "Q": 47,
      "R": 48,
      "S": 49,
      "T": 50,
      "U": 51,
      "V": 52,
      "W": 53,
      "X": 54,
      "Y": 55,
      "Z": 56,
      "[": 57,
      "]": 58,
      "^": 59,
      "_": 60,
      "a": 61,
      "b": 62,
      "c": 63,
      "d": 64,
      "e": 65,
      "f": 66,
      "g": 67,
      "h": 68,
      "i": 69,
      "j": 70,
      "k": 71,
      "l": 72,
      "m": 73,
      "n": 74,
      "o": 75,
      "p": 76,
      "q": 77,
      "r": 78,
      "s": 79,
      "t": 80,
      "u": 81,
      "v": 82,
      "w": 83,
      "x": 84,
      "y": 85,
      "z": 86,
      "{": 87,
      "|": 88,
      "}": 89,
      "¤": 90,
      "§": 91,
      "¨": 92,
      "«": 93,
      "­": 94,
      "°": 95,
      "²": 96,
      "³": 97,
      "µ": 98,
      "¸": 99,
      "¹": 100,
      "º": 101,
      "»": 102,
      "¼": 103,
      "À": 104,
      "Â": 105,
      "Ç": 106,
      "È": 107,
      "É": 108,
      "Ê": 109,
      "Ë": 110,
      "Î": 111,
      "Ï": 112,
      "Ô": 113,
      "×": 114,
      "Û": 115,
      "à": 116,
      "á": 117,
      "â": 118,
      "ä": 119,
      "ç": 120,
      "è": 121,
      "é": 122,
      "ê": 123,
      "ë": 124,
      "í": 125,
      "î": 126,
      "ï": 127,
      "ó": 128,
      "ô": 129,
      "ö": 130,
      "ù": 131,
      "û": 132,
      "ü": 133,
      "ý": 134,
      "ÿ": 135,
      "ă": 136,
      "İ": 137,
      "Œ": 138,
      "œ": 139,
      "š": 140,
      "ţ": 141,
      "ʹ": 142,
      "˂": 143,
      "ˮ": 144,
      "̀": 145,
      "́": 146,
      "̈": 147,
      "Δ": 148,
      "Σ": 149,
      "ά": 150,
      "έ": 151,
      "ή": 152,
      "ί": 153,
      "α": 154,
      "β": 155,
      "γ": 156,
      "δ": 157,
      "ε": 158,
      "η": 159,
      "θ": 160,
      "ι": 161,
      "κ": 162,
      "λ": 163,
      "μ": 164,
      "ν": 165,
      "ο": 166,
      "π": 167,
      "ρ": 168,
      "ς": 169,
      "σ": 170,
      "τ": 171,
      "υ": 172,
      "χ": 173,
      "ω": 174,
      "ό": 175,
      "ύ": 176,
      "ώ": 177,
      "а": 178,
      "в": 179,
      "г": 180,
      "д": 181,
      "е": 182,
      "ж": 183,
      "и": 184,
      "к": 185,
      "м": 186,
      "н": 187,
      "о": 188,
      "р": 189,
      "с": 190,
      "т": 191,
      "у": 192,
      "ц": 193,
      "ч": 194,
      "ᵉ": 195,
      "‒": 196,
      "–": 197,
      "—": 198,
      "―": 199,
      "‘": 200,
      "’": 201,
      "“": 202,
      "”": 203,
      "‟": 204,
      "•": 205,
      "…": 206,
      "‰": 207,
      "⁶": 208,
      "⁹": 209,
      "€": 210,
      "∑": 211,
      "−": 212,
      "∫": 213,
      "≤": 214,
      "≥": 215,
      "■": 216,
      "□": 217,
      "●": 218,
      "☐": 219,
      "ﬀ": 220,
      "ﬁ": 221,
      "ﬂ": 222,
      "es": 223,
      "on": 224,
      "ti": 225,
      "en": 226,
      "de": 227,
      "le": 228,
      "tion": 229,
      "re": 230,
      "an": 231,
      "is": 232,
      "ent": 233,
      "ar": 234,
      "la": 235,
      "er": 236,
      "ou": 237,
      "in": 238,
      "pr": 239,
      "it": 240,
      "au": 241,
      "et": 242,
      "qu": 243,
      "du": 244,
      "les": 245,
      "or": 246,
      "ation": 247,
      "des": 248,
      "li": 249,
      "ur": 250,
      "tr": 251,
      "és": 252,
      "un": 253,
      "ment": 254,
      "con": 255,
      "co": 256,
      "te": 257,
      "dé": 258,
      "par": 259,
      "ce": 260,
      "ant": 261,
      "si": 262,
      "><": 263,
      "al": 264,
      "se": 265,
      "ci": 266,
      "di": 267,
      "que": 268,
      "ta": 269,
      "tic": 270,
      "ré": 271,
      "com": 272,
      "ans": 273,
      "ch": 274,
      "artic": 275,
      "il": 276,
      "td": 277,
      "our": 278,
      "ne": 279,
      "ér": 280,
      "son": 281,
      "as": 282,
      "article": 283,
      "est": 284,
      "tre": 285,
      "ac": 286,
      "res": 287,
      "aux": 288,
      "pro": 289,
      "ap": 290,
      "fi": 291,
      "me": 292,
      "ité": 293,
      "ai": 294,
      "né": 295,
      "tions": 296,
      "pré": 297,
      "une": 298,
      "pe": 299,
      "dans": 300,
      "gn": 301,
      "po": 302,
      "ex": 303,
      "at": 304,
      "=\"": 305,
      "ali": 306,
      "ve": 307,
      "mo": 308,
      "ces": 309,
      "su": 310,
      "ag": 311,
      "ale": 312,
      "ter": 313,
      "so": 314,
      "ention": 315,
      "lle": 316,
      "sur": 317,
      "prés": 318,
      "align": 319,
      "pour": 320,
      "té": 321,
      "lic": 322,
      "ie": 323,
      "sion": 324,
      "comp": 325,
      "min": 326,
      "lo": 327,
      "us": 328,
      "per": 329,
      "tu": 330,
      "mis": 331,
      "></": 332,
      "sont": 333,
      "vi": 334,
      "for": 335,
      "</": 336,
      "ations": 337,
      "app": 338,
      "ée": 339,
      "Les": 340,
      "av": 341,
      "mention": 342,
      "qui": 343,
      "aire": 344,
      "prév": 345,
      "dis": 346,
      "ab": 347,
      "présent": 348,
      "ins": 349,
      "ction": 350,
      "peu": 351,
      "tab": 352,
      "mb": 353,
      "ées": 354,
      "lis": 355,
      "im": 356,
      "cu": 357,
      "ance": 358,
      "pu": 359,
      "Le": 360,
      "ad": 361,
      "man": 362,
      "ont": 363,
      "\">": 364,
      "ments": 365,
      "déc": 366,
      "ion": 367,
      "ma": 368,
      "gé": 369,
      "tif": 370,
      "teur": 371,
      "posi": 372,
      "ser": 373,
      "mé": 374,
      "minis": 375,
      "tiv": 376,
      "oi": 377,
      "lu": 378,
      "prévu": 379,
      "op": 380,
      "20": 381,
      "person": 382,
      "applic": 383,
      "ff": 384,
      "leur": 385,
      "soci": 386,
      "aut": 387,
      "ge": 388,
      "no": 389,
      "ors": 390,
      "ais": 391,
      "por": 392,
      "mi": 393,
      "eur": 394,
      "fin": 395,
      "ts": 396,
      "mes": 397,
      "pub": 398,
      "ités": 399,
      "mentionné": 400,
      "ten": 401,
      "peut": 402,
      "étab": 403,
      "contr": 404,
      "ob": 405,
      "ri": 406,
      "condi": 407,
      "ques": 408,
      "disposi": 409,
      "code": 410,
      "cas": 411,
      "pris": 412,
      "ég": 413,
      "ro": 414,
      "mp": 415,
      "ait": 416,
      "pas": 417,
      "form": 418,
      "être": 419,
      "cent": 420,
      "do": 421,
      "sé": 422,
      "conditions": 423,
      "vent": 424,
      "rég": 425,
      "seil": 426,
      "rec": 427,
      "comm": 428,
      "La": 429,
      "char": 430,
      "lai": 431,
      "sement": 432,
      "pl": 433,
      "rés": 434,
      "cé": 435,
      "ère": 436,
      "tat": 437,
      "ès": 438,
      "id": 439,
      "ure": 440,
      "sou": 441,
      "ux": 442,
      "ence": 443,
      "établis": 444,
      "lles": 445,
      "fon": 446,
      "aires": 447,
      "tou": 448,
      "int": 449,
      "autor": 450,
      "application": 451,
      "parti": 452,
      "tri": 453,
      "cer": 454,
      "ers": 455,
      "deman": 456,
      "cation": 457,
      "entre": 458,
      "rit": 459,
      "tant": 460,
      "tes": 461,
      "iné": 462,
      "tifi": 463,
      "ord": 464,
      "gan": 465,
      "jus": 466,
      "organ": 467,
      "age": 468,
      "ni": 469,
      "mission": 470,
      "II": 471,
      "dispositions": 472,
      "gr": 473,
      "servi": 474,
      "ette": 475,
      "lef": 476,
      "left": 477,
      "ue": 478,
      "ju": 479,
      "érie": 480,
      "aliné": 481,
      "mbre": 482,
      "ls": 483,
      "titu": 484,
      "ens": 485,
      "end": 486,
      "center": 487,
      "inter": 488,
      "personne": 489,
      "demande": 490,
      "organis": 491,
      "trans": 492,
      "été": 493,
      "nation": 494,
      "ain": 495,
      "ministr": 496,
      "vant": 497,
      "tive": 498,
      "nés": 499,
      "public": 500,
      "fix": 501,
      "fr": 502,
      "articles": 503,
      "titre": 504,
      "ul": 505,
      "mê": 506,
      "cons": 507,
      "ours": 508,
      "bu": 509,
      "prévues": 510,
      "ales": 511,
      "conseil": 512,
      "jet": 513,
      "Etat": 514,
      "alinéa": 515,
      "dro": 516,
      "sant": 517,
      "exer": 518,
      "ec": 519,
      "nement": 520,
      "ois": 521,
      "orsque": 522,
      "pre": 523,
      "ession": 524,
      "ision": 525,
      "ver": 526,
      "prof": 527,
      "rée": 528,
      "droit": 529,
      "am": 530,
      "administr": 531,
      "trav": 532,
      "tement": 533,
      "vo": 534,
      "lement": 535,
      "pé": 536,
      "direc": 537,
      "gén": 538,
      "représent": 539,
      "isation": 540,
      "commun": 541,
      "nes": 542,
      "fait": 543,
      "ig": 544,
      "ainsi": 545,
      "vre": 546,
      "201": 547,
      "sous": 548,
      "ants": 549,
      "génér": 550,
      "th": 551,
      "produ": 552,
      "pri": 553,
      "sa": 554,
      "près": 555,
      "sup": 556,
      "\"><": 557,
      "profession": 558,
      "tai": 559,
      "ret": 560,
      "cette": 561,
      "dic": 562,
      "ption": 563,
      "ché": 564,
      "tis": 565,
      "tres": 566,
      "ses": 567,
      "der": 568,
      "che": 569,
      "ail": 570,
      "met": 571,
      "ense": 572,
      "mar": 573,
      "acc": 574,
      "opér": 575,
      "lon": 576,
      "ave": 577,
      "sui": 578,
      "établissement": 579,
      "ges": 580,
      "même": 581,
      "délai": 582,
      "éri": 583,
      "ème": 584,
      "pon": 585,
      "rela": 586,
      "ministre": 587,
      "dont": 588,
      "eu": 589,
      "défin": 590,
      "premi": 591,
      "activ": 592,
      "lé": 593,
      "cur": 594,
      "arr": 595,
      "personnes": 596,
      "don": 597,
      "eff": 598,
      "peuvent": 599,
      "cha": 600,
      "ine": 601,
      "pos": 602,
      "mise": 603,
      "ét": 604,
      "née": 605,
      "ident": 606,
      "avec": 607,
      "ay": 608,
      "mentionnés": 609,
      "territ": 610,
      "professionne": 611,
      "publi": 612,
      "alités": 613,
      "deux": 614,
      "ir": 615,
      "tives": 616,
      "ori": 617,
      "arrê": 618,
      "da": 619,
      "elle": 620,
      "non": 621,
      "ables": 622,
      "président": 623,
      "décision": 624,
      "emp": 625,
      "mentionnées": 626,
      "ite": 627,
      "chargé": 628,
      "exp": 629,
      "formation": 630,
      "prise": 631,
      "lui": 632,
      "dépar": 633,
      "santé": 634,
      "èg": 635,
      "décret": 636,
      "région": 637,
      "\"></": 638,
      "vis": 639,
      "tru": 640,
      "00": 641,
      "règ": 642,
      "mod": 643,
      "fici": 644,
      "ven": 645,
      "dés": 646,
      "bi": 647,
      "leurs": 648,
      "able": 649,
      "travail": 650,
      "uti": 651,
      "Pour": 652,
      "ents": 653,
      "déli": 654,
      "assur": 655,
      "alité": 656,
      "cré": 657,
      "procé": 658,
      "concer": 659,
      "tifs": 660,
      "ture": 661,
      "mbres": 662,
      "éle": 663,
      "oire": 664,
      "sécur": 665,
      "ique": 666,
      "lig": 667,
      "mont": 668,
      "bé": 669,
      "Il": 670,
      "tify": 671,
      "justify": 672,
      "service": 673,
      "ouve": 674,
      "sécurité": 675,
      "érieur": 676,
      "contrat": 677,
      "après": 678,
      "Un": 679,
      "taire": 680,
      "avis": 681,
      "sements": 682,
      "compte": 683,
      "teurs": 684,
      "général": 685,
      "mois": 686,
      "modalités": 687,
      "ari": 688,
      "llec": 689,
      "port": 690,
      "nées": 691,
      "table": 692,
      "Con": 693,
      "alis": 694,
      "soit": 695,
      "durée": 696,
      "oir": 697,
      "béné": 698,
      "collec": 699,
      "arrêté": 700,
      "premier": 701,
      "lar": 702,
      "montant": 703,
      "ble": 704,
      "objet": 705,
      "anci": 706,
      "contrô": 707,
      "date": 708,
      "dép": 709,
      "loi": 710,
      "lég": 711,
      "prévue": 712,
      "alement": 713,
      "suivant": 714,
      "membres": 715,
      "car": 716,
      "cri": 717,
      "plus": 718,
      "département": 719,
      "intér": 720,
      "fonction": 721,
      "its": 722,
      "En": 723,
      "br": 724,
      "ilité": 725,
      "services": 726,
      "ères": 727,
      "moins": 728,
      "loc": 729,
      "Lorsque": 730,
      "enti": 731,
      "éché": 732,
      "cip": 733,
      "ances": 734,
      "ception": 735,
      "respon": 736,
      "sus": 737,
      "cul": 738,
      "tout": 739,
      "commission": 740,
      "eurs": 741,
      "gar": 742,
      "action": 743,
      "apit": 744,
      "lation": 745,
      "nu": 746,
      "déclar": 747,
      "défini": 748,
      "cours": 749,
      "pec": 750,
      "ph": 751,
      "ente": 752,
      "aff": 753,
      "cla": 754,
      "crit": 755,
      "mentionnée": 756,
      "lè": 757,
      "autorité": 758,
      "oc": 759,
      "ature": 760,
      "lieu": 761,
      "judi": 762,
      "bles": 763,
      "directeur": 764,
      "publique": 765,
      "sociale": 766,
      "ort": 767,
      "gestion": 768,
      "Au": 769,
      "activité": 770,
      "pla": 771,
      "partie": 772,
      "st": 773,
      "exerci": 774,
      "déf": 775,
      "effec": 776,
      "ils": 777,
      "trois": 778,
      "autres": 779,
      "établissements": 780,
      "ième": 781,
      "tribu": 782,
      "échéant": 783,
      "sta": 784,
      "ouv": 785,
      "indi": 786,
      "élec": 787,
      "administra": 788,
      "hab": 789,
      "Conseil": 790,
      "termin": 791,
      "ra": 792,
      "val": 793,
      "orsqu": 794,
      "mment": 795,
      "oblig": 796,
      "opé": 797,
      "autre": 798,
      "anti": 799,
      "explo": 800,
      "vention": 801,
      "ures": 802,
      "lorsque": 803,
      "om": 804,
      "exercice": 805,
      "applicables": 806,
      "remp": 807,
      "Dans": 808,
      "trait": 809,
      "cess": 810,
      "prises": 811,
      "19": 812,
      "chaque": 813,
      "ren": 814,
      "détermin": 815,
      "sans": 816,
      "contrôle": 817,
      "propri": 818,
      "préc": 819,
      "ctions": 820,
      "national": 821,
      "représentant": 822,
      "10": 823,
      "territori": 824,
      "mati": 825,
      "clu": 826,
      "ordon": 827,
      "pres": 828,
      "bénéfici": 829,
      "tamment": 830,
      "tal": 831,
      "itation": 832,
      "notamment": 833,
      "administration": 834,
      "ca": 835,
      "tenu": 836,
      "dat": 837,
      "inform": 838,
      "toute": 839,
      "nom": 840,
      "médic": 841,
      "nationale": 842,
      "europé": 843,
      "utilis": 844,
      "rance": 845,
      "fér": 846,
      "procédu": 847,
      "vé": 848,
      "cor": 849,
      "confor": 850,
      "selon": 851,
      "ement": 852,
      "ille": 853,
      "associ": 854,
      "sy": 855,
      "européen": 856,
      "spé": 857,
      "agri": 858,
      "spéci": 859,
      "jour": 860,
      "financi": 861,
      "écu": 862,
      "laire": 863,
      "ffi": 864,
      "exécu": 865,
      "autorisation": 866,
      "gement": 867,
      "sit": 868,
      "cin": 869,
      "Tou": 870,
      "ner": 871,
      "fran": 872,
      "respec": 873,
      "ayant": 874,
      "avant": 875,
      "nécess": 876,
      "oupe": 877,
      "position": 878,
      "div": 879,
      "som": 880,
      "doit": 881,
      "iti": 882,
      "uni": 883,
      "équi": 884,
      "préf": 885,
      "tés": 886,
      "compét": 887,
      "nature": 888,
      "ves": 889,
      "entreprise": 890,
      "ang": 891,
      "derni": 892,
      "année": 893,
      "moy": 894,
      "ress": 895,
      "cat": 896,
      "résul": 897,
      "prend": 898,
      "réser": 899,
      "fond": 900,
      "tation": 901,
      "çais": 902,
      "rer": 903,
      "fixées": 904,
      "clas": 905,
      "société": 906,
      "200": 907,
      "judici": 908,
      "accord": 909,
      "sal": 910,
      "docu": 911,
      "collectiv": 912,
      "œu": 913,
      "uation": 914,
      "écon": 915,
      "imp": 916,
      "na": 917,
      "ati": 918,
      "organisme": 919,
      "compter": 920,
      "cad": 921,
      "rapp": 922,
      "français": 923,
      "quis": 924,
      "act": 925,
      "log": 926,
      "ouver": 927,
      "droits": 928,
      "quel": 929,
      "informations": 930,
      "Par": 931,
      "tech": 932,
      "érieure": 933,
      "commer": 934,
      "hi": 935,
      "tification": 936,
      "elles": 937,
      "os": 938,
      "loy": 939,
      "valign": 940,
      "dit": 941,
      "amen": 942,
      "assu": 943,
      "produits": 944,
      "également": 945,
      "actions": 946,
      "règlement": 947,
      "dant": 948,
      "section": 949,
      "convention": 950,
      "tor": 951,
      "forme": 952,
      "lim": 953,
      "préfet": 954,
      "péri": 955,
      "faire": 956,
      "effectu": 957,
      "référ": 958,
      "jours": 959,
      "to": 960,
      "ences": 961,
      "groupe": 962,
      "pério": 963,
      "opération": 964,
      "mément": 965,
      "sub": 966,
      "onnement": 967,
      "ign": 968,
      "salari": 969,
      "fois": 970,
      "difi": 971,
      "agré": 972,
      "projet": 973,
      "constitu": 974,
      "dent": 975,
      "assurance": 976,
      "accomp": 977,
      "organismes": 978,
      "déclaration": 979,
      "mots": 980,
      "serv": 981,
      "procédure": 982,
      "eng": 983,
      "ération": 984,
      "charge": 985,
      "livre": 986,
      "liste": 987,
      "cour": 988,
      "France": 989,
      "précis": 990,
      "13": 991,
      "cadre": 992,
      "sign": 993,
      "modifi": 994,
      "rempla": 995,
      "techni": 996,
      "eux": 997,
      "III": 998,
      "relatives": 999,
      "truction": 1000,
      "ages": 1001,
      "nue": 1002,
      "endant": 1003,
      "chapit": 1004,
      "jo": 1005,
      "éten": 1006,
      "communi": 1007,
      "nombre": 1008,
      "alisation": 1009,
      "pen": 1010,
      "judiciaire": 1011,
      "uli": 1012,
      "trib": 1013,
      "réalis": 1014,
      "quelle": 1015,
      "conformément": 1016,
      "déliv": 1017,
      "can": 1018,
      "permet": 1019,
      "appe": 1020,
      "cher": 1021,
      "sais": 1022,
      "statu": 1023,
      "attribu": 1024,
      "œuvre": 1025,
      "el": 1026,
      "tribun": 1027,
      "opérations": 1028,
      "où": 1029,
      "202": 1030,
      "instal": 1031,
      "ines": 1032,
      "autoris": 1033,
      "intéres": 1034,
      "cription": 1035,
      "celui": 1036,
      "aleur": 1037,
      "membre": 1038,
      "ass": 1039,
      "ante": 1040,
      "précé": 1041,
      "mat": 1042,
      "ris": 1043,
      "réserve": 1044,
      "fa": 1045,
      "enseig": 1046,
      "respons": 1047,
      "contre": 1048,
      "gis": 1049,
      "entreprises": 1050,
      "15": 1051,
      "celle": 1052,
      "professionnelle": 1053,
      "chapitre": 1054,
      "fonds": 1055,
      "justifi": 1056,
      "pén": 1057,
      "cep": 1058,
      "établi": 1059,
      "impô": 1060,
      "comptes": 1061,
      "celles": 1062,
      "plu": 1063,
      "caract": 1064,
      "tée": 1065,
      "uri": 1066,
      "mesures": 1067,
      "laquelle": 1068,
      "étés": 1069,
      "cet": 1070,
      "sieurs": 1071,
      "top": 1072,
      "charg": 1073,
      "valeur": 1074,
      "itaire": 1075,
      "plusieurs": 1076,
      "lab": 1077,
      "sance": 1078,
      "four": 1079,
      "ouvelle": 1080,
      "publics": 1081,
      "xe": 1082,
      "vers": 1083,
      "regis": 1084,
      "activités": 1085,
      "cal": 1086,
      "employ": 1087,
      "Toute": 1088,
      "médi": 1089,
      "omi": 1090,
      "consu": 1091,
      "tection": 1092,
      "poli": 1093,
      "Si": 1094,
      "cession": 1095,
      "asse": 1096,
      "cue": 1097,
      "vir": 1098,
      "désig": 1099,
      "travaux": 1100,
      "tiers": 1101,
      "aison": 1102,
      "nais": 1103,
      "quelles": 1104,
      "délég": 1105,
      "effet": 1106,
      "deuxième": 1107,
      "tribunal": 1108,
      "définies": 1109,
      "réception": 1110,
      "protection": 1111,
      "élé": 1112,
      "économi": 1113,
      "oivent": 1114,
      "rapport": 1115,
      "soumis": 1116,
      "compéten": 1117,
      "lée": 1118,
      "garanti": 1119,
      "pai": 1120,
      "envir": 1121,
      "appli": 1122,
      "wid": 1123,
      "width": 1124,
      "inde": 1125,
      "tiques": 1126,
      "plan": 1127,
      "prest": 1128,
      "12": 1129,
      "desti": 1130,
      "san": 1131,
      "environnement": 1132,
      "taires": 1133,
      "Cette": 1134,
      "affec": 1135,
      "exécution": 1136,
      "intérê": 1137,
      "eau": 1138,
      "éval": 1139,
      "gu": 1140,
      "mil": 1141,
      "culture": 1142,
      "territoire": 1143,
      "/>": 1144,
      "nent": 1145,
      "Elle": 1146,
      "agents": 1147,
      "données": 1148,
      "mn": 1149,
      "régi": 1150,
      "tent": 1151,
      "lib": 1152,
      "état": 1153,
      "ordre": 1154,
      "prim": 1155,
      "consul": 1156,
      "cueil": 1157,
      "désign": 1158,
      "appel": 1159,
      "ensemb": 1160,
      "agrico": 1161,
      "lorsqu": 1162,
      "indemn": 1163,
      "sociétés": 1164,
      "prévus": 1165,
      "dernier": 1166,
      "présente": 1167,
      "comité": 1168,
      "dée": 1169,
      "règles": 1170,
      "infr": 1171,
      "matière": 1172,
      "moyen": 1173,
      "ssi": 1174,
      "mêmes": 1175,
      "tique": 1176,
      "inf": 1177,
      "amé": 1178,
      "rele": 1179,
      "recher": 1180,
      "ensemble": 1181,
      "pron": 1182,
      "maj": 1183,
      "juge": 1184,
      "réglement": 1185,
      "supérieur": 1186,
      "correspon": 1187,
      "diff": 1188,
      "mer": 1189,
      "lution": 1190,
      "délib": 1191,
      "représentants": 1192,
      "frais": 1193,
      "transport": 1194,
      "pronon": 1195,
      "em": 1196,
      "tées": 1197,
      "annue": 1198,
      "taux": 1199,
      "dus": 1200,
      "partic": 1201,
      "pension": 1202,
      "information": 1203,
      "chan": 1204,
      "ard": 1205,
      "avoir": 1206,
      "paiement": 1207,
      "période": 1208,
      "disposition": 1209,
      "test": 1210,
      "pendant": 1211,
      "cations": 1212,
      "doivent": 1213,
      "laires": 1214,
      "mor": 1215,
      "candi": 1216,
      "particip": 1217,
      "part": 1218,
      "portant": 1219,
      "abilité": 1220,
      "Rés": 1221,
      "tous": 1222,
      "particuli": 1223,
      "nant": 1224,
      "civi": 1225,
      "fonctions": 1226,
      "Ces": 1227,
      "contri": 1228,
      "commis": 1229,
      "européenne": 1230,
      "lit": 1231,
      "pren": 1232,
      "Sa": 1233,
      "compor": 1234,
      "étr": 1235,
      "agement": 1236,
      "raison": 1237,
      "qua": 1238,
      "bud": 1239,
      "qualité": 1240,
      "nécessaires": 1241,
      "comme": 1242,
      "éléments": 1243,
      "ba": 1244,
      "sens": 1245,
      "mun": 1246,
      "adres": 1247,
      "certifi": 1248,
      "Ré": 1249,
      "iques": 1250,
      "Lorsqu": 1251,
      "communes": 1252,
      "tron": 1253,
      "naire": 1254,
      "déce": 1255,
      "connais": 1256,
      "Autor": 1257,
      "administrative": 1258,
      "11": 1259,
      "pa": 1260,
      "catég": 1261,
      "décembre": 1262,
      "gation": 1263,
      "juri": 1264,
      "étrang": 1265,
      "remplac": 1266,
      "cond": 1267,
      ".</": 1268,
      "Ce": 1269,
      "union": 1270,
      "proprié": 1271,
      "méde": 1272,
      "Autorité": 1273,
      "diction": 1274,
      "tin": 1275,
      "fer": 1276,
      "exception": 1277,
      "nance": 1278,
      "registre": 1279,
      "documents": 1280,
      "30": 1281,
      "exploitation": 1282,
      "contribu": 1283,
      "000": 1284,
      "acquis": 1285,
      "outre": 1286,
      "pi": 1287,
      "num": 1288,
      "phy": 1289,
      "sau": 1290,
      "conclu": 1291,
      "Résul": 1292,
      "missions": 1293,
      "enseignement": 1294,
      "1er": 1295,
      "voi": 1296,
      "dou": 1297,
      "Résultant": 1298,
      "défaut": 1299,
      "dossi": 1300,
      "suivantes": 1301,
      "hu": 1302,
      "exploit": 1303,
      "mettre": 1304,
      "parties": 1305,
      "cle": 1306,
      "xim": 1307,
      "cir": 1308,
      "ill": 1309,
      "équipe": 1310,
      "ateur": 1311,
      "reur": 1312,
      "obligations": 1313,
      "professionnel": 1314,
      "emploi": 1315,
      "régional": 1316,
      "inves": 1317,
      "institu": 1318,
      "Saint": 1319,
      "quê": 1320,
      "gence": 1321,
      "22": 1322,
      "collectivités": 1323,
      "étu": 1324,
      "col": 1325,
      "mu": 1326,
      "siè": 1327,
      "tien": 1328,
      "électron": 1329,
      "class": 1330,
      "olog": 1331,
      "complé": 1332,
      "comman": 1333,
      "économique": 1334,
      "meu": 1335,
      "éner": 1336,
      "place": 1337,
      "fixé": 1338,
      "fé": 1339,
      "ze": 1340,
      "mala": 1341,
      "prati": 1342,
      "retrait": 1343,
      "mesure": 1344,
      "17": 1345,
      "De": 1346,
      "capit": 1347,
      "ceux": 1348,
      "référence": 1349,
      "assis": 1350,
      "lors": 1351,
      "candidat": 1352,
      "enf": 1353,
      "condu": 1354,
      "16": 1355,
      "bilité": 1356,
      "zon": 1357,
      "produit": 1358,
      "défense": 1359,
      "aide": 1360,
      "cais": 1361,
      "tance": 1362,
      "Une": 1363,
      "die": 1364,
      "auprès": 1365,
      "ordonnance": 1366,
      "physi": 1367,
      "vue": 1368,
      "cau": 1369,
      "titulaire": 1370,
      "ffici": 1371,
      "biens": 1372,
      "régime": 1373,
      "enses": 1374,
      "lations": 1375,
      "gram": 1376,
      "commune": 1377,
      "mani": 1378,
      "entes": 1379,
      "ire": 1380,
      "um": 1381,
      "plé": 1382,
      "personnel": 1383,
      "lève": 1384,
      "proc": 1385,
      "conjo": 1386,
      "relevant": 1387,
      "seu": 1388,
      "dossier": 1389,
      "production": 1390,
      "française": 1391,
      "anne": 1392,
      "prin": 1393,
      "ouvr": 1394,
      "hicu": 1395,
      "compétente": 1396,
      "cinq": 1397,
      "chi": 1398,
      "ports": 1399,
      "rémun": 1400,
      "respect": 1401,
      "social": 1402,
      "acte": 1403,
      "salariés": 1404,
      "mon": 1405,
      "vali": 1406,
      "vie": 1407,
      "voie": 1408,
      "èces": 1409,
      "organisation": 1410,
      "Des": 1411,
      "commerce": 1412,
      "chac": 1413,
      "recherche": 1414,
      "fixe": 1415,
      "tats": 1416,
      "pose": 1417,
      "véhicu": 1418,
      "fonctionnement": 1419,
      "applicable": 1420,
      "ler": 1421,
      "accès": 1422,
      "notifi": 1423,
      "dér": 1424,
      "dépenses": 1425,
      "mandat": 1426,
      "Com": 1427,
      "fis": 1428,
      "atoire": 1429,
      "gie": 1430,
      "tenant": 1431,
      "situation": 1432,
      "assemb": 1433,
      "titres": 1434,
      "chargés": 1435,
      "get": 1436,
      "abs": 1437,
      "major": 1438,
      "évaluation": 1439,
      "commiss": 1440,
      "veill": 1441,
      "let": 1442,
      "14": 1443,
      "prestations": 1444,
      "mation": 1445,
      "Union": 1446,
      "consi": 1447,
      "vier": 1448,
      "sec": 1449,
      "budget": 1450,
      "chambre": 1451,
      "amende": 1452,
      "amén": 1453,
      "ites": 1454,
      "six": 1455,
      "rig": 1456,
      "relative": 1457,
      "supplé": 1458,
      "fication": 1459,
      "IV": 1460,
      "tenir": 1461,
      "complément": 1462,
      "rées": 1463,
      "jan": 1464,
      "tissement": 1465,
      "préa": 1466,
      "janvier": 1467,
      "agrément": 1468,
      "temp": 1469,
      "consom": 1470,
      "édu": 1471,
      "situ": 1472,
      "cien": 1473,
      "agence": 1474,
      "anim": 1475,
      "maine": 1476,
      "connaissance": 1477,
      "lable": 1478,
      "appliqu": 1479,
      "civile": 1480,
      "marché": 1481,
      "habit": 1482,
      "cap": 1483,
      "iden": 1484,
      "exig": 1485,
      "police": 1486,
      "program": 1487,
      "princip": 1488,
      "lesquelles": 1489,
      "collectivité": 1490,
      "distribu": 1491,
      "oires": 1492,
      "fourn": 1493,
      "men": 1494,
      "vision": 1495,
      "cotis": 1496,
      "maxim": 1497,
      "déro": 1498,
      "permettant": 1499,
      "usage": 1500,
      "syn": 1501,
      "toutes": 1502,
      "pay": 1503,
      "cepti": 1504,
      "suscepti": 1505,
      "adap": 1506,
      "reven": 1507,
      "exclu": 1508,
      "tte": 1509,
      "cl": 1510,
      "accompag": 1511,
      "générale": 1512,
      "siège": 1513,
      "Toutefois": 1514,
      "nive": 1515,
      "confi": 1516,
      "tro": 1517,
      "aph": 1518,
      "départemental": 1519,
      "minist": 1520,
      "intérieur": 1521,
      "oit": 1522,
      "actes": 1523,
      "coopération": 1524,
      "déb": 1525,
      "urs": 1526,
      "veillance": 1527,
      "ol": 1528,
      "territoriales": 1529,
      "République": 1530,
      "omie": 1531,
      "trie": 1532,
      "mobi": 1533,
      "délégu": 1534,
      "syst": 1535,
      "agis": 1536,
      "indivi": 1537,
      "précise": 1538,
      "impôts": 1539,
      "immeu": 1540,
      "employeur": 1541,
      "compris": 1542,
      "dépô": 1543,
      "main": 1544,
      "accor": 1545,
      "adresse": 1546,
      "temps": 1547,
      "nouve": 1548,
      "recours": 1549,
      "utilisation": 1550,
      "troisième": 1551,
      "commerci": 1552,
      "inte": 1553,
      "sein": 1554,
      "individu": 1555,
      "lop": 1556,
      "document": 1557,
      "éro": 1558,
      "jusqu": 1559,
      "rédu": 1560,
      "exis": 1561,
      "assurer": 1562,
      "répon": 1563,
      "limite": 1564,
      "ative": 1565,
      "inscrit": 1566,
      "ître": 1567,
      "attest": 1568,
      "velop": 1569,
      "techniques": 1570,
      "calcul": 1571,
      "chef": 1572,
      "°,": 1573,
      "prix": 1574,
      "première": 1575,
      "quête": 1576,
      "appar": 1577,
      "itaires": 1578,
      "caractère": 1579,
      "surveillance": 1580,
      "mises": 1581,
      "intérêt": 1582,
      "risques": 1583,
      "quels": 1584,
      "régionale": 1585,
      "navi": 1586,
      "hors": 1587,
      "sauf": 1588,
      "location": 1589,
      "notification": 1590,
      "ancement": 1591,
      "agriculture": 1592,
      "base": 1593,
      "bes": 1594,
      "ban": 1595,
      "illet": 1596,
      "quali": 1597,
      "exercer": 1598,
      "bil": 1599,
      "dev": 1600,
      "vente": 1601,
      "accueil": 1602,
      "tra": 1603,
      "truc": 1604,
      "logement": 1605,
      "certificat": 1606,
      "ffice": 1607,
      "arma": 1608,
      "résultant": 1609,
      "différ": 1610,
      "Ier": 1611,
      "crip": 1612,
      "ing": 1613,
      "crédit": 1614,
      "entité": 1615,
      "cée": 1616,
      "naires": 1617,
      "esti": 1618,
      "ministres": 1619,
      "énergie": 1620,
      "réalisation": 1621,
      "écrit": 1622,
      "agricole": 1623,
      "jec": 1624,
      "désigné": 1625,
      "ref": 1626,
      "atte": 1627,
      "soins": 1628,
      "assemblée": 1629,
      "contrats": 1630,
      "pan": 1631,
      "chés": 1632,
      "lais": 1633,
      "médica": 1634,
      "consta": 1635,
      "décisions": 1636,
      "UE": 1637,
      "comprend": 1638,
      "chet": 1639,
      "construction": 1640,
      "audi": 1641,
      "juillet": 1642,
      "initi": 1643,
      "offici": 1644,
      "tari": 1645,
      "sol": 1646,
      "niveau": 1647,
      "minim": 1648,
      "observ": 1649,
      "ventions": 1650,
      "puis": 1651,
      "rection": 1652,
      "directement": 1653,
      "indus": 1654,
      "informe": 1655,
      "vil": 1656,
      "nelle": 1657,
      "labor": 1658,
      "remb": 1659,
      "pie": 1660,
      "électronique": 1661,
      "gre": 1662,
      "beso": 1663,
      "excé": 1664,
      "maladie": 1665,
      "absence": 1666,
      "fig": 1667,
      "mariti": 1668,
      "valid": 1669,
      "tention": 1670,
      "tice": 1671,
      "porte": 1672,
      "50": 1673,
      "tenus": 1674,
      "locaux": 1675,
      "examen": 1676,
      "dix": 1677,
      "intéressé": 1678,
      "certa": 1679,
      "conti": 1680,
      "ateurs": 1681,
      "liqui": 1682,
      "stitu": 1683,
      "auc": 1684,
      "relatif": 1685,
      "communale": 1686,
      "installations": 1687,
      "pièces": 1688,
      "instruction": 1689,
      "suivants": 1690,
      "Ar": 1691,
      "précédent": 1692,
      "orig": 1693,
      "uelle": 1694,
      "rou": 1695,
      "territoriale": 1696,
      "cipl": 1697,
      "moyens": 1698,
      "discipl": 1699,
      "compétences": 1700,
      "ition": 1701,
      "commissaire": 1702,
      "tenue": 1703,
      "bis": 1704,
      "ht": 1705,
      "isme": 1706,
      "technique": 1707,
      "ches": 1708,
      "eures": 1709,
      "collè": 1710,
      "condition": 1711,
      "ru": 1712,
      "correspondant": 1713,
      "capital": 1714,
      "devant": 1715,
      "ût": 1716,
      "net": 1717,
      "capac": 1718,
      "bénéfi": 1719,
      "syndic": 1720,
      "titulaires": 1721,
      "autorités": 1722,
      "objec": 1723,
      "obligation": 1724,
      "2019": 1725,
      "veloppe": 1726,
      "réso": 1727,
      "demandeur": 1728,
      "financement": 1729,
      "exper": 1730,
      "Ils": 1731,
      "ède": 1732,
      "propriétaire": 1733,
      "réd": 1734,
      "euros": 1735,
      "trat": 1736,
      "taxe": 1737,
      "quatre": 1738,
      "copie": 1739,
      "publiques": 1740,
      "dy": 1741,
      "Mar": 1742,
      "égal": 1743,
      "Ch": 1744,
      "31": 1745,
      "professionnels": 1746,
      "traitement": 1747,
      "industrie": 1748,
      "soli": 1749,
      "reç": 1750,
      "inscription": 1751,
      "charges": 1752,
      "font": 1753,
      "muni": 1754,
      "2013": 1755,
      "tableau": 1756,
      "right": 1757,
      "In": 1758,
      "sommes": 1759,
      "conserv": 1760,
      "off": 1761,
      "bo": 1762,
      "mutu": 1763,
      "véri": 1764,
      "pharma": 1765,
      "25": 1766,
      "expir": 1767,
      "quin": 1768,
      "alinéas": 1769,
      "désignés": 1770,
      "rémunération": 1771,
      "installation": 1772,
      "bon": 1773,
      "procu": 1774,
      "éris": 1775,
      "considé": 1776,
      "résolution": 1777,
      "éducation": 1778,
      "ga": 1779,
      "çant": 1780,
      "fixée": 1781,
      "expiration": 1782,
      "cause": 1783,
      "inaire": 1784,
      "délibér": 1785,
      "êche": 1786,
      "ouvoir": 1787,
      "ous": 1788,
      "étranger": 1789,
      "heures": 1790,
      "ources": 1791,
      "cées": 1792,
      "tivement": 1793,
      "juridiction": 1794,
      "mobili": 1795,
      "rest": 1796,
      "dérogation": 1797,
      "habil": 1798,
      "communiqu": 1799,
      "groupement": 1800,
      "domaine": 1801,
      "inté": 1802,
      "concernant": 1803,
      "intéress": 1804,
      "18": 1805,
      "Agence": 1806,
      "justice": 1807,
      "nomin": 1808,
      "remplacés": 1809,
      "procureur": 1810,
      "concerne": 1811,
      "tements": 1812,
      "voir": 1813,
      "bal": 1814,
      "conjoint": 1815,
      "direction": 1816,
      "illes": 1817,
      "possi": 1818,
      "impôt": 1819,
      "aménagement": 1820,
      "modification": 1821,
      "orie": 1822,
      "ues": 1823,
      "agent": 1824,
      "mici": 1825,
      "domici": 1826,
      "ministère": 1827,
      "compétence": 1828,
      "personnels": 1829,
      "spécifi": 1830,
      "poser": 1831,
      "proposition": 1832,
      "médecin": 1833,
      "erre": 1834,
      "gements": 1835,
      "bénéficiaire": 1836,
      "ints": 1837,
      "CE": 1838,
      "motiv": 1839,
      "peine": 1840,
      "bâ": 1841,
      "propriété": 1842,
      "2014": 1843,
      "déci": 1844,
      "développe": 1845,
      "procéder": 1846,
      "pouvoir": 1847,
      "adress": 1848,
      "intercommunale": 1849,
      "électri": 1850,
      "redev": 1851,
      "garantie": 1852,
      "Sont": 1853,
      "23": 1854,
      "exploitant": 1855,
      "recomman": 1856,
      "eaux": 1857,
      "preu": 1858,
      "suff": 1859,
      "indiqu": 1860,
      "évent": 1861,
      "financiers": 1862,
      "refus": 1863,
      "définis": 1864,
      "sent": 1865,
      "prê": 1866,
      "hy": 1867,
      "toire": 1868,
      "spor": 1869,
      "versement": 1870,
      "pit": 1871,
      "développement": 1872,
      "préci": 1873,
      "égale": 1874,
      "gi": 1875,
      "issu": 1876,
      "ouverture": 1877,
      "communication": 1878,
      "prendre": 1879,
      "caisse": 1880,
      "radi": 1881,
      "fs": 1882,
      "occu": 1883,
      "responsable": 1884,
      "tbo": 1885,
      "tbody": 1886,
      "matérie": 1887,
      "fisc": 1888,
      "24": 1889,
      "due": 1890,
      "dre": 1891,
      "infor": 1892,
      "nements": 1893,
      "financier": 1894,
      "circons": 1895,
      "condam": 1896,
      "comb": 1897,
      "fais": 1898,
      "investissement": 1899,
      "préjudi": 1900,
      "fam": 1901,
      "rembour": 1902,
      "assi": 1903,
      "abri": 1904,
      "none": 1905,
      "clear": 1906,
      "comptable": 1907,
      "plô": 1908,
      "caractéris": 1909,
      "catégorie": 1910,
      "suivi": 1911,
      "hé": 1912,
      "dépôt": 1913,
      "cotisations": 1914,
      "délais": 1915,
      "cti": 1916,
      "mili": 1917,
      "salarié": 1918,
      "zone": 1919,
      "gueur": 1920,
      "Commission": 1921,
      "ouvre": 1922,
      "posé": 1923,
      "professionnelles": 1924,
      "indemnité": 1925,
      "lettre": 1926,
      "prévention": 1927,
      "affaires": 1928,
      "participation": 1929,
      "transfer": 1930,
      "orient": 1931,
      "nel": 1932,
      "responsabilité": 1933,
      "ogr": 1934,
      "interven": 1935,
      "réseau": 1936,
      "compétent": 1937,
      "civil": 1938,
      "tenues": 1939,
      "2016": 1940,
      "telle": 1941,
      "sep": 1942,
      "ressources": 1943,
      "association": 1944,
      "nor": 1945,
      "mul": 1946,
      "observations": 1947,
      "morale": 1948,
      "dès": 1949,
      "système": 1950,
      "tem": 1951,
      "ud": 1952,
      "transports": 1953,
      "préjudice": 1954,
      "ple": 1955,
      "acqu": 1956,
      "départements": 1957,
      "diplô": 1958,
      "distribution": 1959,
      "puni": 1960,
      "moment": 1961,
      "tempor": 1962,
      "Dé": 1963,
      "origine": 1964,
      "lequel": 1965,
      "collège": 1966,
      "soi": 1967,
      "appréci": 1968,
      "priv": 1969,
      "risque": 1970,
      "procès": 1971,
      "validité": 1972,
      "2021": 1973,
      "hér": 1974,
      "convo": 1975,
      "réparti": 1976,
      "affi": 1977,
      "culation": 1978,
      "pér": 1979,
      "juin": 1980,
      "médicale": 1981,
      "engage": 1982,
      "centr": 1983,
      "tard": 1984,
      "enregistre": 1985,
      "bail": 1986,
      "supérieure": 1987,
      "26": 1988,
      "bien": 1989,
      "suite": 1990,
      "ut": 1991,
      "ade": 1992,
      "faisant": 1993,
      "figur": 1994,
      "agn": 1995,
      "chacun": 1996,
      "perman": 1997,
      "cité": 1998,
      "débit": 1999,
      "bâti": 2000,
      "donne": 2001,
      "adé": 2002,
      "économie": 2003,
      "comporte": 2004,
      "Gu": 2005,
      "conform": 2006,
      "gestionnaire": 2007,
      "mai": 2008,
      "logements": 2009,
      "inférieur": 2010,
      "alé": 2011,
      "transmet": 2012,
      "demandes": 2013,
      "total": 2014,
      "atta": 2015,
      "ories": 2016,
      "jou": 2017,
      "fabri": 2018,
      "famili": 2019,
      "résid": 2020,
      "domicile": 2021,
      "acci": 2022,
      "solid": 2023,
      "concernés": 2024,
      "bénéfice": 2025,
      "parts": 2026,
      "occa": 2027,
      "occasion": 2028,
      "ES": 2029,
      "dispositif": 2030,
      "pes": 2031,
      "tient": 2032,
      "répu": 2033,
      "quinze": 2034,
      "maire": 2035,
      "habitation": 2036,
      "catégories": 2037,
      "dispose": 2038,
      "vote": 2039,
      "office": 2040,
      "rédaction": 2041,
      "terme": 2042,
      "assuré": 2043,
      "exerce": 2044,
      "procédures": 2045,
      "dents": 2046,
      "détermine": 2047,
      "victi": 2048,
      "Parlement": 2049,
      "demander": 2050,
      "xes": 2051,
      "han": 2052,
      "capacité": 2053,
      "vigueur": 2054,
      "atives": 2055,
      "criptions": 2056,
      "assure": 2057,
      "marchés": 2058,
      "entra": 2059,
      "rappor": 2060,
      "qualifi": 2061,
      "entraî": 2062,
      "organisations": 2063,
      "équipements": 2064,
      "délivrance": 2065,
      "fins": 2066,
      "rece": 2067,
      "ty": 2068,
      "appliquent": 2069,
      "cement": 2070,
      "objectifs": 2071,
      "aly": 2072,
      "annexe": 2073,
      "29": 2074,
      "sociales": 2075,
      "oy": 2076,
      "création": 2077,
      "nécessaire": 2078,
      "enquête": 2079,
      "usion": 2080,
      "fonci": 2081,
      "préalable": 2082,
      "maritime": 2083,
      "annuel": 2084,
      "site": 2085,
      "retraite": 2086,
      "28": 2087,
      "hos": 2088,
      "deme": 2089,
      "infraction": 2090,
      "résultats": 2091,
      "associations": 2092,
      "références": 2093,
      "renouve": 2094,
      "candidats": 2095,
      "requis": 2096,
      "prob": 2097,
      "transmission": 2098,
      "instru": 2099,
      "manda": 2100,
      "oly": 2101,
      "excéder": 2102,
      "supprim": 2103,
      "financière": 2104,
      "unique": 2105,
      "pou": 2106,
      "équival": 2107,
      "manière": 2108,
      "second": 2109,
      "contrac": 2110,
      "transfert": 2111,
      "intérêts": 2112,
      "entiel": 2113,
      "intégr": 2114,
      "séjour": 2115,
      "centre": 2116,
      "peines": 2117,
      "légis": 2118,
      "gne": 2119,
      "2017": 2120,
      "dicap": 2121,
      "handicap": 2122,
      "consommation": 2123,
      "attribution": 2124,
      "lablement": 2125,
      "satis": 2126,
      "attestation": 2127,
      "conseiller": 2128,
      "hospit": 2129,
      "caractéristiques": 2130,
      "municip": 2131,
      "carte": 2132,
      "associés": 2133,
      "agricoles": 2134,
      "aliment": 2135,
      "dues": 2136,
      "cr": 2137,
      "vient": 2138,
      "douan": 2139,
      "présenter": 2140,
      "déta": 2141,
      "personn": 2142,
      "afin": 2143,
      "années": 2144,
      "numéro": 2145,
      "programme": 2146,
      "ving": 2147,
      "pêche": 2148,
      "pass": 2149,
      "fac": 2150,
      "acquisition": 2151,
      "27": 2152,
      "prud": 2153,
      "faite": 2154,
      "bor": 2155,
      "tage": 2156,
      "physiques": 2157,
      "physique": 2158,
      "perç": 2159,
      "immeubles": 2160,
      "lus": 2161,
      "Nouvelle": 2162,
      "occup": 2163,
      "Est": 2164,
      "ettes": 2165,
      "ess": 2166,
      "sû": 2167,
      "Poly": 2168,
      "adop": 2169,
      "paration": 2170,
      "porter": 2171,
      "véhicule": 2172,
      "nésie": 2173,
      "Calé": 2174,
      "donie": 2175,
      "Calédonie": 2176,
      "Polynésie": 2177,
      "médec": 2178,
      "ibles": 2179,
      "21": 2180,
      "Tout": 2181,
      "gaz": 2182,
      "dom": 2183,
      "lois": 2184,
      "issue": 2185,
      "susceptibles": 2186,
      "consé": 2187,
      "vres": 2188,
      "enfant": 2189,
      "arm": 2190,
      "remise": 2191,
      "entend": 2192,
      "partir": 2193,
      "métro": 2194,
      "consultation": 2195,
      "nouvelle": 2196,
      "suffis": 2197,
      "métropo": 2198,
      "Paris": 2199,
      "médical": 2200,
      "otte": 2201,
      "May": 2202,
      "temporaire": 2203,
      "duquel": 2204,
      "jugement": 2205,
      "dération": 2206,
      "remboursement": 2207,
      "posée": 2208,
      "pace": 2209,
      "comptab": 2210,
      "tations": 2211,
      "véhicules": 2212,
      "vingt": 2213,
      "esp": 2214,
      "relatifs": 2215,
      "fixés": 2216,
      "local": 2217,
      "lés": 2218,
      "ciné": 2219,
      "auteur": 2220,
      "nég": 2221,
      "cou": 2222,
      "Mayotte": 2223,
      "appor": 2224,
      "immédi": 2225,
      "aven": 2226,
      "identification": 2227,
      "ach": 2228,
      "infractions": 2229,
      "ressort": 2230,
      "exerçant": 2231,
      "huit": 2232,
      "mais": 2233,
      "volu": 2234,
      "199": 2235,
      "constat": 2236,
      "statuts": 2237,
      "études": 2238,
      "marchan": 2239,
      "faits": 2240,
      "renouvelle": 2241,
      "ètre": 2242,
      "suspension": 2243,
      "conventions": 2244,
      "dépend": 2245,
      "enregistrement": 2246,
      "immobili": 2247,
      "engagement": 2248,
      "and": 2249,
      "définie": 2250,
      "dits": 2251,
      "recouvre": 2252,
      "concerné": 2253,
      "éco": 2254,
      "2020": 2255,
      "avor": 2256,
      "territorial": 2257,
      "oci": 2258,
      "provision": 2259,
      "cessi": 2260,
      "dement": 2261,
      "dessus": 2262,
      "dur": 2263,
      "mars": 2264,
      "ons": 2265,
      "tale": 2266,
      "magis": 2267,
      "ats": 2268,
      "recueil": 2269,
      "applique": 2270,
      "Elles": 2271,
      "aides": 2272,
      "tures": 2273,
      "aient": 2274,
      "militaire": 2275,
      "import": 2276,
      "finances": 2277,
      "fourni": 2278,
      "ataire": 2279,
      "disp": 2280,
      "médicament": 2281,
      "conseils": 2282,
      "dation": 2283,
      "rier": 2284,
      "recon": 2285,
      "tances": 2286,
      "vertu": 2287,
      "recettes": 2288,
      "urban": 2289,
      "délivré": 2290,
      "atoires": 2291,
      "permis": 2292,
      "struc": 2293,
      "conformité": 2294,
      "cteur": 2295,
      "ber": 2296,
      "publication": 2297,
      "vérifi": 2298,
      "rend": 2299,
      "curr": 2300,
      "correspond": 2301,
      "70": 2302,
      "identité": 2303,
      "bénéficier": 2304,
      "annuelle": 2305,
      "fournis": 2306,
      "ON": 2307,
      "parmi": 2308,
      "verbal": 2309,
      "matique": 2310,
      "acadé": 2311,
      "mid": 2312,
      "allocation": 2313,
      "renouvellement": 2314,
      "lieux": 2315,
      "magistrat": 2316,
      "els": 2317,
      "60": 2318,
      "concession": 2319,
      "interdiction": 2320,
      "délibération": 2321,
      "intermédi": 2322,
      "procédé": 2323,
      "liation": 2324,
      "propre": 2325,
      "lité": 2326,
      "dle": 2327,
      "glo": 2328,
      "enfants": 2329,
      "orti": 2330,
      "regar": 2331,
      "cientifi": 2332,
      "scientifi": 2333,
      "middle": 2334,
      "groupements": 2335,
      "inférieure": 2336,
      "Aux": 2337,
      "lesquels": 2338,
      "voix": 2339,
      "chets": 2340,
      "prélève": 2341,
      "classe": 2342,
      "100": 2343,
      "trième": 2344,
      "marchandis": 2345,
      "particulier": 2346,
      "demeure": 2347,
      "itée": 2348,
      "positions": 2349,
      "quatrième": 2350,
      "concurr": 2351,
      "partici": 2352,
      "dées": 2353,
      "garde": 2354,
      "posant": 2355,
      "accep": 2356,
      "portion": 2357,
      "besoins": 2358,
      "çon": 2359,
      "imes": 2360,
      "identifi": 2361,
      "ps": 2362,
      "liber": 2363,
      "sanction": 2364,
      "réguli": 2365,
      "affér": 2366,
      "75": 2367,
      "nouveau": 2368,
      "engag": 2369,
      "analy": 2370,
      "volon": 2371,
      "subst": 2372,
      "nomination": 2373,
      "lir": 2374,
      "réunion": 2375,
      "TI": 2376,
      "pati": 2377,
      "élus": 2378,
      "cols": 2379,
      "sûre": 2380,
      "supplément": 2381,
      "colspan": 2382,
      "périm": 2383,
      "garanties": 2384,
      "complémentaire": 2385,
      "rur": 2386,
      "règle": 2387,
      "figurant": 2388,
      "immédia": 2389,
      "déterminée": 2390,
      "prestation": 2391,
      "détention": 2392,
      "recouvrement": 2393,
      "arité": 2394,
      "morales": 2395,
      "greff": 2396,
      "chacune": 2397,
      "tour": 2398,
      "sûreté": 2399,
      "décès": 2400,
      "més": 2401,
      "vement": 2402,
      "obligatoire": 2403,
      "administratif": 2404,
      "urbanisme": 2405,
      "oût": 2406,
      "long": 2407,
      "cés": 2408,
      "plein": 2409,
      "agr": 2410,
      "bénéficiaires": 2411,
      "iter": 2412,
      "négoci": 2413,
      "tob": 2414,
      "déchets": 2415,
      "vembre": 2416,
      "débiteur": 2417,
      "délégué": 2418,
      "envis": 2419,
      "artis": 2420,
      "novembre": 2421,
      "cli": 2422,
      "itenti": 2423,
      "pénitenti": 2424,
      "2018": 2425,
      "concernée": 2426,
      "août": 2427,
      "octob": 2428,
      "2023": 2429,
      "octobre": 2430,
      "diplôme": 2431,
      "proportion": 2432,
      "je": 2433,
      "projets": 2434,
      "Sous": 2435,
      "posées": 2436,
      "Artic": 2437,
      "preuve": 2438,
      "spécialis": 2439,
      "militaires": 2440,
      "sco": 2441,
      "libre": 2442,
      "2022": 2443,
      "établie": 2444,
      "sanitaire": 2445,
      "ies": 2446,
      "presta": 2447,
      "matri": 2448,
      "sociaux": 2449,
      "adressée": 2450,
      "forfait": 2451,
      "transmis": 2452,
      "réduction": 2453,
      "40": 2454,
      "intervention": 2455,
      "aur": 2456,
      "recommandée": 2457,
      "secré": 2458,
      "rési": 2459,
      "mandataire": 2460,
      "pénal": 2461,
      "fournit": 2462,
      "concurrence": 2463,
      "rev": 2464,
      "saisie": 2465,
      "ologie": 2466,
      "départementale": 2467,
      "compren": 2468,
      "financières": 2469,
      "pays": 2470,
      "susceptible": 2471,
      "uses": 2472,
      "résidence": 2473,
      "lissement": 2474,
      "cel": 2475,
      "bure": 2476,
      "antes": 2477,
      "rédi": 2478,
      "exon": 2479,
      "exclusi": 2480,
      "engagements": 2481,
      "égard": 2482,
      "regard": 2483,
      "border": 2484,
      "unité": 2485,
      "aisse": 2486,
      "constru": 2487,
      "maines": 2488,
      "somme": 2489,
      "dispositifs": 2490,
      "zones": 2491,
      "urgence": 2492,
      "appr": 2493,
      "actifs": 2494,
      "conna": 2495,
      "revenus": 2496,
      "délégation": 2497,
      "aucune": 2498,
      "critères": 2499,
      "corps": 2500,
      "présentation": 2501,
      "domm": 2502,
      "use": 2503,
      "Cha": 2504,
      "dépas": 2505,
      "justifica": 2506,
      "dique": 2507,
      "entrée": 2508,
      "cy": 2509,
      "instance": 2510,
      "sché": 2511,
      "répartition": 2512,
      "chargée": 2513,
      "aute": 2514,
      "tants": 2515,
      "opérateur": 2516,
      "immatri": 2517,
      "soumises": 2518,
      "liés": 2519,
      "formations": 2520,
      "enne": 2521,
      "alors": 2522,
      "posés": 2523,
      "aphi": 2524,
      "désignation": 2525,
      "suc": 2526,
      "enseignements": 2527,
      "emb": 2528,
      "auto": 2529,
      "greffe": 2530,
      ").": 2531,
      "élabor": 2532,
      "manque": 2533,
      "dq": 2534,
      "télé": 2535,
      "dqtable": 2536,
      "placement": 2537,
      "but": 2538,
      "tel": 2539,
      "favor": 2540,
      "2015": 2541,
      "donner": 2542,
      "électricité": 2543,
      "propres": 2544,
      "appartenant": 2545,
      "particulières": 2546,
      "chois": 2547,
      "offre": 2548,
      "clé": 2549,
      "auton": 2550,
      "comportant": 2551,
      "agit": 2552,
      "Soit": 2553,
      "dû": 2554,
      "ock": 2555,
      "intéressés": 2556,
      "va": 2557,
      "suit": 2558,
      "empris": 2559,
      "probation": 2560,
      "univers": 2561,
      "sig": 2562,
      "composition": 2563,
      "emprisonnement": 2564,
      "entretien": 2565,
      "délibérations": 2566,
      "vice": 2567,
      "exclusion": 2568,
      "secteur": 2569,
      "Cour": 2570,
      "ulation": 2571,
      "ertion": 2572,
      "âge": 2573,
      "atri": 2574,
      "198": 2575,
      "déterminé": 2576,
      "présence": 2577,
      "conservation": 2578,
      "signature": 2579,
      "oix": 2580,
      "revenu": 2581,
      "pénale": 2582,
      "armées": 2583,
      "publicité": 2584,
      "face": 2585,
      "conforme": 2586,
      "prescriptions": 2587,
      "stock": 2588,
      "patri": 2589,
      "ètres": 2590,
      "aine": 2591,
      "fir": 2592,
      "agraph": 2593,
      "motivée": 2594,
      "résultat": 2595,
      "animaux": 2596,
      "expéri": 2597,
      "contribution": 2598,
      "térieur": 2599,
      "ane": 2600,
      "délivrée": 2601,
      "insertion": 2602,
      "compens": 2603,
      "travailleurs": 2604,
      "paragraph": 2605,
      "78": 2606,
      "manif": 2607,
      "concours": 2608,
      "fonctionnaires": 2609,
      "liquidation": 2610,
      "dispon": 2611,
      "ciens": 2612,
      "limites": 2613,
      "sanctions": 2614,
      "terr": 2615,
      "permettre": 2616,
      "type": 2617,
      "Wal": 2618,
      "douanes": 2619,
      "Cor": 2620,
      "una": 2621,
      "Fut": 2622,
      "Wallis": 2623,
      "Futuna": 2624,
      "destinés": 2625,
      "marchandises": 2626,
      "patrimo": 2627,
      "prudentiel": 2628,
      "infir": 2629,
      "immeuble": 2630,
      "prun": 2631,
      "voy": 2632,
      "périmètre": 2633,
      "créanci": 2634,
      "provis": 2635,
      "prononcée": 2636,
      "procède": 2637,
      "lou": 2638,
      "dédu": 2639,
      "agers": 2640,
      "térieure": 2641,
      "dispens": 2642,
      "hon": 2643,
      "prescrit": 2644,
      "titude": 2645,
      "habilité": 2646,
      "VI": 2647,
      "Es": 2648,
      "héber": 2649,
      "posent": 2650,
      "concernées": 2651,
      "emprun": 2652,
      "gés": 2653,
      "minimum": 2654,
      "totale": 2655,
      "èle": 2656,
      "dernière": 2657,
      "Pi": 2658,
      "distin": 2659,
      "congé": 2660,
      "forê": 2661,
      "vée": 2662,
      "déterminées": 2663,
      "réglementaire": 2664,
      "façon": 2665,
      "soumise": 2666,
      "aucun": 2667,
      "uellement": 2668,
      "aphiques": 2669,
      "ise": 2670,
      "ible": 2671,
      "politique": 2672,
      "ordin": 2673,
      "subordon": 2674,
      "Etats": 2675,
      "mique": 2676,
      "formu": 2677,
      "ajou": 2678,
      "compati": 2679,
      "habilités": 2680,
      "réglementation": 2681,
      "majorité": 2682,
      "assurances": 2683,
      "érés": 2684,
      "étér": 2685,
      "conclusion": 2686,
      "disciplinaire": 2687,
      "visés": 2688,
      "unités": 2689,
      "opposition": 2690,
      "connaître": 2691,
      "èmes": 2692,
      "pouvant": 2693,
      "affectés": 2694,
      "aphique": 2695,
      "attributions": 2696,
      "points": 2697,
      "tier": 2698,
      "indemnités": 2699,
      "popu": 2700,
      "ouvrage": 2701,
      "clô": 2702,
      "Caisse": 2703,
      "chambres": 2704,
      ")</": 2705,
      "œuvres": 2706,
      "ouvrages": 2707,
      "vétér": 2708,
      "indication": 2709,
      "communications": 2710,
      "famille": 2711,
      "orientation": 2712,
      "privé": 2713,
      "formes": 2714,
      "bois": 2715,
      "relève": 2716,
      "indic": 2717,
      "pénitentiaire": 2718,
      "oeu": 2719,
      "chiff": 2720,
      "exigences": 2721,
      "liv": 2722,
      "nuclé": 2723,
      "éch": 2724,
      "plant": 2725,
      "contraire": 2726,
      "coordon": 2727,
      "ril": 2728,
      "évalu": 2729,
      "améli": 2730,
      "choix": 2731,
      "avril": 2732,
      "inc": 2733,
      "tenti": 2734,
      "avoc": 2735,
      "rural": 2736,
      "pression": 2737,
      "atu": 2738,
      "immédiatement": 2739,
      "versées": 2740,
      "propriétaires": 2741,
      "équipement": 2742,
      "gratu": 2743,
      "contenu": 2744,
      "prévision": 2745,
      "statut": 2746,
      "aér": 2747,
      "affectation": 2748,
      "quanti": 2749,
      "intes": 2750,
      "bureau": 2751,
      "collectif": 2752,
      "besoin": 2753,
      "patrimoine": 2754,
      "exemp": 2755,
      "mobil": 2756,
      "accompagnement": 2757,
      "médicaments": 2758,
      "65": 2759,
      "préalablement": 2760,
      "he": 2761,
      "donné": 2762,
      "inscrits": 2763,
      "solidarité": 2764,
      "conser": 2765,
      "depuis": 2766,
      "hospitali": 2767,
      "xte": 2768,
      "liées": 2769,
      "maximum": 2770,
      "èrement": 2771,
      "2010": 2772,
      "employeurs": 2773,
      "indique": 2774,
      "étudi": 2775,
      "og": 2776,
      "fraction": 2777,
      "maximale": 2778,
      "Corse": 2779,
      "valeurs": 2780,
      "respectivement": 2781,
      "auquel": 2782,
      "caisses": 2783,
      "périodes": 2784,
      "dite": 2785,
      "secret": 2786,
      "Chaque": 2787,
      "régulation": 2788,
      "matogr": 2789,
      "matériels": 2790,
      "complémentaires": 2791,
      "saisi": 2792,
      "vu": 2793,
      "cinématogr": 2794,
      "schéma": 2795,
      "inci": 2796,
      "trou": 2797,
      "effectuée": 2798,
      "pluri": 2799,
      "scientifique": 2800,
      "quar": 2801,
      "seur": 2802,
      "changement": 2803,
      "utilisés": 2804,
      "autorisé": 2805,
      "provisoire": 2806,
      "numéri": 2807,
      "reti": 2808,
      "exprim": 2809,
      "certaines": 2810,
      "sollic": 2811,
      "dres": 2812,
      "champ": 2813,
      "atteinte": 2814,
      "réalisées": 2815,
      "simp": 2816,
      "sage": 2817,
      "effectué": 2818,
      "ellement": 2819,
      "associé": 2820,
      "Institu": 2821,
      "gré": 2822,
      "contrôles": 2823,
      "rendu": 2824,
      "trente": 2825,
      "réalisée": 2826,
      "point": 2827,
      "organe": 2828,
      "réglementaires": 2829,
      "profit": 2830,
      "soient": 2831,
      "bilan": 2832,
      "support": 2833,
      "itié": 2834,
      "invalidité": 2835,
      "moitié": 2836,
      "consulta": 2837,
      "39": 2838,
      "lies": 2839,
      "continu": 2840,
      "),": 2841,
      "consomma": 2842,
      "paragraphe": 2843,
      "2009": 2844,
      "métropole": 2845,
      "judiciaires": 2846,
      "divers": 2847,
      "signi": 2848,
      "clôture": 2849,
      "élection": 2850,
      "ortis": 2851,
      "hés": 2852,
      "pection": 2853,
      "délivre": 2854,
      "utin": 2855,
      "scr": 2856,
      "élector": 2857,
      "scrutin": 2858,
      "Guy": 2859,
      "76": 2860,
      "lletin": 2861,
      "nommés": 2862,
      "obtenir": 2863,
      "réseaux": 2864,
      "45": 2865,
      "vac": 2866,
      "volution": 2867,
      "déclarations": 2868,
      "autorisations": 2869,
      "contraven": 2870,
      "Espace": 2871,
      "contraventions": 2872,
      "Guyane": 2873,
      "méth": 2874,
      "exercent": 2875,
      "cinqui": 2876,
      "effets": 2877,
      "DE": 2878,
      "intermédiaire": 2879,
      "\",": 2880,
      "loyer": 2881,
      "possibilité": 2882,
      "nul": 2883,
      "seul": 2884,
      "colon": 2885,
      "bio": 2886,
      "cteurs": 2887,
      "agissant": 2888,
      "guerre": 2889,
      "Cet": 2890,
      "auxquelles": 2891,
      "fusion": 2892,
      "électroniques": 2893,
      "thè": 2894,
      "exc": 2895,
      "sera": 2896,
      "visées": 2897,
      "35": 2898,
      "élè": 2899,
      "chement": 2900,
      "porté": 2901,
      "cinquième": 2902,
      "commissions": 2903,
      "assimil": 2904,
      "Pierre": 2905,
      "désigne": 2906,
      "ouvernement": 2907,
      "quat": 2908,
      "journ": 2909,
      "principal": 2910,
      "quo": 2911,
      "effectuées": 2912,
      "circulation": 2913,
      "2012": 2914,
      "administrateur": 2915,
      "clus": 2916,
      "fem": 2917,
      "préven": 2918,
      "encour": 2919,
      "stage": 2920,
      "envisag": 2921,
      "accordée": 2922,
      "radio": 2923,
      "élèves": 2924,
      "row": 2925,
      "ratta": 2926,
      "span": 2927,
      "inspection": 2928,
      "rowspan": 2929,
      "vrier": 2930,
      "renseignements": 2931,
      "notifiée": 2932,
      "approbation": 2933,
      "TION": 2934,
      "mineur": 2935,
      "centres": 2936,
      "février": 2937,
      "coût": 2938,
      "substitu": 2939,
      "règlements": 2940,
      "seurs": 2941,
      "tac": 2942,
      "maintien": 2943,
      "nationaux": 2944,
      "nationales": 2945,
      "sis": 2946,
      "imposition": 2947,
      "Institut": 2948,
      "élig": 2949,
      "entr": 2950,
      "Rh": 2951,
      "accident": 2952,
      "spec": 2953,
      "nique": 2954,
      "haut": 2955,
      "établit": 2956,
      "rédigé": 2957,
      "communau": 2958,
      "my": 2959,
      "den": 2960,
      "nelles": 2961,
      "constitution": 2962,
      "circonstances": 2963,
      "jà": 2964,
      "déjà": 2965,
      "matières": 2966,
      "nommé": 2967,
      "greffi": 2968,
      "rois": 2969,
      "légal": 2970,
      "évolution": 2971,
      "impu": 2972,
      "gée": 2973,
      "arrêt": 2974,
      "forfaitaire": 2975,
      "échan": 2976,
      "foresti": 2977,
      "tembre": 2978,
      "septembre": 2979,
      "lèvent": 2980,
      "noms": 2981,
      "émission": 2982,
      "accompagnée": 2983,
      "éche": 2984,
      "secours": 2985,
      "38": 2986,
      "actif": 2987,
      "joint": 2988,
      "définitive": 2989,
      "contest": 2990,
      "arth": 2991,
      "proté": 2992,
      "créances": 2993,
      "psy": 2994,
      "définit": 2995,
      "acquit": 2996,
      "dépla": 2997,
      "ui": 2998,
      "rejet": 2999,
      "unes": 3000,
      "oration": 3001,
      "oeuvre": 3002,
      "requête": 3003,
      "iser": 3004,
      "bénéficient": 3005,
      "ouvert": 3006,
      "réaliser": 3007,
      "mie": 3008,
      "statue": 3009,
      "prélèvement": 3010,
      "ements": 3011,
      "ologique": 3012,
      "navire": 3013,
      "taxes": 3014,
      "opérateurs": 3015,
      "rains": 3016,
      "convocation": 3017,
      "colonne": 3018,
      "neu": 3019,
      "régul": 3020,
      "131": 3021,
      "législa": 3022,
      "audio": 3023,
      "500": 3024,
      "effectif": 3025,
      "pis": 3026,
      "suspen": 3027,
      "victime": 3028,
      "vari": 3029,
      "parten": 3030,
      "accessi": 3031,
      "fichi": 3032,
      "one": 3033,
      "économiques": 3034,
      "NA": 3035,
      "qualification": 3036,
      "Mique": 3037,
      "listes": 3038,
      "Miquelon": 3039,
      "\".": 3040,
      "hébergement": 3041,
      "terrains": 3042,
      "régimes": 3043,
      "îles": 3044,
      "effectuer": 3045,
      "feu": 3046,
      "admis": 3047,
      "Sans": 3048,
      "aptitude": 3049,
      "supprimés": 3050,
      "vés": 3051,
      "compétentes": 3052,
      "familles": 3053,
      "matéri": 3054,
      "cotisation": 3055,
      "douze": 3056,
      "réun": 3057,
      "audience": 3058,
      "municipal": 3059,
      "jeunes": 3060,
      "contributions": 3061,
      "Sur": 3062,
      "présidents": 3063,
      "certification": 3064,
      "ordination": 3065,
      "aus": 3066,
      "portée": 3067,
      "fédération": 3068,
      "consign": 3069,
      "crédits": 3070,
      "fili": 3071,
      "2004": 3072,
      "renouvelable": 3073,
      "49": 3074,
      "prior": 3075,
      "ibilité": 3076,
      "lant": 3077,
      "médicaux": 3078,
      "autonomie": 3079,
      "effectués": 3080,
      "quer": 3081,
      "antérieure": 3082,
      "vation": 3083,
      "dotation": 3084,
      "éventue": 3085,
      "adhér": 3086,
      "lié": 3087,
      "conséqu": 3088,
      "dition": 3089,
      "participer": 3090,
      "générales": 3091,
      "approuv": 3092,
      "prestataire": 3093,
      "implant": 3094,
      "sections": 3095,
      "informé": 3096,
      "minu": 3097,
      "indépend": 3098,
      "systèmes": 3099,
      "maître": 3100,
      "Ou": 3101,
      "relèvent": 3102,
      "mutualité": 3103,
      "inaires": 3104,
      "Marti": 3105,
      "maî": 3106,
      "diri": 3107,
      "fournir": 3108,
      "hésion": 3109,
      "estime": 3110,
      "mensu": 3111,
      "habilitation": 3112,
      "bate": 3113,
      "autorisés": 3114,
      "alisée": 3115,
      "objets": 3116,
      "46": 3117,
      "agréé": 3118,
      "structure": 3119,
      "motifs": 3120,
      "modifications": 3121,
      "immatriculation": 3122,
      "réalisés": 3123,
      "Martinique": 3124,
      "gment": 3125,
      "modèle": 3126,
      "précédant": 3127,
      "compensation": 3128,
      "directive": 3129,
      "notifie": 3130,
      "seuil": 3131,
      "As": 3132,
      "Martin": 3133,
      "coordination": 3134,
      "pol": 3135,
      "presse": 3136,
      "grou": 3137,
      "régionaux": 3138,
      "Office": 3139,
      "grav": 3140,
      "cole": 3141,
      "érations": 3142,
      "possible": 3143,
      "initiative": 3144,
      "ose": 3145,
      "spécifiques": 3146,
      "contractu": 3147,
      "alloc": 3148,
      "2006": 3149,
      "précisées": 3150,
      "lées": 3151,
      "are": 3152,
      "indemnisation": 3153,
      "seule": 3154,
      "familiales": 3155,
      "prévoit": 3156,
      "étude": 3157,
      "norm": 3158,
      "métho": 3159,
      "plafond": 3160,
      "audiovis": 3161,
      "tence": 3162,
      "emplois": 3163,
      "situés": 3164,
      "victimes": 3165,
      "amin": 3166,
      "récla": 3167,
      "tels": 3168,
      "versée": 3169,
      "geant": 3170,
      "anche": 3171,
      "présents": 3172,
      "79": 3173,
      "situé": 3174,
      "obtenu": 3175,
      "surface": 3176,
      "ier": 3177,
      "dehors": 3178,
      "dommages": 3179,
      "bulletin": 3180,
      "décider": 3181,
      "conduite": 3182,
      "libertés": 3183,
      "élaboration": 3184,
      "ément": 3185,
      "tise": 3186,
      "Déc": 3187,
      "aces": 3188,
      "porteur": 3189,
      "augment": 3190,
      "telles": 3191,
      "pouvoirs": 3192,
      "vaut": 3193,
      "établir": 3194,
      "assistance": 3195,
      "mentionne": 3196,
      "souscrit": 3197,
      "remplacées": 3198,
      "gend": 3199,
      "extérieur": 3200,
      "permanente": 3201,
      "arch": 3202,
      "veille": 3203,
      "Barth": 3204,
      "expertise": 3205,
      "représentation": 3206,
      "Sau": 3207,
      "ennent": 3208,
      "détent": 3209,
      "moyenne": 3210,
      "gendar": 3211,
      "ho": 3212,
      "élemy": 3213,
      "Barthélemy": 3214,
      "astruc": 3215,
      "juridique": 3216,
      "option": 3217,
      "représentatives": 3218,
      "coopér": 3219,
      "certains": 3220,
      "cies": 3221,
      "visée": 3222,
      "détermination": 3223,
      "derniers": 3224,
      "infrastruc": 3225,
      "énon": 3226,
      "appare": 3227,
      "analyse": 3228,
      "90": 3229,
      "précité": 3230,
      "AN": 3231,
      "appren": 3232,
      "réponse": 3233,
      "avocat": 3234,
      "recteur": 3235,
      "distinc": 3236,
      "respecter": 3237,
      "ologiques": 3238,
      "dépôts": 3239,
      "éventuellement": 3240,
      "officiel": 3241,
      "justifier": 3242,
      "Centre": 3243,
      "administratives": 3244,
      "apprentis": 3245,
      "80": 3246,
      "promo": 3247,
      "territoires": 3248,
      "investis": 3249,
      ":</": 3250,
      "examin": 3251,
      "confér": 3252,
      "redevance": 3253,
      "enseign": 3254,
      "destina": 3255,
      "institution": 3256,
      "aéri": 3257,
      "mier": 3258,
      "restitu": 3259,
      "spécifique": 3260,
      "achet": 3261,
      "salaire": 3262,
      "ortie": 3263,
      "chiffre": 3264,
      "compar": 3265,
      "existence": 3266,
      "alimentation": 3267,
      "postes": 3268,
      "médecins": 3269,
      "calcu": 3270,
      "médecine": 3271,
      "commerciale": 3272,
      "dictions": 3273,
      "éta": 3274,
      "tot": 3275,
      "coû": 3276,
      "bord": 3277,
      "considérée": 3278,
      "44": 3279,
      "merie": 3280,
      "revet": 3281,
      "là": 3282,
      "plans": 3283,
      "recevoir": 3284,
      "conseillers": 3285,
      "arrêtés": 3286,
      "budgé": 3287,
      "ligne": 3288,
      "vérification": 3289,
      "lutte": 3290,
      "spécialité": 3291,
      "qués": 3292,
      "Article": 3293,
      "cahi": 3294,
      "annex": 3295,
      "apeu": 3296,
      "accomplissement": 3297,
      "adaptation": 3298,
      "nucléaire": 3299,
      "accidents": 3300,
      "nels": 3301,
      "érant": 3302,
      "continue": 3303,
      "greffier": 3304,
      "Pro": 3305,
      "existe": 3306,
      "hypo": 3307,
      "gendarmerie": 3308,
      "parent": 3309,
      "dies": 3310,
      "portées": 3311,
      "vabilité": 3312,
      "multi": 3313,
      "thér": 3314,
      "officier": 3315,
      "libér": 3316,
      "inv": 3317,
      "préparation": 3318,
      "complè": 3319,
      "prononcer": 3320,
      "institutions": 3321,
      "tratég": 3322,
      "gées": 3323,
      "moné": 3324,
      "qué": 3325,
      "domaines": 3326,
      "lan": 3327,
      "tension": 3328,
      "médico": 3329,
      "inspec": 3330,
      "%</": 3331,
      "réalisé": 3332,
      "armes": 3333,
      "Gouvernement": 3334,
      "cant": 3335,
      "indre": 3336,
      "internet": 3337,
      "livraison": 3338,
      "signifi": 3339,
      "stratég": 3340,
      "ancien": 3341,
      "voies": 3342,
      "séance": 3343,
      "volontaire": 3344,
      "ataires": 3345,
      "saisine": 3346,
      "grade": 3347,
      "circonscription": 3348,
      "incen": 3349,
      "hom": 3350,
      "assujet": 3351,
      "supplémentaire": 3352,
      "brevet": 3353,
      "intervenir": 3354,
      "dente": 3355,
      "manifest": 3356,
      "naturel": 3357,
      "préfec": 3358,
      "coûts": 3359,
      "Sauf": 3360,
      "registr": 3361,
      "population": 3362,
      "adaptations": 3363,
      "enregistr": 3364,
      "appropri": 3365,
      "responsables": 3366,
      "nateur": 3367,
      "auxquels": 3368,
      "spéciale": 3369,
      "pror": 3370,
      "audit": 3371,
      "prêts": 3372,
      "manquement": 3373,
      "recru": 3374,
      "individuel": 3375,
      "visé": 3376,
      "numérique": 3377,
      "remplacée": 3378,
      "cessation": 3379,
      "justifie": 3380,
      "régies": 3381,
      "réputé": 3382,
      "épar": 3383,
      "bénéficie": 3384,
      "pratiques": 3385,
      "bâtiment": 3386,
      "SI": 3387,
      "atif": 3388,
      "€</": 3389,
      "inclu": 3390,
      "exercées": 3391,
      "prononce": 3392,
      "preuves": 3393,
      "maritimes": 3394,
      "Haut": 3395,
      "exploitants": 3396,
      "atifs": 3397,
      "intervient": 3398,
      "expérience": 3399,
      "totalité": 3400,
      "académique": 3401,
      "prépar": 3402,
      "agnos": 3403,
      "régis": 3404,
      "tiennent": 3405,
      "éduca": 3406,
      "différents": 3407,
      "discipline": 3408,
      "condamnation": 3409,
      "ection": 3410,
      "lage": 3411,
      "indirec": 3412,
      "prescription": 3413,
      "vieilles": 3414,
      "mètres": 3415,
      "diagnos": 3416,
      "2005": 3417,
      "bar": 3418,
      "substances": 3419,
      "classement": 3420,
      "terrain": 3421,
      "vieillesse": 3422,
      "unions": 3423,
      "allocations": 3424,
      "utilité": 3425,
      "directeurs": 3426,
      "communique": 3427,
      "syndicales": 3428,
      "ène": 3429,
      "réquis": 3430,
      "diffusion": 3431,
      "relations": 3432,
      "navires": 3433,
      "station": 3434,
      "foncière": 3435,
      "48": 3436,
      "pratique": 3437,
      "initiale": 3438,
      "tarifs": 3439,
      "reprise": 3440,
      "contra": 3441,
      "venant": 3442,
      "2008": 3443,
      "épargne": 3444,
      "montants": 3445,
      "monétaire": 3446,
      "ceuti": 3447,
      "version": 3448,
      "fabrication": 3449,
      "baux": 3450,
      "rent": 3451,
      "sti": 3452,
      "èce": 3453,
      "partage": 3454,
      "venir": 3455,
      "faci": 3456,
      "avi": 3457,
      "loupe": 3458,
      "dérou": 3459,
      "adeloupe": 3460,
      "Guadeloupe": 3461,
      "destinées": 3462,
      "début": 3463,
      "assurés": 3464,
      "foncier": 3465,
      "prévoy": 3466,
      "èdent": 3467,
      "apparti": 3468,
      "ît": 3469,
      "officiers": 3470,
      "comptables": 3471,
      "facul": 3472,
      "dang": 3473,
      "crimin": 3474,
      "combat": 3475,
      "lang": 3476,
      "sances": 3477,
      "étant": 3478,
      "révision": 3479,
      "molog": 3480,
      "précisant": 3481,
      "parents": 3482,
      "programmes": 3483,
      "reçu": 3484,
      "présentant": 3485,
      "partiel": 3486,
      "géogr": 3487,
      "dénomination": 3488,
      "justifiant": 3489,
      "ouvri": 3490,
      "orientations": 3491,
      "minimale": 3492,
      "orer": 3493,
      "ôle": 3494,
      "perte": 3495,
      "Ress": 3496,
      "constitué": 3497,
      "actu": 3498,
      "nolog": 3499,
      "précédente": 3500,
      "conducteur": 3501,
      "majoration": 3502,
      "utiles": 3503,
      "décla": 3504,
      "remis": 3505,
      "preneur": 3506,
      "experts": 3507,
      "58": 3508,
      "remplis": 3509,
      "reconnaissance": 3510,
      "quater": 3511,
      "Deux": 3512,
      "vante": 3513,
      "chir": 3514,
      "naissance": 3515,
      "ilo": 3516,
      "grand": 3517,
      "régionales": 3518,
      "EN": 3519,
      "questions": 3520,
      "matériel": 3521,
      "2000": 3522,
      "créance": 3523,
      "cinématographiques": 3524,
      "émet": 3525,
      "reux": 3526,
      "producteurs": 3527,
      "artisan": 3528,
      "agréés": 3529,
      "investi": 3530,
      "conduire": 3531,
      "souh": 3532,
      "vocation": 3533,
      "localement": 3534,
      "cahier": 3535,
      "usagers": 3536,
      "grave": 3537,
      "consécu": 3538,
      "réqu": 3539,
      "élu": 3540,
      "avantages": 3541,
      "françaises": 3542,
      "privés": 3543,
      "instruments": 3544,
      "suppléants": 3545,
      "visite": 3546,
      "comprenant": 3547,
      "annu": 3548,
      "technolog": 3549,
      "exonération": 3550,
      "stockage": 3551,
      "excède": 3552,
      "neur": 3553,
      "ouverts": 3554,
      "cie": 3555,
      "centrale": 3556,
      "autorisée": 3557,
      "détail": 3558,
      "résident": 3559,
      "Ressort": 3560,
      "encontre": 3561,
      "destination": 3562,
      "rogé": 3563,
      "plate": 3564,
      "forêts": 3565,
      "xtes": 3566,
      "fondement": 3567,
      "législation": 3568,
      "passi": 3569,
      "placés": 3570,
      "mixte": 3571,
      "IS": 3572,
      "propositions": 3573,
      "chasse": 3574,
      "négociation": 3575,
      "requ": 3576,
      "effici": 3577,
      "professions": 3578,
      "espèces": 3579,
      "échéance": 3580,
      "34": 3581,
      "session": 3582,
      "ayants": 3583,
      "mentions": 3584,
      "incendie": 3585,
      "lables": 3586,
      "accords": 3587,
      "effectue": 3588,
      "exposition": 3589,
      "locales": 3590,
      "frau": 3591,
      "mater": 3592,
      "étrangers": 3593,
      "fourniture": 3594,
      "spécial": 3595,
      "achat": 3596,
      "super": 3597,
      "trim": 3598,
      "praticien": 3599,
      "tarif": 3600,
      "étudiants": 3601,
      "hor": 3602,
      "Réunion": 3603,
      "utile": 3604,
      "Art": 3605,
      "industrielle": 3606,
      "réparation": 3607,
      "civiles": 3608,
      "fonctionnaire": 3609,
      "administratifs": 3610,
      "Re": 3611,
      "delà": 3612,
      "fact": 3613,
      "An": 3614,
      "certificats": 3615,
      "dûment": 3616,
      "VII": 3617,
      "épreuves": 3618,
      "prévoir": 3619,
      "assurée": 3620,
      "immobil": 3621,
      "interdit": 3622,
      "Ne": 3623,
      "suppléant": 3624,
      "stipu": 3625,
      "chirur": 3626,
      "fficul": 3627,
      "court": 3628,
      "bailleur": 3629,
      "Qu": 3630,
      "33": 3631,
      "poursui": 3632,
      "affecté": 3633,
      "55": 3634,
      "importance": 3635,
      "habitat": 3636,
      "handicapées": 3637,
      "envoi": 3638,
      "apport": 3639,
      "patient": 3640,
      "difficul": 3641,
      "occupation": 3642,
      "mée": 3643,
      "alisé": 3644,
      "aéro": 3645,
      "jeux": 3646,
      "séances": 3647,
      "amélioration": 3648,
      "diagnostic": 3649,
      "insuffis": 3650,
      "présentée": 3651,
      "secrétaire": 3652,
      "compétents": 3653,
      "garantir": 3654,
      "quelque": 3655,
      "constaté": 3656,
      "jur": 3657,
      "connaissances": 3658,
      "souhait": 3659,
      "tan": 3660,
      "prêt": 3661,
      "régulièrement": 3662,
      "calculé": 3663,
      "Après": 3664,
      "auche": 3665,
      "motif": 3666,
      "retenue": 3667,
      "amens": 3668,
      "expert": 3669,
      "urb": 3670,
      "proxim": 3671,
      "individuelle": 3672,
      "maladies": 3673,
      "bâtiments": 3674,
      "exclusivement": 3675,
      "examens": 3676,
      "transmises": 3677,
      "principale": 3678,
      "conséquences": 3679,
      "tutelle": 3680,
      "nationalité": 3681,
      "délégués": 3682,
      "appui": 3683,
      "atteint": 3684,
      "prési": 3685,
      "émis": 3686,
      "modifié": 3687,
      "obsta": 3688,
      "contribuable": 3689,
      "déduction": 3690,
      "enquê": 3691,
      "fiscale": 3692,
      "nal": 3693,
      "mobilité": 3694,
      "appara": 3695,
      "immobilier": 3696,
      "Or": 3697,
      "deur": 3698,
      "assister": 3699,
      "scolaire": 3700,
      "chage": 3701,
      "principes": 3702,
      "assiette": 3703,
      "homolog": 3704,
      "Co": 3705,
      "Rhin": 3706,
      "régions": 3707,
      "crire": 3708,
      "enten": 3709,
      "2007": 3710,
      "figure": 3711,
      "échelon": 3712,
      "mode": 3713,
      "cépis": 3714,
      "différentes": 3715,
      "créancier": 3716,
      "47": 3717,
      "placé": 3718,
      "informatique": 3719,
      "incomb": 3720,
      "trouve": 3721,
      "pourcent": 3722,
      "év": 3723,
      "détenues": 3724,
      "habitants": 3725,
      "complet": 3726,
      "péd": 3727,
      "endre": 3728,
      "affaire": 3729,
      "valor": 3730,
      "interne": 3731,
      "versements": 3732,
      "poste": 3733,
      "restant": 3734,
      "géné": 3735,
      "proximité": 3736,
      "premiers": 3737,
      "fiscal": 3738,
      "Tr": 3739,
      "admission": 3740,
      "CA": 3741,
      "150": 3742,
      "céder": 3743,
      "personnalités": 3744,
      "récépis": 3745,
      "tribunaux": 3746,
      "particuliers": 3747,
      "Se": 3748,
      "définitif": 3749,
      "établies": 3750,
      "99": 3751,
      "constitue": 3752,
      "remplacement": 3753,
      "prononcé": 3754,
      "régular": 3755,
      "ami": 3756,
      "quant": 3757,
      "rapports": 3758,
      "toutefois": 3759,
      "équivalent": 3760,
      "vivant": 3761,
      "durable": 3762,
      "adhésion": 3763,
      "finan": 3764,
      "magistrats": 3765,
      "LE": 3766,
      "disposent": 3767,
      "visant": 3768,
      "signé": 3769,
      "évé": 3770,
      "locataire": 3771,
      "délivrer": 3772,
      "ouverte": 3773,
      "aérone": 3774,
      "comptabilité": 3775,
      "écrite": 3776,
      "producteur": 3777,
      "consente": 3778,
      "accompagn": 3779,
      "commissaires": 3780,
      "hô": 3781,
      "composé": 3782,
      "pédag": 3783,
      "aviation": 3784,
      "flu": 3785,
      "thé": 3786,
      "ressortis": 3787,
      "mineurs": 3788,
      "nullité": 3789,
      "existant": 3790,
      "gratuit": 3791,
      "ger": 3792,
      "imparti": 3793,
      "Décret": 3794,
      "bénéficiant": 3795,
      "érir": 3796,
      "anciens": 3797,
      "communiquer": 3798,
      "sportif": 3799,
      "art": 3800,
      "rase": 3801,
      "limitée": 3802,
      "ministérie": 3803,
      "indirectement": 3804,
      "administrateurs": 3805,
      "éti": 3806,
      "départementaux": 3807,
      "matiques": 3808,
      "antis": 3809,
      "iste": 3810,
      "incapacité": 3811,
      "acces": 3812,
      "généraux": 3813,
      "sièges": 3814,
      "description": 3815,
      "phrase": 3816,
      "Ab": 3817,
      "résiliation": 3818,
      "cycle": 3819,
      "exercée": 3820,
      "calculée": 3821,
      "espaces": 3822,
      "sites": 3823,
      "reconnu": 3824,
      "consultative": 3825,
      "consentement": 3826,
      "36": 3827,
      "itu": 3828,
      "adoption": 3829,
      "degré": 3830,
      "ton": 3831,
      "force": 3832,
      "cass": 3833,
      "ordonner": 3834,
      "dan": 3835,
      "sportive": 3836,
      "intement": 3837,
      "courir": 3838,
      "investissements": 3839,
      "itions": 3840,
      "indications": 3841,
      "récépissé": 3842,
      "suivante": 3843,
      "tariat": 3844,
      "ressortissant": 3845,
      "coeffici": 3846,
      "annuels": 3847,
      "exercé": 3848,
      "entraîne": 3849,
      "vétérinaire": 3850,
      "parc": 3851,
      "distance": 3852,
      "consommateur": 3853,
      "psych": 3854,
      "comprennent": 3855,
      "obligatoires": 3856,
      "lien": 3857,
      "normes": 3858,
      "estre": 3859,
      "suites": 3860,
      "éligibles": 3861,
      "considéré": 3862,
      "tér": 3863,
      "pédagog": 3864,
      "RE": 3865,
      "conjointement": 3866,
      "budgétaire": 3867,
      "lie": 3868,
      "transformation": 3869,
      "dépendant": 3870,
      "gestionnaires": 3871,
      "personnelle": 3872,
      "rémunérations": 3873,
      "durant": 3874,
      "quée": 3875,
      "indiquant": 3876,
      "dudit": 3877,
      "cohér": 3878,
      "élément": 3879,
      "sports": 3880,
      "rendus": 3881,
      "obstacle": 3882,
      "lits": 3883,
      "contenti": 3884,
      "condamné": 3885,
      "avance": 3886,
      "yon": 3887,
      "maximal": 3888,
      "invent": 3889,
      "collective": 3890,
      "ffic": 3891,
      "aérodro": 3892,
      "53": 3893,
      "mén": 3894,
      "participant": 3895,
      "pensions": 3896,
      "commercial": 3897,
      "nouvelles": 3898,
      "énergé": 3899,
      "navigation": 3900,
      "ajoutée": 3901,
      "séle": 3902,
      "faites": 3903,
      "significa": 3904,
      "fréqu": 3905,
      "serment": 3906,
      "annexes": 3907,
      "constate": 3908,
      "cassation": 3909,
      "sang": 3910,
      "remplacé": 3911,
      "Du": 3912,
      "Jour": 3913,
      "heure": 3914,
      "perform": 3915,
      "partielle": 3916,
      "iers": 3917,
      "client": 3918,
      "complète": 3919,
      "extrait": 3920,
      "attribuées": 3921,
      "lot": 3922,
      "bonne": 3923,
      "constatée": 3924,
      "déléguer": 3925,
      "promotion": 3926,
      "conformes": 3927,
      "désignée": 3928,
      "glob": 3929,
      "lier": 3930,
      "travailleur": 3931,
      "fic": 3932,
      "métiers": 3933,
      "radiation": 3934,
      "decies": 3935,
      "astre": 3936,
      "donnant": 3937,
      "portent": 3938,
      "pharmaceuti": 3939,
      "ager": 3940,
      "exercices": 3941,
      "fiscalité": 3942,
      "706": 3943,
      "viennent": 3944,
      "garantis": 3945,
      "effective": 3946,
      "syndicat": 3947,
      "appréciation": 3948,
      "rages": 3949,
      "sept": 3950,
      "sépar": 3951,
      "secrétariat": 3952,
      "indiquée": 3953,
      "95": 3954,
      "trodu": 3955,
      "espace": 3956,
      "législatives": 3957,
      "transporteur": 3958,
      "déplacement": 3959,
      "vol": 3960,
      "volume": 3961,
      "souscription": 3962,
      "vage": 3963,
      "extension": 3964,
      "répondant": 3965,
      "végé": 3966,
      "dirige": 3967,
      "inscrites": 3968,
      "simul": 3969,
      "saisir": 3970,
      "honor": 3971,
      "acheteur": 3972,
      "Journal": 3973,
      "liberté": 3974,
      "validation": 3975,
      "journali": 3976,
      "transfé": 3977,
      "renon": 3978,
      "surven": 3979,
      "sier": 3980,
      "empêche": 3981,
      "femmes": 3982,
      "était": 3983,
      "accordé": 3984,
      "obtention": 3985,
      "capacités": 3986,
      "pourcentage": 3987,
      "donneur": 3988,
      "diminu": 3989,
      "chargement": 3990,
      "route": 3991,
      "utiliser": 3992,
      "spécialement": 3993,
      "intérieure": 3994,
      "bru": 3995,
      "assureur": 3996,
      "acceptation": 3997,
      "informer": 3998,
      "quantité": 3999,
      "41": 4000,
      "thérapeu": 4001,
      "fave": 4002,
      "précédents": 4003,
      "constituée": 4004,
      "arme": 4005,
      "fiscales": 4006,
      "modé": 4007,
      "fabricant": 4008,
      "électeurs": 4009,
      "afférentes": 4010,
      "destinataire": 4011,
      "faveur": 4012,
      "77": 4013,
      "conne": 4014,
      "ros": 4015,
      "Peu": 4016,
      "sex": 4017,
      "réper": 4018,
      "postérieure": 4019,
      "résulte": 4020,
      "provisions": 4021,
      "feuille": 4022,
      "fournisseur": 4023,
      "expropri": 4024,
      "agréées": 4025,
      "enci": 4026,
      "traitements": 4027,
      "constituer": 4028,
      "air": 4029,
      "locale": 4030,
      "académie": 4031,
      "rage": 4032,
      "usé": 4033,
      "humaine": 4034,
      "détenteur": 4035,
      "subventions": 4036,
      "laboratoire": 4037,
      "bénéfices": 4038,
      "introdu": 4039,
      "itées": 4040,
      "vio": 4041,
      "fixant": 4042,
      "consenti": 4043,
      "2011": 4044,
      "mère": 4045,
      "formul": 4046,
      "assurent": 4047,
      "éreur": 4048,
      "itec": 4049,
      "propriétés": 4050,
      "acquéreur": 4051,
      "LA": 4052,
      "publié": 4053,
      "raisons": 4054,
      "llon": 4055,
      "épreuve": 4056,
      "rach": 4057,
      "environnementale": 4058,
      "Haute": 4059,
      "confid": 4060,
      "fichier": 4061,
      "dange": 4062,
      "gent": 4063,
      "donnent": 4064,
      "suivent": 4065,
      "répondre": 4066,
      "atrice": 4067,
      "architec": 4068,
      "rendre": 4069,
      "86": 4070,
      "dilig": 4071,
      "apprentissage": 4072,
      "allou": 4073,
      "animation": 4074,
      "représenter": 4075,
      "arron": 4076,
      "réserves": 4077,
      "autorisées": 4078,
      "Cant": 4079,
      "émissions": 4080,
      "proto": 4081,
      "offres": 4082,
      "sauve": 4083,
      "jon": 4084,
      "requises": 4085,
      "contentieux": 4086,
      "utilisé": 4087,
      "ource": 4088,
      "performance": 4089,
      "Ile": 4090,
      "réputée": 4091,
      "décide": 4092,
      "éré": 4093,
      "collecte": 4094,
      "entités": 4095,
      "produire": 4096,
      "déterminés": 4097,
      "donnée": 4098,
      "assurant": 4099,
      "déterminer": 4100,
      "hommes": 4101,
      "servitu": 4102,
      "recherches": 4103,
      "réunit": 4104,
      "bas": 4105,
      "maires": 4106,
      "transmise": 4107,
      "internationale": 4108,
      "prévoyance": 4109,
      "géographique": 4110,
      "rets": 4111,
      "expé": 4112,
      "solution": 4113,
      "indice": 4114,
      "créanciers": 4115,
      "préser": 4116,
      "constructions": 4117,
      "naturels": 4118,
      "exécutif": 4119,
      "achè": 4120,
      "jury": 4121,
      "32": 4122,
      "milieu": 4123,
      "langue": 4124,
      "clo": 4125,
      "antérieur": 4126,
      "prénoms": 4127,
      "régie": 4128,
      "recour": 4129,
      "notifié": 4130,
      "rup": 4131,
      "redevable": 4132,
      "sportives": 4133,
      "proposer": 4134,
      "incid": 4135,
      "démar": 4136,
      "mettent": 4137,
      "statis": 4138,
      "ly": 4139,
      "asi": 4140,
      "formalités": 4141,
      "autoriser": 4142,
      "neté": 4143,
      "réunions": 4144,
      "moteur": 4145,
      "mécan": 4146,
      "organes": 4147,
      "empêchement": 4148,
      "Articles": 4149,
      "pharmacien": 4150,
      "favorable": 4151,
      "pomp": 4152,
      "comporter": 4153,
      "puisse": 4154,
      "stationnement": 4155,
      "territorialement": 4156,
      "termes": 4157,
      "ariat": 4158,
      "situations": 4159,
      "image": 4160,
      "amment": 4161,
      "constatation": 4162,
      "subordonnée": 4163,
      "parcours": 4164,
      "alco": 4165,
      "liquida": 4166,
      "pharmaciens": 4167,
      "réassurance": 4168,
      "exécutoire": 4169,
      "international": 4170,
      "maîtr": 4171,
      "danger": 4172,
      "échange": 4173,
      "présenté": 4174,
      "adressé": 4175,
      "clin": 4176,
      "réci": 4177,
      "37": 4178,
      "Auc": 4179,
      "courant": 4180,
      "troubles": 4181,
      "bass": 4182,
      "levée": 4183,
      "motivé": 4184,
      "déposée": 4185,
      "mutuelle": 4186,
      "métropolit": 4187,
      "simple": 4188,
      "%.": 4189,
      "UR": 4190,
      "comités": 4191,
      "vétérinaires": 4192,
      "ron": 4193,
      "sin": 4194,
      "liée": 4195,
      "intention": 4196,
      "sauvegarde": 4197,
      "his": 4198,
      "nité": 4199,
      "Su": 4200,
      "rie": 4201,
      "personnalité": 4202,
      "thèse": 4203,
      "FI": 4204,
      "Abrogé": 4205,
      "dature": 4206,
      "isant": 4207,
      "attribuée": 4208,
      "affichage": 4209,
      "importation": 4210,
      "tur": 4211,
      "semb": 4212,
      "accréd": 4213,
      "posable": 4214,
      "faculté": 4215,
      "directoire": 4216,
      "ortent": 4217,
      "différence": 4218,
      "ath": 4219,
      "rière": 4220,
      "prime": 4221,
      "attribué": 4222,
      "conci": 4223,
      "composant": 4224,
      "question": 4225,
      "mari": 4226,
      "quit": 4227,
      "destiné": 4228,
      "intéressées": 4229,
      "école": 4230,
      "diplômes": 4231,
      "agements": 4232,
      "juridictions": 4233,
      "secteurs": 4234,
      "”.": 4235,
      "potenti": 4236,
      "effectivement": 4237,
      "cinéma": 4238,
      "sixième": 4239,
      "propose": 4240,
      "patients": 4241,
      "masse": 4242,
      "stagi": 4243,
      "antillon": 4244,
      "accompagné": 4245,
      "cohérence": 4246,
      "échantillon": 4247,
      "assimilés": 4248,
      "pourr": 4249,
      "gations": 4250,
      "TA": 4251,
      "étrangères": 4252,
      "structures": 4253,
      "Ac": 4254,
      "détenus": 4255,
      "chefs": 4256,
      "attestant": 4257,
      "verse": 4258,
      "candidature": 4259,
      "central": 4260,
      "justification": 4261,
      "départ": 4262,
      "branche": 4263,
      "conclusions": 4264,
      "tendant": 4265,
      "85": 4266,
      "auteurs": 4267,
      "gauche": 4268,
      "redevances": 4269,
      "seront": 4270,
      "directe": 4271,
      "énergétique": 4272,
      "actionnaires": 4273,
      "remplit": 4274,
      "joints": 4275,
      "66": 4276,
      "cements": 4277,
      "comportent": 4278,
      "sanitaires": 4279,
      "élève": 4280,
      "certaine": 4281,
      "prélèvements": 4282,
      "groupes": 4283,
      "recouv": 4284,
      "simultan": 4285,
      "présentées": 4286,
      "exemplaire": 4287,
      "ensi": 4288,
      "asc": 4289,
      "cesse": 4290,
      "tière": 4291,
      "nus": 4292,
      "désignées": 4293,
      "institué": 4294,
      "ladite": 4295,
      "ouvrir": 4296,
      "ciation": 4297,
      "exi": 4298,
      "désigner": 4299,
      "construire": 4300,
      "textes": 4301,
      "LO": 4302,
      "contenant": 4303,
      "aver": 4304,
      "coefficient": 4305,
      "59": 4306,
      "LI": 4307,
      "rap": 4308,
      "écar": 4309,
      "droite": 4310,
      "réf": 4311,
      "restre": 4312,
      "qualifiées": 4313,
      "afférents": 4314,
      "sport": 4315,
      "terres": 4316,
      "isé": 4317,
      "crois": 4318,
      "lété": 4319,
      "gros": 4320,
      "justifient": 4321,
      "aussi": 4322,
      "liti": 4323,
      "complété": 4324,
      "types": 4325,
      "72": 4326,
      "bri": 4327,
      "inventaire": 4328,
      "rembours": 4329,
      "assujetti": 4330,
      "DES": 4331,
      "numé": 4332,
      "habitations": 4333,
      "chapitres": 4334,
      "confir": 4335,
      "demandé": 4336,
      "énumé": 4337,
      "réquisition": 4338,
      "implantation": 4339,
      "dations": 4340,
      "foy": 4341,
      "subvention": 4342,
      "deven": 4343,
      "tablissement": 4344,
      "couverture": 4345,
      "disponibles": 4346,
      "considérés": 4347,
      ";<": 4348,
      "ande": 4349,
      "délivrés": 4350,
      "supplémentaires": 4351,
      "itant": 4352,
      "satisfaire": 4353,
      "rachat": 4354,
      "confidenti": 4355,
      "42": 4356,
      "soutien": 4357,
      "communauté": 4358,
      "hauteur": 4359,
      "tran": 4360,
      "instances": 4361,
      "dates": 4362,
      "Lors": 4363,
      "collèges": 4364,
      "détenue": 4365,
      "aie": 4366,
      "demandée": 4367,
      "élections": 4368,
      "cessions": 4369,
      "Ban": 4370,
      "lent": 4371,
      "particulière": 4372,
      "troi": 4373,
      "collectifs": 4374,
      "/</": 4375,
      "\">/</": 4376,
      "mach": 4377,
      "concertation": 4378,
      "prennent": 4379,
      "ferro": 4380,
      "mouve": 4381,
      "sortie": 4382,
      "aurait": 4383,
      "hospitalier": 4384,
      "LES": 4385,
      "octroi": 4386,
      "mas": 4387,
      "retour": 4388,
      "intégration": 4389,
      "énumérées": 4390,
      "permettent": 4391,
      "pharmacie": 4392,
      "facilit": 4393,
      "asile": 4394,
      "ferrovi": 4395,
      "aqu": 4396,
      "isés": 4397,
      "constituent": 4398,
      "reçoit": 4399,
      "achèvement": 4400,
      "export": 4401,
      "départementales": 4402,
      "hospitalisation": 4403,
      "cumul": 4404,
      "numér": 4405,
      "antérieurement": 4406,
      "relation": 4407,
      "destinée": 4408,
      "intervenant": 4409,
      "faute": 4410,
      "forêt": 4411,
      "définition": 4412,
      "écoles": 4413,
      "latér": 4414,
      "consignations": 4415,
      "lin": 4416,
      "administrations": 4417,
      "satisfait": 4418,
      "conférence": 4419,
      "ouvrant": 4420,
      "quet": 4421,
      "clause": 4422,
      "licenci": 4423,
      "interro": 4424,
      "vérifier": 4425,
      "quarante": 4426,
      "appartient": 4427,
      "forces": 4428,
      "remplir": 4429,
      "maîtrise": 4430,
      "destruction": 4431,
      "délim": 4432,
      "impli": 4433,
      "enseignants": 4434,
      "issement": 4435,
      "fixer": 4436,
      "Peuvent": 4437,
      "tori": 4438,
      "èrent": 4439,
      "solde": 4440,
      "confis": 4441,
      "susp": 4442,
      "global": 4443,
      "manquements": 4444,
      "dévolu": 4445,
      "utilisées": 4446,
      "constituées": 4447,
      "accordées": 4448,
      "fédér": 4449,
      "confiées": 4450,
      "limin": 4451,
      "provenant": 4452,
      "tables": 4453,
      "multip": 4454,
      "conf": 4455,
      "précitée": 4456,
      "conclue": 4457,
      "valablement": 4458,
      "73": 4459,
      "Fr": 4460,
      "bin": 4461,
      "individuelles": 4462,
      "mus": 4463,
      "composée": 4464,
      "légale": 4465,
      "écrites": 4466,
      "légales": 4467,
      "électriques": 4468,
      "signée": 4469,
      "Banque": 4470,
      "pun": 4471,
      "double": 4472,
      "chée": 4473,
      "chées": 4474,
      "modifier": 4475,
      "sélection": 4476,
      "pilo": 4477,
      "perception": 4478,
      "ville": 4479,
      "éc": 4480,
      "pacte": 4481,
      "circu": 4482,
      "prolon": 4483,
      "CO": 4484,
      "trop": 4485,
      "délibé": 4486,
      "bateau": 4487,
      "audiovisue": 4488,
      "alié": 4489,
      "contient": 4490,
      "TE": 4491,
      "familial": 4492,
      "-</": 4493,
      "conclus": 4494,
      "méthodes": 4495,
      "rente": 4496,
      "direct": 4497,
      "novation": 4498,
      "difficultés": 4499,
      "violation": 4500,
      "issus": 4501,
      "itement": 4502,
      "équip": 4503,
      "dernières": 4504,
      "audition": 4505,
      "requise": 4506,
      "ony": 4507,
      "chè": 4508,
      "aménagements": 4509,
      "formule": 4510,
      "2003": 4511,
      "continuité": 4512,
      "infrastructures": 4513,
      "arb": 4514,
      "portés": 4515,
      "portefeuille": 4516,
      "justificatives": 4517,
      "forestier": 4518,
      "licence": 4519,
      "servant": 4520,
      "impact": 4521,
      "participations": 4522,
      "AR": 4523,
      "praticiens": 4524,
      "objectif": 4525,
      "vois": 4526,
      "porta": 4527,
      "souscrip": 4528,
      "prononcées": 4529,
      "tric": 4530,
      "132": 4531,
      "nat": 4532,
      "poursuite": 4533,
      "agréée": 4534,
      "cadrement": 4535,
      "honneur": 4536,
      "déclarant": 4537,
      "réduit": 4538,
      "cellu": 4539,
      "répertoire": 4540,
      "énum": 4541,
      "démission": 4542,
      "sons": 4543,
      "politiques": 4544,
      "délibérant": 4545,
      "privée": 4546,
      "prestataires": 4547,
      "enco": 4548,
      "fron": 4549,
      "Lyon": 4550,
      "toral": 4551,
      "nécessité": 4552,
      "prévisionnel": 4553,
      "appareils": 4554,
      "banc": 4555,
      "entrant": 4556,
      "modéré": 4557,
      "consoli": 4558,
      "privil": 4559,
      "Comité": 4560,
      "incor": 4561,
      "déclaré": 4562,
      "encore": 4563,
      "ding": 4564,
      "factur": 4565,
      "soix": 4566,
      "tourisme": 4567,
      "attribués": 4568,
      "collabor": 4569,
      "rapporteur": 4570,
      "ore": 4571,
      "pap": 4572,
      "longue": 4573,
      "dirigeants": 4574,
      "reste": 4575,
      "modu": 4576,
      "commerciales": 4577,
      "utilisateur": 4578,
      "ds": 4579,
      "poursuites": 4580,
      "chez": 4581,
      "classées": 4582,
      "exprimés": 4583,
      "conque": 4584,
      "ceaux": 4585,
      "expres": 4586,
      "programmation": 4587,
      "émo": 4588,
      "anony": 4589,
      "délit": 4590,
      "civ": 4591,
      "initial": 4592,
      "Avant": 4593,
      "utilisateurs": 4594,
      "primes": 4595,
      "manifes": 4596,
      "trac": 4597,
      "monn": 4598,
      "essenti": 4599,
      "Dès": 4600,
      "série": 4601,
      "archi": 4602,
      "values": 4603,
      "camp": 4604,
      "°.": 4605,
      "outi": 4606,
      "détenir": 4607,
      "formé": 4608,
      "tenance": 4609,
      "transmettre": 4610,
      "retard": 4611,
      "équilibre": 4612,
      "suffrages": 4613,
      "rupture": 4614,
      "alisés": 4615,
      "échanges": 4616,
      "remplies": 4617,
      "consommateurs": 4618,
      "IN": 4619,
      "participent": 4620,
      "pièce": 4621,
      "dépos": 4622,
      "mations": 4623,
      "ultérieure": 4624,
      "routier": 4625,
      "adhérents": 4626,
      "solvabilité": 4627,
      "jouis": 4628,
      "qualifications": 4629,
      "formément": 4630,
      "municipaux": 4631,
      "priorité": 4632,
      "approuvé": 4633,
      "bateaux": 4634,
      "annulation": 4635,
      "chirurgi": 4636,
      "localisation": 4637,
      "permanent": 4638,
      "marque": 4639,
      "communiquées": 4640,
      "96": 4641,
      "°)": 4642,
      "commise": 4643,
      "volontaires": 4644,
      "diverses": 4645,
      "AC": 4646,
      "égalité": 4647,
      "caution": 4648,
      "acquérir": 4649,
      "clients": 4650,
      "annuellement": 4651,
      "requérant": 4652,
      "Al": 4653,
      "expresse": 4654,
      "ruption": 4655,
      "sap": 4656,
      "amiable": 4657,
      "ouvertes": 4658,
      "huis": 4659,
      "favoriser": 4660,
      "soixante": 4661,
      "civils": 4662,
      "coup": 4663,
      "vit": 4664,
      "alter": 4665,
      "réel": 4666,
      "valorisation": 4667,
      "Mont": 4668,
      "sés": 4669,
      "incompati": 4670,
      "préten": 4671,
      "médicales": 4672,
      "faciliter": 4673,
      "eure": 4674,
      "organisée": 4675,
      "proche": 4676,
      "privées": 4677,
      "restitution": 4678,
      "intéressée": 4679,
      "Conformément": 4680,
      "téléph": 4681,
      "asses": 4682,
      "infirmi": 4683,
      "adjoint": 4684,
      "mandats": 4685,
      "emprunts": 4686,
      "apparaître": 4687,
      "globale": 4688,
      "83": 4689,
      "hen": 4690,
      "toires": 4691,
      "déroulement": 4692,
      "vous": 4693,
      "arri": 4694,
      "desquelles": 4695,
      "desquels": 4696,
      "proportionnelle": 4697,
      "audiovisuelle": 4698,
      "Pre": 4699,
      "avances": 4700,
      "avantage": 4701,
      "nouveaux": 4702,
      "Son": 4703,
      "pourra": 4704,
      "commande": 4705,
      "considération": 4706,
      "apporter": 4707,
      "expropriation": 4708,
      "PO": 4709,
      "classés": 4710,
      "immobiliers": 4711,
      "éman": 4712,
      "dissement": 4713,
      "verbaux": 4714,
      "femme": 4715,
      "jeunesse": 4716,
      "fixation": 4717,
      "accusé": 4718,
      "artisanat": 4719,
      "dématéri": 4720,
      "fort": 4721,
      "quoti": 4722,
      "sceaux": 4723,
      "chau": 4724,
      "congés": 4725,
      "solu": 4726,
      "expériment": 4727,
      "”,": 4728,
      "recommandations": 4729,
      "ili": 4730,
      "méconnaissance": 4731,
      "barème": 4732,
      "arrête": 4733,
      "milli": 4734,
      "occupant": 4735,
      "Ex": 4736,
      "dessous": 4737,
      "paritaire": 4738,
      "présentent": 4739,
      "note": 4740,
      "payer": 4741,
      "coopératives": 4742,
      "obs": 4743,
      "dévolues": 4744,
      "commet": 4745,
      "septi": 4746,
      "AP": 4747,
      "xion": 4748,
      "repos": 4749,
      "démo": 4750,
      "versé": 4751,
      "biologie": 4752,
      "déclarées": 4753,
      "statuant": 4754,
      "candidatures": 4755,
      "52": 4756,
      "cumu": 4757,
      "justificatifs": 4758,
      "rendue": 4759,
      "restaur": 4760,
      "équivalentes": 4761,
      "scientifiques": 4762,
      "oné": 4763,
      "diques": 4764,
      "abat": 4765,
      "seuls": 4766,
      "prescrites": 4767,
      "éventuelles": 4768,
      "mémo": 4769,
      "relevé": 4770,
      "combattants": 4771,
      "chargées": 4772,
      "ventes": 4773,
      "figurent": 4774,
      "indirects": 4775,
      "abro": 4776,
      "représente": 4777,
      "87": 4778,
      "sensi": 4779,
      "situées": 4780,
      "67": 4781,
      "ordinaire": 4782,
      "délibère": 4783,
      "neuf": 4784,
      "établissant": 4785,
      "prévenir": 4786,
      "ancienneté": 4787,
      "protocole": 4788,
      "sil": 4789,
      "statuer": 4790,
      "nouvel": 4791,
      "disponibilité": 4792,
      "vées": 4793,
      "tivité": 4794,
      "monnaie": 4795,
      "âgées": 4796,
      "active": 4797,
      "impossibilité": 4798,
      "alimentaires": 4799,
      "arc": 4800,
      "concernent": 4801,
      "émolu": 4802,
      "57": 4803,
      "chose": 4804,
      "disposer": 4805,
      "génie": 4806,
      "consulté": 4807,
      "Assemb": 4808,
      "iso": 4809,
      "fru": 4810,
      "quante": 4811,
      "interventions": 4812,
      "munitions": 4813,
      "redres": 4814,
      "adresser": 4815,
      "assisté": 4816,
      "saisit": 4817,
      "cédant": 4818,
      "électrique": 4819,
      "revê": 4820,
      "puissance": 4821,
      "soires": 4822,
      "superfici": 4823,
      "ressortissants": 4824,
      "Assemblée": 4825,
      "rant": 4826,
      "embar": 4827,
      "énoncées": 4828,
      "souhaite": 4829,
      "clos": 4830,
      "indépendant": 4831,
      "clauses": 4832,
      "annexé": 4833,
      "chemin": 4834,
      "marins": 4835,
      "istance": 4836,
      "2002": 4837,
      "conclure": 4838,
      "envisagée": 4839,
      "trimestre": 4840,
      "simultanément": 4841,
      "gér": 4842,
      "écou": 4843,
      "223": 4844,
      "ilités": 4845,
      "constituant": 4846,
      "/></": 4847,
      "source": 4848,
      "constater": 4849,
      "vérifications": 4850,
      "pédagogique": 4851,
      "liaison": 4852,
      "parta": 4853,
      "infrastructure": 4854,
      "sinis": 4855,
      "Di": 4856,
      "commercialisation": 4857,
      "appareil": 4858,
      "matériaux": 4859,
      "effectifs": 4860,
      "liquidateur": 4861,
      "prépa": 4862,
      "avait": 4863,
      "pul": 4864,
      "mettant": 4865,
      "déclarée": 4866,
      "exportation": 4867,
      "Premier": 4868,
      "texte": 4869,
      "ace": 4870,
      "isations": 4871,
      "important": 4872,
      "portu": 4873,
      "fichiers": 4874,
      "auxili": 4875,
      "Celui": 4876,
      "universitaire": 4877,
      "diversité": 4878,
      "accessoires": 4879,
      "énumérés": 4880,
      "essais": 4881,
      "très": 4882,
      "silence": 4883,
      "oto": 4884,
      "det": 4885,
      "histori": 4886,
      "associées": 4887,
      "subordonné": 4888,
      "cit": 4889,
      "Constitu": 4890,
      "seuils": 4891,
      "participe": 4892,
      "contradic": 4893,
      "redressement": 4894,
      "correction": 4895,
      "simpli": 4896,
      "confidentialité": 4897,
      "analyses": 4898,
      "dommage": 4899,
      "conception": 4900,
      "exécuter": 4901,
      "confiscation": 4902,
      "remettre": 4903,
      "inés": 4904,
      "conç": 4905,
      "marine": 4906,
      "obligatoirement": 4907,
      "démon": 4908,
      "détient": 4909,
      "Sup": 4910,
      "Gr": 4911,
      "ône": 4912,
      "assign": 4913,
      "ids": 4914,
      "empla": 4915,
      "justificatif": 4916,
      "infirm": 4917,
      "ate": 4918,
      "décrets": 4919,
      "respecte": 4920,
      "constatées": 4921,
      "quantités": 4922,
      "filiales": 4923,
      "56": 4924,
      "dites": 4925,
      "fraude": 4926,
      "VIII": 4927,
      "dég": 4928,
      "substanti": 4929,
      "cus": 4930,
      "poids": 4931,
      "autant": 4932,
      "pore": 4933,
      "explic": 4934,
      "emprunteur": 4935,
      "maîtres": 4936,
      "papier": 4937,
      "publiée": 4938,
      "pénalité": 4939,
      "employés": 4940,
      "étrangère": 4941,
      "jonction": 4942,
      "préle": 4943,
      "seules": 4944,
      "choisis": 4945,
      "proro": 4946,
      "para": 4947,
      "interruption": 4948,
      "matisé": 4949,
      "cinquante": 4950,
      "ministériel": 4951,
      "mées": 4952,
      "réuni": 4953,
      "mot": 4954,
      "viol": 4955,
      "meubles": 4956,
      "Afin": 4957,
      "fai": 4958,
      "fédérations": 4959,
      "onéreux": 4960,
      "84": 4961,
      "ôt": 4962,
      "retenues": 4963,
      "accomplir": 4964,
      "passage": 4965,
      "maternité": 4966,
      "mains": 4967,
      "soumettre": 4968,
      "annon": 4969,
      "trales": 4970,
      "conserver": 4971,
      "bassin": 4972,
      "épou": 4973,
      "ench": 4974,
      "appliquer": 4975,
      "manifestation": 4976,
      "jouissance": 4977,
      "sément": 4978,
      "communal": 4979,
      "dépasser": 4980,
      "choisi": 4981,
      "astreinte": 4982,
      "pertes": 4983,
      "exceptionnel": 4984,
      "217": 4985,
      "navig": 4986,
      "hydro": 4987,
      "préfecture": 4988,
      "expressément": 4989,
      "secon": 4990,
      "extra": 4991,
      "ray": 4992,
      "tacles": 4993,
      "forestière": 4994,
      "accessibilité": 4995,
      "recrutement": 4996,
      "Cantons": 4997,
      "Pré": 4998,
      "raccor": 4999,
      "amor": 5000,
      "mutuelles": 5001,
      "sif": 5002,
      "uniquement": 5003,
      "chim": 5004,
      "provo": 5005,
      "défail": 5006,
      "perçues": 5007,
      "animée": 5008,
      "communiqué": 5009,
      "partenaire": 5010,
      "aérien": 5011,
      "gnes": 5012,
      "décé": 5013,
      "carb": 5014,
      "terror": 5015,
      "Mose": 5016,
      "Trois": 5017,
      "prévis": 5018,
      "fixent": 5019,
      "institut": 5020,
      "engagées": 5021,
      "spectacles": 5022,
      "quées": 5023,
      "accéder": 5024,
      "peti": 5025,
      "opposer": 5026,
      "dissolution": 5027,
      "enquêtes": 5028,
      "équivalente": 5029,
      "individuellement": 5030,
      "commandant": 5031,
      "Pendant": 5032,
      "dette": 5033,
      "identifier": 5034,
      "engins": 5035,
      "versés": 5036,
      "prenant": 5037,
      "bou": 5038,
      "agne": 5039,
      "adjoints": 5040,
      "pê": 5041,
      "trimes": 5042,
      "culturel": 5043,
      "effic": 5044,
      "comprise": 5045,
      "territoriaux": 5046,
      "syndicats": 5047,
      "solidaire": 5048,
      "reconnue": 5049,
      "dispen": 5050,
      "assorti": 5051,
      "excédant": 5052,
      "endants": 5053,
      "adressées": 5054,
      "intégrité": 5055,
      "dive": 5056,
      "contraires": 5057,
      "dons": 5058,
      "correspondants": 5059,
      "éviter": 5060,
      "préemp": 5061,
      "2001": 5062,
      "mandataires": 5063,
      "fournies": 5064,
      "scolar": 5065,
      "inspecteur": 5066,
      "ert": 5067,
      "Fon": 5068,
      "hygi": 5069,
      "faces": 5070,
      "amortissement": 5071,
      "cipe": 5072,
      "contradictoire": 5073,
      "syndicale": 5074,
      "passagers": 5075,
      "contestation": 5076,
      "Bas": 5077,
      "auté": 5078,
      "prépon": 5079,
      "calend": 5080,
      "apprécier": 5081,
      "coordonnateur": 5082,
      "créer": 5083,
      "intéressant": 5084,
      "bulletins": 5085,
      "porteurs": 5086,
      "passe": 5087,
      "photo": 5088,
      "croissance": 5089,
      "inclus": 5090,
      "passé": 5091,
      "université": 5092,
      "suspendu": 5093,
      "stratégie": 5094,
      "compagn": 5095,
      "décrit": 5096,
      "visa": 5097,
      "hôpit": 5098,
      "CI": 5099,
      "dire": 5100,
      "tax": 5101,
      "fermet": 5102,
      "intég": 5103,
      "conciliation": 5104,
      "époux": 5105,
      "préemption": 5106,
      "modifiant": 5107,
      "cs": 5108,
      "222": 5109,
      "113": 5110,
      "Ter": 5111,
      "proposé": 5112,
      "coopérative": 5113,
      "gens": 5114,
      "gra": 5115,
      "assemblées": 5116,
      "Ecole": 5117,
      "légalement": 5118,
      "accomplis": 5119,
      "recevabilité": 5120,
      "SE": 5121,
      "encadrement": 5122,
      "vendeur": 5123,
      "1978": 5124,
      "libération": 5125,
      "observation": 5126,
      "alcoo": 5127,
      "foyer": 5128,
      "Moselle": 5129,
      "entraîner": 5130,
      "vérifie": 5131,
      "engager": 5132,
      "honoraires": 5133,
      "disposant": 5134,
      "suivre": 5135,
      "inscrite": 5136,
      "traité": 5137,
      "réduire": 5138,
      "63": 5139,
      "contac": 5140,
      "dirig": 5141,
      "routière": 5142,
      "envisage": 5143,
      "pompiers": 5144,
      "fermeture": 5145,
      "qualifiée": 5146,
      "modifiée": 5147,
      "joindre": 5148,
      "criminelle": 5149,
      "autono": 5150,
      "insuffisance": 5151,
      "postérieurement": 5152,
      "verser": 5153,
      "premières": 5154,
      "affectées": 5155,
      "entendu": 5156,
      "conven": 5157,
      "compro": 5158,
      "gérer": 5159,
      "mobile": 5160,
      "édit": 5161,
      "isées": 5162,
      "transfér": 5163,
      "recueilli": 5164,
      "glom": 5165,
      "69": 5166,
      "connu": 5167,
      "détenu": 5168,
      "refuser": 5169,
      "archives": 5170,
      ").</": 5171,
      "54": 5172,
      "élab": 5173,
      "délits": 5174,
      "tagne": 5175,
      "renfor": 5176,
      "dispensés": 5177,
      "acité": 5178,
      "gardé": 5179,
      "périodique": 5180,
      "appelé": 5181,
      "contribuer": 5182,
      "instructions": 5183,
      "vacance": 5184,
      "héri": 5185,
      "suppression": 5186,
      "légaux": 5187,
      "cadres": 5188,
      "psychi": 5189,
      "hygiène": 5190,
      "sursis": 5191,
      "contrepartie": 5192,
      "successi": 5193,
      "infirmier": 5194,
      "négociations": 5195,
      "formulaire": 5196,
      "dul": 5197,
      "adaptée": 5198,
      "reçues": 5199,
      "voyage": 5200,
      "figurer": 5201,
      "110": 5202,
      "vidé": 5203,
      "obtenus": 5204,
      "rendues": 5205,
      "répond": 5206,
      "cinématographique": 5207,
      "licenciement": 5208,
      "approvision": 5209,
      "ordonnateur": 5210,
      "étendue": 5211,
      "majeur": 5212,
      "tradu": 5213,
      "révo": 5214,
      "interrégional": 5215,
      "ther": 5216,
      "entique": 5217,
      "traitant": 5218,
      "aphie": 5219,
      "AU": 5220,
      "accorder": 5221,
      "contrôlée": 5222,
      "quelconque": 5223,
      "animal": 5224,
      "intermédiaires": 5225,
      "indicateurs": 5226,
      "parentale": 5227,
      "régularisation": 5228,
      "TR": 5229,
      "tente": 5230,
      "semaines": 5231,
      "majeurs": 5232,
      "mairie": 5233,
      "électorale": 5234,
      "augmentation": 5235,
      "salaires": 5236,
      "coordonnées": 5237,
      "aler": 5238,
      "organiser": 5239,
      "limitation": 5240,
      "capitaux": 5241,
      "niveaux": 5242,
      "électorales": 5243,
      "punie": 5244,
      "encourent": 5245,
      "ize": 5246,
      "trés": 5247,
      "préfets": 5248,
      "assortie": 5249,
      "engagée": 5250,
      "génétique": 5251,
      "aérodrome": 5252,
      "créé": 5253,
      "carbon": 5254,
      "transmettent": 5255,
      "déposé": 5256,
      ";</": 5257,
      "gil": 5258,
      "dépositaire": 5259,
      "estiers": 5260,
      "devient": 5261,
      "correc": 5262,
      "hospitaliers": 5263,
      "forestiers": 5264,
      "répartis": 5265,
      "aéronefs": 5266,
      "isent": 5267,
      "asserment": 5268,
      "entrepreneur": 5269,
      "Outre": 5270,
      "reconnues": 5271,
      "empê": 5272,
      "statué": 5273,
      "combus": 5274,
      "ordres": 5275,
      "seconde": 5276,
      "raccordement": 5277,
      "43": 5278,
      "89": 5279,
      "cra": 5280,
      "Leur": 5281,
      "saisis": 5282,
      "raisonn": 5283,
      "remplissent": 5284,
      "usu": 5285,
      "classes": 5286,
      "limit": 5287,
      "éventuelle": 5288,
      "rattachement": 5289,
      "group": 5290,
      "nér": 5291,
      "sexe": 5292,
      "acteurs": 5293,
      "résor": 5294,
      "uel": 5295,
      "constatés": 5296,
      "rang": 5297,
      "160": 5298,
      "automatisé": 5299,
      "voyag": 5300,
      "garantissant": 5301,
      "restauration": 5302,
      "sols": 5303,
      "survivant": 5304,
      "vigil": 5305,
      "demandeurs": 5306,
      "sportifs": 5307,
      "mariage": 5308,
      "cles": 5309,
      "lique": 5310,
      "curs": 5311,
      "considérées": 5312,
      "servitudes": 5313,
      "déont": 5314,
      "meil": 5315,
      "impositions": 5316,
      "final": 5317,
      "disciplinaires": 5318,
      "recev": 5319,
      "succurs": 5320,
      "conserve": 5321,
      "événement": 5322,
      "déri": 5323,
      "principe": 5324,
      "pollution": 5325,
      "citoy": 5326,
      "représentés": 5327,
      "appelés": 5328,
      "plateforme": 5329,
      "internationaux": 5330,
      "tarification": 5331,
      "supprimé": 5332,
      "apports": 5333,
      "retirer": 5334,
      "remet": 5335,
      "sions": 5336,
      "Commun": 5337,
      "correspondantes": 5338,
      "TIONS": 5339,
      "cô": 5340,
      "aura": 5341,
      "plafonds": 5342,
      "minimal": 5343,
      "ata": 5344,
      "modes": 5345,
      "pourvoir": 5346,
      "familiale": 5347,
      "retenu": 5348,
      "dépasse": 5349,
      "embal": 5350,
      "incorpor": 5351,
      "anom": 5352,
      "ingénie": 5353,
      "graves": 5354,
      "primaire": 5355,
      "exploitations": 5356,
      "débat": 5357,
      "communs": 5358,
      "74": 5359,
      "bdom": 5360,
      "gérant": 5361,
      "possession": 5362,
      "acquises": 5363,
      "hebdom": 5364,
      "hebdomad": 5365,
      "foi": 5366,
      "parcelles": 5367,
      "améliorer": 5368,
      "chanti": 5369,
      "industriel": 5370,
      "ox": 5371,
      "dossiers": 5372,
      "stric": 5373,
      "imposées": 5374,
      "efficacité": 5375,
      "utilisant": 5376,
      "perçus": 5377,
      "agences": 5378,
      "communiqués": 5379,
      "accréditation": 5380,
      "ferroviaire": 5381,
      "émettre": 5382,
      "maison": 5383,
      "path": 5384,
      "renseignement": 5385,
      "ulture": 5386,
      "gravité": 5387,
      "anomali": 5388,
      "adju": 5389,
      "assistant": 5390,
      "concessionnaire": 5391,
      "bénéficié": 5392,
      "communautaire": 5393,
      "hypothè": 5394,
      "réglementé": 5395,
      "instituée": 5396,
      "reconnus": 5397,
      "normale": 5398,
      "amb": 5399,
      "statutaires": 5400,
      "acquisitions": 5401,
      "origin": 5402,
      "récidive": 5403,
      "€.": 5404,
      "cessionnaire": 5405,
      "fournisseurs": 5406,
      "mal": 5407,
      "oni": 5408,
      "surfaces": 5409,
      "définitivement": 5410,
      "permanence": 5411,
      "perçue": 5412,
      "dépassement": 5413,
      ">-": 5414,
      "locataires": 5415,
      "essai": 5416,
      "contractuels": 5417,
      "consac": 5418,
      "électeur": 5419,
      "exploiter": 5420,
      "réduite": 5421,
      "immobilière": 5422,
      "remplissant": 5423,
      "suspendre": 5424,
      "Per": 5425,
      "mpu": 5426,
      "récu": 5427,
      "cueille": 5428,
      "correspondance": 5429,
      "RÉ": 5430,
      "marqu": 5431,
      "acquise": 5432,
      "reçus": 5433,
      "facture": 5434,
      "commettre": 5435,
      "exclusif": 5436,
      "sive": 5437,
      "finalité": 5438,
      "amortis": 5439,
      "élevé": 5440,
      "aménag": 5441,
      "située": 5442,
      "rubri": 5443,
      "bonnes": 5444,
      "spécialisée": 5445,
      "recourir": 5446,
      "sification": 5447,
      "chron": 5448,
      "usages": 5449,
      "mentionnant": 5450,
      "mutation": 5451,
      "apprécie": 5452,
      "détachement": 5453,
      "IX": 5454,
      "argent": 5455,
      "serait": 5456,
      "value": 5457,
      "bâties": 5458,
      "armée": 5459,
      "carbone": 5460,
      "encla": 5461,
      "réputés": 5462,
      "entendre": 5463,
      "spécialisé": 5464,
      "nucléaires": 5465,
      "indépendants": 5466,
      "aines": 5467,
      "architecture": 5468,
      "uré": 5469,
      "simi": 5470,
      "internationales": 5471,
      "superficie": 5472,
      "On": 5473,
      "dénon": 5474,
      "présentés": 5475,
      "formée": 5476,
      "condamnée": 5477,
      "régulière": 5478,
      "arrivée": 5479,
      "vigilance": 5480,
      "déclarer": 5481,
      "ification": 5482,
      "posables": 5483,
      "contrôleur": 5484,
      "nière": 5485,
      "alisées": 5486,
      "justifié": 5487,
      "événements": 5488,
      "/><": 5489,
      "retenus": 5490,
      "organise": 5491,
      "dentis": 5492,
      "adhérent": 5493,
      "grande": 5494,
      "division": 5495,
      "constitués": 5496,
      "débats": 5497,
      "issues": 5498,
      "Trav": 5499,
      "FIA": 5500,
      "transférés": 5501,
      "51": 5502,
      "exter": 5503,
      "entendent": 5504,
      "fluvi": 5505,
      "délibérer": 5506,
      "cuni": 5507,
      "lages": 5508,
      "oient": 5509,
      "poursuivre": 5510,
      "simplifi": 5511,
      "DÉ": 5512,
      "ef": 5513,
      "avancement": 5514,
      "brut": 5515,
      "commerciaux": 5516,
      "spécialisés": 5517,
      "stipulations": 5518,
      "exécutoires": 5519,
      "Aucune": 5520,
      "bour": 5521,
      "arché": 5522,
      "agglom": 5523,
      "tabac": 5524,
      "majoré": 5525,
      "majorations": 5526,
      "aéronef": 5527,
      "nale": 5528,
      "informée": 5529,
      "scolaires": 5530,
      "horaire": 5531,
      "pharmaceutique": 5532,
      "huissier": 5533,
      "DI": 5534,
      "prénom": 5535,
      "euse": 5536,
      "incidence": 5537,
      "ase": 5538,
      "pécuni": 5539,
      "anticip": 5540,
      "registres": 5541,
      "gui": 5542,
      "subi": 5543,
      "consulter": 5544,
      "méthode": 5545,
      "sapeurs": 5546,
      "hiér": 5547,
      "consultatif": 5548,
      "évolu": 5549,
      "signe": 5550,
      "addition": 5551,
      "infirmiers": 5552,
      "atten": 5553,
      "distributeur": 5554,
      "atteindre": 5555,
      "adul": 5556,
      "gs": 5557,
      "érée": 5558,
      "préciser": 5559,
      "confier": 5560,
      "Rhône": 5561,
      "appropriées": 5562,
      "hiérarch": 5563,
      "proposées": 5564,
      "assises": 5565,
      "thérapeutique": 5566,
      "vidéo": 5567,
      "tante": 5568,
      "sujet": 5569,
      "prévoient": 5570,
      "excédent": 5571,
      "étudiant": 5572,
      "mélan": 5573,
      "individuels": 5574,
      "reçoivent": 5575,
      "chauff": 5576,
      "prépondér": 5577,
      "avise": 5578,
      "exigées": 5579,
      "alimentaire": 5580,
      "solliciter": 5581,
      "australes": 5582,
      "matis": 5583,
      "notaire": 5584,
      "conjointe": 5585,
      "seulement": 5586,
      "animale": 5587,
      "bilités": 5588,
      "sages": 5589,
      "pertin": 5590,
      "admises": 5591,
      "contractant": 5592,
      "écolog": 5593,
      "Fran": 5594,
      "arctiques": 5595,
      "MA": 5596,
      "Nord": 5597,
      "lignes": 5598,
      "pourvoi": 5599,
      "notice": 5600,
      "format": 5601,
      "interdite": 5602,
      "transactions": 5603,
      "péti": 5604,
      "Terres": 5605,
      "marin": 5606,
      "conduit": 5607,
      "accessible": 5608,
      "tâ": 5609,
      "antarctiques": 5610,
      "majeure": 5611,
      "pluridisciplinaire": 5612,
      "orum": 5613,
      "enfance": 5614,
      "anches": 5615,
      "dien": 5616,
      "environnemental": 5617,
      "dispense": 5618,
      "poly": 5619,
      "aérienne": 5620,
      "No": 5621,
      "quorum": 5622,
      "93": 5623,
      "déposer": 5624,
      "exposés": 5625,
      "réelle": 5626,
      "71": 5627,
      "rétention": 5628,
      "quies": 5629,
      "immédiate": 5630,
      "abattement": 5631,
      "2e": 5632,
      "adapté": 5633,
      "homologation": 5634,
      "dr": 5635,
      "Tous": 5636,
      "accordés": 5637,
      "qualifié": 5638,
      "immobilisation": 5639,
      "gres": 5640,
      "conversion": 5641,
      "transaction": 5642,
      "déclarés": 5643,
      "comprendre": 5644,
      "édic": 5645,
      "déposées": 5646,
      "voit": 5647,
      "industriels": 5648,
      "électoral": 5649,
      "préservation": 5650,
      "PS": 5651,
      "miques": 5652,
      "suivie": 5653,
      "désir": 5654,
      "demeur": 5655,
      "legs": 5656,
      "interdictions": 5657,
      "évaluer": 5658,
      "défic": 5659,
      "consultations": 5660,
      "remises": 5661,
      "accompli": 5662,
      "participants": 5663,
      "numériques": 5664,
      "92": 5665,
      "Trésor": 5666,
      "conservés": 5667,
      "prêteur": 5668,
      "91": 5669,
      "trice": 5670,
      "collectives": 5671,
      "dépense": 5672,
      "légiti": 5673,
      "monu": 5674,
      "homologu": 5675,
      "alterna": 5676,
      "procur": 5677,
      "progres": 5678,
      "rectifi": 5679,
      "denrées": 5680,
      "enregistrées": 5681,
      "dangereux": 5682,
      "états": 5683,
      "quand": 5684,
      "urg": 5685,
      "imposable": 5686,
      "substance": 5687,
      "avocats": 5688,
      "mouvements": 5689,
      "64": 5690,
      "précisent": 5691,
      "substitution": 5692,
      "pharmaceutiques": 5693,
      "échantillons": 5694,
      "Dis": 5695,
      "blan": 5696,
      "succession": 5697,
      "incident": 5698,
      "trimoni": 5699,
      "devenue": 5700,
      "obstant": 5701,
      "dégr": 5702,
      "conservées": 5703,
      "personnalisée": 5704,
      "manifestations": 5705,
      "déclare": 5706,
      "bancaire": 5707,
      "prétendre": 5708,
      "mémoire": 5709,
      "ions": 5710,
      "handicapés": 5711,
      "biologique": 5712,
      "organisé": 5713,
      "spéciaux": 5714,
      "CF": 5715,
      "âgé": 5716,
      "conditionnement": 5717,
      "norme": 5718,
      "affiliation": 5719,
      "habilitées": 5720,
      "réclamation": 5721,
      "restri": 5722,
      "adaptées": 5723,
      "cell": 5724,
      "consécutifs": 5725,
      "arrondissement": 5726,
      "souscripteur": 5727,
      "61": 5728,
      "fiche": 5729,
      "compéti": 5730,
      "biologiques": 5731,
      "éventuels": 5732,
      "préavis": 5733,
      "placements": 5734,
      "intégralité": 5735,
      "Seu": 5736,
      "ry": 5737,
      "isée": 5738,
      "attente": 5739,
      "lots": 5740,
      "répondent": 5741,
      "Communauté": 5742,
      "atre": 5743,
      "rôle": 5744,
      "demment": 5745,
      "mensuelle": 5746,
      "privilè": 5747,
      "ula": 5748,
      "utilisée": 5749,
      "refuse": 5750,
      "partenaires": 5751,
      "sangu": 5752,
      "dettes": 5753,
      "organisées": 5754,
      "transpar": 5755,
      "directes": 5756,
      "cultures": 5757,
      "limiter": 5758,
      "écart": 5759,
      "dimen": 5760,
      "maintenir": 5761,
      "ici": 5762,
      "érer": 5763,
      "concourant": 5764,
      "informent": 5765,
      "62": 5766,
      "aban": 5767,
      "transit": 5768,
      "dicité": 5769,
      "délivrées": 5770,
      "variable": 5771,
      "indépendance": 5772,
      "millions": 5773,
      "calendrier": 5774,
      "adjudic": 5775,
      "indiquer": 5776,
      "espèce": 5777,
      "spécialisées": 5778,
      "tas": 5779,
      "potentiel": 5780,
      "sc": 5781,
      "finance": 5782,
      "cédés": 5783,
      "réels": 5784,
      "Seine": 5785,
      "%,": 5786,
      "estimation": 5787,
      "atteintes": 5788,
      "redevables": 5789,
      "388": 5790,
      "nations": 5791,
      "pad": 5792,
      "sources": 5793,
      "liers": 5794,
      "éger": 5795,
      "prorata": 5796,
      "prolong": 5797,
      "pluriannuel": 5798,
      "accessibles": 5799,
      "226": 5800,
      "conjoints": 5801,
      "principales": 5802,
      "statistiques": 5803,
      "ssement": 5804,
      "internes": 5805,
      "spécialités": 5806,
      "contact": 5807,
      "ènes": 5808,
      "boissons": 5809,
      "portuaire": 5810,
      "zième": 5811,
      "discrimin": 5812,
      "absolu": 5813,
      "nomencla": 5814,
      "échelle": 5815,
      "alog": 5816,
      "cheurs": 5817,
      "naturelle": 5818,
      "mobiles": 5819,
      "mensuel": 5820,
      "locatifs": 5821,
      "renvoi": 5822,
      "transferts": 5823,
      "attachés": 5824,
      "formalité": 5825,
      "Autres": 5826,
      "comportement": 5827,
      "Non": 5828,
      "cab": 5829,
      "respectives": 5830,
      "documentation": 5831,
      "autonome": 5832,
      "81": 5833,
      "lance": 5834,
      "prépondérante": 5835,
      "compatibles": 5836,
      "Français": 5837,
      "extr": 5838,
      "spéciales": 5839,
      "consécutives": 5840,
      "siéger": 5841,
      "précédemment": 5842,
      "annuelles": 5843,
      "constatant": 5844,
      "nage": 5845,
      "indivis": 5846,
      "contrôler": 5847,
      "laboratoires": 5848,
      "municipale": 5849,
      "automatique": 5850,
      "dotations": 5851,
      "disponible": 5852,
      "concu": 5853,
      "exiger": 5854,
      "mobilières": 5855,
      "apportées": 5856,
      "dresse": 5857,
      "éducative": 5858,
      "photogr": 5859,
      "PR": 5860,
      "desc": 5861,
      "librement": 5862,
      "ala": 5863,
      "élimin": 5864,
      "cellpad": 5865,
      "cellpadding": 5866,
      "tê": 5867,
      "éth": 5868,
      "sifs": 5869,
      "imposer": 5870,
      "immatricul": 5871,
      "assesseurs": 5872,
      "cro": 5873,
      "lec": 5874,
      "report": 5875,
      "informés": 5876,
      "effectuent": 5877,
      "montagne": 5878,
      "habituelle": 5879,
      "conformer": 5880,
      "biodiversité": 5881,
      "kinés": 5882,
      "inscriptions": 5883,
      "paiements": 5884,
      "diffus": 5885,
      "reproduction": 5886,
      "migr": 5887,
      "confiée": 5888,
      "oxy": 5889,
      "érées": 5890,
      "aérodromes": 5891,
      "300": 5892,
      "alisations": 5893,
      "médiateur": 5894,
      "change": 5895,
      "exigence": 5896,
      "dérogations": 5897,
      "recueillir": 5898,
      "bases": 5899,
      "82": 5900,
      "hebdomadaire": 5901,
      "BLES": 5902,
      "reuses": 5903,
      "ithér": 5904,
      "etc": 5905,
      "fonda": 5906,
      "journalière": 5907,
      "personnelles": 5908,
      "emporte": 5909,
      "adopté": 5910,
      "auraient": 5911,
      "habilitée": 5912,
      "arbit": 5913,
      "proven": 5914,
      "approprié": 5915,
      "fondée": 5916,
      "crime": 5917,
      "immobilisations": 5918,
      "litige": 5919,
      "terrorisme": 5920,
      "kinésithér": 5921,
      "injonction": 5922,
      "responsab": 5923,
      "exceptionnelles": 5924,
      "prévisions": 5925,
      "ANS": 5926,
      "inspecteurs": 5927,
      "encais": 5928,
      "tuteur": 5929,
      "jugée": 5930,
      "arrêtée": 5931,
      "marchandise": 5932,
      "urbaine": 5933,
      "réunies": 5934,
      "Nul": 5935,
      "Sud": 5936,
      "vin": 5937,
      "sem": 5938,
      "licite": 5939,
      "importa": 5940,
      "décou": 5941,
      "perçu": 5942,
      "5e": 5943,
      "750": 5944,
      "mort": 5945,
      "stagiaire": 5946,
      "NE": 5947,
      "pôle": 5948,
      "salariée": 5949,
      "destinataires": 5950,
      "Jus": 5951,
      "dop": 5952,
      "fut": 5953,
      "comprises": 5954,
      "clusion": 5955,
      "payeur": 5956,
      "approvisionnement": 5957,
      "cohésion": 5958,
      "rectification": 5959,
      "servir": 5960,
      "appartiennent": 5961,
      "septième": 5962,
      "comple": 5963,
      "périodicité": 5964,
      "prolongation": 5965,
      "chèque": 5966,
      "perce": 5967,
      "engagés": 5968,
      "universitaires": 5969,
      "envisagées": 5970,
      "cliniques": 5971,
      "constitutive": 5972,
      "gies": 5973,
      "provenance": 5974,
      "flot": 5975,
      "cessus": 5976,
      "soire": 5977,
      "organisatrice": 5978,
      "renouvelables": 5979,
      "instrument": 5980,
      "avenant": 5981,
      "aliénation": 5982,
      "voyageurs": 5983,
      "Li": 5984,
      "habituellement": 5985,
      "couvrir": 5986,
      "émises": 5987,
      "perfor": 5988,
      "avention": 5989,
      "contravention": 5990,
      "déplacements": 5991,
      "âgés": 5992,
      "récol": 5993,
      "réclamations": 5994,
      "statistique": 5995,
      "manifestement": 5996,
      "amp": 5997,
      "mage": 5998,
      "livret": 5999,
      "régularité": 6000,
      "chirurgie": 6001,
      "tâches": 6002,
      "monuments": 6003,
      "invo": 6004,
      "quiert": 6005,
      "ouvrables": 6006,
      "prévenu": 6007,
      "processus": 6008,
      "lucra": 6009,
      "nier": 6010,
      "vise": 6011,
      "référentiel": 6012,
      "confié": 6013,
      "renonciation": 6014,
      "grosses": 6015,
      "gen": 6016,
      "mines": 6017,
      "signataire": 6018,
      "grands": 6019,
      "apie": 6020,
      "payés": 6021,
      "Ser": 6022,
      "quinquies": 6023,
      "connexion": 6024,
      "sor": 6025,
      "commandement": 6026,
      "temporaires": 6027,
      "coles": 6028,
      "affectée": 6029,
      "passation": 6030,
      "maisons": 6031,
      "atrie": 6032,
      "existants": 6033,
      "recueillies": 6034,
      "filiale": 6035,
      "préfectoral": 6036,
      "essentielles": 6037,
      "réprim": 6038,
      "soumet": 6039,
      "défavor": 6040,
      "signification": 6041,
      "contraintes": 6042,
      "assignation": 6043,
      "pétition": 6044,
      "couverts": 6045,
      "ouil": 6046,
      "déterminent": 6047,
      "universités": 6048,
      "1986": 6049,
      "examine": 6050,
      "recueille": 6051,
      "profes": 6052,
      "ignement": 6053,
      "synthèse": 6054,
      "voirie": 6055,
      "APP": 6056,
      "enchères": 6057,
      "PC": 6058,
      "livres": 6059,
      "fonctionnelle": 6060,
      "pénalités": 6061,
      "pac": 6062,
      "déché": 6063,
      "dénommé": 6064,
      "tales": 6065,
      "réhabilitation": 6066,
      "absolue": 6067,
      "entraînant": 6068,
      "théori": 6069,
      "ER": 6070,
      "oles": 6071,
      "copi": 6072,
      "commence": 6073,
      "logici": 6074,
      "stagiaires": 6075,
      "bue": 6076,
      "ctu": 6077,
      "commen": 6078,
      "juges": 6079,
      "corpore": 6080,
      "amendes": 6081,
      "contribue": 6082,
      "indiqué": 6083,
      "affiliés": 6084,
      "horaires": 6085,
      "gam": 6086,
      "irrecevabilité": 6087,
      "Supérieure": 6088,
      "scel": 6089,
      "semaine": 6090,
      "logie": 6091,
      "adaptés": 6092,
      "formulée": 6093,
      "fidu": 6094,
      "agricul": 6095,
      "130": 6096,
      "protégée": 6097,
      ":<": 6098,
      "dédi": 6099,
      "proposés": 6100,
      "toujours": 6101,
      "passée": 6102,
      "combusti": 6103,
      "nomenclature": 6104,
      "120": 6105,
      "mètre": 6106,
      "227": 6107,
      "machine": 6108,
      "rayon": 6109,
      "inten": 6110,
      "venti": 6111,
      "respectent": 6112,
      "opérationnelle": 6113,
      "intervenue": 6114,
      "Etablissement": 6115,
      "confé": 6116,
      "télés": 6117,
      "tabilité": 6118,
      "désaccord": 6119,
      "communiquent": 6120,
      "68": 6121,
      "témo": 6122,
      "nécessités": 6123,
      "saison": 6124,
      "valable": 6125,
      "réquisitions": 6126,
      "hôpitaux": 6127,
      "OR": 6128,
      "mant": 6129,
      "recen": 6130,
      "supports": 6131,
      "phase": 6132,
      "journée": 6133,
      "produites": 6134,
      "taient": 6135,
      "trafic": 6136,
      "istes": 6137,
      "artifi": 6138,
      "ordonne": 6139,
      "modifiés": 6140,
      "apporte": 6141,
      "correspondante": 6142,
      "incombe": 6143,
      "aquac": 6144,
      "concentr": 6145,
      "exigible": 6146,
      "pluriannuelle": 6147,
      "Fonds": 6148,
      "Val": 6149,
      "marge": 6150,
      "confiance": 6151,
      "résidant": 6152,
      "dressé": 6153,
      "94": 6154,
      "indispens": 6155,
      "descrip": 6156,
      "minor": 6157,
      "universe": 6158,
      "Char": 6159,
      "appropriée": 6160,
      "présidée": 6161,
      "métropolitain": 6162,
      "historiques": 6163,
      "jeu": 6164,
      "vages": 6165,
      "agir": 6166,
      "titudes": 6167,
      "créée": 6168,
      "Toutes": 6169,
      "délégataire": 6170,
      "jeune": 6171,
      "justifications": 6172,
      "exigée": 6173,
      "émetteur": 6174,
      "faible": 6175,
      "nette": 6176,
      "produite": 6177,
      "communiquée": 6178,
      "indu": 6179,
      "lspac": 6180,
      "communaux": 6181,
      "détaill": 6182,
      "cellspac": 6183,
      "détenteurs": 6184,
      "cellules": 6185,
      "aquaculture": 6186,
      "cellspacing": 6187,
      "plo": 6188,
      "présid": 6189,
      "poss": 6190,
      "supérieures": 6191,
      "suffisante": 6192,
      "factures": 6193,
      "assermentés": 6194,
      "dopage": 6195,
      "retra": 6196,
      "cesser": 6197,
      "identifiés": 6198,
      "exigé": 6199,
      "MI": 6200,
      "exac": 6201,
      "classé": 6202,
      "pénales": 6203,
      "formuler": 6204,
      "numéros": 6205,
      "responsabilités": 6206,
      "ainte": 6207,
      "meub": 6208,
      "pénitentiaires": 6209,
      "retiré": 6210,
      "souscrits": 6211,
      "copies": 6212,
      "trices": 6213,
      "organique": 6214,
      "placée": 6215,
      "salles": 6216,
      "expression": 6217,
      "publiés": 6218,
      "signer": 6219,
      "préparations": 6220,
      "abrogeant": 6221,
      "chimiques": 6222,
      "kinésithérapeu": 6223,
      "ètes": 6224,
      "chu": 6225,
      "créées": 6226,
      "places": 6227,
      "réalise": 6228,
      "correspondent": 6229,
      "couple": 6230,
      "compatibilité": 6231,
      "dirigeant": 6232,
      "téléphon": 6233,
      "dématérialisée": 6234,
      "For": 6235,
      "gatoire": 6236,
      "offic": 6237,
      "tières": 6238,
      "remor": 6239,
      "auxiliaires": 6240,
      "strictement": 6241,
      "officine": 6242,
      "détiennent": 6243,
      "définir": 6244,
      "grammes": 6245,
      "gratuitement": 6246,
      "recevable": 6247,
      "abon": 6248,
      "domes": 6249,
      "votes": 6250,
      "aliser": 6251,
      "contribuables": 6252,
      "ordonnée": 6253,
      "3e": 6254,
      "DANS": 6255,
      "répar": 6256,
      "autés": 6257,
      "autorise": 6258,
      "autorisant": 6259,
      "loisir": 6260,
      "préfér": 6261,
      "charte": 6262,
      "procédés": 6263,
      "médiation": 6264,
      "distributeurs": 6265,
      "sté": 6266,
      "avan": 6267,
      "serre": 6268,
      "conséquence": 6269,
      "technologique": 6270,
      "accessoire": 6271,
      "couvert": 6272,
      "juridiques": 6273,
      "tir": 6274,
      "seize": 6275,
      "passer": 6276,
      "actives": 6277,
      "capitaine": 6278,
      "thérapeutiques": 6279,
      "compagnie": 6280,
      "sci": 6281,
      "détru": 6282,
      "quement": 6283,
      "franch": 6284,
      "notifiées": 6285,
      "exclusive": 6286,
      "extérieures": 6287,
      "expédition": 6288,
      "clinique": 6289,
      "campagne": 6290,
      "concubin": 6291,
      "pli": 6292,
      "regroup": 6293,
      "élevage": 6294,
      "intégralement": 6295,
      "législative": 6296,
      "chantier": 6297,
      "légitime": 6298,
      "Ap": 6299,
      "kilo": 6300,
      "teste": 6301,
      "visites": 6302,
      "entraînement": 6303,
      "normal": 6304,
      "concé": 6305,
      "assistants": 6306,
      "renouvelée": 6307,
      "retirée": 6308,
      "distincte": 6309,
      "Mo": 6310,
      "ensuite": 6311,
      "dévelop": 6312,
      "lèvement": 6313,
      "incidences": 6314,
      "annonces": 6315,
      "Travaux": 6316,
      "pir": 6317,
      "courrier": 6318,
      "veiller": 6319,
      "apparaît": 6320,
      "performan": 6321,
      "vins": 6322,
      "seraient": 6323,
      "casier": 6324,
      "rétablissement": 6325,
      "certifica": 6326,
      "assiste": 6327,
      "schémas": 6328,
      "biomédecine": 6329,
      "stratégique": 6330,
      "passeport": 6331,
      "enveloppe": 6332,
      "déposés": 6333,
      "tissus": 6334,
      "influ": 6335,
      "compléter": 6336,
      "pratiquer": 6337,
      "mobiliers": 6338,
      "compatible": 6339,
      "LICA": 6340,
      "aquati": 6341,
      "(*": 6342,
      "sph": 6343,
      "innovation": 6344,
      "stages": 6345,
      "sollicite": 6346,
      "98": 6347,
      "Organ": 6348,
      "opposable": 6349,
      "nécessite": 6350,
      "307": 6351,
      "perçoit": 6352,
      "emprunt": 6353,
      "suspendue": 6354,
      "éventuel": 6355,
      "investigations": 6356,
      "usufru": 6357,
      "APPLICA": 6358,
      "savoir": 6359,
      "cents": 6360,
      "interprofessionnel": 6361,
      "passible": 6362,
      "difficulté": 6363,
      "umé": 6364,
      "indéterminée": 6365,
      "liques": 6366,
      "donnés": 6367,
      "occupants": 6368,
      "artifici": 6369,
      "appellation": 6370,
      "len": 6371,
      "récapit": 6372,
      "finalités": 6373,
      "assurées": 6374,
      "européens": 6375,
      "affecter": 6376,
      "gues": 6377,
      "quote": 6378,
      "tonnes": 6379,
      "onau": 6380,
      "ceptions": 6381,
      "specta": 6382,
      "pollu": 6383,
      "existantes": 6384,
      "personnellement": 6385,
      "fréquence": 6386,
      "alogue": 6387,
      "sie": 6388,
      "statutaire": 6389,
      "réfu": 6390,
      "cumula": 6391,
      "carbur": 6392,
      "recensement": 6393,
      "claire": 6394,
      "nan": 6395,
      "demi": 6396,
      "authen": 6397,
      "accueillant": 6398,
      "refusé": 6399,
      "trouvent": 6400,
      "ép": 6401,
      "envoy": 6402,
      "obtenues": 6403,
      "former": 6404,
      "302": 6405,
      "aéronau": 6406,
      "demeurent": 6407,
      "copropriété": 6408,
      "socio": 6409,
      "minimales": 6410,
      "délibérante": 6411,
      "suffisant": 6412,
      "élaboré": 6413,
      "prescrits": 6414,
      "incombent": 6415,
      "héritiers": 6416,
      "réfugi": 6417,
      "rentes": 6418,
      "revient": 6419,
      "contenues": 6420,
      "demandées": 6421,
      "plainte": 6422,
      "prescrire": 6423,
      "ouvrent": 6424,
      "évaluations": 6425,
      "pont": 6426,
      "autru": 6427,
      "établissent": 6428,
      "directs": 6429,
      "large": 6430,
      "francs": 6431,
      "technicien": 6432,
      "infec": 6433,
      "loyers": 6434,
      "signal": 6435,
      "satisfont": 6436,
      "significative": 6437,
      "orth": 6438,
      "représentative": 6439,
      "technologiques": 6440,
      "Grand": 6441,
      "autrui": 6442,
      "étaient": 6443,
      "aliments": 6444,
      "résulter": 6445,
      "label": 6446,
      "plénière": 6447,
      "différend": 6448,
      "machines": 6449,
      "marquage": 6450,
      "conclues": 6451,
      "présidé": 6452,
      "ennes": 6453,
      "cessé": 6454,
      "poursuivi": 6455,
      "procèdent": 6456,
      "adressés": 6457,
      "performances": 6458,
      "tar": 6459,
      "enlèvement": 6460,
      "pédi": 6461,
      "cadu": 6462,
      "assain": 6463,
      "attestations": 6464,
      "incidents": 6465,
      "pédagogiques": 6466,
      "DIS": 6467,
      "élabore": 6468,
      "agglomération": 6469,
      "migration": 6470,
      "hec": 6471,
      "durées": 6472,
      "réforme": 6473,
      "créés": 6474,
      "placées": 6475,
      "banque": 6476,
      "supprimée": 6477,
      "appropriés": 6478,
      "Aucun": 6479,
      "Etre": 6480,
      "exceptionnelle": 6481,
      "manipu": 6482,
      "artistique": 6483,
      "assujettis": 6484,
      "présidence": 6485,
      "vacc": 6486,
      "réfé": 6487,
      "maintenance": 6488,
      "éclai": 6489,
      "indésir": 6490,
      "fourrière": 6491,
      "calculées": 6492,
      "poursuivie": 6493,
      "impliquant": 6494,
      "post": 6495,
      "rechercher": 6496,
      "patrimoni": 6497,
      "aérop": 6498,
      "LEUR": 6499,
      "lucratif": 6500,
      "fection": 6501,
      "yn": 6502,
      "séqu": 6503,
      "courent": 6504,
      "instituant": 6505,
      "offer": 6506,
      "décidée": 6507,
      "exemplaires": 6508,
      "envisagé": 6509,
      "thérapie": 6510,
      "diligence": 6511,
      "métropolitaine": 6512,
      "profon": 6513,
      "directives": 6514,
      "résultent": 6515,
      "rapportant": 6516,
      "imputable": 6517,
      "prioritaire": 6518,
      "substantielle": 6519,
      "déchéance": 6520,
      "couvrant": 6521,
      "dants": 6522,
      "imprim": 6523,
      "pup": 6524,
      "dérivés": 6525,
      "assainissement": 6526,
      "fu": 6527,
      "males": 6528,
      "transfusion": 6529,
      "salle": 6530,
      "principalement": 6531,
      "initialement": 6532,
      "décidé": 6533,
      "fiscaux": 6534,
      "séparément": 6535,
      "provoquer": 6536,
      "élo": 6537,
      "invali": 6538,
      "consolid": 6539,
      "rénovation": 6540,
      "asser": 6541,
      "POSI": 6542,
      "Fé": 6543,
      "déchargement": 6544,
      "mainlevée": 6545,
      "perspec": 6546,
      "volonté": 6547,
      "Ob": 6548,
      "har": 6549,
      "vendre": 6550,
      "xité": 6551,
      "parvenir": 6552,
      "aggrav": 6553,
      "publiées": 6554,
      "appréciée": 6555,
      "exprimé": 6556,
      "adultes": 6557,
      "erreur": 6558,
      "desser": 6559,
      "illon": 6560,
      "exposé": 6561,
      "doc": 6562,
      "exécutés": 6563,
      "dangers": 6564,
      "prépare": 6565,
      "trimestres": 6566,
      "gérés": 6567,
      "loie": 6568,
      "adjudi": 6569,
      "consulaire": 6570,
      "adjudication": 6571,
      "Bou": 6572,
      "121": 6573,
      "contestations": 6574,
      "envers": 6575,
      "sié": 6576,
      "aign": 6577,
      "pourvu": 6578,
      "CEE": 6579,
      "homme": 6580,
      "terre": 6581,
      "communautés": 6582,
      "réservis": 6583,
      "payé": 6584,
      "convoqué": 6585,
      "servitude": 6586,
      "chô": 6587,
      "mixtes": 6588,
      "passés": 6589,
      "bureaux": 6590,
      "sexies": 6591,
      "terrestres": 6592,
      "émoluments": 6593,
      "ww": 6594,
      "décon": 6595,
      "sition": 6596,
      "préval": 6597,
      "borde": 6598,
      "1984": 6599,
      "entrent": 6600,
      "consolidés": 6601,
      "gérants": 6602,
      "abord": 6603,
      "retés": 6604,
      "effa": 6605,
      "précisés": 6606,
      "supérieurs": 6607,
      "minutes": 6608,
      ".<": 6609,
      "contenus": 6610,
      "chant": 6611,
      "publications": 6612,
      "possé": 6613,
      "accompagnées": 6614,
      "régulier": 6615,
      "Comp": 6616,
      "déontologie": 6617,
      "Nation": 6618,
      "gouvernement": 6619,
      "branches": 6620,
      "budgets": 6621,
      "touris": 6622,
      "ultérieurement": 6623,
      "copropriétaires": 6624,
      "parquet": 6625,
      "culaire": 6626,
      "acquitter": 6627,
      "extérieurs": 6628,
      "défaillance": 6629,
      "offi": 6630,
      "accession": 6631,
      "immigration": 6632,
      "accepter": 6633,
      "identifiant": 6634,
      "exige": 6635,
      "équipage": 6636,
      "fau": 6637,
      "mm": 6638,
      "partiellement": 6639,
      "llectu": 6640,
      "renvoy": 6641,
      "appliqué": 6642,
      "intellectu": 6643,
      "concessions": 6644,
      "rubrique": 6645,
      "scis": 6646,
      "octro": 6647,
      "signes": 6648,
      "appliquée": 6649,
      "pilotage": 6650,
      "meilleurs": 6651,
      "APPLICABLES": 6652,
      "liens": 6653,
      "précision": 6654,
      "nécessitant": 6655,
      "sée": 6656,
      "secondaires": 6657,
      "AUX": 6658,
      "cale": 6659,
      "souscrire": 6660,
      "151": 6661,
      "principaux": 6662,
      "sûretés": 6663,
      "étiquet": 6664,
      "avertissement": 6665,
      "ACTION": 6666,
      "lication": 6667,
      "publie": 6668,
      "partenariat": 6669,
      "ouvriers": 6670,
      "Quatre": 6671,
      "dangereuses": 6672,
      "annul": 6673,
      "énergies": 6674,
      "adressent": 6675,
      "comptabil": 6676,
      "invite": 6677,
      "introduction": 6678,
      "Mon": 6679,
      "intitu": 6680,
      "témoins": 6681,
      "représentent": 6682,
      "valoir": 6683,
      "limité": 6684,
      "244": 6685,
      "fournitures": 6686,
      "percevoir": 6687,
      "perfection": 6688,
      "tox": 6689,
      "modifica": 6690,
      "budgétaires": 6691,
      "prévoyant": 6692,
      "chauffage": 6693,
      "itent": 6694,
      "desdits": 6695,
      "autrement": 6696,
      "hydr": 6697,
      "246": 6698,
      "hospitalière": 6699,
      "financer": 6700,
      "bordere": 6701,
      "gène": 6702,
      "domani": 6703,
      "précédentes": 6704,
      "prescrite": 6705,
      "consignation": 6706,
      "scolarité": 6707,
      "Bu": 6708,
      "lour": 6709,
      "mag": 6710,
      "euro": 6711,
      "ailleurs": 6712,
      "locative": 6713,
      "libérale": 6714,
      "cela": 6715,
      "oph": 6716,
      "affection": 6717,
      "justifiée": 6718,
      "changements": 6719,
      "1999": 6720,
      "grossesse": 6721,
      "concentration": 6722,
      "Fédération": 6723,
      "ET": 6724,
      "ache": 6725,
      "andes": 6726,
      "tries": 6727,
      "conduisant": 6728,
      "recrutés": 6729,
      "pêches": 6730,
      "88": 6731,
      "appu": 6732,
      "dispar": 6733,
      "équipes": 6734,
      "dixième": 6735,
      "assimilées": 6736,
      "MEN": 6737,
      "impose": 6738,
      "restent": 6739,
      "adoptées": 6740,
      "stu": 6741,
      "moteurs": 6742,
      "longueur": 6743,
      "carrés": 6744,
      "divor": 6745,
      "uréat": 6746,
      "èles": 6747,
      "rév": 6748,
      "révocation": 6749,
      "interpr": 6750,
      "couvertes": 6751,
      "nuit": 6752,
      "assistent": 6753,
      "radioprotection": 6754,
      "transition": 6755,
      "audiovisuelles": 6756,
      "facturation": 6757,
      "siégeant": 6758,
      "cocontractant": 6759,
      "chaleur": 6760,
      "cessent": 6761,
      "gouver": 6762,
      "recondu": 6763,
      "prononçant": 6764,
      "emprise": 6765,
      "238": 6766,
      "passif": 6767,
      "génétiques": 6768,
      "hypothèque": 6769,
      "unitaire": 6770,
      "conservatoire": 6771,
      "Ses": 6772,
      "ajus": 6773,
      "pération": 6774,
      "consiste": 6775,
      "secondaire": 6776,
      "populations": 6777,
      "orerie": 6778,
      "trésorerie": 6779,
      "tête": 6780,
      "VM": 6781,
      "cord": 6782,
      "rappe": 6783,
      "naturelles": 6784,
      "possibilités": 6785,
      "vacances": 6786,
      "combattant": 6787,
      "végétaux": 6788,
      "anomalies": 6789,
      "extérieure": 6790,
      "attribuer": 6791,
      "notifiés": 6792,
      "prorogation": 6793,
      "rayonnements": 6794,
      "regroupement": 6795,
      "graphique": 6796,
      "organisateur": 6797,
      "cardi": 6798,
      "225": 6799,
      "disciplines": 6800,
      "interrompu": 6801,
      "outils": 6802,
      "sinistre": 6803,
      "aval": 6804,
      "égales": 6805,
      "majorée": 6806,
      "devoir": 6807,
      "ennemi": 6808,
      "extraits": 6809,
      "pal": 6810,
      "vet": 6811,
      "images": 6812,
      "teneur": 6813,
      "jugements": 6814,
      "enseignant": 6815,
      "DACTION": 6816,
      "coti": 6817,
      "causes": 6818,
      "menées": 6819,
      "conservatoires": 6820,
      "protégés": 6821,
      "géographiques": 6822,
      "infirmités": 6823,
      "ingénieurs": 6824,
      "fondament": 6825,
      "lor": 6826,
      "alo": 6827,
      "mini": 6828,
      "ablement": 6829,
      "consis": 6830,
      "Entre": 6831,
      "culturelles": 6832,
      "Produ": 6833,
      "fronta": 6834,
      "cris": 6835,
      "père": 6836,
      "divul": 6837,
      "conclut": 6838,
      "payées": 6839,
      "bande": 6840,
      "tierce": 6841,
      "quart": 6842,
      "approuvés": 6843,
      "fréquences": 6844,
      "DISPOSI": 6845,
      "4e": 6846,
      "péage": 6847,
      "itième": 6848,
      "affectant": 6849,
      "ascendants": 6850,
      "OPC": 6851,
      "rait": 6852,
      "entiels": 6853,
      "huitième": 6854,
      "habitant": 6855,
      "transférées": 6856,
      "bruit": 6857,
      "binô": 6858,
      "scission": 6859,
      "01": 6860,
      "Sé": 6861,
      "inno": 6862,
      "procla": 6863,
      "moder": 6864,
      "ultérieur": 6865,
      "représenté": 6866,
      "prescrip": 6867,
      "capitalisation": 6868,
      "matérielle": 6869,
      "suffisantes": 6870,
      "temporairement": 6871,
      "exprimée": 6872,
      "détaillé": 6873,
      "litiges": 6874,
      "emplacement": 6875,
      "OPCVM": 6876,
      "fondé": 6877,
      "construc": 6878,
      "respectées": 6879,
      "accomplies": 6880,
      "dispensées": 6881,
      "DU": 6882,
      "préhen": 6883,
      "mandant": 6884,
      "nuis": 6885,
      "systé": 6886,
      "menace": 6887,
      "armement": 6888,
      "citoyen": 6889,
      "étiquetage": 6890,
      "gê": 6891,
      "seille": 6892,
      "interdire": 6893,
      "organisés": 6894,
      "remplacer": 6895,
      "caractères": 6896,
      "stocks": 6897,
      "régissant": 6898,
      "émanant": 6899,
      "octroy": 6900,
      "pondé": 6901,
      "précèdent": 6902,
      "nominative": 6903,
      "émolument": 6904,
      "transparence": 6905,
      "divi": 6906,
      "préalables": 6907,
      "inet": 6908,
      "trau": 6909,
      "actionnaire": 6910,
      "signataires": 6911,
      "consultée": 6912,
      "absor": 6913,
      "spécifications": 6914,
      "mouvement": 6915,
      "XX": 6916,
      "ution": 6917,
      "veu": 6918,
      "égi": 6919,
      "signalisation": 6920,
      "canalisations": 6921,
      "Marseille": 6922,
      "libéral": 6923,
      "bli": 6924,
      "yage": 6925,
      "devis": 6926,
      "commises": 6927,
      "immobilières": 6928,
      "conservé": 6929,
      "récupération": 6930,
      "DISPOSITIONS": 6931,
      "marques": 6932,
      "marines": 6933,
      "conventionnelle": 6934,
      "satisfaisant": 6935,
      "supervision": 6936,
      "RI": 6937,
      "SN": 6938,
      "sort": 6939,
      "orales": 6940,
      "paris": 6941,
      "instituées": 6942,
      "suspensif": 6943,
      "pourrait": 6944,
      "recouvrées": 6945,
      "emplacements": 6946,
      "hiérarchique": 6947,
      "Tit": 6948,
      "sables": 6949,
      "impossible": 6950,
      "imposables": 6951,
      "accala": 6952,
      "particulièrement": 6953,
      "enquêteur": 6954,
      "coupables": 6955,
      "cités": 6956,
      "couvre": 6957,
      "vites": 6958,
      "onne": 6959,
      "enjeux": 6960,
      "formés": 6961,
      "communales": 6962,
      "situe": 6963,
      "consig": 6964,
      "Date": 6965,
      "sibles": 6966,
      "facteurs": 6967,
      "1983": 6968,
      "diminution": 6969,
      "latérale": 6970,
      "infirmité": 6971,
      "paraît": 6972,
      "amortissements": 6973,
      "perfectionnement": 6974,
      "112": 6975,
      "proposée": 6976,
      "graphiques": 6977,
      "classification": 6978,
      "1996": 6979,
      "exonérés": 6980,
      "éligibilité": 6981,
      "TS": 6982,
      "baccala": 6983,
      "zo": 6984,
      "tinent": 6985,
      "pertinent": 6986,
      "maintenu": 6987,
      "douane": 6988,
      "afférente": 6989,
      "compromettre": 6990,
      "ains": 6991,
      "be": 6992,
      "accé": 6993,
      "présum": 6994,
      "sociation": 6995,
      "personnalisé": 6996,
      "prévisible": 6997,
      "dispenser": 6998,
      "anmoins": 6999,
      "confiés": 7000,
      "distinct": 7001,
      "formulées": 7002,
      "lycées": 7003,
      "dénonciation": 7004,
      "TÉ": 7005,
      "interviennent": 7006,
      "pénalement": 7007,
      "succursale": 7008,
      "oxyde": 7009,
      "consolidation": 7010,
      "sures": 7011,
      "carrière": 7012,
      "délibérative": 7013,
      "distingu": 7014,
      "assimilé": 7015,
      "éligible": 7016,
      "EC": 7017,
      "taille": 7018,
      "réexamen": 7019,
      "identique": 7020,
      "calculés": 7021,
      "recommandé": 7022,
      "arrêtées": 7023,
      "nommée": 7024,
      "certifiée": 7025,
      "exigibles": 7026,
      "inclut": 7027,
      "déconcent": 7028,
      "Ouest": 7029,
      "tative": 7030,
      "donation": 7031,
      "garantit": 7032,
      "1246": 7033,
      "humain": 7034,
      "augmenté": 7035,
      "hypothèse": 7036,
      "modern": 7037,
      "dividen": 7038,
      "Celle": 7039,
      "dépu": 7040,
      "survenus": 7041,
      "Eur": 7042,
      "faus": 7043,
      "hol": 7044,
      "odont": 7045,
      "diver": 7046,
      "métri": 7047,
      "aille": 7048,
      "modèles": 7049,
      "contrevenir": 7050,
      "certifications": 7051,
      "notifier": 7052,
      "afférent": 7053,
      "conservent": 7054,
      "pulsion": 7055,
      "loisirs": 7056,
      "97": 7057,
      "exposant": 7058,
      "industries": 7059,
      "Chac": 7060,
      "motivées": 7061,
      "occupé": 7062,
      "protéger": 7063,
      "incluant": 7064,
      "anonyme": 7065,
      "partagé": 7066,
      "baccalauréat": 7067,
      "plas": 7068,
      "nomme": 7069,
      "appelée": 7070,
      "recueillis": 7071,
      "recouvrée": 7072,
      "restreinte": 7073,
      "manifeste": 7074,
      "téléphone": 7075,
      "Constitution": 7076,
      "extraordinaire": 7077,
      "fluvial": 7078,
      "trouv": 7079,
      "minér": 7080,
      "humaines": 7081,
      "nettes": 7082,
      "conférant": 7083,
      "gère": 7084,
      "atteste": 7085,
      "mination": 7086,
      "réputées": 7087,
      "fournissent": 7088,
      "supportés": 7089,
      "excèdent": 7090,
      "survenu": 7091,
      "similaires": 7092,
      "chômage": 7093,
      "SA": 7094,
      "sées": 7095,
      "installés": 7096,
      "résidences": 7097,
      "violences": 7098,
      "harmon": 7099,
      "effacement": 7100,
      "cants": 7101,
      "sorti": 7102,
      "uration": 7103,
      "apatri": 7104,
      "chercheurs": 7105,
      "déficit": 7106,
      "universel": 7107,
      "interministériel": 7108,
      "défen": 7109,
      "Parti": 7110,
      "2024": 7111,
      "désignent": 7112,
      "traç": 7113,
      "fabricants": 7114,
      "emballage": 7115,
      "prévaloir": 7116,
      "CH": 7117,
      "pétro": 7118,
      "reçue": 7119,
      "Dépar": 7120,
      "jection": 7121,
      "communautaires": 7122,
      ".)": 7123,
      "Cin": 7124,
      "èses": 7125,
      "réelles": 7126,
      "devra": 7127,
      "protégé": 7128,
      "diminué": 7129,
      "dispensé": 7130,
      "nantissement": 7131,
      "io": 7132,
      "élit": 7133,
      "trer": 7134,
      "exclus": 7135,
      "auth": 7136,
      "entrepos": 7137,
      "évalue": 7138,
      "allouées": 7139,
      "pécuniaire": 7140,
      "évac": 7141,
      "rement": 7142,
      "inscrire": 7143,
      "souterrain": 7144,
      "respectant": 7145,
      "milieux": 7146,
      "latéral": 7147,
      "cabinet": 7148,
      "SNCF": 7149,
      "composés": 7150,
      "doté": 7151,
      "nivers": 7152,
      "réservés": 7153,
      "appliquant": 7154,
      "apprécié": 7155,
      "familiaux": 7156,
      "occupés": 7157,
      "tacite": 7158,
      "contractuelles": 7159,
      "promoteur": 7160,
      "urbain": 7161,
      "préparer": 7162,
      "Car": 7163,
      "Taux": 7164,
      "motor": 7165,
      "planification": 7166,
      "pleine": 7167,
      "perçoivent": 7168,
      "rendent": 7169,
      "atrices": 7170,
      "actualisation": 7171,
      "EPS": 7172,
      "ifi": 7173,
      "rières": 7174,
      "nateurs": 7175,
      "constitutifs": 7176,
      "tentative": 7177,
      "encourue": 7178,
      "détaillée": 7179,
      "prévisibles": 7180,
      "modernisation": 7181,
      "traçabilité": 7182,
      "vul": 7183,
      "connue": 7184,
      "précède": 7185,
      "anonymes": 7186,
      "alerte": 7187,
      "blio": 7188,
      "marche": 7189,
      "dépis": 7190,
      "exigibilité": 7191,
      "réductions": 7192,
      "occuper": 7193,
      "qualifiés": 7194,
      "significatives": 7195,
      "gérance": 7196,
      "privilège": 7197,
      "Ro": 7198,
      "haute": 7199,
      "ledit": 7200,
      "ilom": 7201,
      "108": 7202,
      "appels": 7203,
      "causés": 7204,
      "constatations": 7205,
      "paragraphes": 7206,
      "sollicité": 7207,
      "retenir": 7208,
      "décompte": 7209,
      "mentionner": 7210,
      "ries": 7211,
      "télévision": 7212,
      "radioactifs": 7213,
      "normalement": 7214,
      "proportionnellement": 7215,
      "décédé": 7216,
      "raisonnable": 7217,
      "Bulletin": 7218,
      "Ai": 7219,
      "kilom": 7220,
      "ète": 7221,
      "respir": 7222,
      "entrer": 7223,
      "pilote": 7224,
      "puissent": 7225,
      "prévisionnelle": 7226,
      "remboursés": 7227,
      "holding": 7228,
      "timbre": 7229,
      "dolog": 7230,
      "plantes": 7231,
      "postérieur": 7232,
      "opéré": 7233,
      "cadas": 7234,
      "accompagnés": 7235,
      "conçus": 7236,
      "thermique": 7237,
      "théorique": 7238,
      "Vi": 7239,
      "gue": 7240,
      "proch": 7241,
      "nonies": 7242,
      "entiques": 7243,
      "fondations": 7244,
      "contribuent": 7245,
      "1990": 7246,
      "cycles": 7247,
      "chasseurs": 7248,
      "stipulation": 7249,
      "brute": 7250,
      "antérieures": 7251,
      "alcool": 7252,
      "psychiatri": 7253,
      "lecture": 7254,
      "magas": 7255,
      "fil": 7256,
      "endo": 7257,
      "lition": 7258,
      "sure": 7259,
      "frapp": 7260,
      "opérée": 7261,
      "journal": 7262,
      "variation": 7263,
      "Trans": 7264,
      "ME": 7265,
      "obtenue": 7266,
      "définitives": 7267,
      "majoritaire": 7268,
      "mobilier": 7269,
      "écologique": 7270,
      ">(": 7271,
      "contrainte": 7272,
      "employé": 7273,
      "différé": 7274,
      "conduites": 7275,
      "permanents": 7276,
      "climatique": 7277,
      "démarche": 7278,
      "démarches": 7279,
      "élimination": 7280,
      "hydrau": 7281,
      "vitesse": 7282,
      "Cer": 7283,
      "PA": 7284,
      "fou": 7285,
      "présentes": 7286,
      "cuse": 7287,
      "manqu": 7288,
      "servies": 7289,
      "drome": 7290,
      "appliquées": 7291,
      "combin": 7292,
      "ruraux": 7293,
      "contestée": 7294,
      "souscrite": 7295,
      "effort": 7296,
      "undecies": 7297,
      "défici": 7298,
      "légi": 7299,
      "affections": 7300,
      "gatives": 7301,
      "échang": 7302,
      "livraisons": 7303,
      "chèques": 7304,
      "testa": 7305,
      "fractions": 7306,
      "associée": 7307,
      "nets": 7308,
      "volumes": 7309,
      "plateformes": 7310,
      "requérir": 7311,
      "ascense": 7312,
      "bliothè": 7313,
      "émar": 7314,
      "ino": 7315,
      "intercommunal": 7316,
      "littoral": 7317,
      "collégi": 7318,
      "identifié": 7319,
      "journalières": 7320,
      "Ceux": 7321,
      "rappel": 7322,
      "envelop": 7323,
      "vices": 7324,
      "dispensée": 7325,
      "expédi": 7326,
      "original": 7327,
      "dégrad": 7328,
      "référé": 7329,
      "tranche": 7330,
      "aptitudes": 7331,
      "effectuant": 7332,
      "bâtis": 7333,
      "durabilité": 7334,
      "passibles": 7335,
      "édictées": 7336,
      "harma": 7337,
      "èlement": 7338,
      "indûment": 7339,
      "allè": 7340,
      "recette": 7341,
      "moyennes": 7342,
      "Marne": 7343,
      "contractuel": 7344,
      "aériens": 7345,
      "volontairement": 7346,
      "descendants": 7347,
      "spectacle": 7348,
      "Bour": 7349,
      "concourent": 7350,
      "réclusion": 7351,
      "prélimin": 7352,
      "méd": 7353,
      "thèses": 7354,
      "Confédération": 7355,
      "réunis": 7356,
      "sciences": 7357,
      "Mention": 7358,
      "inon": 7359,
      "ordonné": 7360,
      "exécute": 7361,
      "référent": 7362,
      "appartenance": 7363,
      "biogaz": 7364,
      "greffiers": 7365,
      "distincts": 7366,
      "troph": 7367,
      "Département": 7368,
      "encad": 7369,
      "réside": 7370,
      "1985": 7371,
      "chiffres": 7372,
      "indépendante": 7373,
      "diligences": 7374,
      "ramen": 7375,
      "dule": 7376,
      "libé": 7377,
      "votre": 7378,
      "incombant": 7379,
      "accompagner": 7380,
      "Canton": 7381,
      "pourraient": 7382,
      "ouillement": 7383,
      "baign": 7384,
      "plais": 7385,
      "nommées": 7386,
      "techniciens": 7387,
      "étend": 7388,
      "lésions": 7389,
      "mobilisation": 7390,
      "Anne": 7391,
      "restrictions": 7392,
      "Cinq": 7393,
      "Cré": 7394,
      "desdites": 7395,
      "conta": 7396,
      "nonobstant": 7397,
      "avisé": 7398,
      "07": 7399,
      "empre": 7400,
      "280": 7401,
      "COM": 7402,
      "Do": 7403,
      "entis": 7404,
      "rétro": 7405,
      "recla": 7406,
      "précités": 7407,
      "atteints": 7408,
      "mutualis": 7409,
      "renouvelé": 7410,
      "intégrale": 7411,
      "examiner": 7412,
      "antérieurs": 7413,
      "mécanisme": 7414,
      "Titre": 7415,
      "enveloppes": 7416,
      "JEPS": 7417,
      "wat": 7418,
      "chasser": 7419,
      "remplie": 7420,
      "normales": 7421,
      "débiteurs": 7422,
      "trouble": 7423,
      "éditeur": 7424,
      "scellés": 7425,
      "dépistage": 7426,
      "Rég": 7427,
      "kg": 7428,
      "insérés": 7429,
      "ionis": 7430,
      "froi": 7431,
      "subis": 7432,
      "engin": 7433,
      "infection": 7434,
      "immédiat": 7435,
      "paysages": 7436,
      "LÉ": 7437,
      "OU": 7438,
      "tiré": 7439,
      "saisies": 7440,
      "musi": 7441,
      "réguliers": 7442,
      "périmètres": 7443,
      "acquitté": 7444,
      "enregistrés": 7445,
      "numéraire": 7446,
      "chirurgien": 7447,
      "externe": 7448,
      "importateur": 7449,
      "inage": 7450,
      "manu": 7451,
      "sauvet": 7452,
      "recevant": 7453,
      "connaît": 7454,
      "psycho": 7455,
      "plaisance": 7456,
      "PAR": 7457,
      "acomptes": 7458,
      "êtes": 7459,
      "avaient": 7460,
      "plon": 7461,
      "guë": 7462,
      "juridictionnelle": 7463,
      "participé": 7464,
      "préserver": 7465,
      "procuration": 7466,
      "intellectuelle": 7467,
      "ionisants": 7468,
      "712": 7469,
      "bille": 7470,
      "haus": 7471,
      "fixes": 7472,
      "contrôleurs": 7473,
      "explosifs": 7474,
      "quêtes": 7475,
      "1649": 7476,
      "résidents": 7477,
      "ménage": 7478,
      "clientèle": 7479,
      "pourront": 7480,
      "récapitula": 7481,
      "Loire": 7482,
      "rétrac": 7483,
      "dépouillement": 7484,
      "syndical": 7485,
      "nominations": 7486,
      "embauche": 7487,
      "approuvée": 7488,
      "diriger": 7489,
      "réfugiés": 7490,
      "reversement": 7491,
      "répression": 7492,
      "humains": 7493,
      "notifications": 7494,
      "fraudule": 7495,
      "expérimentation": 7496,
      "conver": 7497,
      "rééducation": 7498,
      "fiants": 7499,
      "125": 7500,
      "retraites": 7501,
      "apportée": 7502,
      "dentiste": 7503,
      "authentique": 7504,
      "QUE": 7505,
      "pav": 7506,
      "épi": 7507,
      "requêtes": 7508,
      "alt": 7509,
      "exercés": 7510,
      "opérationnel": 7511,
      "enregistrée": 7512,
      "incompatible": 7513,
      "téri": 7514,
      "orph": 7515,
      "décharge": 7516,
      "parcelle": 7517,
      "talement": 7518,
      "adoles": 7519,
      "mesur": 7520,
      "remplaçant": 7521,
      "consulaires": 7522,
      "/>-": 7523,
      "accueillie": 7524,
      "substitue": 7525,
      "Association": 7526,
      "annexés": 7527,
      "collaborateurs": 7528,
      "génétiquement": 7529,
      "pétitionnaire": 7530,
      "agriculteurs": 7531,
      "stupé": 7532,
      "400": 7533,
      "AL": 7534,
      "RES": 7535,
      "isse": 7536,
      "param": 7537,
      "interdits": 7538,
      "cartes": 7539,
      "dépendance": 7540,
      "composants": 7541,
      "indispensables": 7542,
      "dépose": 7543,
      "répartie": 7544,
      "délégations": 7545,
      "lettres": 7546,
      "armateur": 7547,
      "complétée": 7548,
      "RÉDACTION": 7549,
      "descriptif": 7550,
      "aéronautique": 7551,
      "achemin": 7552,
      "dress": 7553,
      "vais": 7554,
      "céré": 7555,
      "interentreprises": 7556,
      "accise": 7557,
      "défun": 7558,
      "économies": 7559,
      "convoque": 7560,
      "approuve": 7561,
      "billets": 7562,
      "Ni": 7563,
      "nau": 7564,
      "ties": 7565,
      "tests": 7566,
      ".*": 7567,
      "250": 7568,
      "Tri": 7569,
      "couverte": 7570,
      "py": 7571,
      "volet": 7572,
      "blessures": 7573,
      "utilise": 7574,
      "conducteurs": 7575,
      "bons": 7576,
      "rattachées": 7577,
      "quitter": 7578,
      "convenu": 7579,
      "domestiques": 7580,
      "prescripteur": 7581,
      "préhension": 7582,
      "dage": 7583,
      "tirage": 7584,
      "ani": 7585,
      "directions": 7586,
      "supprimées": 7587,
      "486": 7588,
      "déroule": 7589,
      "ferroviaires": 7590,
      "anticipée": 7591,
      "pavillon": 7592,
      "Lo": 7593,
      "feux": 7594,
      "ki": 7595,
      "options": 7596,
      "demandent": 7597,
      "productions": 7598,
      "routiers": 7599,
      "gibi": 7600,
      "filière": 7601,
      "conflit": 7602,
      "faune": 7603,
      "Loi": 7604,
      "identiques": 7605,
      "102": 7606,
      "107": 7607,
      "respecté": 7608,
      "foncières": 7609,
      "importante": 7610,
      "radioélectriques": 7611,
      "prélevés": 7612,
      "vaccin": 7613,
      "défunt": 7614,
      "Qui": 7615,
      "adhé": 7616,
      "signés": 7617,
      "phytop": 7618,
      "traités": 7619,
      "industrielles": 7620,
      "Dép": 7621,
      "reconduction": 7622,
      "lexion": 7623,
      "parallè": 7624,
      "forte": 7625,
      "consentis": 7626,
      "liquides": 7627,
      "inférieurs": 7628,
      "équivalents": 7629,
      "ajoutés": 7630,
      "chirurgiens": 7631,
      "influence": 7632,
      "ront": 7633,
      "récus": 7634,
      "proches": 7635,
      "agro": 7636,
      "terrestre": 7637,
      "1945": 7638,
      "auxiliaire": 7639,
      "Person": 7640,
      "dimensions": 7641,
      "Que": 7642,
      "vence": 7643,
      "arie": 7644,
      "aspec": 7645,
      "mosph": 7646,
      "transfronta": 7647,
      "Six": 7648,
      "consulte": 7649,
      "indépendamment": 7650,
      "délimitation": 7651,
      "mélanges": 7652,
      "sanguine": 7653,
      "développer": 7654,
      "119": 7655,
      "quent": 7656,
      "lière": 7657,
      "vendus": 7658,
      "malades": 7659,
      "écriture": 7660,
      "informatiques": 7661,
      "fabriqués": 7662,
      "Provence": 7663,
      "flux": 7664,
      "atmosph": 7665,
      "demandés": 7666,
      "locatif": 7667,
      "primi": 7668,
      "aménager": 7669,
      "fournie": 7670,
      "Châ": 7671,
      "intervenu": 7672,
      "756": 7673,
      "énoncés": 7674,
      "petites": 7675,
      "sorte": 7676,
      "BE": 7677,
      "réversion": 7678,
      "cédé": 7679,
      "suffisamment": 7680,
      "parcs": 7681,
      "connexes": 7682,
      "logiciels": 7683,
      "phytopharma": 7684,
      "contin": 7685,
      "sives": 7686,
      "forma": 7687,
      "traiter": 7688,
      "itinér": 7689,
      "environnementales": 7690,
      "déducti": 7691,
      "forestières": 7692,
      "prioritaires": 7693,
      "fraudes": 7694,
      "démolition": 7695,
      "dentistes": 7696,
      "dante": 7697,
      "enis": 7698,
      "exposées": 7699,
      "moyennant": 7700,
      "adéqu": 7701,
      "souscrites": 7702,
      "compara": 7703,
      "comparution": 7704,
      "éducatif": 7705,
      "prolongé": 7706,
      "quotidi": 7707,
      "trimestrie": 7708,
      "photographie": 7709,
      "possède": 7710,
      "erie": 7711,
      "ura": 7712,
      "persis": 7713,
      "crivent": 7714,
      "ouvrés": 7715,
      "équilib": 7716,
      "ressource": 7717,
      "occasionnés": 7718,
      "accepte": 7719,
      "bancaires": 7720,
      "vulnér": 7721,
      "Pôle": 7722,
      "révisé": 7723,
      "érité": 7724,
      "max": 7725,
      "séparation": 7726,
      "interconnexion": 7727,
      "réponses": 7728,
      "septies": 7729,
      "empêcher": 7730,
      "exactitude": 7731,
      "Fabri": 7732,
      "repro": 7733,
      "ciaire": 7734,
      "recy": 7735,
      "transf": 7736,
      "collections": 7737,
      "modifiées": 7738,
      "preneurs": 7739,
      "170": 7740,
      "accueillir": 7741,
      "intégré": 7742,
      "choisies": 7743,
      "journaux": 7744,
      "Nombre": 7745,
      "aéropor": 7746,
      "éloignement": 7747,
      "stupéfiants": 7748,
      "Mé": 7749,
      "Num": 7750,
      "prohi": 7751,
      "excessi": 7752,
      "pourv": 7753,
      "mpt": 7754,
      "profil": 7755,
      "financements": 7756,
      "CON": 7757,
      "Ville": 7758,
      "lants": 7759,
      "compli": 7760,
      "Inter": 7761,
      "suspend": 7762,
      "575": 7763,
      "ubr": 7764,
      "réus": 7765,
      "tableaux": 7766,
      "plafon": 7767,
      "condamnations": 7768,
      "affilié": 7769,
      "enregistrements": 7770,
      "avenants": 7771,
      "transféré": 7772,
      "bassins": 7773,
      "privilégi": 7774,
      "Jusqu": 7775,
      "Don": 7776,
      "Pr": 7777,
      "épo": 7778,
      "incar": 7779,
      "agères": 7780,
      "dotés": 7781,
      "enceinte": 7782,
      "autorou": 7783,
      "périodiques": 7784,
      "engagent": 7785,
      "quartier": 7786,
      "encourues": 7787,
      "succursales": 7788,
      "ubrité": 7789,
      "Ca": 7790,
      "Po": 7791,
      "remédi": 7792,
      "procréation": 7793,
      "relevés": 7794,
      "mutuel": 7795,
      "indiquées": 7796,
      "handicapé": 7797,
      "artistiques": 7798,
      "oeuvres": 7799,
      "exemple": 7800,
      "consenties": 7801,
      "réparations": 7802,
      "115": 7803,
      "Ag": 7804,
      "Can": 7805,
      "alablement": 7806,
      "bloc": 7807,
      "pin": 7808,
      "reprendre": 7809,
      "inexécution": 7810,
      "malade": 7811,
      "Préalablement": 7812,
      "Seuls": 7813,
      "concord": 7814,
      "grie": 7815,
      "échéances": 7816,
      "exécutées": 7817,
      "totalement": 7818,
      "jointes": 7819,
      "tribue": 7820,
      "index": 7821,
      "dérogé": 7822,
      "accueillies": 7823,
      "inférieures": 7824,
      "construits": 7825,
      "enregistré": 7826,
      "professeurs": 7827,
      "gibier": 7828,
      "dité": 7829,
      "stron": 7830,
      "requiert": 7831,
      "révé": 7832,
      "postal": 7833,
      "utilisatrice": 7834,
      "exécutée": 7835,
      "accompagne": 7836,
      "242": 7837,
      "remboursements": 7838,
      "forfaitaires": 7839,
      "imputables": 7840,
      "coupable": 7841,
      "historique": 7842,
      "bordereau": 7843,
      "600": 7844,
      "stabilité": 7845,
      "revendi": 7846,
      "définissent": 7847,
      "accepté": 7848,
      "musées": 7849,
      "chronique": 7850,
      "défavorable": 7851,
      "strong": 7852,
      "chy": 7853,
      "représentatifs": 7854,
      "généralement": 7855,
      "consultés": 7856,
      "appliqués": 7857,
      "évalué": 7858,
      "consentir": 7859,
      "rapi": 7860,
      "revêtu": 7861,
      "résis": 7862,
      "encourt": 7863,
      "invalides": 7864,
      "phytopharmaceuti": 7865,
      "Pas": 7866,
      "ôles": 7867,
      "aller": 7868,
      "accuse": 7869,
      "domin": 7870,
      "stand": 7871,
      "respectifs": 7872,
      "jointe": 7873,
      "favorables": 7874,
      "mécanique": 7875,
      "chute": 7876,
      "déconcentrés": 7877,
      "trouver": 7878,
      "prop": 7879,
      "exceptions": 7880,
      "forcée": 7881,
      "opin": 7882,
      "voter": 7883,
      "représentées": 7884,
      "légu": 7885,
      "condamnées": 7886,
      "centrales": 7887,
      "quotas": 7888,
      "offices": 7889,
      "reclassement": 7890,
      "220": 7891,
      "délin": 7892,
      "paraly": 7893,
      "exprès": 7894,
      "géo": 7895,
      "métal": 7896,
      "aissent": 7897,
      "modalité": 7898,
      "Denis": 7899,
      "ires": 7900,
      "reproduit": 7901,
      "connus": 7902,
      "culturels": 7903,
      "bains": 7904,
      "différente": 7905,
      "adopte": 7906,
      "végétales": 7907,
      "sinistres": 7908,
      "rectifica": 7909,
      "fun": 7910,
      "découverte": 7911,
      "résistance": 7912,
      "convoquée": 7913,
      "annexée": 7914,
      "allouée": 7915,
      "Montant": 7916,
      "isolement": 7917,
      "corporels": 7918,
      "sauvetage": 7919,
      "Avoir": 7920,
      "deviennent": 7921,
      "tré": 7922,
      "ases": 7923,
      "compen": 7924,
      "vième": 7925,
      "notes": 7926,
      "interpré": 7927,
      "garant": 7928,
      "étendu": 7929,
      "2025": 7930,
      "débar": 7931,
      "rappro": 7932,
      "TRA": 7933,
      "mélange": 7934,
      "1re": 7935,
      "abus": 7936,
      "imposent": 7937,
      "204": 7938,
      "rencontr": 7939,
      "corrig": 7940,
      "réalisent": 7941,
      "cependant": 7942,
      "causé": 7943,
      "chiment": 7944,
      "privative": 7945,
      "bercu": 7946,
      "choisie": 7947,
      "neuvième": 7948,
      "intégrée": 7949,
      "témoin": 7950,
      "émargement": 7951,
      "orphel": 7952,
      "ski": 7953,
      "perd": 7954,
      "opie": 7955,
      "plur": 7956,
      "soumission": 7957,
      "grès": 7958,
      "vénale": 7959,
      "distribués": 7960,
      "achats": 7961,
      "artistes": 7962,
      "rattachés": 7963,
      "Fabrication": 7964,
      "Cat": 7965,
      "Met": 7966,
      "gènes": 7967,
      "entier": 7968,
      "stations": 7969,
      "constitutives": 7970,
      "pratiquée": 7971,
      "gramme": 7972,
      "tradition": 7973,
      "substituer": 7974,
      "végétale": 7975,
      "renoncer": 7976,
      "sérieux": 7977,
      "téléser": 7978,
      "desserte": 7979,
      "Im": 7980,
      "ève": 7981,
      "débu": 7982,
      "obser": 7983,
      "contrôlées": 7984,
      "carence": 7985,
      "cipi": 7986,
      "salariées": 7987,
      "précitées": 7988,
      "invité": 7989,
      "fruits": 7990,
      "Ave": 7991,
      "Mer": 7992,
      "ières": 7993,
      "qualités": 7994,
      "sifi": 7995,
      "dioxyde": 7996,
      "érique": 7997,
      "sitôt": 7998,
      "mathé": 7999,
      "mener": 8000,
      "dys": 8001,
      "pharmaco": 8002,
      "complètes": 8003,
      "inspections": 8004,
      "technologies": 8005,
      "régulariser": 8006,
      "traduction": 8007,
      "révoc": 8008,
      "homologué": 8009,
      "PE": 8010,
      "bref": 8011,
      "élar": 8012,
      "inaptitude": 8013,
      "chlor": 8014,
      "pois": 8015,
      "rapportent": 8016,
      "relever": 8017,
      "habituel": 8018,
      "acceptée": 8019,
      "immatricu": 8020,
      "incompatibles": 8021,
      "sensibil": 8022,
      "largeur": 8023,
      "Opér": 8024,
      "mau": 8025,
      "contenir": 8026,
      "torale": 8027,
      "préside": 8028,
      "genre": 8029,
      "cotisant": 8030,
      "Mob": 8031,
      "chaus": 8032,
      "poursuit": 8033,
      "mensuellement": 8034,
      "entendus": 8035,
      "Selon": 8036,
      "effi": 8037,
      "tirés": 8038,
      "extin": 8039,
      "usées": 8040,
      "servatoire": 8041,
      "pied": 8042,
      "douanier": 8043,
      "NATION": 8044,
      "arrondi": 8045,
      "outil": 8046,
      "vitro": 8047,
      "blanchiment": 8048,
      "commencement": 8049,
      "apatrides": 8050,
      "LIS": 8051,
      "RA": 8052,
      "TIV": 8053,
      "page": 8054,
      "ran": 8055,
      "rétab": 8056,
      "administre": 8057,
      "visible": 8058,
      "instituts": 8059,
      "181": 8060,
      "orthop": 8061,
      "manipulation": 8062,
      "défendeur": 8063,
      "scé": 8064,
      "édifi": 8065,
      "gnité": 8066,
      "carré": 8067,
      "entièrement": 8068,
      "européennes": 8069,
      "précisé": 8070,
      "expertis": 8071,
      "circonscriptions": 8072,
      "exonérées": 8073,
      "Dur": 8074,
      "Gar": 8075,
      "décri": 8076,
      "certifié": 8077,
      "certifiés": 8078,
      "coordonne": 8079,
      "foyers": 8080,
      "audiovisuels": 8081,
      "navigables": 8082,
      "usufruit": 8083,
      "intitulé": 8084,
      "médaille": 8085,
      "aci": 8086,
      "acompte": 8087,
      "faut": 8088,
      "agrég": 8089,
      "uels": 8090,
      "postale": 8091,
      "intéressement": 8092,
      "pratiqués": 8093,
      "intérieures": 8094,
      "artisanale": 8095,
      "sélec": 8096,
      "préliminaire": 8097,
      "confin": 8098,
      "fondation": 8099,
      "signalement": 8100,
      "cancer": 8101,
      "veillent": 8102,
      "imputation": 8103,
      "urbaines": 8104,
      "financés": 8105,
      "collaboration": 8106,
      "évolutions": 8107,
      "Bouches": 8108,
      "431": 8109,
      "lets": 8110,
      "ordonnées": 8111,
      "indiqués": 8112,
      "instruit": 8113,
      "valables": 8114,
      "ordinaires": 8115,
      "évalués": 8116,
      "similaire": 8117,
      "(*)": 8118,
      "divorce": 8119,
      "scén": 8120,
      "Nom": 8121,
      "âts": 8122,
      "réinsertion": 8123,
      "ponctu": 8124,
      "nulle": 8125,
      "naître": 8126,
      "attester": 8127,
      "fonciers": 8128,
      "identifie": 8129,
      "Année": 8130,
      "quotité": 8131,
      "ingénieur": 8132,
      "futur": 8133,
      "préro": 8134,
      "cumulé": 8135,
      "limitr": 8136,
      "absorb": 8137,
      "m2": 8138,
      "micro": 8139,
      "rir": 8140,
      "bibliothè": 8141,
      "carrières": 8142,
      "faç": 8143,
      "évaluée": 8144,
      "acquittée": 8145,
      "navigant": 8146,
      "carbures": 8147,
      "propag": 8148,
      "expertises": 8149,
      "bat": 8150,
      "entation": 8151,
      "socié": 8152,
      "entrep": 8153,
      "collectées": 8154,
      "133": 8155,
      "civique": 8156,
      "indiquent": 8157,
      "hémo": 8158,
      "continuer": 8159,
      "filières": 8160,
      "comparable": 8161,
      "brevets": 8162,
      "Ordon": 8163,
      "pertinentes": 8164,
      "baignade": 8165,
      "rétractation": 8166,
      "ae": 8167,
      "nances": 8168,
      "pat": 8169,
      "rendant": 8170,
      "tter": 8171,
      "€,": 8172,
      "détéri": 8173,
      "collectés": 8174,
      "journées": 8175,
      "netto": 8176,
      "convoqués": 8177,
      "entraîné": 8178,
      "approuvées": 8179,
      "stratégiques": 8180,
      "simplifiée": 8181,
      "découlant": 8182,
      "évacuation": 8183,
      "compenser": 8184,
      "mauvais": 8185,
      "omp": 8186,
      "éva": 8187,
      "paritaires": 8188,
      "présomp": 8189,
      "Résistance": 8190,
      "111": 8191,
      "centraux": 8192,
      "équivalence": 8193,
      "acquittement": 8194,
      "rejetée": 8195,
      "expédit": 8196,
      "230": 8197,
      "niers": 8198,
      "référentiels": 8199,
      "appelées": 8200,
      "trajet": 8201,
      "excédents": 8202,
      "préférence": 8203,
      "onze": 8204,
      "dialogue": 8205,
      "chent": 8206,
      "lose": 8207,
      "ensembles": 8208,
      "exigent": 8209,
      "contractées": 8210,
      "détaché": 8211,
      "1992": 8212,
      "simples": 8213,
      "ANT": 8214,
      "éducateur": 8215,
      "solutions": 8216,
      "dimension": 8217,
      "combustibles": 8218,
      "récapitulatif": 8219,
      "Copie": 8220,
      "grandes": 8221,
      "uelles": 8222,
      "emploie": 8223,
      "ordonnances": 8224,
      "subsis": 8225,
      "validé": 8226,
      "estimée": 8227,
      "substituée": 8228,
      "indirecte": 8229,
      "multiples": 8230,
      "côté": 8231,
      "gêne": 8232,
      "kilomètres": 8233,
      "Annexe": 8234,
      "effica": 8235,
      "prérogatives": 8236,
      "375": 8237,
      "529": 8238,
      "800": 8239,
      "Fi": 8240,
      "GE": 8241,
      "Nat": 8242,
      "arités": 8243,
      "simu": 8244,
      "semi": 8245,
      "expose": 8246,
      "micité": 8247,
      "souscriptions": 8248,
      "chaî": 8249,
      "certifiant": 8250,
      "cluses": 8251,
      "différent": 8252,
      "liquidée": 8253,
      "intervenants": 8254,
      "sollicitée": 8255,
      "sismicité": 8256,
      "hypothé": 8257,
      "ménages": 8258,
      "arbres": 8259,
      "Alpes": 8260,
      "récolte": 8261,
      "Ordonnance": 8262,
      "brig": 8263,
      "évi": 8264,
      "orations": 8265,
      "servie": 8266,
      "traitées": 8267,
      "inviter": 8268,
      "transférer": 8269,
      "survenance": 8270,
      "prorogé": 8271,
      "emballages": 8272,
      "prolongée": 8273,
      "réprimée": 8274,
      "franchise": 8275,
      "ii": 8276,
      "km": 8277,
      "ores": 8278,
      "déposant": 8279,
      "arrêts": 8280,
      "1955": 8281,
      "subir": 8282,
      "bonifi": 8283,
      "crimes": 8284,
      "passées": 8285,
      "hôte": 8286,
      "musée": 8287,
      "pécuniaires": 8288,
      "carburants": 8289,
      "Pu": 8290,
      "ja": 8291,
      "revalor": 8292,
      "urbains": 8293,
      "réanimation": 8294,
      "jugées": 8295,
      "réalisant": 8296,
      "1253": 8297,
      "tempér": 8298,
      "déroger": 8299,
      "définissant": 8300,
      "605": 8301,
      "télécommunications": 8302,
      "hypothèses": 8303,
      "psychologique": 8304,
      "élaborer": 8305,
      "progressive": 8306,
      "reprochés": 8307,
      "flui": 8308,
      "pel": 8309,
      "ffec": 8310,
      "interval": 8311,
      "transporteurs": 8312,
      "subsi": 8313,
      "liquide": 8314,
      "nominale": 8315,
      "rembourser": 8316,
      "provisoires": 8317,
      "populaire": 8318,
      "Regis": 8319,
      "agerie": 8320,
      "chemins": 8321,
      "archéologique": 8322,
      "indésirables": 8323,
      "Trib": 8324,
      "Rou": 8325,
      "lite": 8326,
      "arts": 8327,
      "agère": 8328,
      "\">-": 8329,
      "opti": 8330,
      "opposé": 8331,
      "obli": 8332,
      "éries": 8333,
      "biolog": 8334,
      "susmentionné": 8335,
      "limat": 8336,
      "déléguées": 8337,
      "observatoire": 8338,
      "exonérations": 8339,
      "1989": 8340,
      "Constitue": 8341,
      "Registre": 8342,
      "gage": 8343,
      "vr": 8344,
      "tration": 8345,
      "minier": 8346,
      "portions": 8347,
      "interprofessionnelle": 8348,
      "catas": 8349,
      "continent": 8350,
      "adoptée": 8351,
      "volont": 8352,
      "modulation": 8353,
      "psychiatriques": 8354,
      "parallèle": 8355,
      "quotidienne": 8356,
      "Natura": 8357,
      "Prés": 8358,
      "nalisation": 8359,
      "sité": 8360,
      "décomp": 8361,
      "compos": 8362,
      "permission": 8363,
      "ègent": 8364,
      "déléguée": 8365,
      "accorde": 8366,
      "académiques": 8367,
      "intermédiation": 8368,
      "rattachée": 8369,
      "contractuelle": 8370,
      "écoulée": 8371,
      "Nonobstant": 8372,
      "adéquation": 8373,
      "griefs": 8374,
      "phytopharmaceutiques": 8375,
      "Dou": 8376,
      "faux": 8377,
      "lutter": 8378,
      "interdépartementale": 8379,
      "conventionnelles": 8380,
      "Réseau": 8381,
      "176": 8382,
      "ministères": 8383,
      "refusée": 8384,
      "consentie": 8385,
      "ascendant": 8386,
      "cautionnement": 8387,
      "immatriculée": 8388,
      "abords": 8389,
      "Tribun": 8390,
      "parlement": 8391,
      "réutilisation": 8392,
      "opport": 8393,
      "soup": 8394,
      "relais": 8395,
      "expi": 8396,
      "menaces": 8397,
      "dépendances": 8398,
      "choisir": 8399,
      "technologie": 8400,
      "mécaniques": 8401,
      "pompier": 8402,
      "consolidée": 8403,
      "importants": 8404,
      "ventilation": 8405,
      "Numéro": 8406,
      "Voir": 8407,
      "climat": 8408,
      "mouvoir": 8409,
      "cote": 8410,
      "réalité": 8411,
      "terdecies": 8412,
      "résumé": 8413,
      "cédées": 8414,
      "1947": 8415,
      "torat": 8416,
      "justifiées": 8417,
      "médias": 8418,
      "valide": 8419,
      "maximales": 8420,
      "rapporteurs": 8421,
      "examinée": 8422,
      "souhaitent": 8423,
      "audiovisuel": 8424,
      "incorporation": 8425,
      "anomalie": 8426,
      "kinésithérapeute": 8427,
      "paramètres": 8428,
      "remédier": 8429,
      "Cô": 8430,
      "repas": 8431,
      "entrées": 8432,
      "promes": 8433,
      "podolog": 8434,
      "séquelles": 8435,
      "indices": 8436,
      "adresses": 8437,
      "239": 8438,
      "délibéré": 8439,
      "finals": 8440,
      "At": 8441,
      "adi": 8442,
      "diman": 8443,
      "river": 8444,
      "agréments": 8445,
      "ologue": 8446,
      "routes": 8447,
      "médicamenteux": 8448,
      "proportionnel": 8449,
      "provisoirement": 8450,
      "aussitôt": 8451,
      "indirectes": 8452,
      "ministériels": 8453,
      "remboursables": 8454,
      "importantes": 8455,
      "Celles": 8456,
      "TC": 8457,
      "enter": 8458,
      "préco": 8459,
      "exploités": 8460,
      "canalisation": 8461,
      "contrefaçon": 8462,
      "Pièces": 8463,
      "prorog": 8464,
      "apportés": 8465,
      "coefficients": 8466,
      "flottant": 8467,
      "évasion": 8468,
      "cam": 8469,
      "sinc": 8470,
      "dénommée": 8471,
      "réparties": 8472,
      "opposables": 8473,
      "rendement": 8474,
      "2027": 8475,
      "affiliées": 8476,
      "satisf": 8477,
      "canton": 8478,
      "concili": 8479,
      "dégâts": 8480,
      "violence": 8481,
      "périodiquement": 8482,
      "intensité": 8483,
      "intra": 8484,
      "chance": 8485,
      "esthés": 8486,
      "cumulée": 8487,
      "conflits": 8488,
      "frontières": 8489,
      "sapeur": 8490,
      "hydrocarbures": 8491,
      "taxation": 8492,
      "hypothèques": 8493,
      "complexité": 8494,
      "révocable": 8495,
      "Pos": 8496,
      "jau": 8497,
      "lait": 8498,
      "contiennent": 8499,
      "composent": 8500,
      "illicite": 8501,
      "veur": 8502,
      "géré": 8503,
      "devront": 8504,
      "priorités": 8505,
      "libérales": 8506,
      "circuler": 8507,
      "restriction": 8508,
      "euses": 8509,
      "□</": 8510,
      "néga": 8511,
      "graphie": 8512,
      "verb": 8513,
      "ailles": 8514,
      "élevée": 8515,
      "réservé": 8516,
      "contrevenant": 8517,
      "contribuant": 8518,
      "gains": 8519,
      "hyper": 8520,
      "assig": 8521,
      "neutr": 8522,
      "maternel": 8523,
      "financées": 8524,
      "écoulé": 8525,
      "héritier": 8526,
      "meublés": 8527,
      "funér": 8528,
      "Opérations": 8529,
      "recharge": 8530,
      "dignité": 8531,
      "filiation": 8532,
      "aiguë": 8533,
      "vols": 8534,
      "bénévo": 8535,
      "fournissant": 8536,
      "engagé": 8537,
      "SIG": 8538,
      "journalier": 8539,
      "regroupant": 8540,
      "appuy": 8541,
      "gouvernance": 8542,
      "récusation": 8543,
      "époque": 8544,
      "Ad": 8545,
      "féri": 8546,
      "culaires": 8547,
      "souvent": 8548,
      "travers": 8549,
      "environnementaux": 8550,
      "revenant": 8551,
      "adhérentes": 8552,
      "masseur": 8553,
      "solidairement": 8554,
      "aquatique": 8555,
      "Organisation": 8556,
      "acheminement": 8557,
      "téléservice": 8558,
      "Als": 8559,
      "récent": 8560,
      "opère": 8561,
      "représentée": 8562,
      "soustr": 8563,
      "publier": 8564,
      "carnet": 8565,
      "Ense": 8566,
      "déclaratives": 8567,
      "réunir": 8568,
      "préparé": 8569,
      "clairement": 8570,
      "citoyenneté": 8571,
      "ascenseurs": 8572,
      "Avec": 8573,
      "mit": 8574,
      "mères": 8575,
      "expulsion": 8576,
      "attention": 8577,
      "accou": 8578,
      "blessure": 8579,
      "dater": 8580,
      "affecte": 8581,
      "maintenus": 8582,
      "existent": 8583,
      "investie": 8584,
      "averti": 8585,
      "souscripteurs": 8586,
      "éditeurs": 8587,
      "semestre": 8588,
      "délinqu": 8589,
      "FR": 8590,
      "SU": 8591,
      "cès": 8592,
      "tus": 8593,
      "estiv": 8594,
      "abatta": 8595,
      "déclen": 8596,
      "recommandation": 8597,
      "intervenues": 8598,
      "protégées": 8599,
      "préparant": 8600,
      "quotidien": 8601,
      "1107": 8602,
      "différends": 8603,
      "réussite": 8604,
      "Catég": 8605,
      "volontariat": 8606,
      "Col": 8607,
      "cales": 8608,
      "êtres": 8609,
      "arré": 8610,
      "détenant": 8611,
      "siers": 8612,
      "sible": 8613,
      "mémoires": 8614,
      "bourse": 8615,
      "gamètes": 8616,
      "combustible": 8617,
      "interprète": 8618,
      "générateur": 8619,
      "subro": 8620,
      "122": 8621,
      "libel": 8622,
      "prochaine": 8623,
      "deurs": 8624,
      "pare": 8625,
      "commandants": 8626,
      "assise": 8627,
      "mondi": 8628,
      "radioactives": 8629,
      "Quand": 8630,
      "abandon": 8631,
      "éclairage": 8632,
      "divulgation": 8633,
      "bre": 8634,
      "baisse": 8635,
      "édition": 8636,
      "révis": 8637,
      "néanmoins": 8638,
      "opérer": 8639,
      "adapter": 8640,
      "284": 8641,
      "handicapée": 8642,
      "automatis": 8643,
      "punis": 8644,
      "pertinence": 8645,
      "disparition": 8646,
      "alogues": 8647,
      "équ": 8648,
      "anément": 8649,
      "lesdites": 8650,
      "orale": 8651,
      "colle": 8652,
      "diplo": 8653,
      "ténu": 8654,
      "immin": 8655,
      "interopér": 8656,
      "impér": 8657,
      "culturelle": 8658,
      "existante": 8659,
      "écritures": 8660,
      "1995": 8661,
      "auront": 8662,
      "neufs": 8663,
      "accompagnant": 8664,
      "correctives": 8665,
      "meilleur": 8666,
      "empreintes": 8667,
      "Tribunal": 8668,
      "go": 8669,
      "çants": 8670,
      "apposition": 8671,
      "potable": 8672,
      "produisent": 8673,
      "datant": 8674,
      "équipé": 8675,
      "impay": 8676,
      "loués": 8677,
      "quator": 8678,
      "transférée": 8679,
      "architecte": 8680,
      "fiduciaire": 8681,
      "679": 8682,
      "rassemb": 8683,
      "sonore": 8684,
      "atténu": 8685,
      "\">-</": 8686,
      "formées": 8687,
      "octies": 8688,
      "dentaire": 8689,
      "hui": 8690,
      "1991": 8691,
      "télécommunication": 8692,
      "augmentée": 8693,
      "manquantes": 8694,
      "précoce": 8695,
      "gy": 8696,
      "récipi": 8697,
      "expositions": 8698,
      "mentionnent": 8699,
      "admise": 8700,
      "conventionnés": 8701,
      "265": 8702,
      "implantés": 8703,
      "kinésithérapeutes": 8704,
      "primitif": 8705,
      "expéditeur": 8706,
      "Né": 8707,
      "Trou": 8708,
      "Voi": 8709,
      "ole": 8710,
      "licences": 8711,
      "transporter": 8712,
      "utilisent": 8713,
      "signale": 8714,
      "exceptionnels": 8715,
      "contester": 8716,
      "comparaison": 8717,
      "significatif": 8718,
      "équipés": 8719,
      "correctionnel": 8720,
      "urgente": 8721,
      "pupilles": 8722,
      "fondamentaux": 8723,
      "scénari": 8724,
      "estival": 8725,
      "Je": 8726,
      "relogement": 8727,
      "nuire": 8728,
      "précédée": 8729,
      "identifiées": 8730,
      "embry": 8731,
      "choisit": 8732,
      "interdites": 8733,
      "vivants": 8734,
      "connec": 8735,
      "portuaires": 8736,
      "sujets": 8737,
      "promouvoir": 8738,
      "soign": 8739,
      "classée": 8740,
      "spécificités": 8741,
      "émane": 8742,
      "embarquement": 8743,
      "DÉSIG": 8744,
      "extinction": 8745,
      "210": 8746,
      "Lég": 8747,
      "Président": 8748,
      "aque": 8749,
      "nalité": 8750,
      "inobservation": 8751,
      "cheur": 8752,
      "trien": 8753,
      "constitutif": 8754,
      "banques": 8755,
      "probatoire": 8756,
      "trouvant": 8757,
      "potentiels": 8758,
      "confirmation": 8759,
      "explications": 8760,
      "grades": 8761,
      "embryons": 8762,
      "DÉSIGNATION": 8763,
      "Vous": 8764,
      "lire": 8765,
      "confr": 8766,
      "exécuté": 8767,
      "alyse": 8768,
      "constructeur": 8769,
      "efficace": 8770,
      "température": 8771,
      "700": 8772,
      "teau": 8773,
      "réadaptation": 8774,
      "courante": 8775,
      "délibérants": 8776,
      "inclusion": 8777,
      "décrites": 8778,
      "abattage": 8779,
      "flo": 8780,
      "tiens": 8781,
      "diaire": 8782,
      "intérim": 8783,
      "gardes": 8784,
      "rati": 8785,
      "ouvrable": 8786,
      "mutualisation": 8787,
      "entraînent": 8788,
      "quota": 8789,
      "mieux": 8790,
      "parental": 8791,
      "accrédité": 8792,
      "facturés": 8793,
      "aménagés": 8794,
      "jamais": 8795,
      "05": 8796,
      "réévaluation": 8797,
      "cure": 8798,
      "2026": 8799,
      "affecta": 8800,
      "patron": 8801,
      "rémunérés": 8802,
      "dérogatoire": 8803,
      "bilans": 8804,
      "tarifaire": 8805,
      "462": 8806,
      "masseurs": 8807,
      "implique": 8808,
      "vitale": 8809,
      "renforcement": 8810,
      "PRO": 8811,
      "réservistes": 8812,
      "pyro": 8813,
      "présomption": 8814,
      "délinquance": 8815,
      "Troubles": 8816,
      "OM": 8817,
      "dépréci": 8818,
      "virement": 8819,
      "déclarent": 8820,
      "protocoles": 8821,
      "cellule": 8822,
      "hôpital": 8823,
      "Sénat": 8824,
      "adhérer": 8825,
      "sensibilisation": 8826,
      "panne": 8827,
      "éte": 8828,
      "reprend": 8829,
      "cipé": 8830,
      "\">,": 8831,
      "professionnalisation": 8832,
      "gardien": 8833,
      "traitance": 8834,
      "osité": 8835,
      "réglementés": 8836,
      "rémunéré": 8837,
      "attaché": 8838,
      "quartiers": 8839,
      "invitation": 8840,
      "langues": 8841,
      "actualisée": 8842,
      "requér": 8843,
      "amiante": 8844,
      "alcoolique": 8845,
      "aquatiques": 8846,
      "BR": 8847,
      "Bé": 8848,
      "TRE": 8849,
      "invention": 8850,
      "concom": 8851,
      "cho": 8852,
      "imposée": 8853,
      "nécessitent": 8854,
      "aphies": 8855,
      "assimilée": 8856,
      "lycée": 8857,
      "privilèges": 8858,
      "encaissement": 8859,
      "rappelle": 8860,
      "cadastr": 8861,
      "OI": 8862,
      "lever": 8863,
      "relig": 8864,
      "trom": 8865,
      "tec": 8866,
      "ancier": 8867,
      "franc": 8868,
      "civiques": 8869,
      "syndrome": 8870,
      "détachés": 8871,
      "résilier": 8872,
      "éclaire": 8873,
      "successives": 8874,
      "testament": 8875,
      "omission": 8876,
      "tilis": 8877,
      "liqué": 8878,
      "mentale": 8879,
      "ulti": 8880,
      "laisser": 8881,
      "convocations": 8882,
      "ajouté": 8883,
      "495": 8884,
      "impartialité": 8885,
      "quittance": 8886,
      "certificateur": 8887,
      "tares": 8888,
      "hectares": 8889,
      "perspective": 8890,
      "Mobilités": 8891,
      "administrer": 8892,
      "Section": 8893,
      "fla": 8894,
      "muti": 8895,
      "attribue": 8896,
      "tubercu": 8897,
      "péréqu": 8898,
      "contrôlé": 8899,
      "plancher": 8900,
      "apparente": 8901,
      "importés": 8902,
      "indirect": 8903,
      "1609": 8904,
      "téléphonique": 8905,
      "Produits": 8906,
      "Voies": 8907,
      "péréquation": 8908,
      "Sign": 8909,
      "fur": 8910,
      "fret": 8911,
      "pur": 8912,
      "insolvabilité": 8913,
[...]
