{
  "version": "1.0",
  "truncation": null,
  "padding": null,
  "added_tokens": [
    {
      "id": 0,
      "content": "[PAD]",
      "single_word": false,
      "lstrip": false,
      "rstrip": false,
      "normalized": false,
      "special": true
    },
    {
      "id": 1,
      "content": "[UNK]",
      "single_word": false,
      "lstrip": false,
      "rstrip": false,
      "normalized": false,
      "special": true
    },
    {
      "id": 2,
      "content": "[EOS]",
      "single_word": false,
      "lstrip": false,
      "rstrip": false,
      "normalized": false,
      "special": true
    }
  ],
  "normalizer": {
    "type": "Sequence",
    "normalizers": [
      {
        "type": "Lowercase"
      },
      {
        "type": "StripAccents"
      }
    ]
  },
  "pre_tokenizer": {
    "type": "ByteLevel",
    "add_prefix_space": false,
    "trim_offsets": true,
    "use_regex": true
  },
  "post_processor": null,
  "decoder": {
    "type": "ByteLevel",
    "add_prefix_space": true,
    "trim_offsets": true,
    "use_regex": true
  },
  "model": {
    "type": "BPE",
    "dropout": null,
    "unk_token": "[UNK]",
    "continuing_subword_prefix": null,
    "end_of_word_suffix": null,
    "fuse_unk": false,
    "byte_fallback": false,
    "ignore_merges": false,
    "vocab": {
      "[PAD]": 0,
      "[UNK]": 1,
      "[EOS]": 2,
      "!": 3,
      "\"": 4,
      "#": 5,
      "%": 6,
      "&": 7,
      "'": 8,
      "(": 9,
      ")": 10,
      "*": 11,
      "+": 12,
      ",": 13,
      "-": 14,
      ".": 15,
      "/": 16,
      "0": 17,
      "1": 18,
      "2": 19,
      "3": 20,
      "4": 21,
      "5": 22,
      "6": 23,
      "7": 24,
      "8": 25,
      "9": 26,
      ":": 27,
      ";": 28,
      "=": 29,
      "?": 30,
      "@": 31,
      "[": 32,
      "]": 33,
      "^": 34,
      "_": 35,
      "a": 36,
      "b": 37,
      "c": 38,
      "d": 39,
      "e": 40,
      "f": 41,
      "g": 42,
      "h": 43,
      "i": 44,
      "j": 45,
      "k": 46,
      "l": 47,
      "m": 48,
      "n": 49,
      "o": 50,
      "p": 51,
      "q": 52,
      "r": 53,
      "s": 54,
      "t": 55,
      "u": 56,
      "v": 57,
      "w": 58,
      "x": 59,
      "y": 60,
      "z": 61,
      "{": 62,
      "|": 63,
      "}": 64,
      "¡": 65,
      "¢": 66,
      "£": 67,
      "¤": 68,
      "¦": 69,
      "§": 70,
      "¨": 71,
      "©": 72,
      "ª": 73,
      "«": 74,
      "¬": 75,
      "®": 76,
      "¯": 77,
      "°": 78,
      "±": 79,
      "²": 80,
      "³": 81,
      "´": 82,
      "µ": 83,
      "¶": 84,
      "·": 85,
      "¸": 86,
      "¹": 87,
      "º": 88,
      "»": 89,
      "¼": 90,
      "½": 91,
      "¾": 92,
      "¿": 93,
      "Â": 94,
      "Ã": 95,
      "Ä": 96,
      "Å": 97,
      "Ê": 98,
      "Ë": 99,
      "Î": 100,
      "Ï": 101,
      "Ð": 102,
      "Ñ": 103,
      "á": 104,
      "â": 105,
      "ï": 106,
      "Ċ": 107,
      "Ġ": 108,
      "Ģ": 109,
      "ģ": 110,
      "Ĥ": 111,
      "ĥ": 112,
      "Ħ": 113,
      "ħ": 114,
      "Ĩ": 115,
      "ĩ": 116,
      "Ī": 117,
      "ī": 118,
      "Į": 119,
      "į": 120,
      "İ": 121,
      "ı": 122,
      "ĳ": 123,
      "Ĵ": 124,
      "ĵ": 125,
      "Ķ": 126,
      "ķ": 127,
      "ĸ": 128,
      "Ĺ": 129,
      "ĺ": 130,
      "Ļ": 131,
      "ľ": 132,
      "Ŀ": 133,
      "Ł": 134,
      "ł": 135,
      "Ń": 136,
      "Ġd": 137,
      "Ã©": 138,
      "es": 139,
      "Ġl": 140,
      "on": 141,
      "ti": 142,
      "en": 143,
      "Ġp": 144,
      "Ġde": 145,
      "Ġc": 146,
      "Ġa": 147,
      "tion": 148,
      "re": 149,
      "Ġs": 150,
      "an": 151,
      "is": 152,
      "ent": 153,
      "ar": 154,
      "le": 155,
      "ou": 156,
      "er": 157,
      "in": 158,
      "et": 159,
      "Ġm": 160,
      "it": 161,
      "rÃ©": 162,
      "Ġla": 163,
      "qu": 164,
      "ation": 165,
      "ĠÃ": 166,
      "or": 167,
      "Ġdes": 168,
      "ĠÃł": 169,
      "ur": 170,
      "un": 171,
      "Ġdu": 172,
      "Ġau": 173,
      "ment": 174,
      "Ġet": 175,
      "Ġle": 176,
      "Ġles": 177,
      "Ġcon": 178,
      "ic": 179,
      "te": 180,
      "tr": 181,
      "al": 182,
      "om": 183,
      "si": 184,
      "ant": 185,
      "ĠdÃ©": 186,
      "Ġf": 187,
      "Ġpar": 188,
      "Ġou": 189,
      "Ġn": 190,
      "il": 191,
      "Ġpr": 192,
      "tic": 193,
      "que": 194,
      "ĠprÃ©": 195,
      "Ġen": 196,
      "ai": 197,
      "se": 198,
      "Ã©s": 199,
      "our": 200,
      "Ã¨": 201,
      "les": 202,
      "ans": 203,
      "el": 204,
      "Ġcom": 205,
      "Ã©r": 206,
      "at": 207,
      "ce": 208,
      "Ġre": 209,
      "Ġun": 210,
      "ĠrÃ©": 211,
      "ĠÃ©": 212,
      "ticle": 213,
      "est": 214,
      "ont": 215,
      "res": 216,
      "au": 217,
      "tre": 218,
      "article": 219,
      "Â°": 220,
      "ab": 221,
      "itÃ©": 222,
      "Ġin": 223,
      "Ġpro": 224,
      "as": 225,
      "de": 226,
      "pl": 227,
      "eu": 228,
      "ci": 229,
      "Ġt": 230,
      "onn": 231,
      "Ġest": 232,
      "Ã©e": 233,
      "tions": 234,
      "Ġdans": 235,
      "ex": 236,
      "Ġqu": 237,
      "Ġv": 238,
      "ac": 239,
      "Ã©es": 240,
      "di": 241,
      "Ġ;": 242,
      "me": 243,
      "ale": 244,
      "Ġaux": 245,
      "aire": 246,
      "Ġpour": 247,
      "Ġmo": 248,
      "ention": 249,
      "Ġch": 250,
      "ag": 251,
      "Ġg": 252,
      "ement": 253,
      "Ġtr": 254,
      "Ġb": 255,
      "Ġco": 256,
      "pr": 257,
      "ers": 258,
      "li": 259,
      "po": 260,
      "us": 261,
      "Ġsont": 262,
      "ec": 263,
      "tiv": 264,
      "ations": 265,
      "Ġ1": 266,
      "Ġr": 267,
      "im": 268,
      "ap": 269,
      "ch": 270,
      "Ã©t": 271,
      "oi": 272,
      "sent": 273,
      "Ġsur": 274,
      "Ãª": 275,
      "Ġj": 276,
      "Ġ2": 277,
      "Ġmention": 278,
      "ĠprÃ©v": 279,
      "tif": 280,
      "tu": 281,
      "Ġcomp": 282,
      "eur": 283,
      "Ġmentionn": 284,
      "Ġar": 285,
      "Ġso": 286,
      "ff": 287,
      "iv": 288,
      "Ġpeu": 289,
      "Ġdis": 290,
      "ter": 291,
      "Ġune": 292,
      "sion": 293,
      "la": 294,
      "du": 295,
      "ication": 296,
      "Ã©n": 297,
      "Ġo": 298,
      "Ġcomm": 299,
      "une": 300,
      "elle": 301,
      "orm": 302,
      "ance": 303,
      "inis": 304,
      "ces": 305,
      "Ġque": 306,
      "ub": 307,
      "Ġex": 308,
      "Ġac": 309,
      "Ġap": 310,
      "teur": 311,
      "Ġqui": 312,
      "tÃ©": 313,
      "ul": 314,
      "sement": 315,
      "erv": 316,
      "posi": 317,
      "Ġ:": 318,
      "ĠdÃ©c": 319,
      "mb": 320,
      "ise": 321,
      "ĠprÃ©vu": 322,
      "ion": 323,
      "Ġpers": 324,
      "Ġpersonn": 325,
      "lis": 326,
      "ors": 327,
      "Ġti": 328,
      "oit": 329,
      "av": 330,
      "Ã©ri": 331,
      "ier": 332,
      "ction": 333,
      "Ġav": 334,
      "Ġsu": 335,
      "aires": 336,
      "ins": 337,
      "ort": 338,
      "ie": 339,
      "itÃ©s": 340,
      "ais": 341,
      "ice": 342,
      "Ġpeut": 343,
      "aux": 344,
      "am": 345,
      "tor": 346,
      "Ġleur": 347,
      "Ġcontr": 348,
      "Ġcondi": 349,
      "ĠprÃ©sent": 350,
      "Ġpub": 351,
      "Ġcons": 352,
      "Ġ,": 353,
      "Ġdisposi": 354,
      "Ġdi": 355,
      "Ã©d": 356,
      "Ġcas": 357,
      "Ġcode": 358,
      "Ġan": 359,
      "iÃ¨": 360,
      "Ġi": 361,
      "man": 362,
      "ait": 363,
      "oc": 364,
      "arg": 365,
      "ig": 366,
      "ence": 367,
      "Ġconditions": 368,
      "seil": 369,
      "ques": 370,
      "ib": 371,
      "Ġne": 372,
      "Ġconseil": 373,
      "ix": 374,
      "Ġpas": 375,
      "Ġsoci": 376,
      "ĠrÃ©g": 377,
      "Ġappl": 378,
      "ĠÃª": 379,
      "ĠÃªtre": 380,
      "par": 381,
      "Ġtou": 382,
      "Ġcharg": 383,
      "ablis": 384,
      "Ã¨s": 385,
      "ts": 386,
      "ouv": 387,
      "ure": 388,
      "entre": 389,
      "Ã©c": 390,
      "Ġpl": 391,
      "op": 392,
      "Ġsou": 393,
      "Ã´": 394,
      "form": 395,
      "ir": 396,
      "ablissement": 397,
      "ique": 398,
      "ĠÃ©t": 399,
      "Ġh": 400,
      "inÃ©": 401,
      "Ġdeman": 402,
      "ad": 403,
      "ord": 404,
      "ĠdÃ©f": 405,
      "ol": 406,
      "end": 407,
      "tes": 408,
      "Ġal": 409,
      "Ġfon": 410,
      "rit": 411,
      "Ġson": 412,
      "vent": 413,
      "Ġserv": 414,
      "ue": 415,
      "org": 416,
      "organ": 417,
      "Ġces": 418,
      "Ġ3": 419,
      "able": 420,
      "Ġdispositions": 421,
      "ens": 422,
      "ission": 423,
      "ette": 424,
      "Ġad": 425,
      "Ġe": 426,
      "ss": 427,
      "Ġconc": 428,
      "ants": 429,
      "ĠdÃ©l": 430,
      "og": 431,
      "mes": 432,
      "ip": 433,
      "prÃ©": 434,
      "ois": 435,
      "organis": 436,
      "port": 437,
      "Ġtrans": 438,
      "Ġter": 439,
      "inistr": 440,
      "Ã©g": 441,
      "Ġfix": 442,
      "Ġpubl": 443,
      "Ġâ": 444,
      "Ġfr": 445,
      "ticles": 446,
      "lec": 447,
      "age": 448,
      "Ġarticles": 449,
      "sid": 450,
      "ales": 451,
      "mpl": 452,
      "tement": 453,
      "ours": 454,
      "ĠprÃ©vues": 455,
      "ot": 456,
      "Ġma": 457,
      "ĠalinÃ©": 458,
      "Ġlors": 459,
      "Ġtitre": 460,
      "jet": 461,
      "elles": 462,
      "Ġce": 463,
      "Ġdemande": 464,
      "Ġres": 465,
      "Ġpublic": 466,
      "ĠmÃª": 467,
      "Ġproc": 468,
      "Ã¨re": 469,
      "ob": 470,
      "ici": 471,
      "Ġass": 472,
      "ĠâĢ": 473,
      "Ġsa": 474,
      "Ġrec": 475,
      "Ġdire": 476,
      "quel": 477,
      "rÃ©e": 478,
      "Ġdr": 479,
      "Ġminis": 480,
      "emb": 481,
      "Ġob": 482,
      "ass": 483,
      "ministr": 484,
      "Ġdroit": 485,
      "autor": 486,
      "tive": 487,
      "Ġprof": 488,
      "Ġli": 489,
      "Ġtrav": 490,
      "Ġfin": 491,
      "Ġnation": 492,
      "prÃ©sent": 493,
      "ĠalinÃ©a": 494,
      "Ã©ment": 495,
      "ĠreprÃ©sent": 496,
      "ĠgÃ©n": 497,
      "ine": 498,
      "insi": 499,
      "Ġainsi": 500,
      "ĠrÃ©s": 501,
      "isation": 502,
      "ision": 503,
      "ail": 504,
      "int": 505,
      "ne": 506,
      "Ġil": 507,
      "Ġcette": 508,
      "os": 509,
      "Ġim": 510,
      "Ġinter": 511,
      "Ġ20": 512,
      "sionn": 513,
      "Ġju": 514,
      "Ġte": 515,
      "Ġsous": 516,
      "ĠgÃ©nÃ©r": 517,
      "Ġse": 518,
      "lement": 519,
      "Ġag": 520,
      "Ã§": 521,
      "Ġmemb": 522,
      "Ġpre": 523,
      "id": 524,
      "etat": 525,
      "Ġprofes": 526,
      "Ã¨g": 527,
      "prÃ¨s": 528,
      "erc": 529,
      "Ġentre": 530,
      "Ġdirec": 531,
      "ises": 532,
      "Ġcol": 533,
      "Ġprodu": 534,
      "ux": 535,
      "Ġins": 536,
      "ĠdÃ©lai": 537,
      "chÃ©": 538,
      "tres": 539,
      "Ġper": 540,
      "ui": 541,
      "titu": 542,
      "Ġ\"": 543,
      "Ġprem": 544,
      "Ġii": 545,
      "Ġministre": 546,
      "ten": 547,
      "ables": 548,
      "Ġfait": 549,
      "Ġdont": 550,
      "tis": 551,
      "ution": 552,
      "cep": 553,
      "pon": 554,
      "Ġapplication": 555,
      "Ġform": 556,
      "Ġpersonnes": 557,
      "ĠmÃªme": 558,
      "Ġcommun": 559,
      "Ġpeuvent": 560,
      "Ġmar": 561,
      "Ġparti": 562,
      "Ġpersonne": 563,
      "Ġsuiv": 564,
      "appl": 565,
      "ĠprÃ©c": 566,
      "Ġsup": 567,
      "sident": 568,
      "Ġdeux": 569,
      "Ã©ration": 570,
      "ffec": 571,
      "Ġ4": 572,
      "Ġsec": 573,
      "Ġterrit": 574,
      "ĠmentionnÃ©s": 575,
      "Ġnom": 576,
      "alitÃ©s": 577,
      "ense": 578,
      "Ġmod": 579,
      "rÃª": 580,
      "tives": 581,
      "ĠdÃ©cision": 582,
      "Ġprofessionn": 583,
      "Ġavec": 584,
      "Ġrela": 585,
      "tin": 586,
      "antÃ©": 587,
      "ĠchargÃ©": 588,
      "Ġcha": 589,
      "ĠmentionnÃ©es": 590,
      "ĠÃ©tablissement": 591,
      "Ġgr": 592,
      "nement": 593,
      "Ġacc": 594,
      "ĠsantÃ©": 595,
      "ate": 596,
      "pos": 597,
      "tat": 598,
      "ies": 599,
      "tivitÃ©": 600,
      "ĠdÃ©par": 601,
      "ĠrÃ¨g": 602,
      "ĠdÃ©fin": 603,
      "Ġorganis": 604,
      "acc": 605,
      "ĠprÃ©sident": 606,
      "ices": 607,
      "Ġses": 608,
      "ents": 609,
      "Ġtravail": 610,
      "oire": 611,
      "ĠcompÃ©t": 612,
      "ĠrÃ©gion": 613,
      "ite": 614,
      "Ġsoit": 615,
      "ĠdÃ©partement": 616,
      "Ġconcer": 617,
      "ateur": 618,
      "lors": 619,
      "Ġmont": 620,
      "ĠdÃ©li": 621,
      "iques": 622,
      "ret": 623,
      "and": 624,
      "nÃ©e": 625,
      "Ġautor": 626,
      "alitÃ©": 627,
      "tifs": 628,
      "ĠsociÃ©t": 629,
      "autoritÃ©": 630,
      "Ã©cur": 631,
      "ĠsÃ©cur": 632,
      "iÃ¨me": 633,
      "Ġcommission": 634,
      "sig": 635,
      "Ġ5": 636,
      "Ġapplic": 637,
      "tru": 638,
      "ĠÃ©g": 639,
      "ture": 640,
      "Ã©tablissement": 641,
      "Ġconv": 642,
      "Ġservice": 643,
      "ente": 644,
      "Ġop": 645,
      "ĠsÃ©curitÃ©": 646,
      "Ġcontrat": 647,
      "met": 648,
      "ĠmodalitÃ©s": 649,
      "uti": 650,
      "ĠgÃ©nÃ©ral": 651,
      "Ã©f": 652,
      "eurs": 653,
      "Ġpremier": 654,
      "ut": 655,
      "ge": 656,
      "Ġdonn": 657,
      "Ġmois": 658,
      "ĠdurÃ©e": 659,
      "Ġcollec": 660,
      "ari": 661,
      "cr": 662,
      "ĠbÃ©n": 663,
      "alement": 664,
      "Ġarticle": 665,
      "ĠÃ©tÃ©": 666,
      "Ġjus": 667,
      "Ġmontant": 668,
      "ĠcontrÃ´": 669,
      "Ġcompte": 670,
      "oir": 671,
      "ĠbÃ©nÃ©f": 672,
      "Ġdate": 673,
      "ĠarrÃª": 674,
      "ori": 675,
      "ures": 676,
      "um": 677,
      "ĠprÃ©vue": 678,
      "Ġmembres": 679,
      "Ġpubli": 680,
      "pec": 681,
      "els": 682,
      "alis": 683,
      "application": 684,
      "ements": 685,
      "ĠcrÃ©": 686,
      "lig": 687,
      "Ġlorsque": 688,
      "iss": 689,
      "Ġleurs": 690,
      "Ġpartic": 691,
      "Ġeur": 692,
      "Ġinform": 693,
      "ĠmentionnÃ©": 694,
      "oci": 695,
      "Ġtout": 696,
      "Ġinf": 697,
      "Ġlieu": 698,
      "Ġdirecteur": 699,
      "Ġservices": 700,
      "Ġfonction": 701,
      "Ġplus": 702,
      "oy": 703,
      "ilitÃ©": 704,
      "00": 705,
      "Ã©rieur": 706,
      "ud": 707,
      "ances": 708,
      "ĠdÃ©p": 709,
      "ĠdÃ©cret": 710,
      "ĠdÃ©cl": 711,
      "Ġloc": 712,
      "its": 713,
      "estion": 714,
      "Ġmise": 715,
      "Ġ(": 716,
      "Ġat": 717,
      "Ġsp": 718,
      "sign": 719,
      "enti": 720,
      "Ġsi": 721,
      "anci": 722,
      "uv": 723,
      "tant": 724,
      "apit": 725,
      "ments": 726,
      "ature": 727,
      "ĠdÃ©clar": 728,
      "mis": 729,
      "ception": 730,
      "Ġmes": 731,
      "ĠmentionnÃ©e": 732,
      "ĠÃ©chÃ©": 733,
      "ĠaprÃ¨s": 734,
      "Ġmoins": 735,
      "Ġgestion": 736,
      "omm": 737,
      "Ġnon": 738,
      "Ġtrois": 739,
      "oup": 740,
      "ĠÃ©c": 741,
      "Ġsociale": 742,
      "term": 743,
      "trib": 744,
      "ang": 745,
      "Ã©dic": 746,
      "ĠÃ©chÃ©ant": 747,
      "ven": 748,
      "ences": 749,
      "Ġnot": 750,
      "des": 751,
      "Ġadministr": 752,
      "ĠcontrÃ´le": 753,
      "tivitÃ©s": 754,
      "ric": 755,
      "administr": 756,
      "Ġcar": 757,
      "Ġtoute": 758,
      "ative": 759,
      "amment": 760,
      "ĠmÃ©dic": 761,
      "Ġfor": 762,
      "ĠÃ©l": 763,
      "ĠÃ©tablissements": 764,
      "Ġchaque": 765,
      "prise": 766,
      "pour": 767,
      "exerc": 768,
      "Ġann": 769,
      "Ã©du": 770,
      "ĠarrÃªtÃ©": 771,
      "eure": 772,
      "Ġrempl": 773,
      "Ġno": 774,
      "pri": 775,
      "cess": 776,
      "aut": 777,
      "Ã©rations": 778,
      "ĠreprÃ©sentant": 779,
      "iÃ¨re": 780,
      "onom": 781,
      "Ġsans": 782,
      "Ġterritori": 783,
      "Ġcor": 784,
      "lorsque": 785,
      "elon": 786,
      "Ġconform": 787,
      "Ġapplicables": 788,
      "ĠdÃ©term": 789,
      "Ġindi": 790,
      "che": 791,
      "opÃ©": 792,
      "ploit": 793,
      "Ġnotamment": 794,
      "Ġ6": 795,
      "ils": 796,
      "Ġbi": 797,
      "mp": 798,
      "Ġsal": 799,
      "ĠdÃ©sign": 800,
      "iste": 801,
      "ĠeuropÃ©": 802,
      "Ġformation": 803,
      "crip": 804,
      "administration": 805,
      "action": 806,
      "anti": 807,
      "lu": 808,
      "Ġans": 809,
      "ert": 810,
      "objet": 811,
      "Ġten": 812,
      "utilis": 813,
      "Ġint": 814,
      "Ġsuivant": 815,
      "Ġselon": 816,
      "Ġph": 817,
      "all": 818,
      "ĠnÃ©": 819,
      "ĠeuropÃ©en": 820,
      "ĠmÃ©": 821,
      "Ġcompr": 822,
      "Ġnational": 823,
      "ati": 824,
      "Ġconcern": 825,
      "Ġeffec": 826,
      "Ġcl": 827,
      "Ġfinanci": 828,
      "Ġ7": 829,
      "ĠâĢĶ": 830,
      "Ġfran": 831,
      "itu": 832,
      "Ġrap": 833,
      "Ã¨res": 834,
      "Ġren": 835,
      "ĠspÃ©": 836,
      "eux": 837,
      "Ġport": 838,
      "Ġay": 839,
      "ĠspÃ©ci": 840,
      "Ġgar": 841,
      "iciaire": 842,
      "ĠprÃ©f": 843,
      "ĠrÃ¨glement": 844,
      "Ġpartie": 845,
      "ĠnÃ©cess": 846,
      "Ġnationale": 847,
      "ĠrÃ©f": 848,
      "Ġdoit": 849,
      "Ġliv": 850,
      "Ġnature": 851,
      "Ġdoc": 852,
      "ctions": 853,
      "act": 854,
      "Åĵ": 855,
      "Ġ201": 856,
      "val": 857,
      "exercice": 858,
      "Ġavis": 859,
      "Ġconf": 860,
      "ĠsociÃ©tÃ©": 861,
      "ĠfixÃ©es": 862,
      "Ġautres": 863,
      "ĠrÃ©serv": 864,
      "empl": 865,
      "Ġsus": 866,
      "Ġlui": 867,
      "Ġmoy": 868,
      "Ã©rÃ©": 869,
      "Ġdocu": 870,
      "ĠfranÃ§": 871,
      "Ġont": 872,
      "Ġrespec": 873,
      "Ġoblig": 874,
      "Ġfond": 875,
      "ourn": 876,
      "mbre": 877,
      "Åĵuv": 878,
      "ĠÃ©lec": 879,
      "iti": 880,
      "ve": 881,
      "ats": 882,
      "Ġexerc": 883,
      "ess": 884,
      "Ġautre": 885,
      "Ġcompter": 886,
      "Ġayant": 887,
      "ille": 888,
      "ign": 889,
      "ma": 890,
      "ordonn": 891,
      "Ã®": 892,
      "position": 893,
      "Ġder": 894,
      "Ġdroits": 895,
      "Ġdern": 896,
      "Ġgroup": 897,
      "omp": 898,
      "ĠrÃ©sul": 899,
      "dans": 900,
      "chn": 901,
      "Ġ19": 902,
      "pond": 903,
      "onnement": 904,
      "Ġavant": 905,
      "Ġcommer": 906,
      "Ġtransport": 907,
      "st": 908,
      "Ġsitu": 909,
      "ĠÃ©galement": 910,
      "tification": 911,
      "Ġciv": 912,
      "priÃ©t": 913,
      "Ġy": 914,
      "Ġconvention": 915,
      "ĠdÃ©liv": 916,
      "Ġpla": 917,
      "Ġcours": 918,
      "Ġsy": 919,
      "vant": 920,
      "iqu": 921,
      "ĠprÃ©fet": 922,
      "gr": 923,
      "ages": 924,
      "abilitÃ©": 925,
      "if": 926,
      "endant": 927,
      "Ġnouv": 928,
      "Ġsub": 929,
      "Ġproduits": 930,
      "ĠpÃ©ri": 931,
      "urs": 932,
      "Ġtechn": 933,
      "ĠrÃ©fÃ©r": 934,
      "assur": 935,
      "dic": 936,
      "asse": 937,
      "tul": 938,
      "ĠpÃ©rio": 939,
      "Ġpublique": 940,
      "Ġconstitu": 941,
      "Ġinformations": 942,
      "ili": 943,
      "Ġcel": 944,
      "dit": 945,
      "aiss": 946,
      "Ġtitul": 947,
      "Ġprest": 948,
      "Ġvis": 949,
      "ĠrÃ©p": 950,
      "Ġprojet": 951,
      "dif": 952,
      "Ġlim": 953,
      "eau": 954,
      "tou": 955,
      "Ġjud": 956,
      "union": 957,
      "tifi": 958,
      "Ġsalari": 959,
      "Ġmots": 960,
      "Ãł": 961,
      "ines": 962,
      "ĠprocÃ©d": 963,
      "Ã©dure": 964,
      "Ġliste": 965,
      "bles": 966,
      "ĠdÃ©claration": 967,
      "ard": 968,
      "ues": 969,
      "ĠprocÃ©dure": 970,
      "ach": 971,
      "olog": 972,
      "ĠpropriÃ©t": 973,
      "assurance": 974,
      "Ġmodif": 975,
      "ult": 976,
      "ble": 977,
      "Ġdom": 978,
      "Ġrapport": 979,
      "Ġpo": 980,
      "Ġparticip": 981,
      "Ã©rieure": 982,
      "ĠÅĵuv": 983,
      "truction": 984,
      "Ġjours": 985,
      "ĠÃ©tab": 986,
      "Ġrelatives": 987,
      "Ġchapit": 988,
      "Ġvoi": 989,
      "Ġcad": 990,
      "ĠconformÃ©ment": 991,
      "bre": 992,
      "alisation": 993,
      "Ġmission": 994,
      "ace": 995,
      "Ġfaire": 996,
      "Ġmin": 997,
      "Ġpol": 998,
      "teurs": 999,
      "vi": 1000,
      "uli": 1001,
      "Ġstat": 1002,
      "Ġpermet": 1003,
      "Ġorganismes": 1004,
      "Ã»": 1005,
      "Ġimm": 1006,
      "pons": 1007,
      "Ġlivre": 1008,
      "Ġnombre": 1009,
      "ossi": 1010,
      "adi": 1011,
      "tiÃ¨re": 1012,
      "Ġman": 1013,
      "Ã¹": 1014,
      "ĠoÃ¹": 1015,
      "Ġassoci": 1016,
      "Ġaccord": 1017,
      "ĠrÃ©alis": 1018,
      "Ġcelui": 1019,
      "Ġcharge": 1020,
      "prises": 1021,
      "Ġmand": 1022,
      "exploit": 1023,
      "pÃ´": 1024,
      "Ġeffectu": 1025,
      "Ġmembre": 1026,
      "ĠrÃ©serve": 1027,
      "usi": 1028,
      "jo": 1029,
      "cher": 1030,
      "Ġelle": 1031,
      "ĠpÃ©n": 1032,
      "vis": 1033,
      "agence": 1034,
      "tall": 1035,
      "pro": 1036,
      "Ġrespons": 1037,
      "Ġcet": 1038,
      "Ġchapitre": 1039,
      "Ã©ress": 1040,
      "ante": 1041,
      "quelle": 1042,
      "Ġlorsqu": 1043,
      "autorisation": 1044,
      "ves": 1045,
      "crit": 1046,
      "Ġmesures": 1047,
      "Ġpor": 1048,
      "ignement": 1049,
      "Ġst": 1050,
      "Ġlaquelle": 1051,
      "Ġiii": 1052,
      "amen": 1053,
      "cul": 1054,
      "aison": 1055,
      "Ġcadre": 1056,
      "gis": 1057,
      "Ġ%": 1058,
      "Ġsection": 1059,
      "usieurs": 1060,
      "activitÃ©": 1061,
      "Ġgaranti": 1062,
      "Ġcaract": 1063,
      "ra": 1064,
      "Ġfonds": 1065,
      "itaire": 1066,
      "Ġplusieurs": 1067,
      "ĠopÃ©rations": 1068,
      "ellement": 1069,
      "Ġcelle": 1070,
      "Ġsign": 1071,
      "ĠprÃ©cÃ©d": 1072,
      "ĠlÃ©g": 1073,
      "Ġtrib": 1074,
      "Ġfrance": 1075,
      "cription": 1076,
      "Ġpublics": 1077,
      "Ġpart": 1078,
      "onc": 1079,
      "Ġcomptes": 1080,
      "Ġprofessionnelle": 1081,
      "Ġver": 1082,
      "orme": 1083,
      "Ġautoris": 1084,
      "Ġtribun": 1085,
      "Ġlog": 1086,
      "Ġcan": 1087,
      "Ġloi": 1088,
      "Ġjudiciaire": 1089,
      "ĠsÃ©": 1090,
      "Ġ8": 1091,
      "Ġvale": 1092,
      "Ġcer": 1093,
      "Ġdiff": 1094,
      "ĠcomitÃ©": 1095,
      "Ġcompl": 1096,
      "entreprise": 1097,
      "tection": 1098,
      "Ġadres": 1099,
      "Ġtemp": 1100,
      "Ġcelles": 1101,
      "quis": 1102,
      "Ġconn": 1103,
      "erg": 1104,
      "ĠdÃ©lÃ©g": 1105,
      "Ġris": 1106,
      "ffet": 1107,
      "ĠÅĵuvre": 1108,
      "Ġtravaux": 1109,
      "ulture": 1110,
      "ĠdÃ©lib": 1111,
      "Ġsais": 1112,
      "tific": 1113,
      "ĠrÃ©ception": 1114,
      "ĠdÃ©finies": 1115,
      "gag": 1116,
      "Ġremplac": 1117,
      "ĠdÃ©termin": 1118,
      "Ġcour": 1119,
      "lÃ¨": 1120,
      "dem": 1121,
      "rog": 1122,
      "Ġpa": 1123,
      "Ġagric": 1124,
      "ĠdeuxiÃ¨me": 1125,
      "atÃ©g": 1126,
      "por": 1127,
      "trait": 1128,
      "tribu": 1129,
      "ĠÃ©tabli": 1130,
      "oivent": 1131,
      "vir": 1132,
      "Ġplan": 1133,
      "quelles": 1134,
      "pel": 1135,
      "rer": 1136,
      "Ġexc": 1137,
      "ĠÃ©qu": 1138,
      "Ġpai": 1139,
      "Ġentreprises": 1140,
      "Ġsan": 1141,
      "Ã©rÃª": 1142,
      "enseignement": 1143,
      "Ġfourn": 1144,
      "exp": 1145,
      "ĠÃ©conom": 1146,
      "vironnement": 1147,
      "Ġind": 1148,
      "Ġmandat": 1149,
      "ole": 1150,
      "mission": 1151,
      "organisme": 1152,
      "Ġterritoire": 1153,
      "Ġouv": 1154,
      "Ġdestin": 1155,
      "Ġcin": 1156,
      "Ġjur": 1157,
      "off": 1158,
      "ettre": 1159,
      "ĠdonnÃ©es": 1160,
      "ordre": 1161,
      "ĠdÃ©fini": 1162,
      "cid": 1163,
      "Ã©cution": 1164,
      "Ġpres": 1165,
      "Ġutilis": 1166,
      "aine": 1167,
      "ĠsociÃ©tÃ©s": 1168,
      "Ġprotection": 1169,
      "opÃ©ration": 1170,
      "ueil": 1171,
      "tiques": 1172,
      "Ġress": 1173,
      "Ġagents": 1174,
      "demn": 1175,
      "ouver": 1176,
      "ension": 1177,
      "ĠrÃ¨gles": 1178,
      "endre": 1179,
      "ateurs": 1180,
      "ĠprÃ©vus": 1181,
      "Ġpe": 1182,
      "Ġcontre": 1183,
      "ĠprÃ©sente": 1184,
      "ime": 1185,
      "mble": 1186,
      "ĠmatiÃ¨re": 1187,
      "Ġrecher": 1188,
      "valu": 1189,
      "Ġpron": 1190,
      "ĠÃ©lectr": 1191,
      "Ġtribunal": 1192,
      "ĠactivitÃ©s": 1193,
      "Ġmoyen": 1194,
      "Ġjour": 1195,
      "ĠdÃ©t": 1196,
      "ĠreprÃ©sentants": 1197,
      "Ġrele": 1198,
      "toute": 1199,
      "Ġfrais": 1200,
      "Ã¢": 1201,
      "Ġprise": 1202,
      "ĠÃ©lÃ©ment": 1203,
      "entes": 1204,
      "Ġcorres": 1205,
      "Ġdisposition": 1206,
      "ĠrÃ©glement": 1207,
      "Ġcorrespond": 1208,
      "cette": 1209,
      "ĠpÃ©riode": 1210,
      "Ġcal": 1211,
      "did": 1212,
      "inform": 1213,
      "Ġcandid": 1214,
      "Ġaff": 1215,
      "Ġpendant": 1216,
      "Ġdoivent": 1217,
      "Ġcontrib": 1218,
      "Ġseu": 1219,
      "Ġpaiement": 1220,
      "tÃ©s": 1221,
      "abit": 1222,
      "Ġ9": 1223,
      "Ġtous": 1224,
      "Ã©p": 1225,
      "Ġ200": 1226,
      "ĠâĢľ": 1227,
      "Ġfonctions": 1228,
      "aph": 1229,
      "ĠmÃªmes": 1230,
      "Ġjuge": 1231,
      "Ġent": 1232,
      "tique": 1233,
      "Ġdernier": 1234,
      "Ġparticuli": 1235,
      "lÃ©e": 1236,
      "udg": 1237,
      "Ġbudg": 1238,
      "ĠeuropÃ©enne": 1239,
      "ĠqualitÃ©": 1240,
      "ĠnÃ©cessaires": 1241,
      "ile": 1242,
      "Ã©di": 1243,
      "Ġeffet": 1244,
      "ond": 1245,
      "ites": 1246,
      "Ġlib": 1247,
      "ill": 1248,
      "tissement": 1249,
      "Ġcommunes": 1250,
      "con": 1251,
      "atives": 1252,
      "rÃ©s": 1253,
      "Ġcomme": 1254,
      "Ġtot": 1255,
      "gistre": 1256,
      "Ġadministrative": 1257,
      "Ġempl": 1258,
      "ĠsupÃ©rieur": 1259,
      "iers": 1260,
      "Ġsens": 1261,
      "enn": 1262,
      "trang": 1263,
      "dec": 1264,
      "atÃ©gor": 1265,
      "ire": 1266,
      "accord": 1267,
      "Ġpris": 1268,
      "Ġfam": 1269,
      "annÃ©e": 1270,
      "Ã©qu": 1271,
      "Ġtel": 1272,
      "parti": 1273,
      "Ġdocuments": 1274,
      "ĠdÃ©b": 1275,
      "Ġcompt": 1276,
      "sence": 1277,
      "ĠactivitÃ©": 1278,
      "Ġvaleur": 1279,
      "aissance": 1280,
      "nÃ©": 1281,
      "alable": 1282,
      "exÃ©cution": 1283,
      "up": 1284,
      "Ġdossi": 1285,
      "ensemble": 1286,
      "tribution": 1287,
      "inter": 1288,
      "avis": 1289,
      "ĠÃ©lÃ©ments": 1290,
      "ĠsiÃ¨": 1291,
      "Ġannu": 1292,
      "ĠcatÃ©gor": 1293,
      "Ġsom": 1294,
      "Ġsuivantes": 1295,
      "ax": 1296,
      "Ġmor": 1297,
      "ist": 1298,
      "raph": 1299,
      "Ġvers": 1300,
      "olution": 1301,
      "Ġconstat": 1302,
      "test": 1303,
      "hÃ©": 1304,
      "Ġoff": 1305,
      "ulation": 1306,
      "ĠdÃ©faut": 1307,
      "Ġsau": 1308,
      "Ġmal": 1309,
      "fois": 1310,
      "serv": 1311,
      "ĠcollectivitÃ©s": 1312,
      "Ġtaux": 1313,
      "ĠâĢĿ": 1314,
      "Ġobligations": 1315,
      "Ġz": 1316,
      "Ġphy": 1317,
      "Ġtax": 1318,
      "quÃª": 1319,
      "ĠÃ©lectron": 1320,
      "Ġvi": 1321,
      "ĠmÃ©dec": 1322,
      "mise": 1323,
      "Ġinc": 1324,
      "ĠfixÃ©": 1325,
      "ompag": 1326,
      "Ġmesure": 1327,
      "ĠdÃ©fense": 1328,
      "Ġceux": 1329,
      "ĠagrÃ©": 1330,
      "cip": 1331,
      "Ġ10": 1332,
      "Ġdou": 1333,
      "Ġtransf": 1334,
      "ĠÃ©conomique": 1335,
      "Ġpriv": 1336,
      "Ġaffec": 1337,
      "Ġche": 1338,
      "ĠrÃ©fÃ©rence": 1339,
      "Ġplace": 1340,
      "Ġcalcul": 1341,
      "Ã©l": 1342,
      "Ġretrait": 1343,
      "Ġconsult": 1344,
      "oires": 1345,
      "Ġconserv": 1346,
      "ĠauprÃ¨s": 1347,
      "Ġexp": 1348,
      "Ġattribu": 1349,
      "ze": 1350,
      "Ġam": 1351,
      "xim": 1352,
      "Ġsoumis": 1353,
      "Ġparties": 1354,
      "aise": 1355,
      "enses": 1356,
      "Ġinstall": 1357,
      "ĠrÃ©gime": 1358,
      "Ġpouv": 1359,
      "mun": 1360,
      "aisse": 1361,
      "Ġbiens": 1362,
      "Ġdemand": 1363,
      "Ġtitulaire": 1364,
      "Ġmat": 1365,
      "ications": 1366,
      "Ġmarch": 1367,
      "Ġmaj": 1368,
      "Ġdossier": 1369,
      "Ġactions": 1370,
      "Ġcommune": 1371,
      "Ġzon": 1372,
      "ler": 1373,
      "Ġtrait": 1374,
      "comm": 1375,
      "Ġcau": 1376,
      "icu": 1377,
      "Ġprofessionnel": 1378,
      "Ġmil": 1379,
      "atif": 1380,
      "Ã©nag": 1381,
      "Ġavoir": 1382,
      "Ġconjo": 1383,
      "Ġrespect": 1384,
      "Ġpersonnel": 1385,
      "ĠcompÃ©tente": 1386,
      "Ġrelevant": 1387,
      "Ġvue": 1388,
      "Ġcir": 1389,
      "Ġportant": 1390,
      "ind": 1391,
      "Ã©h": 1392,
      "ĠbÃ©nÃ©fici": 1393,
      "ĠrÃ©mun": 1394,
      "ĠdÃ©penses": 1395,
      "Ã©hicu": 1396,
      "ĠfranÃ§aise": 1397,
      "prim": 1398,
      "entions": 1399,
      "incip": 1400,
      "urer": 1401,
      "Ġchac": 1402,
      "Ġphysi": 1403,
      "tric": 1404,
      "Ġprincip": 1405,
      "ĠrÃ©gional": 1406,
      "uit": 1407,
      "ĠvÃ©hicu": 1408,
      "Ġrecherche": 1409,
      "Ġcapit": 1410,
      "Ġfixe": 1411,
      "ĠfranÃ§ais": 1412,
      "Ġrenouv": 1413,
      "Ġus": 1414,
      "ocation": 1415,
      "environnement": 1416,
      "isc": 1417,
      "Ġcommerce": 1418,
      "Ġils": 1419,
      "Ġcaisse": 1420,
      "lorsqu": 1421,
      "Ġprononc": 1422,
      "Ġfonctionnement": 1423,
      "esp": 1424,
      "exploitation": 1425,
      "Ġcondu": 1426,
      "Ġpos": 1427,
      "Ġcoll": 1428,
      "ĠsalariÃ©s": 1429,
      "Ġas": 1430,
      "Ġsituation": 1431,
      "Ġmis": 1432,
      "Ġapplicable": 1433,
      "ĠchargÃ©s": 1434,
      "valuation": 1435,
      "Ġprestations": 1436,
      "ĠcomplÃ©ment": 1437,
      "Ġtitres": 1438,
      "Ġvoie": 1439,
      "Ġbudget": 1440,
      "pose": 1441,
      "ĠrÃ©se": 1442,
      "atoire": 1443,
      "Ġnouvelle": 1444,
      "Ġsocial": 1445,
      "Ġcotis": 1446,
      "tation": 1447,
      "Ġtiers": 1448,
      "Ġsuppl": 1449,
      "Ġnum": 1450,
      "Ġproduit": 1451,
      "lique": 1452,
      "ĠannÃ©e": 1453,
      "Ġ13": 1454,
      "ver": 1455,
      "Ġexer": 1456,
      "ĠmarchÃ©": 1457,
      "Ġetat": 1458,
      "Ġcinq": 1459,
      "Ġsusp": 1460,
      "Ġmaladi": 1461,
      "mblÃ©e": 1462,
      "Ġgu": 1463,
      "Ġsix": 1464,
      "em": 1465,
      "ĠcollectivitÃ©": 1466,
      "Ġpolice": 1467,
      "atr": 1468,
      "Ġlesquelles": 1469,
      "Ġcertific": 1470,
      "Ġprogr": 1471,
      "Ġcivile": 1472,
      "Ġchambre": 1473,
      "habit": 1474,
      "Ã¨me": 1475,
      "Ġtoutes": 1476,
      "000": 1477,
      "ĠdÃ©rog": 1478,
      "Ġassu": 1479,
      "ase": 1480,
      "ĠrÃ©sultat": 1481,
      "Ġconsomm": 1482,
      "veill": 1483,
      "ataire": 1484,
      "naire": 1485,
      "Ġprogram": 1486,
      "duction": 1487,
      "gÃ©": 1488,
      "Ġcent": 1489,
      "ĠsiÃ¨ge": 1490,
      "Ġrelative": 1491,
      "Ġmissions": 1492,
      "Ġmaxim": 1493,
      "Ġquat": 1494,
      "Ġprop": 1495,
      "ĠdÃ©v": 1496,
      "Ġengag": 1497,
      "ĠcoopÃ©ration": 1498,
      "Ġproduction": 1499,
      "Ġpay": 1500,
      "Ġoc": 1501,
      "Ġpermettant": 1502,
      "ĠgÃ©nÃ©rale": 1503,
      "ĠpiÃ¨": 1504,
      "Ġadress": 1505,
      "Ġsol": 1506,
      "fr": 1507,
      "Ġ000": 1508,
      "Ġterritoriales": 1509,
      "ĠintÃ©ress": 1510,
      "Ġsyn": 1511,
      "ĠprÃ©cise": 1512,
      "ĠprÃ©alable": 1513,
      "pÃ´ts": 1514,
      "Ġval": 1515,
      "information": 1516,
      "Ġexig": 1517,
      "uis": 1518,
      "ĠdÃ©lÃ©gu": 1519,
      "ĠrÃ©pub": 1520,
      "uni": 1521,
      "veillance": 1522,
      "Ġconten": 1523,
      "employ": 1524,
      "ination": 1525,
      "ĠrÃ©c": 1526,
      "Ġniv": 1527,
      "ĠdÃ©pÃ´": 1528,
      "Ġrecours": 1529,
      "ĠdÃ©partemental": 1530,
      "cepti": 1531,
      "Ġsein": 1532,
      "Ġsaint": 1533,
      "Ġsyst": 1534,
      "Ġnav": 1535,
      "Ġcommerci": 1536,
      "Ġdocument": 1537,
      "ĠrÃ©publique": 1538,
      "Ġobjet": 1539,
      "Ġintern": 1540,
      "Ġraison": 1541,
      "ĠtroisiÃ¨me": 1542,
      "Ġreven": 1543,
      "inistres": 1544,
      "vidu": 1545,
      "mises": 1546,
      "urant": 1547,
      "Ġsuscepti": 1548,
      "quisi": 1549,
      "Ġci": 1550,
      "abil": 1551,
      "Ġtenu": 1552,
      "idic": 1553,
      "Ġjuridic": 1554,
      "itaires": 1555,
      "Ġstatu": 1556,
      "ancement": 1557,
      "Ġprix": 1558,
      "actions": 1559,
      "aide": 1560,
      "Ã©rÃªt": 1561,
      "ĠimpÃ´ts": 1562,
      "Â°,": 1563,
      "opp": 1564,
      "Ã®tre": 1565,
      "jud": 1566,
      "Ġrisques": 1567,
      "ĠprÃ©cis": 1568,
      "Ġconsid": 1569,
      "elopp": 1570,
      "Ġindividu": 1571,
      "ĠcaractÃ¨re": 1572,
      "jec": 1573,
      "Ġnotification": 1574,
      "ĠpremiÃ¨re": 1575,
      "quÃªte": 1576,
      "ennent": 1577,
      "Ġsurveillance": 1578,
      "Ġinscrit": 1579,
      "Ġiv": 1580,
      "Ġcompor": 1581,
      "vier": 1582,
      "Ġvol": 1583,
      "Ġcompris": 1584,
      "inte": 1585,
      "Ġlimite": 1586,
      "Ġqual": 1587,
      "onomie": 1588,
      "Ġsauf": 1589,
      "Ġtemps": 1590,
      "Ġfisc": 1591,
      "toutefois": 1592,
      "Ġconclu": 1593,
      "Ġchef": 1594,
      "Ã©m": 1595,
      "Ġoutre": 1596,
      "Ġjan": 1597,
      "Ġjanvier": 1598,
      "oles": 1599,
      "tien": 1600,
      "Ġbase": 1601,
      "ĠcrÃ©dit": 1602,
      "ĠrÃ©gionale": 1603,
      "Ġministres": 1604,
      "truc": 1605,
      "vestissement": 1606,
      "Ġ15": 1607,
      "ĠdÃ©signÃ©": 1608,
      "quels": 1609,
      "ĠrÃ©alisation": 1610,
      "ergie": 1611,
      "ĠdÃ©ce": 1612,
      "hÃ©r": 1613,
      "esti": 1614,
      "arrÃª": 1615,
      "Ġinstitu": 1616,
      "ureur": 1617,
      "Ġminim": 1618,
      "emploi": 1619,
      "Ġagricole": 1620,
      "assemblÃ©e": 1621,
      "ĠdÃ©cisions": 1622,
      "ĠdÃ©cembre": 1623,
      "Ġforme": 1624,
      "agric": 1625,
      "ĠmÃ©dica": 1626,
      "Ġsoins": 1627,
      "Ġqualif": 1628,
      "ote": 1629,
      "Ġactes": 1630,
      "Ġni": 1631,
      "Ġvie": 1632,
      "Ġtechniques": 1633,
      "oration": 1634,
      "ĠdiffÃ©r": 1635,
      "organisation": 1636,
      "Ġinfr": 1637,
      "Ġjusqu": 1638,
      "Ġier": 1639,
      "Ġcontrats": 1640,
      "ĠdÃ©ten": 1641,
      "office": 1642,
      "vement": 1643,
      "Ġcontribu": 1644,
      "ĠÃ©quip": 1645,
      "agriculture": 1646,
      "Ġjug": 1647,
      "ĠmatÃ©ri": 1648,
      "Ġminist": 1649,
      "Ġvente": 1650,
      "ĠÃ©lectronique": 1651,
      "Ġbes": 1652,
      "Ġref": 1653,
      "agrÃ©": 1654,
      "Ġbeso": 1655,
      "Ġremb": 1656,
      "ĠÃ©n": 1657,
      "Ġniveau": 1658,
      "Ġab": 1659,
      "Ġ202": 1660,
      "Ã©nergie": 1661,
      "Ġlogement": 1662,
      "ustr": 1663,
      "Ġliqu": 1664,
      "aprÃ¨s": 1665,
      "Ġfig": 1666,
      "Ġversement": 1667,
      "commun": 1668,
      "sions": 1669,
      "Ġprises": 1670,
      "mer": 1671,
      "Ġlocaux": 1672,
      "Ġconstruction": 1673,
      "agrÃ©ment": 1674,
      "bilitÃ©": 1675,
      "ĠÃ©crit": 1676,
      "Ġcentre": 1677,
      "Ġcivil": 1678,
      "ĠpiÃ¨ces": 1679,
      "Ġexploit": 1680,
      "ĠexÃ©c": 1681,
      "Ġmaladie": 1682,
      "Ġcommiss": 1683,
      "Ã©der": 1684,
      "ĠcollÃ¨g": 1685,
      "tice": 1686,
      "Ġgre": 1687,
      "Ġinforme": 1688,
      "Ġintercommun": 1689,
      "ĠcompÃ©tences": 1690,
      "tro": 1691,
      "Ġser": 1692,
      "Ġcert": 1693,
      "appel": 1694,
      "Ġmariti": 1695,
      "Ġsuivants": 1696,
      "Ġcop": 1697,
      "Ġterritoriale": 1698,
      "Ġtable": 1699,
      "Ġsyndic": 1700,
      "Ġdevant": 1701,
      "ann": 1702,
      "Ġmoyens": 1703,
      "Ã©v": 1704,
      "Ġcapital": 1705,
      "Ġmu": 1706,
      "ograph": 1707,
      "Ġtitulaires": 1708,
      "Ġappar": 1709,
      "tionn": 1710,
      "ompl": 1711,
      "Ġbis": 1712,
      "Ã¨de": 1713,
      "employeur": 1714,
      "orig": 1715,
      "Ġdix": 1716,
      "ons": 1717,
      "Ġobten": 1718,
      "rÃ©es": 1719,
      "tivement": 1720,
      "Ġcorrespondant": 1721,
      "Ġmutu": 1722,
      "Ã©rif": 1723,
      "Ġdemandeur": 1724,
      "Ġaccompag": 1725,
      "eures": 1726,
      "ĠvÃ©rif": 1727,
      "inaire": 1728,
      "icier": 1729,
      "Ġquel": 1730,
      "Ġindemn": 1731,
      "urb": 1732,
      "ing": 1733,
      "Ġcomprend": 1734,
      "Ġpubliques": 1735,
      "ĠreÃ§": 1736,
      "cipl": 1737,
      "Ġpension": 1738,
      "ich": 1739,
      "Ġfinancement": 1740,
      "Ã©valuation": 1741,
      "arma": 1742,
      "ĠdÃ©velopp": 1743,
      "ĠautoritÃ©s": 1744,
      "apac": 1745,
      "utilisation": 1746,
      "atique": 1747,
      "Ã©duc": 1748,
      "absence": 1749,
      "ĠrÃ©sultant": 1750,
      "ĠpropriÃ©taire": 1751,
      "isme": 1752,
      "urg": 1753,
      "Ġcharges": 1754,
      "Ġsommes": 1755,
      "Ġordonn": 1756,
      "aines": 1757,
      "amende": 1758,
      "Ġliquid": 1759,
      "Ġquin": 1760,
      "ĠdÃ©signÃ©s": 1761,
      "Ã©ro": 1762,
      "Ġtransmet": 1763,
      "iration": 1764,
      "ĠrÃ©munÃ©ration": 1765,
      "Ġtaxe": 1766,
      "Ġprofessionnels": 1767,
      "pÃ´t": 1768,
      "exe": 1769,
      "Ġgreff": 1770,
      "ĠrÃ©solution": 1771,
      "Ã©nagement": 1772,
      "ĠfixÃ©e": 1773,
      "lid": 1774,
      "Ġouvr": 1775,
      "Ġtraitement": 1776,
      "Ã©tat": 1777,
      "exception": 1778,
      "Ġrelatif": 1779,
      "Ġelles": 1780,
      "Ã§ant": 1781,
      "occ": 1782,
      "Ġcause": 1783,
      "instruction": 1784,
      "Ã©rÃ©s": 1785,
      "att": 1786,
      "Ġtechnique": 1787,
      "Ġcommuniqu": 1788,
      "ĠprÃ©cÃ©dent": 1789,
      "ĠdÃ©rogation": 1790,
      "fin": 1791,
      "accÃ¨s": 1792,
      "Ġgroupe": 1793,
      "Ġfois": 1794,
      "ĠÃ©gal": 1795,
      "tranger": 1796,
      "cien": 1797,
      "ources": 1798,
      "Ġconcernant": 1799,
      "Ġinterven": 1800,
      "su": 1801,
      "intÃ©rÃªt": 1802,
      "tent": 1803,
      "Ġautorisation": 1804,
      "Ġtableau": 1805,
      "Ġdomaine": 1806,
      "ĠremplacÃ©s": 1807,
      "Ã©ducation": 1808,
      "Ġcopie": 1809,
      "illes": 1810,
      "expiration": 1811,
      "Ġconcerne": 1812,
      "Ġinstallations": 1813,
      "ĠalinÃ©as": 1814,
      "ociation": 1815,
      "ĠbÃ¢": 1816,
      "ĠprocÃ©der": 1817,
      "lÃ©": 1818,
      "Ġmodification": 1819,
      "Ġobserv": 1820,
      "quisition": 1821,
      "Ġreconn": 1822,
      "fait": 1823,
      "aff": 1824,
      "orti": 1825,
      "Ġpharma": 1826,
      "Ġpass": 1827,
      "Ġproposition": 1828,
      "ĠdÃ©pos": 1829,
      "Ġpersonnels": 1830,
      "mand": 1831,
      "Ġrede": 1832,
      "Ġprocureur": 1833,
      "Ġrou": 1834,
      "Ġcondition": 1835,
      "Ġpeine": 1836,
      "Ġmotiv": 1837,
      "ĠmÃ©decin": 1838,
      "ĠprÃ©jud": 1839,
      "intÃ©ress": 1840,
      "Ġjustice": 1841,
      "Ġconjoint": 1842,
      "ĠcompÃ©tence": 1843,
      "atifs": 1844,
      "Ġintercommunale": 1845,
      "ĠbÃ©nÃ©ficiaire": 1846,
      "Ġredev": 1847,
      "Ġrecom": 1848,
      "Ġpouvoir": 1849,
      "Ġrefus": 1850,
      "ĠspÃ©cif": 1851,
      "Ġadap": 1852,
      "Ġgarantie": 1853,
      "ventu": 1854,
      "Ġplac": 1855,
      "Ġfinanciers": 1856,
      "ĠÃ©tu": 1857,
      "ous": 1858,
      "Ġrecommand": 1859,
      "Ġ11": 1860,
      "ĠrÃ©seau": 1861,
      "Ã©ris": 1862,
      "tÃ©e": 1863,
      "ĠdÃ©finis": 1864,
      "Ġrecouv": 1865,
      "Ġcond": 1866,
      "mi": 1867,
      "vision": 1868,
      "Ġfont": 1869,
      "Ġdirection": 1870,
      "Ġatte": 1871,
      "intÃ©ressÃ©": 1872,
      "Ġquatre": 1873,
      "ĠrÃ©union": 1874,
      "iÃ¨res": 1875,
      "Ġresponsable": 1876,
      "lais": 1877,
      "ints": 1878,
      "Ġcondam": 1879,
      "impÃ´t": 1880,
      "ĠministÃ¨re": 1881,
      "Ġfinancier": 1882,
      "ĠdÃ©veloppement": 1883,
      "ĠrelÃ¨": 1884,
      "ĠprÃª": 1885,
      "acte": 1886,
      "ivers": 1887,
      "Ġporte": 1888,
      "lon": 1889,
      "Ġdipl": 1890,
      "Ġbr": 1891,
      "Ġsc": 1892,
      "Ġgroupement": 1893,
      "Ġindiqu": 1894,
      "amÃ©nagement": 1895,
      "Ġcontin": 1896,
      "fs": 1897,
      "exc": 1898,
      "ĠdÃ¨s": 1899,
      "pit": 1900,
      "Ġnotifi": 1901,
      "rement": 1902,
      "Ġauc": 1903,
      "Ġentreprise": 1904,
      "Ġjuridiction": 1905,
      "eubles": 1906,
      "opÃ©r": 1907,
      "Ġfac": 1908,
      "ĠdÃ©pÃ´t": 1909,
      "Ġcotisations": 1910,
      "Ġorganisme": 1911,
      "entitÃ©": 1912,
      "Ġparticipation": 1913,
      "ĠÃ©tat": 1914,
      "Ġzone": 1915,
      "entiel": 1916,
      "ches": 1917,
      "ĠdÃ©lais": 1918,
      "Ġ12": 1919,
      "Ġlettre": 1920,
      "institu": 1921,
      "investissement": 1922,
      "ĠsalariÃ©": 1923,
      "ĠprÃ©vention": 1924,
      "prÃ©ci": 1925,
      "Ġeuros": 1926,
      "appliqu": 1927,
      "indemn": 1928,
      "vention": 1929,
      "ouverture": 1930,
      "Ġdiscipl": 1931,
      "Ġcommunication": 1932,
      "oraire": 1933,
      "tance": 1934,
      "ĠcompÃ©tent": 1935,
      "ĠpÃª": 1936,
      "Ġemploy": 1937,
      "ĠrÃ©sid": 1938,
      "ĠprÃ©judice": 1939,
      "ĠcaractÃ©ris": 1940,
      "ĠÃ©ventu": 1941,
      "Ġrest": 1942,
      "ĠresponsabilitÃ©": 1943,
      "ĠcollÃ¨ge": 1944,
      "Ġdirectement": 1945,
      "Ġcertificat": 1946,
      "Ġmorale": 1947,
      "Ġregistre": 1948,
      "ueur": 1949,
      "Ġcomptable": 1950,
      "Ġ22": 1951,
      "ĠsystÃ¨me": 1952,
      "Ġressources": 1953,
      "Ġaut": 1954,
      "orient": 1955,
      "Ġtransports": 1956,
      "Ġanim": 1957,
      "rec": 1958,
      "Ġreten": 1959,
      "ides": 1960,
      "Ġvig": 1961,
      "Ġdistribution": 1962,
      "Ġradi": 1963,
      "Ġparlement": 1964,
      "Ġnomm": 1965,
      "ĠdiplÃ´": 1966,
      "Ġcompos": 1967,
      "Ġlequel": 1968,
      "resse": 1969,
      "Ġprofessionnelles": 1970,
      "Ġconnaissance": 1971,
      "ĠprocÃ¨s": 1972,
      "testation": 1973,
      "Ġenc": 1974,
      "Ġheures": 1975,
      "Ġtard": 1976,
      "Ġcr": 1977,
      "ĠdÃ©partements": 1978,
      "registre": 1979,
      "ĠbÃ¢ti": 1980,
      "verb": 1981,
      "Ġrequ": 1982,
      "Ġimmob": 1983,
      "tifie": 1984,
      "ĠcatÃ©gorie": 1985,
      "Ġcession": 1986,
      "Ġchacun": 1987,
      "Ġmettre": 1988,
      "rance": 1989,
      "Ġmoment": 1990,
      "Ġprendre": 1991,
      "Ġobservations": 1992,
      "Ġmet": 1993,
      "endu": 1994,
      "autres": 1995,
      "naires": 1996,
      "aisant": 1997,
      "Ġpoursu": 1998,
      "ĠpropriÃ©tÃ©": 1999,
      "Ġtari": 2000,
      "origine": 2001,
      "Ġpuni": 2002,
      "Ġiniti": 2003,
      "iden": 2004,
      "issant": 2005,
      "Ġcomporte": 2006,
      "Ġ16": 2007,
      "ĠmÃ©dicale": 2008,
      "cev": 2009,
      "Ġfav": 2010,
      "Ġgestionnaire": 2011,
      "imes": 2012,
      "Ġappel": 2013,
      "Ġjustifi": 2014,
      "Ĥ¬": 2015,
      "Ġprend": 2016,
      "Ġacqu": 2017,
      "Ãªtre": 2018,
      "ĠdÃ©ch": 2019,
      "Ġfab": 2020,
      "Ġmun": 2021,
      "ĠâĤ¬": 2022,
      "Ġid": 2023,
      "alinÃ©": 2024,
      "ĠdÃ©m": 2025,
      "Ġdemander": 2026,
      "Ġusage": 2027,
      "ĠrÃ©parti": 2028,
      "art": 2029,
      "Ġbien": 2030,
      "iter": 2031,
      "aÃ®tre": 2032,
      "yp": 2033,
      "Ġlogements": 2034,
      "Ġdispositif": 2035,
      "ĠdÃ©termine": 2036,
      "Ġperman": 2037,
      "Ġtravaille": 2038,
      "Ġrisque": 2039,
      "nom": 2040,
      "accueil": 2041,
      "Ġvote": 2042,
      "alinÃ©a": 2043,
      "ĠconcernÃ©s": 2044,
      "ets": 2045,
      "ettes": 2046,
      "Ġvic": 2047,
      "Ġdemandes": 2048,
      "Ã©quip": 2049,
      "iÃ©": 2050,
      "Ġdispose": 2051,
      "Ġenf": 2052,
      "Ġrembour": 2053,
      "illet": 2054,
      "Ġvicti": 2055,
      "Ġquinze": 2056,
      "Ġparts": 2057,
      "ĠbÃ©nÃ©fice": 2058,
      "sont": 2059,
      "poser": 2060,
      "Ġspor": 2061,
      "ouvr": 2062,
      "Ġobjec": 2063,
      "Ġ31": 2064,
      "Ġterme": 2065,
      "Ġhors": 2066,
      "ĠdÃ©bit": 2067,
      "icile": 2068,
      "dess": 2069,
      "Ġ30": 2070,
      "ĠÃ©gale": 2071,
      "ĠmarchÃ©s": 2072,
      "Ã©conomie": 2073,
      "criptions": 2074,
      "Ġtotal": 2075,
      "sie": 2076,
      "Ġfamili": 2077,
      "Ġcircon": 2078,
      "Ġrendu": 2079,
      "arrÃªtÃ©": 2080,
      "itation": 2081,
      "imm": 2082,
      "Ġsim": 2083,
      "ĠcatÃ©gories": 2084,
      "ĠnÃ©cessaire": 2085,
      "Ġdomicile": 2086,
      "ĠrÃ©pond": 2087,
      "Ġvigueur": 2088,
      "Ã©lec": 2089,
      "Ġappr": 2090,
      "Ġcandidats": 2091,
      "Ġense": 2092,
      "Ġfins": 2093,
      "Ġfonci": 2094,
      "Ġmag": 2095,
      "oblig": 2096,
      "Ġcandidat": 2097,
      "Ġtant": 2098,
      "Ġcommissaire": 2099,
      "ĠdÃ©livrance": 2100,
      "ĠrÃ©fÃ©rences": 2101,
      "ĠrÃ©sultats": 2102,
      "ĠexcÃ©der": 2103,
      "apacitÃ©": 2104,
      "ĠnÃ©g": 2105,
      "Ã©rÃªts": 2106,
      "Ġremboursement": 2107,
      "Ġant": 2108,
      "Ġtransmission": 2109,
      "iditÃ©": 2110,
      "inc": 2111,
      "lation": 2112,
      "Ġafin": 2113,
      "ĠfinanciÃ¨re": 2114,
      "Ġpoly": 2115,
      "Ġtransfert": 2116,
      "Ġnaturel": 2117,
      "Ġmaire": 2118,
      "Ġsociales": 2119,
      "ĠmaniÃ¨re": 2120,
      "appliquent": 2121,
      "enc": 2122,
      "ĠprocÃ©dures": 2123,
      "Ġpeines": 2124,
      "Ġjuillet": 2125,
      "habitation": 2126,
      "ĠsupÃ©rieure": 2127,
      "Ġsatis": 2128,
      "onie": 2129,
      "ĠcoÃ»": 2130,
      "Ġsupprim": 2131,
      "Ġsuivi": 2132,
      "Ġocc": 2133,
      "ĠprÃ©senter": 2134,
      "Ġoffici": 2135,
      "cal": 2136,
      "Ġparis": 2137,
      "Ġdisp": 2138,
      "Ġcomport": 2139,
      "Ġbail": 2140,
      "stances": 2141,
      "infr": 2142,
      "Ġhand": 2143,
      "ĠcaractÃ©ristiques": 2144,
      "Ġparc": 2145,
      "icap": 2146,
      "Ġinternation": 2147,
      "ps": 2148,
      "lit": 2149,
      "ival": 2150,
      "Ġconseiller": 2151,
      "Ġassur": 2152,
      "Ġhandicap": 2153,
      "Ġretraite": 2154,
      "tÃ©es": 2155,
      "ospit": 2156,
      "Ġsecond": 2157,
      "ibles": 2158,
      "tÃ©gr": 2159,
      "icip": 2160,
      "onne": 2161,
      "Ġmunicip": 2162,
      "Ġmaritime": 2163,
      "Ġfaisant": 2164,
      "ologie": 2165,
      "Ġprogramme": 2166,
      "Ġorganisations": 2167,
      "ĠpÃ©r": 2168,
      "install": 2169,
      "Ġdouan": 2170,
      "inscription": 2171,
      "Ġagricoles": 2172,
      "az": 2173,
      "raÃ®": 2174,
      "Ġmajor": 2175,
      "aritÃ©": 2176,
      "empr": 2177,
      "ĠÃ©ch": 2178,
      "Ġtra": 2179,
      "Ã©rÃ©e": 2180,
      "autre": 2181,
      "exploitant": 2182,
      "Ġunique": 2183,
      "Ġconsommation": 2184,
      "ingt": 2185,
      "oix": 2186,
      "ĠlÃ©gis": 2187,
      "ĠvÃ©hicule": 2188,
      "Ġphysique": 2189,
      "ĠsÃ»": 2190,
      "Ġrenouvel": 2191,
      "Ġcentr": 2192,
      "ĠcrÃ©ation": 2193,
      "Ġsep": 2194,
      "ĠassociÃ©s": 2195,
      "Ġprud": 2196,
      "Ġadresse": 2197,
      "ĠsupplÃ©": 2198,
      "Ġstatut": 2199,
      "tropo": 2200,
      "Ġsite": 2201,
      "ĠautoritÃ©": 2202,
      "ĠperÃ§": 2203,
      "issement": 2204,
      "propri": 2205,
      "Ġindustr": 2206,
      "Ġtyp": 2207,
      "aly": 2208,
      "Ġpoli": 2209,
      "Ġmob": 2210,
      "Ġconsultation": 2211,
      "issue": 2212,
      "acement": 2213,
      "20": 2214,
      "ĠpÃªche": 2215,
      "enf": 2216,
      "Ġduquel": 2217,
      "Ã©donie": 2218,
      "Ġexercer": 2219,
      "lection": 2220,
      "ĠvÃ©hicules": 2221,
      "obligation": 2222,
      "ĠâĢĵ": 2223,
      "ĠmÃ©tropo": 2224,
      "nÃ©sie": 2225,
      "Ġculture": 2226,
      "ĠannÃ©es": 2227,
      "ĠcinÃ©": 2228,
      "Ġsolid": 2229,
      "Ġnorm": 2230,
      "ĠpolynÃ©sie": 2231,
      "Ġjourn": 2232,
      "calÃ©donie": 2233,
      "ĠopÃ©ration": 2234,
      "ĠdÃ©sig": 2235,
      "Ġtemporaire": 2236,
      "Ġfer": 2237,
      "Ġphysiques": 2238,
      "Ã©rant": 2239,
      "ĠfixÃ©s": 2240,
      "ĠinfÃ©rieur": 2241,
      "Ġexclu": 2242,
      "Ġlocal": 2243,
      "Ġprati": 2244,
      "ĠimmÃ©di": 2245,
      "Ġrecueil": 2246,
      "Ġstatuts": 2247,
      "Ġfaite": 2248,
      "Ġjugement": 2249,
      "otte": 2250,
      "Ġremise": 2251,
      "Ġrelatifs": 2252,
      "Ġconventions": 2253,
      "ĠmÃ©dical": 2254,
      "aient": 2255,
      "Ġdem": 2256,
      "Ġsuspension": 2257,
      "Ã©tranger": 2258,
      "anc": 2259,
      "ĠprÃ©par": 2260,
      "examen": 2261,
      "espace": 2262,
      "registrement": 2263,
      "Ġuti": 2264,
      "adÃ©m": 2265,
      "rig": 2266,
      "Ġterritorial": 2267,
      "Ġpatr": 2268,
      "Ġprofession": 2269,
      "Ġpermis": 2270,
      "Ġrend": 2271,
      "ĠÃ©trang": 2272,
      "anisme": 2273,
      "Ġpossi": 2274,
      "istr": 2275,
      "Ġressort": 2276,
      "engag": 2277,
      "Ġmagistr": 2278,
      "ĠconcernÃ©": 2279,
      "Ġsusceptibles": 2280,
      "Ã¨tre": 2281,
      "usion": 2282,
      "ĠdÃ©finie": 2283,
      "ĠÃ©quival": 2284,
      "ĠexerÃ§ant": 2285,
      "ĠsÃ©j": 2286,
      "ĠdÃ©cid": 2287,
      "attribution": 2288,
      "lev": 2289,
      "Ã©rÃ©es": 2290,
      "ĠmÃ©dicament": 2291,
      "Ġrecettes": 2292,
      "Ġfinances": 2293,
      "Ġassociations": 2294,
      "Ġmilitaire": 2295,
      "Ġmain": 2296,
      "Ġmon": 2297,
      "Ġvertu": 2298,
      "dement": 2299,
      "yotte": 2300,
      "ĠÃ©p": 2301,
      "ĠnumÃ©ro": 2302,
      "Ġconcl": 2303,
      "Ġpublication": 2304,
      "Ġassurer": 2305,
      "urr": 2306,
      "Ġinfractions": 2307,
      "Ġple": 2308,
      "tifier": 2309,
      "Ġdot": 2310,
      "Ġ14": 2311,
      "ĠbÃ©nÃ©ficier": 2312,
      "Ġmayotte": 2313,
      "diction": 2314,
      "ffis": 2315,
      "Ġall": 2316,
      "atoires": 2317,
      "amp": 2318,
      "Ġclass": 2319,
      "erts": 2320,
      "ataires": 2321,
      "ĠdÃ©libÃ©ration": 2322,
      "antes": 2323,
      "Ġmarchand": 2324,
      "gard": 2325,
      "dits": 2326,
      "acquisition": 2327,
      "Ġimmobil": 2328,
      "Ġparmi": 2329,
      "Ġconces": 2330,
      "Ġvingt": 2331,
      "Ġfaits": 2332,
      "Ġstruc": 2333,
      "ses": 2334,
      "ĠtÃ©l": 2335,
      "asion": 2336,
      "Ġannuel": 2337,
      "ĠrÃ©d": 2338,
      "oyer": 2339,
      "Ġscien": 2340,
      "ĠprocÃ©dÃ©": 2341,
      "Ġscientif": 2342,
      "retÃ©": 2343,
      "ute": 2344,
      "Ġconseils": 2345,
      "ende": 2346,
      "cessi": 2347,
      "intÃ©rieur": 2348,
      "Ġpartir": 2349,
      "Ġregard": 2350,
      "Ġw": 2351,
      "ĠÃ©v": 2352,
      "Ġexerce": 2353,
      "oient": 2354,
      "ĠprÃ©lÃ¨": 2355,
      "yc": 2356,
      "Ġlesquels": 2357,
      "Ġobjectifs": 2358,
      "itÃ©e": 2359,
      "Ġlieux": 2360,
      "Ġdemeure": 2361,
      "Ġvoix": 2362,
      "applique": 2363,
      "Ġvolont": 2364,
      "verbal": 2365,
      "ĠÃ©quipements": 2366,
      "Ġsupport": 2367,
      "atriÃ¨me": 2368,
      "ĠÃ©tablis": 2369,
      "association": 2370,
      "Ã©rer": 2371,
      "vient": 2372,
      "ĠrÃ©du": 2373,
      "dessus": 2374,
      "ĠrÃ©daction": 2375,
      "Ġgroupements": 2376,
      "agent": 2377,
      "Ġarm": 2378,
      "abilitÃ©s": 2379,
      "enant": 2380,
      "Ġsanction": 2381,
      "ĠquatriÃ¨me": 2382,
      "litÃ©": 2383,
      "Ġrenouvellement": 2384,
      "13": 2385,
      "cteur": 2386,
      "identification": 2387,
      "Ġconcurr": 2388,
      "Ġbesoins": 2389,
      "Ġ17": 2390,
      "Ġhaut": 2391,
      "Ġterra": 2392,
      "ains": 2393,
      "appr": 2394,
      "irm": 2395,
      "ĠsupplÃ©ment": 2396,
      "Ġaudi": 2397,
      "Ġimpos": 2398,
      "Ġcarte": 2399,
      "ĠaffÃ©r": 2400,
      "ange": 2401,
      "Ġfa": 2402,
      "ologique": 2403,
      "Ġ199": 2404,
      "Ġnouveau": 2405,
      "pa": 2406,
      "ong": 2407,
      "Ġforfait": 2408,
      "Ġparticulier": 2409,
      "lic": 2410,
      "Ġpatrim": 2411,
      "Ġgaranties": 2412,
      "ĠdÃ©tention": 2413,
      "ĠpÃ©rim": 2414,
      "Ġcli": 2415,
      "Ġseul": 2416,
      "installation": 2417,
      "Ġindustri": 2418,
      "Ġassure": 2419,
      "ĠfÃ©d": 2420,
      "Ġchacune": 2421,
      "Ġfigurant": 2422,
      "Ġrecouvrement": 2423,
      "ĠsÃ»retÃ©": 2424,
      "Ġmorales": 2425,
      "ĠexÃ©cut": 2426,
      "ĠcomplÃ©mentaire": 2427,
      "lusion": 2428,
      "Ġgaz": 2429,
      "ern": 2430,
      "Ġfournis": 2431,
      "ĠsÃ©jour": 2432,
      "ordonnance": 2433,
      "Ġchang": 2434,
      "ade": 2435,
      "urbanisme": 2436,
      "outre": 2437,
      "iÃ©e": 2438,
      "Ġadministratif": 2439,
      "Ġindirec": 2440,
      "Ġobligatoire": 2441,
      "assu": 2442,
      "Ġpropre": 2443,
      "ĠdÃ©lÃ©guÃ©": 2444,
      "sation": 2445,
      "iÃ©es": 2446,
      "Ġcinqu": 2447,
      "Ġcrit": 2448,
      "assement": 2449,
      "uve": 2450,
      "voi": 2451,
      "ĠconcernÃ©e": 2452,
      "ĠintÃ©rieur": 2453,
      "Ġprojets": 2454,
      "ĠdÃ©livrÃ©": 2455,
      "emp": 2456,
      "mat": 2457,
      "Ġplein": 2458,
      "ĠbÃ©nÃ©ficiaires": 2459,
      "oqu": 2460,
      "Ġapparten": 2461,
      "ĠadressÃ©e": 2462,
      "rÃ©t": 2463,
      "assurer": 2464,
      "Ġsanitaire": 2465,
      "Ġmilitaires": 2466,
      "Ġprestation": 2467,
      "Ġfournit": 2468,
      "Ġannex": 2469,
      "Ġrur": 2470,
      "ĠrecommandÃ©e": 2471,
      "ĠdÃ©cÃ¨s": 2472,
      "Ġenvis": 2473,
      "ĠconformitÃ©": 2474,
      "Ġcomb": 2475,
      "Ġbure": 2476,
      "ĠdiplÃ´me": 2477,
      "itenti": 2478,
      "sif": 2479,
      "ĠpÃ©nitenti": 2480,
      "Ġtransmis": 2481,
      "Ã©taire": 2482,
      "ĠÃ©tablie": 2483,
      "Ġca": 2484,
      "mentation": 2485,
      "ĠrÃ©duction": 2486,
      "ĠspÃ©cialis": 2487,
      "Ġmandataire": 2488,
      "ĠÃ©lus": 2489,
      "Ġpropor": 2490,
      "ĠsecrÃ©t": 2491,
      "12": 2492,
      "Ġconcurrence": 2493,
      "Ġclasse": 2494,
      "ĠfinanciÃ¨res": 2495,
      "ĠpÃ©nal": 2496,
      "istes": 2497,
      "uc": 2498,
      "ĠprÃ©sentation": 2499,
      "Ġplaf": 2500,
      "ĠdÃ©biteur": 2501,
      "Ã©li": 2502,
      "Ġdispositifs": 2503,
      "Ã©ch": 2504,
      "ĠopÃ©r": 2505,
      "eff": 2506,
      "ĠrÃ©sidence": 2507,
      "Ġcompens": 2508,
      "urgence": 2509,
      "Ġzones": 2510,
      "ĠschÃ©": 2511,
      "Ġaccompl": 2512,
      "ĠintÃ©rÃªts": 2513,
      "Ġinstru": 2514,
      "Ġpost": 2515,
      "Ġgrav": 2516,
      "Ġsomme": 2517,
      "auteur": 2518,
      "istance": 2519,
      "ĠdÃ©lÃ©gation": 2520,
      "euv": 2521,
      "Ġaides": 2522,
      "Ġhospit": 2523,
      "Ġrevenus": 2524,
      "Ġpays": 2525,
      "Ġscol": 2526,
      "Ġprovis": 2527,
      "Ġexercice": 2528,
      "Ġfavor": 2529,
      "effec": 2530,
      "ĠdÃ©signation": 2531,
      "enregistrement": 2532,
      "ĠcritÃ¨res": 2533,
      "Ġjournal": 2534,
      "positions": 2535,
      "Ġsoumises": 2536,
      "Ġesti": 2537,
      "Ġcontrav": 2538,
      "Ġmanque": 2539,
      "Ġfich": 2540,
      "Ã¨le": 2541,
      "Ġinformation": 2542,
      "ĠrÃ©partition": 2543,
      "ĠchargÃ©e": 2544,
      "ĠdÃ©chets": 2545,
      "tricitÃ©": 2546,
      "lle": 2547,
      "Ġrenseignement": 2548,
      "ĠrÃ©di": 2549,
      "Ġcorps": 2550,
      "Ġjustific": 2551,
      "ain": 2552,
      "tout": 2553,
      "Ġdispens": 2554,
      "Ġchi": 2555,
      "Ġprom": 2556,
      "Ġsuc": 2557,
      "Ġsaisie": 2558,
      "cident": 2559,
      "dique": 2560,
      "Ġalors": 2561,
      "Ġmer": 2562,
      "Ġorgan": 2563,
      "ĠparticuliÃ¨res": 2564,
      "Ġchois": 2565,
      "agn": 2566,
      "isonnement": 2567,
      "sim": 2568,
      "Ġesp": 2569,
      "ali": 2570,
      "adresse": 2571,
      "ĠinfÃ©rieure": 2572,
      "matric": 2573,
      "Ġconsul": 2574,
      "Ġcircul": 2575,
      "Ġenfants": 2576,
      "ĠdÃ©libÃ©rations": 2577,
      "Ġplacement": 2578,
      "ĠÂ": 2579,
      "Ġexam": 2580,
      "Ġdirig": 2581,
      "ertion": 2582,
      "Ġsusceptible": 2583,
      "occasion": 2584,
      "Ġdomm": 2585,
      "ĠintÃ©ressÃ©s": 2586,
      "Ġgreffe": 2587,
      "Ġcomposition": 2588,
      "tici": 2589,
      "erre": 2590,
      "institut": 2591,
      "Ġenvironnement": 2592,
      "enquÃªte": 2593,
      "allocation": 2594,
      "ible": 2595,
      "Ġiden": 2596,
      "ĠdÃ©terminÃ©": 2597,
      "Ġprescriptions": 2598,
      "Ġlong": 2599,
      "Ġrecev": 2600,
      "Ġcontribution": 2601,
      "ĠmotivÃ©e": 2602,
      "eille": 2603,
      "ĠrÃ©guli": 2604,
      "Ġpropres": 2605,
      "mbres": 2606,
      "section": 2607,
      "tÃ©g": 2608,
      "ĠÃ¢": 2609,
      "Ġrevenu": 2610,
      "Ġconforme": 2611,
      "Ġpermettre": 2612,
      "Ġaffaires": 2613,
      "Ġdonner": 2614,
      "Ġpati": 2615,
      "Ġtelle": 2616,
      "Ġconservation": 2617,
      "ĠpÃ©nale": 2618,
      "Ġsignature": 2619,
      "ĠpublicitÃ©": 2620,
      "Ġfonctionnaires": 2621,
      "Ġconcours": 2622,
      "11": 2623,
      "sous": 2624,
      "dr": 2625,
      "ĠentraÃ®": 2626,
      "Ġsanctions": 2627,
      "Ġmises": 2628,
      "agraph": 2629,
      "Ġbil": 2630,
      "Ġtravailleurs": 2631,
      "th": 2632,
      "imin": 2633,
      "tient": 2634,
      "Ġali": 2635,
      "ĠmÃ©t": 2636,
      "tiers": 2637,
      "ĠprocÃ¨de": 2638,
      "ĠprÃ©sence": 2639,
      "Ã§on": 2640,
      "mar": 2641,
      "esse": 2642,
      "Ġje": 2643,
      "Ġdiv": 2644,
      "Ġimmeubles": 2645,
      "Ġcomportant": 2646,
      "Ġsecteur": 2647,
      "Ġpropos": 2648,
      "euble": 2649,
      "Ġprudentiel": 2650,
      "utÃ©": 2651,
      "Ġliquidation": 2652,
      "Ġlimites": 2653,
      "Ġdouanes": 2654,
      "Ġmai": 2655,
      "Ġacte": 2656,
      "stitu": 2657,
      "ock": 2658,
      "Ã©lectricitÃ©": 2659,
      "ĠpÃ©rimÃ¨tre": 2660,
      "Ġpatrimo": 2661,
      "Ġplur": 2662,
      "atement": 2663,
      "Ġmarchandises": 2664,
      "Ġprescrit": 2665,
      "ĠprononcÃ©e": 2666,
      "aces": 2667,
      "ĠrÃ©un": 2668,
      "Ġengagements": 2669,
      "tiÃ¨res": 2670,
      "affec": 2671,
      "ĠdestinÃ©s": 2672,
      "aute": 2673,
      "ĠconcernÃ©es": 2674,
      "ĠdÃ©partementale": 2675,
      "indemnitÃ©": 2676,
      "uclÃ©": 2677,
      "Ġplafond": 2678,
      "Ġstock": 2679,
      "una": 2680,
      "allis": 2681,
      "ĠrÃ©par": 2682,
      "Ġdonne": 2683,
      "posent": 2684,
      "accompag": 2685,
      "infraction": 2686,
      "Ġwallis": 2687,
      "utuna": 2688,
      "jou": 2689,
      "ĠhabilitÃ©": 2690,
      "inspec": 2691,
      "uelle": 2692,
      "Ġchambres": 2693,
      "Ġsoumise": 2694,
      "ĠcrÃ©anci": 2695,
      "ĠdÃ©terminÃ©es": 2696,
      "Ġpolitique": 2697,
      "Ġ23": 2698,
      "Ġminimum": 2699,
      "ĠdÃ©terminÃ©e": 2700,
      "Ġsubordonn": 2701,
      ").": 2702,
      "Ġmanif": 2703,
      "istant": 2704,
      "ĠcongÃ©": 2705,
      "Ġappartenant": 2706,
      "Ġsuite": 2707,
      "Ġmobil": 2708,
      "ĠarmÃ©es": 2709,
      "ĠforÃª": 2710,
      "import": 2711,
      "Ġsurf": 2712,
      "titude": 2713,
      "ĠmajoritÃ©": 2714,
      "one": 2715,
      "ĠhabilitÃ©s": 2716,
      "Ġporter": 2717,
      "tures": 2718,
      "ĠdÃ©livrÃ©e": 2719,
      "Ġtenant": 2720,
      "ĠrÃ©glementation": 2721,
      "ĠrÃ©si": 2722,
      "Ġformations": 2723,
      "ulle": 2724,
      "Ġexception": 2725,
      "Ġcondamn": 2726,
      "leur": 2727,
      "Ġgouver": 2728,
      "Ġ198": 2729,
      "ĠvÃ©t": 2730,
      "Ġdistin": 2731,
      "Ġlic": 2732,
      "ciens": 2733,
      "ane": 2734,
      "audi": 2735,
      "ide": 2736,
      "pect": 2737,
      "Ġtype": 2738,
      "atici": 2739,
      "achat": 2740,
      "Ġprovision": 2741,
      "ande": 2742,
      "ariat": 2743,
      "Ġcoordonn": 2744,
      "ologiques": 2745,
      "ĠaffectÃ©s": 2746,
      "mique": 2747,
      "Ġattributions": 2748,
      "Ġapport": 2749,
      "Ġbureau": 2750,
      "ĠvÃ©tÃ©r": 2751,
      "Ġjuin": 2752,
      "ĠprivÃ©": 2753,
      "Ġpop": 2754,
      "Ġoccup": 2755,
      "ĠcapacitÃ©": 2756,
      "ĠclÃ´": 2757,
      "ĠindÃ©p": 2758,
      "Ġimp": 2759,
      "Ġtarif": 2760,
      "Ġlab": 2761,
      "Ġpouvant": 2762,
      "Ġpratici": 2763,
      "Ġcontraire": 2764,
      "Ġsociaux": 2765,
      "Ġchoix": 2766,
      "agit": 2767,
      "ĠprÃ©alablement": 2768,
      "Ġapprouv": 2769,
      "Ġparagraph": 2770,
      "ĠimmÃ©diatement": 2771,
      "Ġ50": 2772,
      "Ġsuit": 2773,
      "ĠnuclÃ©": 2774,
      "ĠmÃ©c": 2775,
      "identitÃ©": 2776,
      "Ġgrat": 2777,
      "Ġenti": 2778,
      "enfant": 2779,
      "exercer": 2780,
      "erti": 2781,
      "option": 2782,
      "Ġlocation": 2783,
      "ĠpÃ©nitentiaire": 2784,
      "ĠprÃ©vis": 2785,
      "atis": 2786,
      "usage": 2787,
      "Ġtour": 2788,
      "Ã¨tres": 2789,
      "Ġtrouv": 2790,
      "assurÃ©": 2791,
      "ov": 2792,
      "ro": 2793,
      "Ġbesoin": 2794,
      "ĠderniÃ¨re": 2795,
      "Ġacquis": 2796,
      "Ġcontenu": 2797,
      "Ġunion": 2798,
      "mettre": 2799,
      "Ġcollectif": 2800,
      "Ġpatrimoine": 2801,
      "Ġetats": 2802,
      "aisses": 2803,
      "rier": 2804,
      "Ġinscrits": 2805,
      "Ġ25": 2806,
      "Ġhum": 2807,
      "ĠrelÃ¨ve": 2808,
      "ĠmÃ©dicaments": 2809,
      "Ġindique": 2810,
      "interdiction": 2811,
      "ĠsolidaritÃ©": 2812,
      "ĠrÃ©glementaire": 2813,
      "Ġexigences": 2814,
      "ĠdÃ©pl": 2815,
      "actu": 2816,
      "Ġfabr": 2817,
      "engagement": 2818,
      "annexe": 2819,
      "Ġchiff": 2820,
      "Ġcaisses": 2821,
      "igne": 2822,
      "puis": 2823,
      "Ġgl": 2824,
      "icie": 2825,
      "emprisonnement": 2826,
      "Ġ18": 2827,
      "ĠschÃ©ma": 2828,
      "ĠdÃ»": 2829,
      "Ġscr": 2830,
      "Ġsecret": 2831,
      "Ġmaximum": 2832,
      "ĠrÃ©gulation": 2833,
      "mÃª": 2834,
      "Ġauquel": 2835,
      "agers": 2836,
      "Ġreti": 2837,
      "orientation": 2838,
      "ĠpÃ©riodes": 2839,
      "Ġjuri": 2840,
      "Ġsatisf": 2841,
      "Ġmaximale": 2842,
      "Ġhospital": 2843,
      "simil": 2844,
      "ĠdÃ©r": 2845,
      "ĠcinÃ©mat": 2846,
      "ĠcinÃ©matograph": 2847,
      "Ġdepuis": 2848,
      "Ġrespectivement": 2849,
      "Ġimport": 2850,
      "ĠmatÃ©riels": 2851,
      "Ġaucune": 2852,
      "Ġfamille": 2853,
      "Ġvice": 2854,
      "attach": 2855,
      "ĠversÃ©es": 2856,
      "Ġtient": 2857,
      "Ġpoints": 2858,
      "Ġscientifique": 2859,
      "Ġtotale": 2860,
      "Ġjo": 2861,
      "avant": 2862,
      "Ġchangement": 2863,
      "Ġrural": 2864,
      "ĠeffectuÃ©e": 2865,
      "Ġtrente": 2866,
      "Ġappliqu": 2867,
      "ĠautorisÃ©": 2868,
      "Ġdispon": 2869,
      "ĠdonnÃ©": 2870,
      "10": 2871,
      "Ġsollic": 2872,
      "Ġprovisoire": 2873,
      "inaires": 2874,
      "ĠeffectuÃ©": 2875,
      "entrÃ©e": 2876,
      "Ġdistribu": 2877,
      "Ã¨mes": 2878,
      "Ġbois": 2879,
      "porteur": 2880,
      "ĠcomplÃ©mentaires": 2881,
      "ĠconnaÃ®tre": 2882,
      "Ġfraction": 2883,
      "ĠindemnitÃ©s": 2884,
      "ĠmÃ©tropole": 2885,
      "ĠrÃ©alisÃ©e": 2886,
      "duc": 2887,
      "ĠrÃ©put": 2888,
      "Ġcertaines": 2889,
      "aque": 2890,
      "mation": 2891,
      "ĠrÃ©glementaires": 2892,
      "insertion": 2893,
      "Ġhabit": 2894,
      "Ġprofit": 2895,
      "ĠrÃ©alisÃ©es": 2896,
      "Ġconsign": 2897,
      "Ġsoient": 2898,
      "pare": 2899,
      "ĠcontrÃ´les": 2900,
      "itiÃ©": 2901,
      "Ġvaleurs": 2902,
      "berg": 2903,
      "nelle": 2904,
      "ĠmoitiÃ©": 2905,
      "Ġglob": 2906,
      "ionn": 2907,
      "app": 2908,
      "Ã©rieurement": 2909,
      "Ġsaisi": 2910,
      "hÃ©rap": 2911,
      "iÃ©s": 2912,
      "utin": 2913,
      "Ġbilan": 2914,
      "Ġscrutin": 2915,
      "Ġnavig": 2916,
      "âĢ": 2917,
      "ĠvisÃ©s": 2918,
      "ĠutilisÃ©s": 2919,
      "Ġcontraventions": 2920,
      "Ġcorse": 2921,
      "ĠdÃ©clarations": 2922,
      "exclusion": 2923,
      "Ã©re": 2924,
      "Ã©gard": 2925,
      "ĠclÃ´ture": 2926,
      "Ġassimil": 2927,
      "once": 2928,
      "ulletin": 2929,
      "14": 2930,
      "Ġsport": 2931,
      "ĠrÃ©seaux": 2932,
      "Ã©diaire": 2933,
      "iser": 2934,
      "Ġguerre": 2935,
      "Ġpoint": 2936,
      "Ġsignif": 2937,
      "cidents": 2938,
      "Ġdues": 2939,
      "Ġbulletin": 2940,
      "ay": 2941,
      "Ġauxquelles": 2942,
      "ĠapprÃ©ci": 2943,
      "Ġimpl": 2944,
      "ĠdÃ©signe": 2945,
      "ĠfaÃ§on": 2946,
      "Ġassis": 2947,
      "Ġhuit": 2948,
      "ĠÃ©lectroniques": 2949,
      "ĠÃ©tudes": 2950,
      "yane": 2951,
      "ĠÃ©lector": 2952,
      "Ġquanti": 2953,
      "Ġindic": 2954,
      "Ġaur": 2955,
      "ress": 2956,
      "uration": 2957,
      "Ġappropri": 2958,
      "Ġnov": 2959,
      "Ġpoursuiv": 2960,
      "Ġpu": 2961,
      "Ã©tique": 2962,
      "enne": 2963,
      "ĠprÃ©ven": 2964,
      "Ġmix": 2965,
      "Ġfl": 2966,
      "obation": 2967,
      "aboration": 2968,
      "Ġcommissions": 2969,
      "Ġguyane": 2970,
      "ĠeffectuÃ©es": 2971,
      "Ġouvrages": 2972,
      "ĠdÃ©tail": 2973,
      "Ġstage": 2974,
      "Ġattest": 2975,
      "ĠnotifiÃ©e": 2976,
      "Ġrattach": 2977,
      "Ã¢ge": 2978,
      "Ġcirculation": 2979,
      "Ġcontinu": 2980,
      "ĠdÃ©finit": 2981,
      "Ġmen": 2982,
      "ĠnumÃ©ri": 2983,
      "Ġcommunications": 2984,
      "ĠrÃ¨glements": 2985,
      "ĠrÃ©aliser": 2986,
      "intervention": 2987,
      "rÃ©g": 2988,
      "iciaires": 2989,
      "Ġinv": 2990,
      "Ġinterm": 2991,
      "Ġtenus": 2992,
      "Ġrenseignements": 2993,
      "lir": 2994,
      "Ġassurances": 2995,
      "Ġenvisag": 2996,
      "oupe": 2997,
      "Ġcentres": 2998,
      "Ġgouvernement": 2999,
      "Ġemploi": 3000,
      "Ġexprim": 3001,
      "Ġsubstitu": 3002,
      "Ġhy": 3003,
      "Ġprincipal": 3004,
      "Ġloyer": 3005,
      "Ġcirconstances": 3006,
      "ĠaccÃ¨s": 3007,
      "ges": 3008,
      "Ġmaint": 3009,
      "ĠrÃ©digÃ©": 3010,
      "intÃ©gr": 3011,
      "ĠcinquiÃ¨me": 3012,
      "Ġexclusi": 3013,
      "Ġpuis": 3014,
      "Ġmineur": 3015,
      "Ġrel": 3016,
      "tier": 3017,
      "rent": 3018,
      "hy": 3019,
      "ĠcoopÃ©r": 3020,
      "Ġsecours": 3021,
      "Ġforfaitaire": 3022,
      "chaque": 3023,
      "ĠbÃ©nÃ©ficient": 3024,
      "ĠaccordÃ©e": 3025,
      "Ġparagraphe": 3026,
      "ĠgÃ©": 3027,
      "Ġmainten": 3028,
      "embre": 3029,
      "Ġnovembre": 3030,
      "auc": 3031,
      "Ġformul": 3032,
      "Ġstatue": 3033,
      "arch": 3034,
      "Ġmaintien": 3035,
      "Ġnavire": 3036,
      "Ġrejet": 3037,
      "Ġaucun": 3038,
      "Ġdirect": 3039,
      "ĠacadÃ©m": 3040,
      "Ġjudiciaires": 3041,
      "occup": 3042,
      "Ġautom": 3043,
      "ĠcoÃ»t": 3044,
      "tention": 3045,
      "ĠunitÃ©s": 3046,
      "Ġconvocation": 3047,
      "Ã©mission": 3048,
      "ĠdÃ©j": 3049,
      "ĠprÃ©lÃ¨vement": 3050,
      "euvre": 3051,
      "Ġtenue": 3052,
      "ouvrage": 3053,
      "Ġajou": 3054,
      "ĠÃ©tablit": 3055,
      "ĠnommÃ©s": 3056,
      "Ġbre": 3057,
      "Ġret": 3058,
      "Ã¨rement": 3059,
      "ĠcrÃ©ances": 3060,
      "Ġvalid": 3061,
      "Ġparticiper": 3062,
      "Ġvictime": 3063,
      "ĠdÃ©jÃł": 3064,
      "ĠrequÃªte": 3065,
      "alyse": 3066,
      "Ġgrand": 3067,
      "ĠdÃ©finitive": 3068,
      "ĠfÃ©dÃ©ration": 3069,
      "Ġencour": 3070,
      "accompagnement": 3071,
      "ierre": 3072,
      "ĠaccompagnÃ©e": 3073,
      "anim": 3074,
      "Ġeffets": 3075,
      "ych": 3076,
      "Ã©tu": 3077,
      "Ġautorisations": 3078,
      "Ġtaxes": 3079,
      "rant": 3080,
      "ore": 3081,
      "Ã©cu": 3082,
      "Ġadop": 3083,
      "Ġem": 3084,
      "ĠmutualitÃ©": 3085,
      "udes": 3086,
      "ĠÃ®": 3087,
      "cet": 3088,
      "prÃ©sident": 3089,
      "Ġpri": 3090,
      "ĠmatiÃ¨res": 3091,
      "ĠcompÃ©tentes": 3092,
      "Ġparten": 3093,
      "Ġdotation": 3094,
      "seur": 3095,
      "Ġcolonne": 3096,
      "Ġvii": 3097,
      "17": 3098,
      "Ġunivers": 3099,
      "Ġconstitution": 3100,
      "entretien": 3101,
      "Ġlistes": 3102,
      "hors": 3103,
      "Ġlut": 3104,
      "porter": 3105,
      "Ġfamilles": 3106,
      "pierre": 3107,
      "Ġeaux": 3108,
      "ĠsupprimÃ©s": 3109,
      "Ġ2014": 3110,
      "Ġsera": 3111,
      "ĠdÃ©n": 3112,
      "Ġcotisation": 3113,
      "Ġprior": 3114,
      "Ġgarde": 3115,
      "Ġdur": 3116,
      "ordination": 3117,
      "ĠlÃ©gisla": 3118,
      "Ġrenouvelable": 3119,
      "Ġmens": 3120,
      "ĠrelÃ¨vent": 3121,
      "Ġanimaux": 3122,
      "Ġcontributions": 3123,
      "Ġ24": 3124,
      "ĠcrÃ©dits": 3125,
      "Ġnul": 3126,
      "Ġchamp": 3127,
      "ibilitÃ©": 3128,
      "ĠrÃ©gimes": 3129,
      "Ġcertification": 3130,
      "Ġmunicipal": 3131,
      "ĠinformÃ©": 3132,
      "ĠpropriÃ©taires": 3133,
      "Ġjeun": 3134,
      "sionnaire": 3135,
      "cteurs": 3136,
      "Ġdue": 3137,
      "Ġiss": 3138,
      "ĠgÃ©nÃ©rales": 3139,
      "tations": 3140,
      "validitÃ©": 3141,
      "inspection": 3142,
      "ĠrÃ©pon": 3143,
      "avoir": 3144,
      "accompl": 3145,
      "Ġmars": 3146,
      "abilitation": 3147,
      "lem": 3148,
      "acqu": 3149,
      "ĠÃ®les": 3150,
      "ĠconsÃ©qu": 3151,
      "ho": 3152,
      "Ġforesti": 3153,
      "ĠvisÃ©es": 3154,
      "Ġexamen": 3155,
      "Ġdouze": 3156,
      "miquelon": 3157,
      "Ġ131": 3158,
      "Ġprestataire": 3159,
      "ĠautorisÃ©s": 3160,
      "ĠÃ©num": 3161,
      "Ġactifs": 3162,
      "Ġmotifs": 3163,
      "Ġbate": 3164,
      "Ġ26": 3165,
      "ression": 3166,
      "Ġsuffis": 3167,
      "Ġnotifie": 3168,
      "ĠagrÃ©Ã©": 3169,
      "ĠÃ©pre": 3170,
      "Ġaccueil": 3171,
      "ires": 3172,
      "Ġcommis": 3173,
      "ĠmaÃ®": 3174,
      "ĠmodÃ¨le": 3175,
      "ĠÃ©conomiques": 3176,
      "Ġexpl": 3177,
      "ĠlÃ©gal": 3178,
      "ĠrÃ©sili": 3179,
      "Ġjustifier": 3180,
      "Ġattestation": 3181,
      "Ġstructure": 3182,
      "ĠprÃ©cÃ©dant": 3183,
      "Ġmodifications": 3184,
      "omb": 3185,
      "Ġcoordination": 3186,
      "ĠrÃ©alisÃ©s": 3187,
      "ĠprÃ©voit": 3188,
      "Ġon": 3189,
      "Ġcompar": 3190,
      "Ġdirective": 3191,
      "alisÃ©e": 3192,
      "matriculation": 3193,
      "Ġadmis": 3194,
      "ĠeffectuÃ©s": 3195,
      "Ġqualification": 3196,
      "Ġtoutefois": 3197,
      "Ġradio": 3198,
      "ovis": 3199,
      "Ġmartin": 3200,
      "Ġclau": 3201,
      "Ġcompensation": 3202,
      "effectu": 3203,
      "ĠprÃ©cisÃ©es": 3204,
      "ĠdÃ©cider": 3205,
      "ĠmÃ©dicaux": 3206,
      "Ġvictimes": 3207,
      "ocations": 3208,
      "Ġmartinique": 3209,
      "nel": 3210,
      "Ġdommages": 3211,
      "Ġvu": 3212,
      "Ġps": 3213,
      "arr": 3214,
      "ĠsystÃ¨mes": 3215,
      "ĠcÃ©d": 3216,
      "inf": 3217,
      "apprÃ©ci": 3218,
      "hÃ©sion": 3219,
      "Ġgratuit": 3220,
      "Ġfournir": 3221,
      "interm": 3222,
      "ĠmaÃ®tre": 3223,
      "ĠÃ©lÃ¨": 3224,
      "Ġobtenu": 3225,
      "Ġaccep": 3226,
      "Ġconcession": 3227,
      "Ġmentionne": 3228,
      "industr": 3229,
      "eaux": 3230,
      "Ġfutuna": 3231,
      "ĠliÃ©es": 3232,
      "ertÃ©s": 3233,
      "ĠsituÃ©s": 3234,
      "ĠrÃ©cla": 3235,
      "Ġpouvoirs": 3236,
      "martin": 3237,
      "ĠprÃ©sents": 3238,
      "ĠsituÃ©": 3239,
      "Ġfamiliales": 3240,
      "ĠliÃ©s": 3241,
      "ĠlibertÃ©s": 3242,
      "Ã©rieurs": 3243,
      "opÃ©rateur": 3244,
      "Ġmagistrat": 3245,
      "bergement": 3246,
      "Ġexercent": 3247,
      "ĠspÃ©cifiques": 3248,
      "Ġban": 3249,
      "Ġ197": 3250,
      "ĠmÃ©tho": 3251,
      "trui": 3252,
      "Ġsouscrit": 3253,
      "Ġterrains": 3254,
      "uel": 3255,
      "Ġvari": 3256,
      "Ġrespecter": 3257,
      "gn": 3258,
      "Ġgend": 3259,
      "ĠreprÃ©sentatives": 3260,
      "Ġvoies": 3261,
      "Ġcontractu": 3262,
      "organe": 3263,
      "Ġgendar": 3264,
      "dÃ©": 3265,
      "Ġviol": 3266,
      "Ġformes": 3267,
      "Ġpratiqu": 3268,
      "ĠreprÃ©sentation": 3269,
      "Ġ\".": 3270,
      "Ġjuridique": 3271,
      "Ġk": 3272,
      "aptitude": 3273,
      "Ġpsych": 3274,
      "oraires": 3275,
      "Ġ70": 3276,
      "ĠcomplÃ©t": 3277,
      "ĠremplacÃ©es": 3278,
      "lant": 3279,
      "ontre": 3280,
      "Ġatt": 3281,
      "Ġquar": 3282,
      "ĠdÃ©tent": 3283,
      "arthÃ©": 3284,
      "Ġsurface": 3285,
      "imposition": 3286,
      "Ġ2016": 3287,
      "ĠdÃ©termination": 3288,
      "affectation": 3289,
      "lemy": 3290,
      "arthÃ©lemy": 3291,
      "issent": 3292,
      "Ġentend": 3293,
      "ĠÃ©tudi": 3294,
      "Ġvaut": 3295,
      "Ġtex": 3296,
      "barthÃ©lemy": 3297,
      "Ġstr": 3298,
      "Ġartis": 3299,
      "ĠindemnitÃ©": 3300,
      "ĠopÃ©rateurs": 3301,
      "ĠdÃ©nom": 3302,
      "ĠprÃ©nom": 3303,
      "ĠversÃ©e": 3304,
      "tip": 3305,
      "Ġdisciplinaire": 3306,
      "nes": 3307,
      "Ġbon": 3308,
      "ocat": 3309,
      "Ġess": 3310,
      "Ġpermanente": 3311,
      "astruc": 3312,
      "ĠprÃ©citÃ©": 3313,
      "ĠÃ©valu": 3314,
      "ĠdÃ©pÃ´ts": 3315,
      "Ġcertains": 3316,
      "autÃ©": 3317,
      "min": 3318,
      "ertise": 3319,
      "Ġseule": 3320,
      "industrie": 3321,
      "Ġinstallation": 3322,
      "Ġofficiel": 3323,
      "Ġeux": 3324,
      "Ġadministratives": 3325,
      "Ġannuelle": 3326,
      "Ġdehors": 3327,
      "ĠexÃ©cu": 3328,
      "ĠrÃ©gionaux": 3329,
      "ĠrÃ©ponse": 3330,
      "Ġredevance": 3331,
      "Ġpromo": 3332,
      "Ġoeuvre": 3333,
      "Ġdat": 3334,
      "Ġidentifi": 3335,
      "Ġamende": 3336,
      "Ġdistinc": 3337,
      "let": 3338,
      "Ġdirige": 3339,
      "Ġ29": 3340,
      "exist": 3341,
      "ortie": 3342,
      "ĠÃ©ventuellement": 3343,
      "gÃ©s": 3344,
      "intes": 3345,
      "die": 3346,
      "Ã©lection": 3347,
      "chement": 3348,
      "Ġposs": 3349,
      "ĠÅĵuvres": 3350,
      "ĠmÃ©decins": 3351,
      "ĠvÃ©rification": 3352,
      "ril": 3353,
      "Ġveille": 3354,
      "Ġterritoires": 3355,
      "dite": 3356,
      "Ġlo": 3357,
      "Ġsalaire": 3358,
      "Ġgendarmer": 3359,
      "Ġconstru": 3360,
      "Ġderniers": 3361,
      "Ġprononcer": 3362,
      "Ġasse": 3363,
      "),": 3364,
      "Ġcum": 3365,
      "Ġvac": 3366,
      "Ġrestitu": 3367,
      "Ġmoyenne": 3368,
      "tob": 3369,
      "Ġcommerciale": 3370,
      "acle": 3371,
      "Ġplans": 3372,
      "indre": 3373,
      "ĠaÃ©ri": 3374,
      "tobre": 3375,
      "ĠrÃ©v": 3376,
      "vet": 3377,
      "ĠspÃ©cifique": 3378,
      "Ġpostes": 3379,
      "ĠnuclÃ©aire": 3380,
      "Ġconduite": 3381,
      "mÃªme": 3382,
      "indication": 3383,
      "Ġconseillers": 3384,
      "Ġgendarmerie": 3385,
      "ĠportÃ©e": 3386,
      "ĠÃ©valuation": 3387,
      "raison": 3388,
      "Ġext": 3389,
      "dent": 3390,
      "Ġtransform": 3391,
      "Ġrecevoir": 3392,
      "Ġoctobre": 3393,
      "autonomie": 3394,
      "200": 3395,
      "Ġorient": 3396,
      "ĠarrÃªtÃ©s": 3397,
      "Ġrepro": 3398,
      "Ġsections": 3399,
      "Ġrev": 3400,
      "ĠrÃ©gul": 3401,
      "Ġseuil": 3402,
      "ĠlibÃ©r": 3403,
      "Ġ2019": 3404,
      "Ġcah": 3405,
      "Ġlutte": 3406,
      "Ġ27": 3407,
      "Ġatteinte": 3408,
      "anche": 3409,
      "Ġavril": 3410,
      "Ġpreuve": 3411,
      "Ġlabor": 3412,
      "Ġlivraison": 3413,
      "Ġ2017": 3414,
      "ĠaÃ©r": 3415,
      "Ġobligation": 3416,
      "Ġgreffier": 3417,
      "Ġaudiovis": 3418,
      "iliation": 3419,
      "ĠstratÃ©g": 3420,
      "Ġchiffre": 3421,
      "Ġcyc": 3422,
      "ĠvaliditÃ©": 3423,
      "ĠprÃ©paration": 3424,
      "regis": 3425,
      "ĠdÃ©s": 3426,
      "Ġhom": 3427,
      "arrÃªt": 3428,
      "Ġorganisation": 3429,
      "ĠrÃ©alisÃ©": 3430,
      "ĠsÃ©ance": 3431,
      "habilitation": 3432,
      "Ġemp": 3433,
      "Ġrecr": 3434,
      "Ġresponsables": 3435,
      "Ġenregis": 3436,
      "uves": 3437,
      "Ġjustifie": 3438,
      "Ġmanquement": 3439,
      "ĠÃ©lig": 3440,
      "Ġ0": 3441,
      "Ġsaisine": 3442,
      "use": 3443,
      "ĠspÃ©ciale": 3444,
      "Ġterres": 3445,
      "Ã©quipement": 3446,
      "Ġaus": 3447,
      "Ġcessation": 3448,
      "Ġcontinue": 3449,
      "Ġpror": 3450,
      "ĠrÃ©gies": 3451,
      "ĠbÃ©nÃ©ficie": 3452,
      "Ġtels": 3453,
      "Ġ21": 3454,
      "adap": 3455,
      "Ġauxquels": 3456,
      "Ġbord": 3457,
      "Ġart": 3458,
      "ĠprÃªts": 3459,
      "hÃ©rapeu": 3460,
      "Ġenv": 3461,
      "ĠrÃ©putÃ©": 3462,
      "Ġempr": 3463,
      "ĠremplacÃ©e": 3464,
      "Ġobjets": 3465,
      "Ġprononce": 3466,
      "affaires": 3467,
      "Ġindividuel": 3468,
      "Ġaction": 3469,
      "ĠexercÃ©es": 3470,
      "Ġvoy": 3471,
      "Ġmul": 3472,
      "offre": 3473,
      "ĠprÃ©visionn": 3474,
      "ĠmÃ©dico": 3475,
      "lÃ©es": 3476,
      "Ġtute": 3477,
      "Ġfabric": 3478,
      "Ġpopulation": 3479,
      "Ġcommunique": 3480,
      "Ġcondamnation": 3481,
      "Ã©rience": 3482,
      "Ġinstance": 3483,
      "Ġformu": 3484,
      "hÃ©bergement": 3485,
      "Ġnavires": 3486,
      "thÃ¨": 3487,
      "sau": 3488,
      "Ġcoup": 3489,
      "Ġprescription": 3490,
      "ĠsupplÃ©mentaire": 3491,
      "Ġdomaines": 3492,
      "Ġsyndicales": 3493,
      "Ġaliment": 3494,
      "air": 3495,
      "ĠcommunautÃ©": 3496,
      "Ġgrade": 3497,
      "Ġ2021": 3498,
      "Ġmaritimes": 3499,
      "Ã©laboration": 3500,
      "Ġclassement": 3501,
      "Ġfabrication": 3502,
      "sauf": 3503,
      "arm": 3504,
      "alimentation": 3505,
      "accomplissement": 3506,
      "Ã©ti": 3507,
      "Ġdirecteurs": 3508,
      "immeuble": 3509,
      "issance": 3510,
      "ĠdÃ©nomination": 3511,
      "hom": 3512,
      "Ġrequis": 3513,
      "Ġvieilles": 3514,
      "Ġenregist": 3515,
      "ĠdÃ©but": 3516,
      "ĠbÃ¢timent": 3517,
      "Ġvieillesse": 3518,
      "Ġtarifs": 3519,
      "existence": 3520,
      "effet": 3521,
      "Ġprob": 3522,
      "Ġexpos": 3523,
      "Ġexon": 3524,
      "aÃ®": 3525,
      "Ġord": 3526,
      "Ġligne": 3527,
      "Ġcommand": 3528,
      "argne": 3529,
      "Ġrelations": 3530,
      "Ã©volution": 3531,
      "ĠacadÃ©mique": 3532,
      "ner": 3533,
      "commiss": 3534,
      "cies": 3535,
      "ĠprÃ©voy": 3536,
      "Ġestime": 3537,
      "Ġinternet": 3538,
      "unitÃ©": 3539,
      "Ġproven": 3540,
      "Ġmontants": 3541,
      "ĠfonciÃ¨re": 3542,
      "Ġpratiques": 3543,
      "ĠdÃ©rou": 3544,
      "ĠprÃ©sid": 3545,
      "estre": 3546,
      "Ġmanifest": 3547,
      "ĠÃ©lÃ¨ves": 3548,
      "ĠtotalitÃ©": 3549,
      "ĠconsidÃ©rÃ©e": 3550,
      "ĠindÃ©pend": 3551,
      "Ġurb": 3552,
      "Ã¨dent": 3553,
      "Ġprogrammes": 3554,
      "sans": 3555,
      "ĠprotÃ©g": 3556,
      "Ġunions": 3557,
      "Ġconsent": 3558,
      "Ġinitiale": 3559,
      "estions": 3560,
      "Ġperform": 3561,
      "Ġintervenir": 3562,
      "Ġadaptations": 3563,
      "Ġsubstances": 3564,
      "immatriculation": 3565,
      "Ġcompati": 3566,
      "Ġfoncier": 3567,
      "utilitÃ©": 3568,
      "administrateur": 3569,
      "ĠprÃ©cisant": 3570,
      "Ġintervient": 3571,
      "Ġinves": 3572,
      "Ġ28": 3573,
      "ĠmonÃ©taire": 3574,
      "agnos": 3575,
      "associ": 3576,
      "Ġreprise": 3577,
      "ĠrÃ©vision": 3578,
      "ĠreÃ§u": 3579,
      "olu": 3580,
      "Ġpratique": 3581,
      "ĠcoÃ»ts": 3582,
      "achet": 3583,
      "intermÃ©diaire": 3584,
      "ultÃ©": 3585,
      "rogÃ©": 3586,
      "Ġconducteur": 3587,
      "Ġemployeurs": 3588,
      "ceuti": 3589,
      "Ġremis": 3590,
      "ĠprÃ©fec": 3591,
      "Ġdang": 3592,
      "Ġparent": 3593,
      "Ġobtenir": 3594,
      "Ã´le": 3595,
      "Ġposi": 3596,
      "ĠcinÃ©matographiques": 3597,
      "Ġquestions": 3598,
      "ĠnommÃ©": 3599,
      "co": 3600,
      "ĠdestinÃ©es": 3601,
      "Ġrelev": 3602,
      "eloupe": 3603,
      "adeloupe": 3604,
      "Ġpartiel": 3605,
      "ĠsÃ©par": 3606,
      "ĠintÃ©gr": 3607,
      "Ġannexe": 3608,
      "ĠdiffÃ©rents": 3609,
      "ortiss": 3610,
      "orer": 3611,
      "Ġdiagnos": 3612,
      "ĠprÃ©cÃ©dente": 3613,
      "ĠagrÃ©Ã©s": 3614,
      "ĠfranÃ§aises": 3615,
      "ĠbÃ¢timents": 3616,
      "Ġguadeloupe": 3617,
      "ĠmÃ©di": 3618,
      "Ġdiscipline": 3619,
      "Ġ\",": 3620,
      "Ġminimale": 3621,
      "eneur": 3622,
      "Ġmais": 3623,
      "Ġsouh": 3624,
      "Ġadjo": 3625,
      "Ġjustifiant": 3626,
      "amÃ©li": 3627,
      "ĠsupplÃ©ants": 3628,
      "ĠprivÃ©s": 3629,
      "Ġorientations": 3630,
      "ĠcrÃ©ance": 3631,
      "Ġconduire": 3632,
      "ĠconstituÃ©": 3633,
      "Ġtelles": 3634,
      "ĠassurÃ©s": 3635,
      "Ġutiles": 3636,
      "ĠprÃ©sentant": 3637,
      "ĠgÃ©ograph": 3638,
      "ĠautorisÃ©e": 3639,
      "Ġreconnaissance": 3640,
      "Ġvolontaire": 3641,
      "Ġplate": 3642,
      "Ġvolu": 3643,
      "Ġlocalement": 3644,
      "Ġvalable": 3645,
      "ĠforÃªts": 3646,
      "ĠassurÃ©": 3647,
      "Ġquater": 3648,
      "entis": 3649,
      "ĠÃ©lab": 3650,
      "Ġvisite": 3651,
      "ĠÃ©nerg": 3652,
      "Ġprolon": 3653,
      "assistance": 3654,
      "Ġnomin": 3655,
      "Ġcomprenant": 3656,
      "Ġcentrale": 3657,
      "Ġbas": 3658,
      "ĠportÃ©": 3659,
      "ĠmatÃ©riel": 3660,
      "Ġcomptables": 3661,
      "Ġcahier": 3662,
      "nant": 3663,
      "ĠnÃ©gociation": 3664,
      "Ġpropositions": 3665,
      "ĠprÃ©voir": 3666,
      "Ġ75": 3667,
      "Ġemb": 3668,
      "Ġtenir": 3669,
      "Ġfrau": 3670,
      "lÃ©s": 3671,
      "Ġfondement": 3672,
      "ĠplacÃ©s": 3673,
      "commissaire": 3674,
      "Ġfi": 3675,
      "Ġouvert": 3676,
      "endie": 3677,
      "aissances": 3678,
      "ĠnumÃ©rique": 3679,
      "Ġpourv": 3680,
      "Ġstation": 3681,
      "Ġdiffusion": 3682,
      "Ġdestination": 3683,
      "Ġapparti": 3684,
      "issÃ©": 3685,
      "Ġposte": 3686,
      "Ġmajoration": 3687,
      "Ġlang": 3688,
      "Ġprofessions": 3689,
      "Ġparents": 3690,
      "Ġrembours": 3691,
      "Ġconst": 3692,
      "ĠdÃ©tach": 3693,
      "Ã©pargne": 3694,
      "Ġfourniture": 3695,
      "Ġpluri": 3696,
      "Ġlocales": 3697,
      "Ġgarantir": 3698,
      "Ġexploitants": 3699,
      "Ġrecteur": 3700,
      "Ã¨ces": 3701,
      "Ġmixte": 3702,
      "irurg": 3703,
      "audience": 3704,
      "aÃ®t": 3705,
      "Ġayants": 3706,
      "Ġhab": 3707,
      "Ġeng": 3708,
      "Ġperte": 3709,
      "urent": 3710,
      "ventions": 3711,
      "22": 3712,
      "Ã¨te": 3713,
      "Ġadministratifs": 3714,
      "Ġpraticien": 3715,
      "ĠexÃ©cution": 3716,
      "Ġchasse": 3717,
      "Ġinstitutions": 3718,
      "tembre": 3719,
      "ĠrÃ©gionales": 3720,
      "indemnisation": 3721,
      "Ġseptembre": 3722,
      "ĠsupplÃ©ant": 3723,
      "Ġfonctionnaire": 3724,
      "drom": 3725,
      "ĠspÃ©cial": 3726,
      "ĠconsÃ©cu": 3727,
      "opposition": 3728,
      "atiques": 3729,
      "Ġstip": 3730,
      "Ġvo": 3731,
      "Ġpartage": 3732,
      "Ġproducteurs": 3733,
      "seurs": 3734,
      "Ġinfirm": 3735,
      "ĠÃ©trangers": 3736,
      "Ġstockage": 3737,
      "ĠpÃ©d": 3738,
      "Ġlois": 3739,
      "Ġcertificats": 3740,
      "Ã©rence": 3741,
      "oph": 3742,
      "ĠsecrÃ©taire": 3743,
      "prof": 3744,
      "Ġpossible": 3745,
      "Ġmili": 3746,
      "Ġpatient": 3747,
      "Ġmentions": 3748,
      "ĠnÃ©goci": 3749,
      "ĠhandicapÃ©es": 3750,
      "initi": 3751,
      "cent": 3752,
      "Ġinvestissement": 3753,
      "Ġassociation": 3754,
      "Ġnaissance": 3755,
      "Ġdiffic": 3756,
      "Ġculturel": 3757,
      "Ġ500": 3758,
      "ĠconstatÃ©": 3759,
      "Ġaide": 3760,
      "ĠadhÃ©r": 3761,
      "ĠcompÃ©tents": 3762,
      "Ġdurable": 3763,
      "Ġ100": 3764,
      "actif": 3765,
      "ĠamÃ©nag": 3766,
      "Ġbanque": 3767,
      "Ġdev": 3768,
      "Ġmatern": 3769,
      "Ġ2012": 3770,
      "Ġinterdit": 3771,
      "ĠaffectÃ©": 3772,
      "Ġsouhait": 3773,
      "alisÃ©": 3774,
      "Ġindustrielle": 3775,
      "Ġsurven": 3776,
      "iation": 3777,
      "endue": 3778,
      "ĠÃ©tranger": 3779,
      "Ġconcour": 3780,
      "approbation": 3781,
      "Ġconstitue": 3782,
      "ĠprÃ©sentÃ©e": 3783,
      "ĠlÃ©gislation": 3784,
      "ĠspÃ©cialitÃ©": 3785,
      "ĠassurÃ©e": 3786,
      "ĠdÃ©lÃ©guÃ©s": 3787,
      "ĠÂ«": 3788,
      "ĠmodifiÃ©": 3789,
      "Ġbailleur": 3790,
      "Ġconnaissances": 3791,
      "attestation": 3792,
      "Ġretenue": 3793,
      "Ġtutelle": 3794,
      "Ġdon": 3795,
      "ĠconsÃ©quences": 3796,
      "Ġcertifi": 3797,
      "Ġquelque": 3798,
      "ĠcalculÃ©": 3799,
      "Ġdivers": 3800,
      "Ġcontribuable": 3801,
      "grÃ©": 3802,
      "habitat": 3803,
      "huit": 3804,
      "ĠdÃ©duction": 3805,
      "Ġexempl": 3806,
      "Ġutile": 3807,
      "Ġbrevet": 3808,
      "Ġpluriann": 3809,
      "Ġ2004": 3810,
      "Ġindividuelle": 3811,
      "Ġproportionn": 3812,
      "ose": 3813,
      "adaptation": 3814,
      "Ġconvoqu": 3815,
      "Ġneu": 3816,
      "effici": 3817,
      "Ġofficiers": 3818,
      "Ġnomination": 3819,
      "Ġavantages": 3820,
      "ĠÃ©mis": 3821,
      "olid": 3822,
      "Ġtransmises": 3823,
      "Ġconclusion": 3824,
      "ĠrÃ©gions": 3825,
      "ĠsÃ©ances": 3826,
      "Ġacquit": 3827,
      "Ġexclusivement": 3828,
      "auche": 3829,
      "Ġincomb": 3830,
      "Ġprincipale": 3831,
      "Ġlibre": 3832,
      "Ġdisposent": 3833,
      "Ġscolaire": 3834,
      "Ġremplacement": 3835,
      "Ġincl": 3836,
      "ĠplacÃ©": 3837,
      "Ġmotif": 3838,
      "Ġfiscale": 3839,
      "Ġsatisfait": 3840,
      "ĠpersonnalitÃ©s": 3841,
      "crire": 3842,
      "ĠrÃ©cÃ©p": 3843,
      "ĠdÃ©tenues": 3844,
      "Ġcircons": 3845,
      "Ġhabitu": 3846,
      "arc": 3847,
      "ĠprÃ©sidents": 3848,
      "Ġnationaux": 3849,
      "Ġparticuliers": 3850,
      "Ġeu": 3851,
      "Ġcommunaut": 3852,
      "sible": 3853,
      "ĠdÃ©livrer": 3854,
      "Ġfiscal": 3855,
      "incendie": 3856,
      "ĠÃ©tudiants": 3857,
      "Ġchirurg": 3858,
      "ĠdÃ©finitif": 3859,
      "ĠprononcÃ©": 3860,
      "Ġmagistrats": 3861,
      "ĠâĢķ": 3862,
      "ĠcrÃ©ancier": 3863,
      "15": 3864,
      "Ġcopro": 3865,
      "ĠÃ©tablies": 3866,
      "france": 3867,
      "Ġdiagnostic": 3868,
      "Ġdet": 3869,
      "ĠprÃªt": 3870,
      "Ġrapports": 3871,
      "Ġenseign": 3872,
      "imp": 3873,
      "agog": 3874,
      "ĠÃ©crite": 3875,
      "Ġpremiers": 3876,
      "Ġrestant": 3877,
      "ĠdiffÃ©rentes": 3878,
      "agne": 3879,
      "iliers": 3880,
      "truire": 3881,
      "rh": 3882,
      "Ġfili": 3883,
      "ĠcomptabilitÃ©": 3884,
      "ĠÃ©duc": 3885,
      "Ġouver": 3886,
      "exig": 3887,
      "Ã©lÃ¨": 3888,
      "Ġconsolid": 3889,
      "ĠassociÃ©": 3890,
      "Ġpot": 3891,
      "ivant": 3892,
      "Ġobst": 3893,
      "Ġsubst": 3894,
      "ĠnullitÃ©": 3895,
      "Ġ2013": 3896,
      "del": 3897,
      "chÃ©ance": 3898,
      "Ġtrouve": 3899,
      "invaliditÃ©": 3900,
      "aviation": 3901,
      "Ġ194": 3902,
      "ser": 3903,
      "assi": 3904,
      "Ġcommissaires": 3905,
      "Ġcommuniquer": 3906,
      "delÃł": 3907,
      "Ġmajo": 3908,
      "ĠÃ©nonc": 3909,
      "ĠpÃ©dagog": 3910,
      "ĠcomposÃ©": 3911,
      "ĠrÃ©siliation": 3912,
      "Ġindirectement": 3913,
      "Ġprot": 3914,
      "etÃ©": 3915,
      "Ġmode": 3916,
      "ĠdÃ©ci": 3917,
      "Ã©rir": 3918,
      "Ġnationales": 3919,
      "ĠbÃ©nÃ©ficiant": 3920,
      "Ġaccidents": 3921,
      "Ġressortiss": 3922,
      "ĠrÃ©paration": 3923,
      "ilib": 3924,
      "Ġaccords": 3925,
      "Åĵuvre": 3926,
      "Ġimmobilier": 3927,
      "Ġaug": 3928,
      "Ġcommercial": 3929,
      "Ġdescription": 3930,
      "Ġconsultative": 3931,
      "Ġor": 3932,
      "Ġjou": 3933,
      "Ġproducteur": 3934,
      "ĠexercÃ©e": 3935,
      "Ġmineurs": 3936,
      "Ġinspec": 3937,
      "ĠagrÃ©ment": 3938,
      "ĠrÃ©cÃ©pissÃ©": 3939,
      "Ġrecueilli": 3940,
      "Ġconsentement": 3941,
      "ĠsiÃ¨ges": 3942,
      "ĠÃ©preuves": 3943,
      "Ġordre": 3944,
      "intement": 3945,
      "Ġprincipes": 3946,
      "Ġeffectuer": 3947,
      "Ġult": 3948,
      "ĠexercÃ©": 3949,
      "ĠcalculÃ©e": 3950,
      "ĠmobilitÃ©": 3951,
      "ĠvÃ©tÃ©rinaire": 3952,
      "Ġbar": 3953,
      "acadÃ©m": 3954,
      "Ġir": 3955,
      "ĠÃ©lev": 3956,
      "Ġobligatoires": 3957,
      "uffis": 3958,
      "Ġconjointement": 3959,
      "Ġsites": 3960,
      "Ġciviles": 3961,
      "ĠrÃ©guliÃ¨rement": 3962,
      "Ġdurant": 3963,
      "Ġcontest": 3964,
      "tra": 3965,
      "Ġexiste": 3966,
      "Ġcomprennent": 3967,
      "Ġdistance": 3968,
      "Ġfinanc": 3969,
      "Ġatteint": 3970,
      "Ġversements": 3971,
      "occupation": 3972,
      "Ġgestionnaires": 3973,
      "ĠdÃ©cla": 3974,
      "Ġinscription": 3975,
      "ĠrÃ©gie": 3976,
      "ĠbudgÃ©taire": 3977,
      "Ġnormes": 3978,
      "Ã©tude": 3979,
      "ĠmÃ¨tres": 3980,
      "accep": 3981,
      "Ġaccessi": 3982,
      "observ": 3983,
      "Ġindiquant": 3984,
      "ĠsignÃ©": 3985,
      "Ġsyndicat": 3986,
      "Ġdudit": 3987,
      "decies": 3988,
      "ĠcondamnÃ©": 3989,
      "Ġemplois": 3990,
      "Ġusagers": 3991,
      "institution": 3992,
      "ĠconsidÃ©rÃ©": 3993,
      "Ġordonnance": 3994,
      "ĠgÃ©nÃ©raux": 3995,
      "Ġproportion": 3996,
      "ĠpossibilitÃ©": 3997,
      "til": 3998,
      "ĠrÃ©munÃ©rations": 3999,
      "nelles": 4000,
      "Ġsuivante": 4001,
      "Ġcouver": 4002,
      "Ġcontenti": 4003,
      "Ġhaute": 4004,
      "isant": 4005,
      "ĠnationalitÃ©": 4006,
      "Ġconsommateur": 4007,
      "ulations": 4008,
      "Ġanciens": 4009,
      "soci": 4010,
      "Ġparticipant": 4011,
      "cie": 4012,
      "Ġait": 4013,
      "Ġphra": 4014,
      "Ġrendus": 4015,
      "Ġphrase": 4016,
      "Ġcassation": 4017,
      "Ġimput": 4018,
      "arge": 4019,
      "Ġcollective": 4020,
      "encontre": 4021,
      "Ġconstate": 4022,
      "entend": 4023,
      "ĠremplacÃ©": 4024,
      "amÃ©lioration": 4025,
      "ĠajoutÃ©e": 4026,
      "Ġagent": 4027,
      "Ġnouvelles": 4028,
      "Ġinfraction": 4029,
      "Ġnavigation": 4030,
      "Ġemprun": 4031,
      "Ġpensions": 4032,
      "sant": 4033,
      "Ġclient": 4034,
      "isÃ©": 4035,
      "Ġpourcent": 4036,
      "ĠattribuÃ©es": 4037,
      "Ġfem": 4038,
      "ĠdÃ©signÃ©e": 4039,
      "initiative": 4040,
      "quisitions": 4041,
      "Ã©rodrom": 4042,
      "itÃ©es": 4043,
      "ĠconstatÃ©e": 4044,
      "profes": 4045,
      "ĠcohÃ©r": 4046,
      "ĠmÃ©conn": 4047,
      "Ã»t": 4048,
      "ĠfiscalitÃ©": 4049,
      "Ġsignific": 4050,
      "ĠÃ©ligibles": 4051,
      "Ġtribunaux": 4052,
      "ĠfrÃ©": 4053,
      "Ġcoeffici": 4054,
      "Ġ2018": 4055,
      "Ġspect": 4056,
      "ĠunitÃ©": 4057,
      "ĠlimitÃ©e": 4058,
      "Ġ2020": 4059,
      "objec": 4060,
      "Ġgrave": 4061,
      "Ġconformes": 4062,
      "Ġeffective": 4063,
      "gation": 4064,
      "ĠdÃ©lÃ©guer": 4065,
      "Ġtravailleur": 4066,
      "Ġtransporteur": 4067,
      "ĠdÃ©placement": 4068,
      "ĠfÃ©v": 4069,
      "anges": 4070,
      "ĠlÃ©gislatives": 4071,
      "Ġexistant": 4072,
      "Ġsouscription": 4073,
      "Ġsema": 4074,
      "ĠfÃ©vrier": 4075,
      "expertise": 4076,
      "ĠmÃ©decine": 4077,
      "Ã©rante": 4078,
      "asser": 4079,
      "Ġadministrateurs": 4080,
      "Ġmaximal": 4081,
      "Ġsimp": 4082,
      "ertÃ©": 4083,
      "appui": 4084,
      "ĠmÃ©tiers": 4085,
      "ĠsecrÃ©tariat": 4086,
      "Ġobstacle": 4087,
      "erce": 4088,
      "Ġmaladies": 4089,
      "nov": 4090,
      "eng": 4091,
      "Ġinscrites": 4092,
      "Ġordonner": 4093,
      "professionn": 4094,
      "ĠrÃ©pondant": 4095,
      "Ġindications": 4096,
      "Ġsubventions": 4097,
      "Ġ2010": 4098,
      "rages": 4099,
      "emprun": 4100,
      "empÃª": 4101,
      "Ġdonneur": 4102,
      "Ġtransformation": 4103,
      "Ġdonnant": 4104,
      "antation": 4105,
      "Ġannexes": 4106,
      "Ġdil": 4107,
      "exon": 4108,
      "accident": 4109,
      "Ġprim": 4110,
      "Ġprovisions": 4111,
      "Ġeffectif": 4112,
      "ĠspÃ©cialement": 4113,
      "atrice": 4114,
      "rÃ©gion": 4115,
      "Ġfabricant": 4116,
      "ĠindiquÃ©e": 4117,
      "Ġlien": 4118,
      "tenir": 4119,
      "Ġterrain": 4120,
      "Ġforce": 4121,
      "Ġassujet": 4122,
      "ĠtrÃ©s": 4123,
      "Ġinterne": 4124,
      "Ġfacil": 4125,
      "acadÃ©mie": 4126,
      "euille": 4127,
      "Ġdimin": 4128,
      "Ġinst": 4129,
      "Ġpharmaceuti": 4130,
      "Ġvisant": 4131,
      "ĠprÃ©cÃ©dents": 4132,
      "ĠÃ©quivalent": 4133,
      "Ġaccess": 4134,
      "ĠaffÃ©rentes": 4135,
      "Ġ2015": 4136,
      "apacitÃ©s": 4137,
      "âĢĿ": 4138,
      "Ġcourt": 4139,
      "Ġdestinataire": 4140,
      "sur": 4141,
      "Ã©tudes": 4142,
      "Ġfournisseur": 4143,
      "75": 4144,
      "Ġsang": 4145,
      "Ġinvesti": 4146,
      "ĠespÃ¨ces": 4147,
      "Ġcycle": 4148,
      "Ġlocataire": 4149,
      "Ġfiscales": 4150,
      "Ġ2009": 4151,
      "Ġfaveur": 4152,
      "Ã©quipe": 4153,
      "ĠagrÃ©Ã©es": 4154,
      "Ġconsenti": 4155,
      "Ġexploitation": 4156,
      "Ġsports": 4157,
      "ĠenquÃª": 4158,
      "Ġbl": 4159,
      "Ġbonne": 4160,
      "ĠconstituÃ©e": 4161,
      "officier": 4162,
      "Ġach": 4163,
      "Ġarmes": 4164,
      "Ġactu": 4165,
      "Ġvalidation": 4166,
      "nÃ©s": 4167,
      "Ġcomplet": 4168,
      "ĠreprÃ©senter": 4169,
      "Ġnet": 4170,
      "ĠrÃ©sident": 4171,
      "ĠdÃ©partementaux": 4172,
      "ĠrÃ©pondre": 4173,
      "Ġcap": 4174,
      "itec": 4175,
      "ĠpubliÃ©": 4176,
      "Ġmaison": 4177,
      "inist": 4178,
      "Ġtraitements": 4179,
      "ĠfrÃ©qu": 4180,
      "missions": 4181,
      "Ġportent": 4182,
      "ĠrÃ©sulte": 4183,
      "Ã©gÃ©t": 4184,
      "ĠbÃ©nÃ©fices": 4185,
      "Ġdeven": 4186,
      "Ġcollecte": 4187,
      "Ġconfid": 4188,
      "ĠdÃ©tenteur": 4189,
      "ĠdÃ©cide": 4190,
      "Ġfusion": 4191,
      "ĠÃ©met": 4192,
      "Ġsaisir": 4193,
      "ĠrÃ©gular": 4194,
      "ĠrÃ©serves": 4195,
      "ĠnumÃ©r": 4196,
      "gar": 4197,
      "Ġsex": 4198,
      "Ġexercices": 4199,
      "Ġpartielle": 4200,
      "Ġlocale": 4201,
      "Ġconstituer": 4202,
      "ortissement": 4203,
      "Ġsuivent": 4204,
      "entiss": 4205,
      "ĠdÃ©terminer": 4206,
      "conform": 4207,
      "enci": 4208,
      "Ġvolume": 4209,
      "obtention": 4210,
      "ĠvisÃ©e": 4211,
      "Ġespaces": 4212,
      "ĠvÃ©gÃ©t": 4213,
      "Ġroute": 4214,
      "Ġfichier": 4215,
      "importance": 4216,
      "Ġproposer": 4217,
      "Ġsportive": 4218,
      "ĠÃ©lu": 4219,
      "Ġhumaine": 4220,
      "Ġraisons": 4221,
      "Ġexamens": 4222,
      "Ġdilig": 4223,
      "ĠdÃ©pend": 4224,
      "Ġrequises": 4225,
      "Ġsept": 4226,
      "onnes": 4227,
      "Ġoppos": 4228,
      "asi": 4229,
      "Ġradiation": 4230,
      "exonÃ©ration": 4231,
      "Ġavocat": 4232,
      "cession": 4233,
      "Ġcontentieux": 4234,
      "sier": 4235,
      "ĠrÃ©putÃ©e": 4236,
      "ĠautorisÃ©es": 4237,
      "ĠentitÃ©": 4238,
      "Ġparcours": 4239,
      "Ġallou": 4240,
      "Ġmuni": 4241,
      "admission": 4242,
      "Ġfixant": 4243,
      "Ġdonnent": 4244,
      "ĠprÃ©serv": 4245,
      "Ġhabitants": 4246,
      "ĠmÃ¨re": 4247,
      "ĠrÃ©unit": 4248,
      "ource": 4249,
      "Ġlaboratoire": 4250,
      "ĠdÃ©terminÃ©s": 4251,
      "ĠprÃ©voyance": 4252,
      "Ġpun": 4253,
      "ĠenquÃªte": 4254,
      "Ġrecherches": 4255,
      "Ġarr": 4256,
      "Ġappare": 4257,
      "Ġenvironnementale": 4258,
      "ĠintÃ©rÃªt": 4259,
      "ĠaccordÃ©": 4260,
      "Ġaffili": 4261,
      "ĠdegrÃ©": 4262,
      "ĠlibertÃ©": 4263,
      "Ġexperts": 4264,
      "Ġ150": 4265,
      "ĠnotifiÃ©": 4266,
      "Ġ706": 4267,
      "onci": 4268,
      "Ġtransmise": 4269,
      "Ġjury": 4270,
      "ĠprÃ©noms": 4271,
      "atre": 4272,
      "impl": 4273,
      "Ġsauve": 4274,
      "instance": 4275,
      "ĠÃ©lecteurs": 4276,
      "oÃ»t": 4277,
      "sibilitÃ©": 4278,
      "Ġstatis": 4279,
      "Ġinternationale": 4280,
      "Ġconstructions": 4281,
      "assiette": 4282,
      "informations": 4283,
      "Ġredevable": 4284,
      "Ġpromotion": 4285,
      "ront": 4286,
      "abrogÃ©": 4287,
      "Ġassister": 4288,
      "artis": 4289,
      "aucune": 4290,
      "ĠportÃ©es": 4291,
      "Ġ195": 4292,
      "agi": 4293,
      "Ġterritorialement": 4294,
      "Ġabs": 4295,
      "ĠrÃ©unions": 4296,
      "Ġcumul": 4297,
      "Ġrecour": 4298,
      "Ġensemble": 4299,
      "istants": 4300,
      "Ġpharmacien": 4301,
      "Ġinternational": 4302,
      "Ġregr": 4303,
      "Ġrendre": 4304,
      "Ġcomporter": 4305,
      "ĠsubordonnÃ©e": 4306,
      "Ġpuisse": 4307,
      "usÃ©": 4308,
      "ĠaoÃ»t": 4309,
      "Ġpropose": 4310,
      "39": 4311,
      "tiÃ¨me": 4312,
      "entreprises": 4313,
      "Ġpharmaciens": 4314,
      "Ġcentral": 4315,
      "ĠadressÃ©": 4316,
      "Ġlangue": 4317,
      "vements": 4318,
      "ĠcrÃ©anciers": 4319,
      "Ġcouvr": 4320,
      "Ġvoir": 4321,
      "Ġ2006": 4322,
      "Ġannuels": 4323,
      "ĠmaÃ®tr": 4324,
      "porte": 4325,
      "ph": 4326,
      "Ġmaires": 4327,
      "Ã©rieures": 4328,
      "Ġfavorable": 4329,
      "Ġpourcentage": 4330,
      "ĠÃ©tant": 4331,
      "ĠinterrÃ©gion": 4332,
      "assure": 4333,
      "ĠmotivÃ©": 4334,
      "ĠgÃ©ographique": 4335,
      "Ġsituations": 4336,
      "Ã¨vement": 4337,
      "Ġtermes": 4338,
      "entissage": 4339,
      "ĠexÃ©cutoire": 4340,
      "Ġassurant": 4341,
      "ĠcomitÃ©s": 4342,
      "ĠprÃ©sentÃ©": 4343,
      "ĠutilisÃ©": 4344,
      "acheteur": 4345,
      "Ġrem": 4346,
      "ĠrÃ©assurance": 4347,
      "Ġjuridictions": 4348,
      "Ġmutuelle": 4349,
      "Ġnaturels": 4350,
      "ony": 4351,
      "Ġquo": 4352,
      "ĠpersonnalitÃ©": 4353,
      "ichage": 4354,
      "21": 4355,
      "Ġdirectoire": 4356,
      "ĠfacultÃ©": 4357,
      "Ġsuff": 4358,
      "Ġ40": 4359,
      "ennetÃ©": 4360,
      "ĠcinÃ©ma": 4361,
      "garde": 4362,
      "agissant": 4363,
      "ĠattribuÃ©e": 4364,
      "Ã©dant": 4365,
      "ĠdÃ©part": 4366,
      "ĠvÃ©tÃ©rinaires": 4367,
      "eant": 4368,
      "ĠdiffÃ©rence": 4369,
      "Ġ%.": 4370,
      "ĠdÃ»ment": 4371,
      "Ġdanger": 4372,
      "Ġprotoc": 4373,
      "antil": 4374,
      "rup": 4375,
      "Ġbut": 4376,
      "Ġimparti": 4377,
      "ĠdonnÃ©e": 4378,
      "Ġeffectivement": 4379,
      "ĠdÃ©tenus": 4380,
      "ĠdiplÃ´mes": 4381,
      "Ġpatients": 4382,
      "ĠcopropriÃ©t": 4383,
      "gÃ©es": 4384,
      "Ġoffre": 4385,
      "analyse": 4386,
      "Ġquestion": 4387,
      "Ġconstatation": 4388,
      "ĠÂ»": 4389,
      "Ã©reur": 4390,
      "16": 4391,
      "Ġremplit": 4392,
      "Ġred": 4393,
      "activitÃ©s": 4394,
      "Ġcandidature": 4395,
      "ĠintÃ©ressÃ©es": 4396,
      "Ġsauvegarde": 4397,
      "Ġforces": 4398,
      "Ġconclusions": 4399,
      "ĠaccompagnÃ©": 4400,
      "ĠdestinÃ©": 4401,
      "ĠattribuÃ©": 4402,
      "Ġreport": 4403,
      "Ġredevances": 4404,
      "ĠÃ©trangÃ¨res": 4405,
      "envoi": 4406,
      "ĠdÃ©signer": 4407,
      "ĠdÃ©nomm": 4408,
      "ĠcohÃ©rence": 4409,
      "exposition": 4410,
      "Ġstructures": 4411,
      "Ġattach": 4412,
      "Ġstationnement": 4413,
      "ĠpropriÃ©tÃ©s": 4414,
      "Ġcesse": 4415,
      "ĠmÃ©tropolit": 4416,
      "angere": 4417,
      "Ġinvestissements": 4418,
      "Ġfaites": 4419,
      "Ġdangere": 4420,
      "Ġutilisation": 4421,
      "ĠformalitÃ©s": 4422,
      "affaire": 4423,
      "empÃªchement": 4424,
      "Ġsecteurs": 4425,
      "Ġjustification": 4426,
      "Ġmilieu": 4427,
      "ĠÃ©tait": 4428,
      "Ġterr": 4429,
      "Ġcomportent": 4430,
      "Ġ196": 4431,
      "Ġstagi": 4432,
      "Ġsanitaires": 4433,
      "Ġdispos": 4434,
      "ĠintÃ©rieure": 4435,
      "ĠinstituÃ©": 4436,
      "ĠassimilÃ©s": 4437,
      "ĠsÃ©ri": 4438,
      "ĠthÃ©rapeu": 4439,
      "Ġtrou": 4440,
      "Ġsimple": 4441,
      "ĠprÃ©lÃ¨vements": 4442,
      "Ġjeunes": 4443,
      "Ġladite": 4444,
      "Ġagissant": 4445,
      "Ġcirconscription": 4446,
      "Ġdirecte": 4447,
      "ĠexÃ©cutif": 4448,
      "ĠentitÃ©s": 4449,
      "rection": 4450,
      "Ġprorog": 4451,
      "Ġchefs": 4452,
      "ĠprÃ©sentÃ©es": 4453,
      "Ġjustifient": 4454,
      "Ġcourir": 4455,
      "ablir": 4456,
      "ĠsixiÃ¨me": 4457,
      "ĠdÃ©signÃ©es": 4458,
      "ds": 4459,
      "Ġbass": 4460,
      "Ġtextes": 4461,
      "46": 4462,
      "acements": 4463,
      "Ġjeux": 4464,
      "ĠqualifiÃ©es": 4465,
      "ĠaffÃ©rents": 4466,
      "Ġattestant": 4467,
      "isÃ©s": 4468,
      "ultan": 4469,
      "Ġenfant": 4470,
      "ĠdÃ©libÃ©rant": 4471,
      "ĠdÃ©vol": 4472,
      "ĠdÃ©posÃ©e": 4473,
      "Ġinstruments": 4474,
      "Ġsatisfaire": 4475,
      "ĠcapacitÃ©s": 4476,
      "Ġdiss": 4477,
      "Ġactionn": 4478,
      "Ġliti": 4479,
      "asionn": 4480,
      "Ġconstruire": 4481,
      "troi": 4482,
      "Ġhypo": 4483,
      "Ã©tablissements": 4484,
      "Ġsimultan": 4485,
      "Ġgauche": 4486,
      "ultÃ©s": 4487,
      "Ġcertaine": 4488,
      "Ġmasse": 4489,
      "Ġproxim": 4490,
      "value": 4491,
      "Ġsoutien": 4492,
      "Ġsubvention": 4493,
      "Ġchau": 4494,
      "ĠquantitÃ©": 4495,
      "ĠproximitÃ©": 4496,
      "Ġvocation": 4497,
      "ventaire": 4498,
      "Ġfixer": 4499,
      "ĠliÃ©": 4500,
      "ĠvÃ©rifier": 4501,
      "19": 4502,
      "ĠrÃ©pert": 4503,
      "Ġexploitant": 4504,
      "Ġconfidenti": 4505,
      "tel": 4506,
      "Ġrachat": 4507,
      "Ġallocations": 4508,
      "rhin": 4509,
      "itant": 4510,
      "ĠsiÃ©g": 4511,
      "Ġconstituent": 4512,
      "ĠdÃ©finition": 4513,
      "ĠdemandÃ©": 4514,
      "ĠrÃ©ci": 4515,
      "ĠvisÃ©": 4516,
      "Ġbranche": 4517,
      "ĠsupplÃ©mentaires": 4518,
      "ĠcollÃ¨ges": 4519,
      "importation": 4520,
      "ĠdÃ©tenue": 4521,
      "cin": 4522,
      "expropri": 4523,
      "Ġdroite": 4524,
      "Ġremplir": 4525,
      "ĠdemandÃ©e": 4526,
      "ĠreÃ§oit": 4527,
      "endeur": 4528,
      "ient": 4529,
      "Ġsig": 4530,
      "Ġengagement": 4531,
      "Ġconcertation": 4532,
      "Ġemployeur": 4533,
      "forme": 4534,
      "lent": 4535,
      "Ġcouverture": 4536,
      "ĠÃ©nergÃ©tique": 4537,
      "Ġregroup": 4538,
      "tension": 4539,
      "Ġpharmacie": 4540,
      "Ġfaute": 4541,
      "idÃ©": 4542,
      "Ġclause": 4543,
      "iant": 4544,
      "Ġpermettent": 4545,
      "avance": 4546,
      "Ġ2022": 4547,
      "Ġsportif": 4548,
      "Ġexemplaire": 4549,
      "ĠâĢĿ.": 4550,
      "mÃ©": 4551,
      "pomp": 4552,
      "Ġgroupes": 4553,
      "Ġchapitres": 4554,
      "Ġsucc": 4555,
      "Ġlicenci": 4556,
      "nÃ©es": 4557,
      "Ġsortie": 4558,
      "Ġpertin": 4559,
      "Ġincomp": 4560,
      "Ġtypes": 4561,
      "Ġquelle": 4562,
      "ĠparticuliÃ¨re": 4563,
      "ĠconsidÃ©rÃ©s": 4564,
      "asile": 4565,
      "peu": 4566,
      "Ġaussi": 4567,
      "ĠprÃ©s": 4568,
      "image": 4569,
      "ĠdÃ©lim": 4570,
      "mention": 4571,
      "opÃ©rations": 4572,
      "Ġcoefficient": 4573,
      "Ġhauteur": 4574,
      "Ġinterprofessionn": 4575,
      "rovi": 4576,
      "Ġseront": 4577,
      "immeubles": 4578,
      "Ġferrovi": 4579,
      "Ġtendant": 4580,
      "Ġmoteur": 4581,
      "partie": 4582,
      "Ġconsignations": 4583,
      "Ġquarante": 4584,
      "Ġinstances": 4585,
      "tiennent": 4586,
      "ĠrÃ©gis": 4587,
      "ĠantÃ©rieurement": 4588,
      "sibles": 4589,
      "ĠtÃ©lÃ©p": 4590,
      "ĠÃ©numÃ©rÃ©es": 4591,
      "Ġproduire": 4592,
      "Ġretard": 4593,
      "ula": 4594,
      "inÃ©s": 4595,
      "Ġsportives": 4596,
      "aie": 4597,
      "Ġrelation": 4598,
      "Ġcollectifs": 4599,
      "ayant": 4600,
      "ĠÃ©lections": 4601,
      "viennent": 4602,
      "Ġmanquements": 4603,
      "onde": 4604,
      "anat": 4605,
      "isations": 4606,
      "Ġportef": 4607,
      "ĠentraÃ®ne": 4608,
      "onciation": 4609,
      "Ġcont": 4610,
      "Ġmodifier": 4611,
      "ĠdestinÃ©e": 4612,
      "ĠmaÃ®trise": 4613,
      "ĠconfiÃ©es": 4614,
      "Ġaugment": 4615,
      "Ġconclue": 4616,
      "Ġvalablement": 4617,
      "Ġdestruction": 4618,
      "ĠsÃ©lection": 4619,
      "Ġopposition": 4620,
      "Ġsolde": 4621,
      "ĠÃ©crites": 4622,
      "ĠrÃ©vis": 4623,
      "Ġperformance": 4624,
      "ĠprÃ©citÃ©e": 4625,
      "Ġactionnaires": 4626,
      "uses": 4627,
      "ĠÃ©coles": 4628,
      "Ġcontenant": 4629,
      "Ġconclus": 4630,
      "Ġhospitalier": 4631,
      "Ġpresse": 4632,
      "Ġdates": 4633,
      "Ġparticipations": 4634,
      "portation": 4635,
      "quatre": 4636,
      "orte": 4637,
      "Ġarch": 4638,
      "thÃ¨se": 4639,
      "venir": 4640,
      "Ġposition": 4641,
      "Ġvalor": 4642,
      "Ġfact": 4643,
      "ĠrÃ©quisition": 4644,
      "Ġadministrations": 4645,
      "23": 4646,
      "adoption": 4647,
      "Ġautoriser": 4648,
      "Ġjoint": 4649,
      "Ġprovenant": 4650,
      "Ġpil": 4651,
      "Ġeff": 4652,
      "ĠcomposÃ©e": 4653,
      "Ġ60": 4654,
      "Ġsoix": 4655,
      "ĠrÃ©pertoire": 4656,
      "Ġoccasionn": 4657,
      "ĠconstituÃ©es": 4658,
      "ĠutilisÃ©es": 4659,
      "apprentissage": 4660,
      "ĠforÃªt": 4661,
      "ĠprÃ¨s": 4662,
      "Ġrup": 4663,
      "ĠÃ©missions": 4664,
      "Ġcontient": 4665,
      "Ġdisponibles": 4666,
      "Ġviolation": 4667,
      "vabilitÃ©": 4668,
      "Ġpacte": 4669,
      "respect": 4670,
      "Ġindividuelles": 4671,
      "Ġcrois": 4672,
      "Ġbateau": 4673,
      "ĠmÃ©thodes": 4674,
      "Ġformule": 4675,
      "adhÃ©sion": 4676,
      "Ġglobal": 4677,
      "Ġorganes": 4678,
      "Ġlicence": 4679,
      "Ġexplo": 4680,
      "Ġportefeuille": 4681,
      "iable": 4682,
      "Ġrepr": 4683,
      "Ġprennent": 4684,
      "octroi": 4685,
      "Ġassurent": 4686,
      "Ġappartient": 4687,
      "entraÃ®": 4688,
      "Ġsouscrip": 4689,
      "ĠprononcÃ©es": 4690,
      "Ġmouv": 4691,
      "Ġrequise": 4692,
      "Ġmach": 4693,
      "ath": 4694,
      "utation": 4695,
      "Ġjustificatives": 4696,
      "ration": 4697,
      "ict": 4698,
      "ĠdÃ©lit": 4699,
      "ĠlÃ©gales": 4700,
      "Ġmonn": 4701,
      "Ġissus": 4702,
      "effectue": 4703,
      "Ġenseignement": 4704,
      "Ġfavoriser": 4705,
      "Ġpolitiques": 4706,
      "ĠprÃ©visionnel": 4707,
      "gu": 4708,
      "Ġincid": 4709,
      "Ġrecru": 4710,
      "Ġforestier": 4711,
      "Ġprestataires": 4712,
      "ĠagrÃ©Ã©e": 4713,
      "Ġpoursuite": 4714,
      "ĠrÃ©duit": 4715,
      "Ġly": 4716,
      "Ġrepos": 4717,
      "Ġcombatt": 4718,
      "tern": 4719,
      "ĠmodÃ©rÃ©": 4720,
      "novation": 4721,
      "ĠdÃ©clarÃ©": 4722,
      "Ġclin": 4723,
      "ĠtÃ©m": 4724,
      "ĠdÃ©clarant": 4725,
      "infrastruc": 4726,
      "Ġperception": 4727,
      "Ġparticipent": 4728,
      "ĠnÃ©cessitÃ©": 4729,
      "ĠcontinuitÃ©": 4730,
      "Ġlit": 4731,
      "implantation": 4732,
      "Ġsoixante": 4733,
      "ĠdÃ©tenir": 4734,
      "Ġtransmettre": 4735,
      "Ġsce": 4736,
      "ĠderniÃ¨res": 4737,
      "Ġrente": 4738,
      "Ġintervenant": 4739,
      "Ġdirigeants": 4740,
      "25": 4741,
      "organismes": 4742,
      "ĠaccordÃ©es": 4743,
      "ĠattribuÃ©s": 4744,
      "Ġpoursuites": 4745,
      "apprÃ©ciation": 4746,
      "Ġpap": 4747,
      "Ġpraticiens": 4748,
      "toral": 4749,
      "Ġ78": 4750,
      "Ġdress": 4751,
      "Ġcarb": 4752,
      "Ġmulti": 4753,
      "Ġautomatis": 4754,
      "Ġprimes": 4755,
      "Ġ80": 4756,
      "ĠexprimÃ©s": 4757,
      "Ġfaciliter": 4758,
      "cinq": 4759,
      "ĠprioritÃ©": 4760,
      "Ġsuffrages": 4761,
      "ĠÃ©m": 4762,
      "Â°.": 4763,
      "Ġtenues": 4764,
      "ĠdifficultÃ©s": 4765,
      "onction": 4766,
      "atÃ©ri": 4767,
      "ĠchÃ¨": 4768,
      "Ġrupture": 4769,
      "sÃ©": 4770,
      "trac": 4771,
      "Ġprime": 4772,
      "Ġprov": 4773,
      "Ġtu": 4774,
      "ompte": 4775,
      "35": 4776,
      "Ġconsommateurs": 4777,
      "Ġcommerciales": 4778,
      "ticip": 4779,
      "Ġcessions": 4780,
      "ĠpiÃ¨ce": 4781,
      "Ġauteurs": 4782,
      "Ġvit": 4783,
      "Ġinsuffis": 4784,
      "ĠcomplÃ¨te": 4785,
      "ĠÃ©vÃ©n": 4786,
      "ĠrÃ©clam": 4787,
      "values": 4788,
      "Ġroutier": 4789,
      "ĠantÃ©rieure": 4790,
      "ĠapprouvÃ©": 4791,
      "Ġcouv": 4792,
      "Ġfil": 4793,
      "intÃ©rÃªts": 4794,
      "Ġinitial": 4795,
      "ager": 4796,
      "Ġdisposer": 4797,
      "Ġmilli": 4798,
      "Ġrapporteur": 4799,
      "Ġremplies": 4800,
      "ĠcommuniquÃ©es": 4801,
      "Ġsap": 4802,
      "Ġouverts": 4803,
      "Ġannuellement": 4804,
      "Ġfamilial": 4805,
      "engage": 4806,
      "Ġcommise": 4807,
      "Ġextrait": 4808,
      "Ġbiom": 4809,
      "Ġdouble": 4810,
      "ĠprivÃ©e": 4811,
      "Ġsuper": 4812,
      "quet": 4813,
      "Ġreste": 4814,
      "Ġnoms": 4815,
      "Ġmunicipaux": 4816,
      "ĠrÃ¨gle": 4817,
      "ĠmÃ©m": 4818,
      "Ġth": 4819,
      "ĠdÃ©livrÃ©s": 4820,
      "ĠÃ©tablir": 4821,
      "arb": 4822,
      "Ġexpresse": 4823,
      "ĠrequÃ©rant": 4824,
      "Ġmanifes": 4825,
      "Ġenseignants": 4826,
      "ilibre": 4827,
      "rets": 4828,
      "acles": 4829,
      "Ġbateaux": 4830,
      "alisÃ©s": 4831,
      "Ġrenf": 4832,
      "acceptation": 4833,
      "Â°)": 4834,
      "Ġcivils": 4835,
      "Ġtourisme": 4836,
      "79": 4837,
      "Ġlou": 4838,
      "Ġports": 4839,
      "Ġimmeuble": 4840,
      "Ġprivil": 4841,
      "Ġlongue": 4842,
      "ruption": 4843,
      "Ġremet": 4844,
      "Ġtran": 4845,
      "ĠconfÃ©rence": 4846,
      "Ġpermanent": 4847,
      "Ġretour": 4848,
      "partement": 4849,
      "Ã©cole": 4850,
      "Ġexpress": 4851,
      "ĠsignÃ©e": 4852,
      "ĠarrÃªte": 4853,
      "Ġmandats": 4854,
      "infirm": 4855,
      "Ġessenti": 4856,
      "Ġclients": 4857,
      "aucun": 4858,
      "Ġanaly": 4859,
      "ĠorganisÃ©e": 4860,
      "expÃ©rience": 4861,
      "atte": 4862,
      "Ġencore": 4863,
      "Ġaudiovisuelle": 4864,
      "ĠdÃ©roulement": 4865,
      "Ġvolontaires": 4866,
      "Ġdesquels": 4867,
      "Ġaccident": 4868,
      "Ġentendu": 4869,
      "Ġdesquelles": 4870,
      "ĠrÃ©el": 4871,
      "Ġ2005": 4872,
      "pendant": 4873,
      "Ġmodu": 4874,
      "Ġnouveaux": 4875,
      "Ġseuls": 4876,
      "Ã©tablir": 4877,
      "Ġstatuer": 4878,
      "Ġglobale": 4879,
      "Ġsceaux": 4880,
      "Ġmeille": 4881,
      "Ġquelcon": 4882,
      "Ã©chÃ©ance": 4883,
      "Ġfixation": 4884,
      "assureur": 4885,
      "ubr": 4886,
      "Ġcrimin": 4887,
      "ĠmÃ©connaissance": 4888,
      "Ġmonnaie": 4889,
      "Ġmus": 4890,
      "ades": 4891,
      "Ġ132": 4892,
      "alog": 4893,
      "habitations": 4894,
      "ĠclassÃ©es": 4895,
      "Ġjeunesse": 4896,
      "Ġrestitution": 4897,
      "Ġmarque": 4898,
      "ĠapparaÃ®tre": 4899,
      "ĠcoopÃ©ratives": 4900,
      "Ã©galitÃ©": 4901,
      "ĠdÃ©libÃ¨re": 4902,
      "ĠprivÃ©es": 4903,
      "artisanat": 4904,
      "ox": 4905,
      "verbaux": 4906,
      "ĠassemblÃ©e": 4907,
      "ĠdÃ©volues": 4908,
      "ĠconsidÃ©ration": 4909,
      "ĠprÃ©venir": 4910,
      "Ġquoti": 4911,
      "ĠprÃ©sentent": 4912,
      "Ġasc": 4913,
      "Ġimmobiliers": 4914,
      "Ġsil": 4915,
      "Ġrecon": 4916,
      "ĠintÃ©ressÃ©": 4917,
      "Ġcandidatures": 4918,
      "ĠcongÃ©s": 4919,
      "ĠdÃ©matÃ©ri": 4920,
      "Ġinterdiction": 4921,
      "Ġbiologie": 4922,
      "ĠlÃ©gale": 4923,
      "tionnelle": 4924,
      "Ġrecommandations": 4925,
      "audit": 4926,
      "Ġventes": 4927,
      "Ã©ni": 4928,
      "ĠdÃ©clarÃ©es": 4929,
      "Ġstatuant": 4930,
      "Ġscientifiques": 4931,
      "Ġprescrites": 4932,
      "Ġhomolog": 4933,
      "ĠopÃ©rateur": 4934,
      "sis": 4935,
      "ĠsituÃ©es": 4936,
      "intÃ©gration": 4937,
      "Ġcombattants": 4938,
      "Ġtest": 4939,
      "Ġbanc": 4940,
      "Ġparticipe": 4941,
      "Ġfigurent": 4942,
      "ĠadhÃ©rents": 4943,
      "Ġaurait": 4944,
      "jus": 4945,
      "actifs": 4946,
      "ĠchargÃ©es": 4947,
      "hon": 4948,
      "Ġcontrad": 4949,
      "ĠreprÃ©sente": 4950,
      "informatique": 4951,
      "Ġrendue": 4952,
      "ĠdÃ©livre": 4953,
      "achÃ¨vement": 4954,
      "Ġpourra": 4955,
      "associÃ©": 4956,
      "riÃ¨re": 4957,
      "ĠÃ©quivalentes": 4958,
      "ĠdÃ©partementales": 4959,
      "Ġindirects": 4960,
      "Ġprotocole": 4961,
      "uelles": 4962,
      "euse": 4963,
      "Ġbou": 4964,
      "Ġconven": 4965,
      "Ġnouvel": 4966,
      "ĠassistÃ©": 4967,
      "matique": 4968,
      "Ġconclure": 4969,
      "Ġclauses": 4970,
      "ĠrelevÃ©": 4971,
      "ĠconsultÃ©": 4972,
      "34": 4973,
      "lom": 4974,
      "imestre": 4975,
      "duit": 4976,
      "Ġqualifications": 4977,
      "Ġconfisc": 4978,
      "uels": 4979,
      "Ġparitaire": 4980,
      "Ġconstater": 4981,
      "Ġsuspendu": 4982,
      "peuvent": 4983,
      "30": 4984,
      "Ġchose": 4985,
      "argement": 4986,
      "Ġhon": 4987,
      "Ġnote": 4988,
      "Ġconcernent": 4989,
      "Ġcompagn": 4990,
      "ĠÃ©tablissant": 4991,
      "Ġrecrutement": 4992,
      "isions": 4993,
      "istent": 4994,
      "oins": 4995,
      "Ġmair": 4996,
      "ĠÃ¢gÃ©es": 4997,
      "Ġressortissants": 4998,
      "Ġlocalisation": 4999,
      "ĠvÃ©rifications": 5000,
      "Ġresta": 5001,
      "Ġsouhaite": 5002,
      "ĠaÃ©rone": 5003,
      "ification": 5004,
      "Ġpoi": 5005,
      "Ġliaison": 5006,
      "Ġutilisateurs": 5007,
      "Ġentrant": 5008,
      "Ġfemmes": 5009,
      "33": 5010,
      "ĠÃ©noncÃ©es": 5011,
      "ĠpÃ©dagogique": 5012,
      "Ġinfrastruc": 5013,
      "Ġcommande": 5014,
      "incapacitÃ©": 5015,
      "ĠpÃ´le": 5016,
      "ĠdÃ©tient": 5017,
      "Ġservant": 5018,
      "ĠenvisagÃ©e": 5019,
      "hospit": 5020,
      "Ġx": 5021,
      "Ġdim": 5022,
      "Ġcamp": 5023,
      "Ġsource": 5024,
      "Ġtrimestre": 5025,
      "Ġconstituant": 5026,
      "aqu": 5027,
      "fem": 5028,
      "Ġliquidateur": 5029,
      "diques": 5030,
      "Ã©riel": 5031,
      "Ġanony": 5032,
      "ĠindÃ©pendant": 5033,
      "Ġdiminu": 5034,
      "Ġsilence": 5035,
      "ties": 5036,
      "uvi": 5037,
      "istor": 5038,
      "Ġcaution": 5039,
      "Ġsuperf": 5040,
      "ĠintÃ©g": 5041,
      "iver": 5042,
      "Ġtechnici": 5043,
      "ĠclassÃ©s": 5044,
      "Ġcit": 5045,
      "ĠdÃ©clarÃ©e": 5046,
      "ĠamÃ©li": 5047,
      "onneur": 5048,
      "ĠsimultanÃ©ment": 5049,
      "ĠconfidentialitÃ©": 5050,
      "Ġconfiscation": 5051,
      "ives": 5052,
      "ĠsubordonnÃ©": 5053,
      "Ġcontradict": 5054,
      "ĠconÃ§": 5055,
      "ĠÃ©man": 5056,
      "ressement": 5057,
      "Ġconserver": 5058,
      "ĠintÃ©ressÃ©e": 5059,
      "Ġcommercialisation": 5060,
      "Ġfichiers": 5061,
      "animation": 5062,
      "Ġredressement": 5063,
      "Ġrespecte": 5064,
      "acquÃ©reur": 5065,
      "expropriation": 5066,
      "ĠannexÃ©": 5067,
      "ĠonÃ©re": 5068,
      "dÃ©partement": 5069,
      "Ġcorrection": 5070,
      "Ġfraude": 5071,
      "Ġcou": 5072,
      "Ã¨rent": 5073,
      "ĠformÃ©": 5074,
      "ĠmÃ©dicales": 5075,
      "Ġmunitions": 5076,
      "Ġcinquante": 5077,
      "orde": 5078,
      "Ġsurv": 5079,
      "Ġseules": 5080,
      "affichage": 5081,
      "ĠconstatÃ©es": 5082,
      "Ġfiliales": 5083,
      "aÃ©r": 5084,
      "Ġsoumettre": 5085,
      "2013": 5086,
      "Ġassemb": 5087,
      "ĠamÃ©nagements": 5088,
      "ssant": 5089,
      "obil": 5090,
      "cel": 5091,
      "Ġ2008": 5092,
      "ĠâĢĿ,": 5093,
      "Ġastre": 5094,
      "Ġdommage": 5095,
      "ĠÃ©numÃ©rÃ©s": 5096,
      "Ġmot": 5097,
      "ĠpubliÃ©e": 5098,
      "indice": 5099,
      "Ġobligatoirement": 5100,
      "Ã©lÃ¨ve": 5101,
      "Ġsubstanti": 5102,
      "Ġchez": 5103,
      "architec": 5104,
      "bil": 5105,
      "dom": 5106,
      "oss": 5107,
      "Ġimmatric": 5108,
      "Ġcontribuer": 5109,
      "ĠÃ©labo": 5110,
      "Ġaudit": 5111,
      "Ġinformer": 5112,
      "ĠpÃ©nalitÃ©": 5113,
      "Ġkil": 5114,
      "Ġportu": 5115,
      "oux": 5116,
      "emption": 5117,
      "ĠonÃ©reux": 5118,
      "ĠÃ©trangÃ¨re": 5119,
      "ĠversÃ©": 5120,
      "ĠdÃ©fail": 5121,
      "ignes": 5122,
      "Ġprogrammation": 5123,
      "Ġretenues": 5124,
      "vers": 5125,
      "Ġsaisit": 5126,
      "Ġlyon": 5127,
      "Ġbles": 5128,
      "ĠhÃ´": 5129,
      "Ġhistor": 5130,
      "Ġjouissance": 5131,
      "Ġ39": 5132,
      "Ġclos": 5133,
      "Ġemprunts": 5134,
      "dÃ¨s": 5135,
      "rage": 5136,
      "ĠrÃ©t": 5137,
      "Ġinclu": 5138,
      "ĠcommuniquÃ©": 5139,
      "Ġchoisi": 5140,
      "ĠquantitÃ©s": 5141,
      "Ġaccessoires": 5142,
      "Ġconception": 5143,
      "employeurs": 5144,
      "ĠexpressÃ©ment": 5145,
      "Ġ2023": 5146,
      "Ã©change": 5147,
      "ĠdÃ©passer": 5148,
      "Ġmutuelles": 5149,
      "excÃ¨de": 5150,
      "Ã©lÃ©ment": 5151,
      "ĠanimÃ©e": 5152,
      "Ġpuissance": 5153,
      "Ġbio": 5154,
      "ĠmaÃ®tres": 5155,
      "Ġmanifestation": 5156,
      "obs": 5157,
      "Ġeffectifs": 5158,
      "ĠmatÃ©riaux": 5159,
      "Ġfixent": 5160,
      "Ġcommandant": 5161,
      "ordement": 5162,
      "Ġrais": 5163,
      "Ġpayer": 5164,
      "ĠemployÃ©s": 5165,
      "ĠÃ©ventuelles": 5166,
      "Ġ2000": 5167,
      "ĠcrÃ©er": 5168,
      "ĠengagÃ©es": 5169,
      "ĠperÃ§ues": 5170,
      "estiÃ¨re": 5171,
      "Ġsusmention": 5172,
      "Ġspectacles": 5173,
      "Ġpapier": 5174,
      "recev": 5175,
      "Ġquit": 5176,
      "Ġpertes": 5177,
      "Ġoffres": 5178,
      "Ġindividuellement": 5179,
      "univers": 5180,
      "Ġapp": 5181,
      "expert": 5182,
      "Ġmettent": 5183,
      "exerce": 5184,
      "Ġanticip": 5185,
      "Ġintervention": 5186,
      "Ġ223": 5187,
      "Ġdissolution": 5188,
      "Ã©rants": 5189,
      "Ġpersonnelle": 5190,
      "Ġrestric": 5191,
      "effectif": 5192,
      "ĠforestiÃ¨re": 5193,
      "Ġalimentaires": 5194,
      "endants": 5195,
      "Ġterritoriaux": 5196,
      "ĠadressÃ©es": 5197,
      "Ġuniversitaire": 5198,
      "uler": 5199,
      "Ġseuils": 5200,
      "Ġimmatricul": 5201,
      "dern": 5202,
      "Ġracc": 5203,
      "Ġsyndicats": 5204,
      "ĠfÃ©dÃ©rations": 5205,
      "Ġexceptionnel": 5206,
      "Ġneuf": 5207,
      "Ġsolidaire": 5208,
      "Ġdette": 5209,
      "arme": 5210,
      "Ġtrimes": 5211,
      "Ġcontraires": 5212,
      "ĠdÃ©passement": 5213,
      "pore": 5214,
      "ĠrÃ©duire": 5215,
      "Ġpartenaire": 5216,
      "honneur": 5217,
      "50": 5218,
      "Ġaccueilli": 5219,
      "iscipl": 5220,
      "Ġtent": 5221,
      "Ġreconnue": 5222,
      "ĠtrÃ©sor": 5223,
      "Ġpoids": 5224,
      "ĠprÃ©pond": 5225,
      "exportation": 5226,
      "Ġville": 5227,
      "instru": 5228,
      "ĠÃ©quivalente": 5229,
      "Ġcoordonnateur": 5230,
      "itudes": 5231,
      "Ġsyndicale": 5232,
      "heure": 5233,
      "nels": 5234,
      "ĠdÃ©lits": 5235,
      "Ġutiliser": 5236,
      "conformÃ©ment": 5237,
      "Ġcontradictoire": 5238,
      "Ġsen": 5239,
      "dive": 5240,
      "endes": 5241,
      "ĠstratÃ©gie": 5242,
      "Ġvalorisation": 5243,
      "isent": 5244,
      "Ġfai": 5245,
      "Ġmandataires": 5246,
      "Ġcalend": 5247,
      "hospitalisation": 5248,
      "Ġmarins": 5249,
      "Ġsuivre": 5250,
      "ĠvÃ©rifie": 5251,
      "ĠpassÃ©": 5252,
      "celui": 5253,
      "aille": 5254,
      "Ġbassin": 5255,
      "Ġden": 5256,
      "isÃ©es": 5257,
      "Ġintro": 5258,
      "Ġfournies": 5259,
      "Ġpeti": 5260,
      "trales": 5261,
      "Ġpreneur": 5262,
      "Ġadjoint": 5263,
      "endus": 5264,
      "ommun": 5265,
      "Ġpassage": 5266,
      "Ġadjoints": 5267,
      "ĠprÃ©lev": 5268,
      "ĠdÃ©crit": 5269,
      "Ġamiable": 5270,
      "ĠpostÃ©rieurement": 5271,
      "ĠproposÃ©": 5272,
      "ĠcoopÃ©rative": 5273,
      "Ġvoyag": 5274,
      "Ġcitoy": 5275,
      "ĠprÃ©emption": 5276,
      "Ã¨tes": 5277,
      "Ġgens": 5278,
      "Ã©quilibre": 5279,
      "dessous": 5280,
      "rÃ©dit": 5281,
      "Ġasser": 5282,
      "Ġrenvoi": 5283,
      "Ġbulletins": 5284,
      "meture": 5285,
      "Ġ90": 5286,
      "Ġcontestation": 5287,
      "preneur": 5288,
      "Ġcriminelle": 5289,
      "ecole": 5290,
      "ĠliÃ©e": 5291,
      "ĠmodifiÃ©e": 5292,
      "Ġrefuser": 5293,
      "Ġlicenciement": 5294,
      "Ġassorti": 5295,
      "Ġsupp": 5296,
      "ĠroutiÃ¨re": 5297,
      "Ġdisposant": 5298,
      "Ġlyc": 5299,
      "Ġmeubles": 5300,
      "Ġpourr": 5301,
      "apport": 5302,
      "Ġanalyse": 5303,
      "oyers": 5304,
      "Ġcorrespondants": 5305,
      "ĠqualifiÃ©e": 5306,
      "ĠmaternitÃ©": 5307,
      "Ġappareils": 5308,
      "Ġmarine": 5309,
      "Ġremettre": 5310,
      "Ġcomprom": 5311,
      "Ġrestre": 5312,
      "ĠassemblÃ©es": 5313,
      "ĠdispensÃ©s": 5314,
      "ĠrevÃª": 5315,
      "emprunteur": 5316,
      "65": 5317,
      "sons": 5318,
      "ĠgÃ©rer": 5319,
      "Ġdomic": 5320,
      "Ġformulaire": 5321,
      "Ġincompati": 5322,
      "ĠgardÃ©": 5323,
      "Ġ2011": 5324,
      "Ġinscrite": 5325,
      "Ġvacance": 5326,
      "Ġsursis": 5327,
      "ĠdÃ©cÃ©d": 5328,
      "Ġincor": 5329,
      "Ã©tiques": 5330,
      "ession": 5331,
      "attement": 5332,
      "Ġauxili": 5333,
      "Ġfigurer": 5334,
      "ĠcinÃ©matographique": 5335,
      "Ġ1978": 5336,
      "ĠempÃª": 5337,
      "provis": 5338,
      "ĠintermÃ©di": 5339,
      "pompiers": 5340,
      "ĠexpÃ©rience": 5341,
      "ĠreÃ§ues": 5342,
      "Ġsimpl": 5343,
      "ĠtraitÃ©": 5344,
      "Ġfermeture": 5345,
      "Ġfluvi": 5346,
      "ĠnÃ©gociations": 5347,
      "ĠpÃ©": 5348,
      "appar": 5349,
      "Ġcontrepartie": 5350,
      "ĠdÃ©tenu": 5351,
      "Ġvendeur": 5352,
      "inventaire": 5353,
      "Ġray": 5354,
      "ĠintÃ©ressant": 5355,
      "Ġrendues": 5356,
      "ĠinterrÃ©gional": 5357,
      "Ġservitudes": 5358,
      "Ġpassagers": 5359,
      "49": 5360,
      "ĠÃ©changes": 5361,
      "extension": 5362,
      "ĠvidÃ©": 5363,
      "Ġcellu": 5364,
      "ĠlÃ©gaux": 5365,
      "Ġplateforme": 5366,
      "Ġorig": 5367,
      "ĠlibÃ©ration": 5368,
      "ĠaffectÃ©es": 5369,
      "Ġmajeurs": 5370,
      "ĠÃ©lectorale": 5371,
      "Ġtroubles": 5372,
      "euros": 5373,
      "Ġconciliation": 5374,
      "ĠmÃ©can": 5375,
      "Ġabrog": 5376,
      "Ġtransmettent": 5377,
      "ĠÃ©chantil": 5378,
      "Ġmairie": 5379,
      "Ġdons": 5380,
      "ĠthÃ©": 5381,
      "inistre": 5382,
      "Ġsalaires": 5383,
      "Ġfranc": 5384,
      "ĠexcÃ¨de": 5385,
      "Ġautonom": 5386,
      "ĠprÃ©fecture": 5387,
      "Ġpunie": 5388,
      "Ġrenfor": 5389,
      "euses": 5390,
      "portÃ©": 5391,
      "Ġenvisage": 5392,
      "ĠcoordonnÃ©es": 5393,
      "Ġimpliqu": 5394,
      "giÃ¨": 5395,
      "glom": 5396,
      "Ġcontract": 5397,
      "ĠpÃ©riodique": 5398,
      "ĠsolvabilitÃ©": 5399,
      "giÃ¨ne": 5400,
      "orment": 5401,
      "ĠpremiÃ¨res": 5402,
      "Ġindication": 5403,
      "Ġquelconque": 5404,
      "Ġsuccessi": 5405,
      "Ġautant": 5406,
      "ĠcrÃ©Ã©": 5407,
      "ĠversÃ©s": 5408,
      "ĠdÃ©posÃ©": 5409,
      "ĠaÃ©rodrom": 5410,
      "Ġassortie": 5411,
      "Ġ2003": 5412,
      "Ġobtenus": 5413,
      "ĠdÃ©positaire": 5414,
      "heures": 5415,
      "Ġcomprise": 5416,
      "entique": 5417,
      "ĠengagÃ©e": 5418,
      "Ġlimitation": 5419,
      "Ġpartag": 5420,
      "Ġreconnues": 5421,
      "Ã©tition": 5422,
      "afin": 5423,
      "Ġanti": 5424,
      "ĠstatuÃ©": 5425,
      "ĠÃ©lectorales": 5426,
      "eb": 5427,
      "ĠinterdÃ©partement": 5428,
      "Ġremplissent": 5429,
      "Ã©pre": 5430,
      "ĠÃ©quipement": 5431,
      "Ġencourent": 5432,
      "Ġpsychi": 5433,
      "Ġdiverses": 5434,
      "Ġsemaines": 5435,
      "Ġbless": 5436,
      "Ġrang": 5437,
      "amortissement": 5438,
      "Ġaltern": 5439,
      "ĠcontrÃ´lÃ©e": 5440,
      "ĠadaptÃ©e": 5441,
      "2014": 5442,
      "Ġretirer": 5443,
      "ĠintermÃ©diaires": 5444,
      "jonction": 5445,
      "atÃ©r": 5446,
      "Ġsuspendre": 5447,
      "Ġcomportement": 5448,
      "annulation": 5449,
      "Ġviii": 5450,
      "Ġvoyage": 5451,
      "isÃ©e": 5452,
      "Ġmodifiant": 5453,
      "Ġgarantissant": 5454,
      "Ġniveaux": 5455,
      "ĠautomatisÃ©": 5456,
      "ize": 5457,
      "Ġfoi": 5458,
      "Ġcollab": 5459,
      "Ġraisonn": 5460,
      "ĠdÃ©ont": 5461,
      "Ġservi": 5462,
      "Ġrattachement": 5463,
      "Ġparentale": 5464,
      "Ġouverte": 5465,
      "ĠbarÃ¨me": 5466,
      "ĠprÃ©fets": 5467,
      "Ã©quipements": 5468,
      "Ġcommunale": 5469,
      "Ġraccordement": 5470,
      "Ġdemandeurs": 5471,
      "Ġ2002": 5472,
      "Ġjustificatifs": 5473,
      "Ġsuccurs": 5474,
      "ondissement": 5475,
      "ĠconstatÃ©s": 5476,
      "ĠdÃ©mar": 5477,
      "Ġexamin": 5478,
      "95": 5479,
      "Ġmort": 5480,
      "Ġfeu": 5481,
      "Ġprenant": 5482,
      "Ġconserve": 5483,
      "Ġcroiss": 5484,
      "idiscipl": 5485,
      "Ġinternationaux": 5486,
      "Ġpluridiscipl": 5487,
      "hygiÃ¨ne": 5488,
      "24": 5489,
      "accessi": 5490,
      "ĠtrÃ¨s": 5491,
      "ĠreprÃ©sentÃ©s": 5492,
      "Ġhospitaliers": 5493,
      "Ġpourvoir": 5494,
      "Ġrestauration": 5495,
      "Ġfinal": 5496,
      "Ġapprobation": 5497,
      "Ġtarification": 5498,
      "lex": 5499,
      "ata": 5500,
      "Ġclasses": 5501,
      "lution": 5502,
      "Ġsexe": 5503,
      "ĠdÃ©crets": 5504,
      "Ġeau": 5505,
      "ĠrÃ©partis": 5506,
      "utes": 5507,
      "acitÃ©": 5508,
      "Ġtiennent": 5509,
      "Ġindis": 5510,
      "Ġchoisis": 5511,
      "Ġseconde": 5512,
      "Ġminimal": 5513,
      "ĠtÃ©lÃ©c": 5514,
      "sifs": 5515,
      "Ã©dent": 5516,
      "ĠassociÃ©es": 5517,
      "ĠconsidÃ©rÃ©es": 5518,
      "effectuer": 5519,
      "Ġmultipl": 5520,
      "Ġcapitaux": 5521,
      "Ġcorrespondantes": 5522,
      "Ġproche": 5523,
      "Ġprincipe": 5524,
      "Ġasserment": 5525,
      "Åĵuvres": 5526,
      "Ġpossession": 5527,
      "impact": 5528,
      "rÃ©ditation": 5529,
      "Ġlev": 5530,
      "Ġlimit": 5531,
      "domad": 5532,
      "ebdomad": 5533,
      "son": 5534,
      "Ġfour": 5535,
      "ĠgÃ©nÃ©tique": 5536,
      "Ã©dition": 5537,
      "ĠimposÃ©es": 5538,
      "ĠprÃ©t": 5539,
      "ĠcommuniquÃ©s": 5540,
      "icacitÃ©": 5541,
      "Ġhebdomad": 5542,
      "Ã©lectr": 5543,
      "Ġchargement": 5544,
      "Ġdossiers": 5545,
      "Ġretenu": 5546,
      "infrastructure": 5547,
      "Ġinfrastructures": 5548,
      "Ġimpositions": 5549,
      "Ġinterventions": 5550,
      "immobil": 5551,
      "oni": 5552,
      "Ġstric": 5553,
      "Ġalco": 5554,
      "Ġsportifs": 5555,
      "Ġuniquement": 5556,
      "Ġconcessionnaire": 5557,
      "Ġdevient": 5558,
      "ĠdÃ©clarer": 5559,
      "ĠdÃ©bat": 5560,
      "romp": 5561,
      "yn": 5562,
      "Ġsoumet": 5563,
      "ĠperÃ§us": 5564,
      "ĠprÃ©sum": 5565,
      "Ġferroviaire": 5566,
      "omal": 5567,
      "Ġgrande": 5568,
      "ĠdÃ©passe": 5569,
      "ĠrÃ©glementÃ©": 5570,
      "Ġmajeur": 5571,
      "ĠinstituÃ©e": 5572,
      "Ġreconnus": 5573,
      "Ġstatutaires": 5574,
      "Ġcroissance": 5575,
      "ĠappelÃ©": 5576,
      "ĠrÃ©cidive": 5577,
      "Ġsuppression": 5578,
      "26": 5579,
      "gÃ©e": 5580,
      "Ġis": 5581,
      "impos": 5582,
      "ĠâĤ¬.": 5583,
      "Ġfournisseurs": 5584,
      "Ġplafonds": 5585,
      "sa": 5586,
      "ĠdÃ©tachement": 5587,
      "Ġchanti": 5588,
      "oign": 5589,
      "Ġactive": 5590,
      "Ġmarqu": 5591,
      "ĠcontrÃ´leur": 5592,
      "Ġ2001": 5593,
      "ĠbÃ©nÃ©ficiÃ©": 5594,
      "futuna": 5595,
      "ram": 5596,
      "Ġcommettre": 5597,
      "ĠdisponibilitÃ©": 5598,
      "ĠrÃ©gularisation": 5599,
      "Ġpermanence": 5600,
      "Ġ45": 5601,
      "Ġparcelles": 5602,
      "ĠspÃ©cialisÃ©e": 5603,
      "Ġcontractuels": 5604,
      "Ġprimaire": 5605,
      "accessibilitÃ©": 5606,
      "ivÃ©e": 5607,
      "Ġavait": 5608,
      "Ġconsac": 5609,
      "Ġcorrespondance": 5610,
      "Ġfigure": 5611,
      "ĠrÃ©putÃ©s": 5612,
      "Ġremplissant": 5613,
      "ĠdÃ©finitivement": 5614,
      "Ġengins": 5615,
      "ueille": 5616,
      "Ġcessionnaire": 5617,
      "ĠbÃ¢ties": 5618,
      "Ġdistributeur": 5619,
      "isse": 5620,
      "Ġmentionnant": 5621,
      "Ġcommuns": 5622,
      "ĠsupprimÃ©": 5623,
      "ilance": 5624,
      "Ġbonnes": 5625,
      "od": 5626,
      "Ġchar": 5627,
      "ĠlÃ©galement": 5628,
      "Ġfamiliale": 5629,
      "Ġforestiers": 5630,
      "Ġrecourir": 5631,
      "ron": 5632,
      "ĠprÃ©sentÃ©s": 5633,
      "Ġmodes": 5634,
      "ĠcondamnÃ©e": 5635,
      "sification": 5636,
      "Ġorganise": 5637,
      "Ġmutation": 5638,
      "dites": 5639,
      "Ġsignal": 5640,
      "ĠexpÃ©ri": 5641,
      "Ġinternationales": 5642,
      "ĠspÃ©cialisÃ©": 5643,
      "porel": 5644,
      "oli": 5645,
      "Ġquand": 5646,
      "obtenir": 5647,
      "Ġagences": 5648,
      "ĠdÃ©libÃ©rer": 5649,
      "Ġacquise": 5650,
      "Ġsurfaces": 5651,
      "Ġimplant": 5652,
      "ĠdÃ©du": 5653,
      "ĠfinalitÃ©": 5654,
      "Ġ44": 5655,
      "Ġacquises": 5656,
      "Ġterror": 5657,
      "ĠperÃ§ue": 5658,
      "Ġchirurgi": 5659,
      "utÃ©s": 5660,
      "utilisateur": 5661,
      "Ġfabriqu": 5662,
      "ĠindÃ©pendants": 5663,
      "Ġconver": 5664,
      "Ġpoursuivre": 5665,
      "Ġdit": 5666,
      "Ġvisa": 5667,
      "ĠnuclÃ©aires": 5668,
      "18": 5669,
      "Ġtab": 5670,
      "dire": 5671,
      "aler": 5672,
      "Ġtranspar": 5673,
      "Ġadresser": 5674,
      "Ġfia": 5675,
      "selle": 5676,
      "Ġassesse": 5677,
      "ĠreÃ§us": 5678,
      "Ġhydr": 5679,
      "Ġstipulations": 5680,
      "part": 5681,
      "impossibilitÃ©": 5682,
      "Ġcult": 5683,
      "Ġcadres": 5684,
      "ĠprÃ©ciser": 5685,
      "Ġindustriel": 5686,
      "Ġdus": 5687,
      "ĠinformÃ©e": 5688,
      "Ġpasse": 5689,
      "dictions": 5690,
      "Ġutilisant": 5691,
      "ĠexÃ©cutoires": 5692,
      "objectifs": 5693,
      "Ġserait": 5694,
      "Ġexclusif": 5695,
      "Ã¯": 5696,
      "ĠcÃ´": 5697,
      "Ġcorrec": 5698,
      "Ġretenus": 5699,
      "Ġconsulter": 5700,
      "Ġtexte": 5701,
      "Ġsapeurs": 5702,
      "ament": 5703,
      "uments": 5704,
      "Ġconfier": 5705,
      "ĠtransfÃ©rÃ©s": 5706,
      "Ġconsultatif": 5707,
      "ĠrÃ©cup": 5708,
      "Ġcombus": 5709,
      "Ġapports": 5710,
      "Ġaustrales": 5711,
      "Ġlocataires": 5712,
      "ĠdÃ©bats": 5713,
      "ĠgÃ©rant": 5714,
      "dul": 5715,
      "ĠÃ©cou": 5716,
      "Ġnotice": 5717,
      "Ġsolliciter": 5718,
      "60": 5719,
      "gs": 5720,
      "Ġbaux": 5721,
      "ĠprÃ©voient": 5722,
      "Ã©cuni": 5723,
      "ĠreÃ§oivent": 5724,
      "Ġdispense": 5725,
      "Ġcollabor": 5726,
      "Ġantarc": 5727,
      "Ġaddi": 5728,
      "Ġmari": 5729,
      "ĠrÃ©duite": 5730,
      "32": 5731,
      "ĠpÃ©cuni": 5732,
      "Ġtransactions": 5733,
      "Ġinterdite": 5734,
      "protection": 5735,
      "Ġexpert": 5736,
      "ĠdÃ©poser": 5737,
      "ĠÃ©molu": 5738,
      "Ġsuperficie": 5739,
      "ĠsÃ©n": 5740,
      "Ġregis": 5741,
      "accrÃ©ditation": 5742,
      "Ġmajorations": 5743,
      "ĠÃ©poux": 5744,
      "Ġscolaires": 5745,
      "Ġadmises": 5746,
      "alisÃ©es": 5747,
      "ĠimmobiliÃ¨re": 5748,
      "ĠproposÃ©es": 5749,
      "Ġregistres": 5750,
      "ĠconcÃ©d": 5751,
      "uissier": 5752,
      "ĠappelÃ©s": 5753,
      "actes": 5754,
      "ĠexigÃ©es": 5755,
      "ĠÃ©ventuelle": 5756,
      "Ġinstructions": 5757,
      "ĠgravitÃ©": 5758,
      "ĠmajorÃ©": 5759,
      "Ġtabac": 5760,
      "entiels": 5761,
      "Ġpluridisciplinaire": 5762,
      "Ã¨ne": 5763,
      "Ġcomprendre": 5764,
      "ĠsituÃ©e": 5765,
      "Ġcommerciaux": 5766,
      "Ġsimil": 5767,
      "orum": 5768,
      "Ġadm": 5769,
      "Ġquorum": 5770,
      "ĠconstituÃ©s": 5771,
      "Ġindicateurs": 5772,
      "ĠenquÃªtes": 5773,
      "Ġhonoraires": 5774,
      "Ġantarctiques": 5775,
      "lons": 5776,
      "ulaire": 5777,
      "ĠhÃ©": 5778,
      "hen": 5779,
      "Ġsci": 5780,
      "Ġmajeure": 5781,
      "Ġenvironnemental": 5782,
      "universitÃ©": 5783,
      "ĠtÃ¢": 5784,
      "Ġchim": 5785,
      "Ġconjointe": 5786,
      "Ġbrut": 5787,
      "Ġgraves": 5788,
      "ĠmÃ©thode": 5789,
      "hÃ´": 5790,
      "Ġtermin": 5791,
      "Ġissues": 5792,
      "iÃ©r": 5793,
      "Ġverser": 5794,
      "Ġcombat": 5795,
      "observation": 5796,
      "ĠprÃ©servation": 5797,
      "Ġextra": 5798,
      "Ġtransaction": 5799,
      "Ġsimplif": 5800,
      "cer": 5801,
      "ĠrÃ©tention": 5802,
      "Ġacquisitions": 5803,
      "tri": 5804,
      "Ġdisciplinaires": 5805,
      "ĠintermÃ©diaire": 5806,
      "dentis": 5807,
      "ermin": 5808,
      "ĠÃ©gard": 5809,
      "Ġintention": 5810,
      "Ġlimiter": 5811,
      "ĠprÃ©cisent": 5812,
      "Ġindividuels": 5813,
      "ĠdÃ©gr": 5814,
      "avocat": 5815,
      "Ġsuivie": 5816,
      "ĠdÃ©clarÃ©s": 5817,
      "ĠspÃ©cialisÃ©s": 5818,
      "Ġlegs": 5819,
      "ĠhiÃ©r": 5820,
      "Ġsols": 5821,
      "ĠhiÃ©rarch": 5822,
      "Ġremises": 5823,
      "ĠdÃ©posÃ©es": 5824,
      "intÃ©gritÃ©": 5825,
      "ĠenregistrÃ©es": 5826,
      "architecture": 5827,
      "Ġinterdictions": 5828,
      "Ġpollution": 5829,
      "Ġinitiative": 5830,
      "ĠexposÃ©s": 5831,
      "Ġinclus": 5832,
      "ĠdÃ©clare": 5833,
      "Ġaccessible": 5834,
      "Ġquinqu": 5835,
      "Ġanimale": 5836,
      "ĠimmÃ©diate": 5837,
      "Ġaccompli": 5838,
      "Ġdesc": 5839,
      "ocats": 5840,
      "ĠqualifiÃ©": 5841,
      "ĠappropriÃ©es": 5842,
      "ĠdenrÃ©es": 5843,
      "Ġcontra": 5844,
      "Ġpharmaceutique": 5845,
      "Ġfoyer": 5846,
      "ĠaÃ©rienne": 5847,
      "obstant": 5848,
      "45": 5849,
      "Ġgross": 5850,
      "Ġconsultations": 5851,
      "Ġseulement": 5852,
      "ĠconservÃ©s": 5853,
      "Ġdevenue": 5854,
      "dernier": 5855,
      "ĠprÃ©tendre": 5856,
      "Ġue": 5857,
      "ĠpersonnalisÃ©e": 5858,
      "anciennetÃ©": 5859,
      "ĠconservÃ©es": 5860,
      "Ġimposable": 5861,
      "ĠÃ©levÃ©": 5862,
      "Ġsort": 5863,
      "Ġsujet": 5864,
      "Ġparticipants": 5865,
      "Ġaffich": 5866,
      "Ġpourvoi": 5867,
      "ĠformÃ©e": 5868,
      "ĠdÃ©pense": 5869,
      "Ġnotaire": 5870,
      "Ġexcl": 5871,
      "encad": 5872,
      "ĠaÃ©rien": 5873,
      "31": 5874,
      "Ġ-": 5875,
      "Ġoption": 5876,
      "ĠnumÃ©riques": 5877,
      "Ġauteur": 5878,
      "Ã©rance": 5879,
      "ĠorganisÃ©": 5880,
      "Ġmaintenir": 5881,
      "Ġentretien": 5882,
      "ĠcÃ©dant": 5883,
      "Ġsouscripteur": 5884,
      "Ġcompagnie": 5885,
      "Ġlignes": 5886,
      "olue": 5887,
      "Ġadjud": 5888,
      "Ġreconnu": 5889,
      "ĠadaptÃ©": 5890,
      "ĠrÃ©pondent": 5891,
      "Ġfiche": 5892,
      "ug": 5893,
      "Ġusages": 5894,
      "29": 5895,
      "ĠprÃ©avis": 5896,
      "Ġrefuse": 5897,
      "Ġpharmaceutiques": 5898,
      "ĠlÃ©giti": 5899,
      "ĠhandicapÃ©s": 5900,
      "Ġcommunautaire": 5901,
      "aleur": 5902,
      "Ġsuccession": 5903,
      "Ġsubstitution": 5904,
      "prÃ©sidents": 5905,
      "ĠmÃ©moire": 5906,
      "aliÃ©n": 5907,
      "ĠhabilitÃ©es": 5908,
      "oque": 5909,
      "oth": 5910,
      "ĠorganisÃ©es": 5911,
      "Ġexploitations": 5912,
      "ĠÃ©lectoral": 5913,
      "Ġdotations": 5914,
      "Ġordres": 5915,
      "Ġconcourant": 5916,
      "inal": 5917,
      "Ġenregistre": 5918,
      "ection": 5919,
      "Ġavise": 5920,
      "Ġhomologu": 5921,
      "Ġcalendrier": 5922,
      "ĠrÃ´le": 5923,
      "ĠÃ©lectrique": 5924,
      "ĠÃ¢gÃ©": 5925,
      "audition": 5926,
      "ĠrÃ©clamation": 5927,
      "Ã¨ce": 5928,
      "Ġavocats": 5929,
      "Ġmarin": 5930,
      "ĠspÃ©ciaux": 5931,
      "ĠspÃ©cialisÃ©es": 5932,
      "Ġmariage": 5933,
      "27": 5934,
      "Ġassign": 5935,
      "ĠdÃ©riv": 5936,
      "acquit": 5937,
      "Ġpotentiel": 5938,
      "alise": 5939,
      "Ġenregistrement": 5940,
      "Ġstatistiques": 5941,
      "nent": 5942,
      "Ġdirectes": 5943,
      "Ġfourni": 5944,
      "encl": 5945,
      "Ġindustriels": 5946,
      "ĠthÃ©rapeutique": 5947,
      "Ġtransferts": 5948,
      "Ġvoyageurs": 5949,
      "36": 5950,
      "Ġlot": 5951,
      "ĠrÃ©els": 5952,
      "demment": 5953,
      "Ġpluriannuel": 5954,
      "icitÃ©": 5955,
      "Ġsem": 5956,
      "Ġprorata": 5957,
      "ĠprivilÃ¨g": 5958,
      "ĠdÃ©faill": 5959,
      "Ġsources": 5960,
      "ĠportÃ©s": 5961,
      "ĠspÃ©cialitÃ©s": 5962,
      "Ġmettant": 5963,
      "ĠconsÃ©cutifs": 5964,
      "Ġurg": 5965,
      "ĠadaptÃ©es": 5966,
      "Ġrecueillir": 5967,
      "Ġpartenaires": 5968,
      "Ġartisan": 5969,
      "ĠinvaliditÃ©": 5970,
      "allocations": 5971,
      "Ġconjoints": 5972,
      "Ġconditionnement": 5973,
      "Ġredevables": 5974,
      "Ġdettes": 5975,
      "Ã©preuve": 5976,
      "sionnaires": 5977,
      "ĠdÃ©livrÃ©es": 5978,
      "Ġmensuelle": 5979,
      "lage": 5980,
      "Ġbiologiques": 5981,
      "efficacitÃ©": 5982,
      "ĠÃ©preuve": 5983,
      "ĠcomplÃ©tÃ©": 5984,
      "Ġacteurs": 5985,
      "ĠformalitÃ©": 5986,
      "ĠprÃªteur": 5987,
      "Ġactif": 5988,
      "Ġrespectives": 5989,
      "hypo": 5990,
      "ĠattachÃ©s": 5991,
      "ĠprÃ©pondÃ©rante": 5992,
      "Ġcollectives": 5993,
      "ĠutilisÃ©e": 5994,
      "mÃªmes": 5995,
      "Ġdocumentation": 5996,
      "ĠjustifiÃ©": 5997,
      "ĠsiÃ©ger": 5998,
      "enfance": 5999,
      "Ġenseignements": 6000,
      "Ġlu": 6001,
      "aus": 6002,
      "ĠidentitÃ©": 6003,
      "ĠmÃ©n": 6004,
      "divers": 6005,
      "ĠcontrÃ´ler": 6006,
      "Ġphot": 6007,
      "Ġ99": 6008,
      "hommes": 6009,
      "Ġcompatibles": 6010,
      "ĠmÃ©diateur": 6011,
      "Ġconversion": 6012,
      "Ã©tr": 6013,
      "ĠÃ©tats": 6014,
      "Ġfinance": 6015,
      "Ġmunicipale": 6016,
      "Ġnomencl": 6017,
      "ĠspÃ©ciales": 6018,
      "ordonnateur": 6019,
      "porteurs": 6020,
      "Ġlibrement": 6021,
      "Ġmillions": 6022,
      "38": 6023,
      "ionnement": 6024,
      "Ġmoselle": 6025,
      "ĠapportÃ©es": 6026,
      "Ġcirc": 6027,
      "âĢĻ": 6028,
      "Ġmensuel": 6029,
      "Ġcultures": 6030,
      "diversitÃ©": 6031,
      "aides": 6032,
      "ogram": 6033,
      "ĠprÃ©cÃ©": 6034,
      "Ġsangu": 6035,
      "Ġfut": 6036,
      "exion": 6037,
      "ĠmÃ©l": 6038,
      "Ġporteur": 6039,
      "Ġcontribue": 6040,
      "Ġprincipales": 6041,
      "ĠprÃ©cÃ©demment": 6042,
      "Ġdess": 6043,
      "ĠinformÃ©s": 6044,
      "Ġconformer": 6045,
      "Ġ%,": 6046,
      "Ġpaiements": 6047,
      "Ġconduit": 6048,
      "ĠbiodiversitÃ©": 6049,
      "iteur": 6050,
      "Ġallocation": 6051,
      "cheurs": 6052,
      "Ġboissons": 6053,
      "Ġessais": 6054,
      "Ġench": 6055,
      "appare": 6056,
      "Ġ37": 6057,
      "Ġformat": 6058,
      "ĠconfiÃ©e": 6059,
      "essai": 6060,
      "Ġfu": 6061,
      "Ġlocatifs": 6062,
      "Ġadministration": 6063,
      "emplois": 6064,
      "Ġconstatant": 6065,
      "Ġaura": 6066,
      "Ġprobation": 6067,
      "iles": 6068,
      "ĠrÃ©sistance": 6069,
      "ĠdÃ©rogations": 6070,
      "animaux": 6071,
      "Ġreproduction": 6072,
      "Ġlitige": 6073,
      "Ġquotidi": 6074,
      "antis": 6075,
      "anches": 6076,
      "Ġconcub": 6077,
      "Ġinterminist": 6078,
      "Ġaccessibles": 6079,
      "ĠÃ©dic": 6080,
      "ĠdÃ©placements": 6081,
      "Ġautonome": 6082,
      "ister": 6083,
      "ĠprÃ©visions": 6084,
      "ĠdÃ©fic": 6085,
      "Ġtransit": 6086,
      "attente": 6087,
      "Ġpond": 6088,
      "sive": 6089,
      "ĠÃ©lectriques": 6090,
      "ĠjugÃ©e": 6091,
      "Ġserment": 6092,
      "Ġbancaire": 6093,
      "Ġpsychiatr": 6094,
      "Ġtiss": 6095,
      "entrepreneur": 6096,
      "ĠarrÃªtÃ©e": 6097,
      "intÃ©gralitÃ©": 6098,
      "Ġportuaire": 6099,
      "Ġrecons": 6100,
      "Ã©pend": 6101,
      "Ġmarchandise": 6102,
      "Ġchauff": 6103,
      "leurs": 6104,
      "Ġadministrateur": 6105,
      "ĠjournaliÃ¨re": 6106,
      "Ġbases": 6107,
      "Ġhebdomadaire": 6108,
      "uits": 6109,
      "ziÃ¨me": 6110,
      "Ġes": 6111,
      "Ġmontagne": 6112,
      "Ġcomposant": 6113,
      "Ġvariable": 6114,
      "Ġtuteur": 6115,
      "Ġplacements": 6116,
      "Ġnormale": 6117,
      "ĠÃ©ventuels": 6118,
      "Ġcrime": 6119,
      "ĠrÃ©unies": 6120,
      "Ġautomatique": 6121,
      "Ġterrorisme": 6122,
      "Ġvois": 6123,
      "terra": 6124,
      "Ġdestinataires": 6125,
      "Ġachet": 6126,
      "Ġcouvrir": 6127,
      "provisionnement": 6128,
      "ĠcohÃ©sion": 6129,
      "Ġinternes": 6130,
      "Ġprolongation": 6131,
      "Ġdangereux": 6132,
      "Ġinforment": 6133,
      "Ġconstitutive": 6134,
      "Ġexceptionnelles": 6135,
      "Ġrep": 6136,
      "argent": 6137,
      "Ġmonuments": 6138,
      "Ġhoraire": 6139,
      "Ġorganisatrice": 6140,
      "Ġrenonciation": 6141,
      "ĠengagÃ©s": 6142,
      "ĠhabilitÃ©e": 6143,
      "Ġurbaine": 6144,
      "ĠirrÃ©g": 6145,
      "inÃ©sit": 6146,
      "Ġgarantis": 6147,
      "ĠÃ©tude": 6148,
      "installations": 6149,
      "oquer": 6150,
      "Ġestim": 6151,
      "Ġcontravention": 6152,
      "Ġmanifestations": 6153,
      "aÃ©rodrom": 6154,
      "Ġappos": 6155,
      "ĠplÃ©n": 6156,
      "ĠconsÃ©cutives": 6157,
      "Ġnorme": 6158,
      "version": 6159,
      "versement": 6160,
      "Ġrenouvelables": 6161,
      "ĠenvisagÃ©es": 6162,
      "iert": 6163,
      "Ġsouterra": 6164,
      "otage": 6165,
      "Ġrectification": 6166,
      "Ġrecueille": 6167,
      "ĠfondÃ©e": 6168,
      "ĠrÃ©fÃ©rentiel": 6169,
      "ĠsalariÃ©e": 6170,
      "ĠappropriÃ©": 6171,
      "ĠprÃ©venu": 6172,
      "Ġprovenance": 6173,
      "28": 6174,
      "Ġ85": 6175,
      "ĠrÃ©col": 6176,
      "Ġstatistique": 6177,
      "Ġstagiaire": 6178,
      "Ġdeme": 6179,
      "aign": 6180,
      "Ġ226": 6181,
      "Ġinfirmiers": 6182,
      "Ġbiologique": 6183,
      "ĠpÃ©riodic": 6184,
      "ĠrÃ©clamations": 6185,
      "ĠaÃ©ronefs": 6186,
      "indi": 6187,
      "avancement": 6188,
      "Ġfranch": 6189,
      "Ġlivret": 6190,
      "ĠmobiliÃ¨res": 6191,
      "Ġsubstance": 6192,
      "Ġinspecteurs": 6193,
      "Ġanalyses": 6194,
      "ĠtÃ¢ches": 6195,
      "Ġquinquies": 6196,
      "Ġsuspen": 6197,
      "Ġ222": 6198,
      "ĠÃ¢gÃ©s": 6199,
      "Ġlots": 6200,
      "entendent": 6201,
      "ĠaccÃ©der": 6202,
      "Ġ65": 6203,
      "Ġfiliale": 6204,
      "onÃ§ant": 6205,
      "Ġpath": 6206,
      "Ġheure": 6207,
      "Ġcesser": 6208,
      "ĠconfiÃ©": 6209,
      "Ġconfirm": 6210,
      "Ġlaboratoires": 6211,
      "Ġenvelopp": 6212,
      "ĠchÃ¨que": 6213,
      "Ġmanifestement": 6214,
      "Ġdimension": 6215,
      "ĠpÃ©riodicitÃ©": 6216,
      "aintes": 6217,
      "Ġvoirie": 6218,
      "Ġraisonnable": 6219,
      "encadrement": 6220,
      "armes": 6221,
      "Ġprog": 6222,
      "Ġarb": 6223,
      "Ġaccorder": 6224,
      "ĠaffectÃ©e": 6225,
      "Ã©tudi": 6226,
      "Ġrecueillies": 6227,
      "ĠpÃ©nalitÃ©s": 6228,
      "ĠthÃ©or": 6229,
      "gent": 6230,
      "ĠÃ©mises": 6231,
      "Ġprocess": 6232,
      "avec": 6233,
      "opposer": 6234,
      "Ġdiffus": 6235,
      "decine": 6236,
      "Ġmaisons": 6237,
      "ĠdÃ©mission": 6238,
      "Ġcontraintes": 6239,
      "ĠdÃ©nommÃ©": 6240,
      "Ġtac": 6241,
      "Ġdiscr": 6242,
      "itude": 6243,
      "Ġaffectation": 6244,
      "Ġpayeur": 6245,
      "ĠÃ©ducative": 6246,
      "Ġarchives": 6247,
      "Ġlucr": 6248,
      "Ġprocessus": 6249,
      "gations": 6250,
      "huissier": 6251,
      "Ġeffectue": 6252,
      "Ġjuges": 6253,
      "ĠacquÃ©rir": 6254,
      "hÃ©rapie": 6255,
      "ĠprÃ©fectoral": 6256,
      "Ġsemaine": 6257,
      "fic": 6258,
      "mas": 6259,
      "Ġcocon": 6260,
      "Ġcomprises": 6261,
      "interruption": 6262,
      "Ġcommuniquent": 6263,
      "Ġflot": 6264,
      "recevabilitÃ©": 6265,
      "Ġcab": 6266,
      "ĠrÃ©habilitation": 6267,
      "Ġexemp": 6268,
      "Ġapporter": 6269,
      "ĠdÃ©finir": 6270,
      "Ġcouverts": 6271,
      "kinÃ©sit": 6272,
      "Ġparam": 6273,
      "sel": 6274,
      "Ġavances": 6275,
      "Ġtemporaires": 6276,
      "ĠdÃ©terminent": 6277,
      "Ġrespectent": 6278,
      "Ġuniversitaires": 6279,
      "objectif": 6280,
      "Ġessentielles": 6281,
      "Ã©lig": 6282,
      "Ã©taires": 6283,
      "ennes": 6284,
      "ĠdÃ©saccord": 6285,
      "Ġdomicili": 6286,
      "ext": 6287,
      "Ġconservatoire": 6288,
      "ĠformulÃ©e": 6289,
      "ĠÃ©vÃ©nements": 6290,
      "Ã´t": 6291,
      "ĠopÃ©rationnelle": 6292,
      "Ġfidu": 6293,
      "Ġchirurgie": 6294,
      "Ġmouvements": 6295,
      "Ġsurvivant": 6296,
      "Ã©decine": 6297,
      "Ã¨nes": 6298,
      "ĠpayÃ©s": 6299,
      "Ġintervenue": 6300,
      "Ġpassation": 6301,
      "ĠaffiliÃ©s": 6302,
      "70": 6303,
      "ertissement": 6304,
      "ĠrÃ©quisitions": 6305,
      "ĠÃ©chÃ©ance": 6306,
      "Ġsignataire": 6307,
      "Ġexpertise": 6308,
      "Ġouvrables": 6309,
      "Ġalimentaire": 6310,
      "ĠnÃ©cessitÃ©s": 6311,
      "Ġexiger": 6312,
      "Ġfacture": 6313,
      "ĠproposÃ©s": 6314,
      "ĠprotÃ©gÃ©e": 6315,
      "aÃ©rone": 6316,
      "ufr": 6317,
      "formes": 6318,
      "Ġ38": 6319,
      "indÃ©pend": 6320,
      "Ġaccomplir": 6321,
      "Ġsession": 6322,
      "Ġinformatique": 6323,
      "ĠrÃ©guliÃ¨re": 6324,
      "inspecteur": 6325,
      "Ġsigne": 6326,
      "andement": 6327,
      "Ġcommandement": 6328,
      "Ġinscriptions": 6329,
      "Ġlogici": 6330,
      "Ġsignification": 6331,
      "Ã©lÃ¨ves": 6332,
      "Ġstagiaires": 6333,
      "iance": 6334,
      "Ġapporte": 6335,
      "Ġexigible": 6336,
      "Ġ1986": 6337,
      "homolog": 6338,
      "tibles": 6339,
      "Ġnaturelle": 6340,
      "Ġincombe": 6341,
      "Ġcharte": 6342,
      "Ġphyt": 6343,
      "ĠtÃ©lÃ©commun": 6344,
      "Ġofficier": 6345,
      "Ġproportionnelle": 6346,
      "Ġhypoth": 6347,
      "nul": 6348,
      "sir": 6349,
      "ĠdressÃ©": 6350,
      "Ġnomenclature": 6351,
      "pens": 6352,
      "Ã©tendue": 6353,
      "Ġimposer": 6354,
      "Ġ64": 6355,
      "ĠmodifiÃ©s": 6356,
      "ĠsynthÃ¨se": 6357,
      "ĠcommuniquÃ©e": 6358,
      "Ġtrafic": 6359,
      "Ġjustifications": 6360,
      "Ġrubr": 6361,
      "Ġcommence": 6362,
      "avor": 6363,
      "ĠcrÃ©Ã©e": 6364,
      "Ġformuler": 6365,
      "Ġther": 6366,
      "Ġindispens": 6367,
      "Ġassesseurs": 6368,
      "Ġuniver": 6369,
      "ĠrÃ©prim": 6370,
      "Ġventi": 6371,
      "opage": 6372,
      "Ġservir": 6373,
      "Ġforc": 6374,
      "Ġsubi": 6375,
      "ĠdÃ©lÃ©gataire": 6376,
      "Ġpluriannuelle": 6377,
      "ĠassermentÃ©s": 6378,
      "ĠdÃ©favor": 6379,
      "alisations": 6380,
      "levÃ©e": 6381,
      "Ġexamine": 6382,
      "Ġdirigeant": 6383,
      "Ġassujetti": 6384,
      "Ġhistoriques": 6385,
      "approvisionnement": 6386,
      "Ġcontrac": 6387,
      "identifier": 6388,
      "Ġaccomplis": 6389,
      "ĠdÃ©di": 6390,
      "ĠrÃ©alise": 6391,
      "Ġrecen": 6392,
      "ĠadaptÃ©s": 6393,
      "ĠrÃ©sidant": 6394,
      "ĠaliÃ©n": 6395,
      "ĠretirÃ©": 6396,
      "Ġdisponible": 6397,
      "occupant": 6398,
      "ĠdÃ©tenteurs": 6399,
      "ĠexpÃ©riment": 6400,
      "ĠpubliÃ©s": 6401,
      "ĠresponsabilitÃ©s": 6402,
      "ĠexigÃ©e": 6403,
      "ĠplacÃ©e": 6404,
      "Ġatteintes": 6405,
      "Ġscel": 6406,
      "ĠexÃ©cuter": 6407,
      "ĠdÃ©tiennent": 6408,
      "Ġarme": 6409,
      "ĠidentifiÃ©s": 6410,
      "tifications": 6411,
      "cevoir": 6412,
      "arrondissement": 6413,
      "Ġmachine": 6414,
      "ĠpÃ©nales": 6415,
      "ĠindiquÃ©": 6416,
      "Ġindiquer": 6417,
      "Ġabsolue": 6418,
      "Ġcouvert": 6419,
      "Ġmarge": 6420,
      "Ġsuperv": 6421,
      "ĠcrÃ©Ã©es": 6422,
      "Ġsalles": 6423,
      "Ġcorrespondante": 6424,
      "Ġfactures": 6425,
      "ĠenchÃ¨res": 6426,
      "icine": 6427,
      "Ġgrands": 6428,
      "Ġsouscrits": 6429,
      "ĠprÃ©sidÃ©e": 6430,
      "Ġcellules": 6431,
      "astr": 6432,
      "Ġsigner": 6433,
      "ĠseptiÃ¨me": 6434,
      "ĠcompatibilitÃ©": 6435,
      "ĠhÃ´pit": 6436,
      "Ġabrogeant": 6437,
      "Ġadul": 6438,
      "Ġix": 6439,
      "ologies": 6440,
      "Ġcourant": 6441,
      "Ġgratuitement": 6442,
      "Ġappartiennent": 6443,
      "Ġvotes": 6444,
      "Ġcul": 6445,
      "oig": 6446,
      "Ġcontribuables": 6447,
      "ĠclassÃ©": 6448,
      "Ġsupports": 6449,
      "atteinte": 6450,
      "Ġstrictement": 6451,
      "homologation": 6452,
      "jours": 6453,
      "chÃ©s": 6454,
      "Ġprescrire": 6455,
      "ĠordonnÃ©e": 6456,
      "Ġmobile": 6457,
      "extÃ©rieur": 6458,
      "Ã©termin": 6459,
      "Ġexter": 6460,
      "Ġphase": 6461,
      "appliquer": 6462,
      "arrivÃ©e": 6463,
      "ĠmÃ©tropolitain": 6464,
      "ĠdÃ©matÃ©rialisÃ©e": 6465,
      "enir": 6466,
      "Ġinterromp": 6467,
      "Ġsuffisante": 6468,
      "Ã©lÃ©ments": 6469,
      "ĠhÃ©ri": 6470,
      "ĠprÃ©parations": 6471,
      "Ġdistributeurs": 6472,
      "Ġhommes": 6473,
      "Ġrecensement": 6474,
      "Ġjeu": 6475,
      "Ġseize": 6476,
      "illage": 6477,
      "ĠcommunautÃ©s": 6478,
      "Ġcontact": 6479,
      "Ġouvrant": 6480,
      "ĠnotifiÃ©es": 6481,
      "Ġcarbone": 6482,
      "Ġcampagne": 6483,
      "tible": 6484,
      "Ġtechnologique": 6485,
      "Ġcapitaine": 6486,
      "ĠappropriÃ©e": 6487,
      "conn": 6488,
      "eub": 6489,
      "ĠrÃ©gi": 6490,
      "ĠretirÃ©e": 6491,
      "ĠintÃ©gralement": 6492,
      "Ġfaible": 6493,
      "Ġchantier": 6494,
      "Ġadminist": 6495,
      "onnements": 6496,
      "Ġcorrespondent": 6497,
      "ĠpÃ©nitentiaires": 6498,
      "Ġ750": 6499,
      "Ġhabituelle": 6500,
      "Ġoutil": 6501,
      "Ġvisites": 6502,
      "Ġmanqu": 6503,
      "Ġexclusive": 6504,
      "onces": 6505,
      "Ġjuridiques": 6506,
      "Ġdo": 6507,
      "lim": 6508,
      "Ġexistants": 6509,
      "Ġrenonc": 6510,
      "Ġ2007": 6511,
      "ĠschÃ©mas": 6512,
      "ĠuniversitÃ©s": 6513,
      "ĠconsÃ©quence": 6514,
      "Ġcompatible": 6515,
      "ĠbiomÃ©decine": 6516,
      "ĠaÃ©rodromes": 6517,
      "immobilisation": 6518,
      "ĠlÃ©gitime": 6519,
      "Ġdispar": 6520,
      "Ġrenv": 6521,
      "Ġcourrier": 6522,
      "suite": 6523,
      "ĠperÃ§u": 6524,
      "Ġcasier": 6525,
      "Ġpratiquer": 6526,
      "Ġdistincte": 6527,
      "ĠstratÃ©gique": 6528,
      "Ġ.": 6529,
      "ĠprÃ©pare": 6530,
      "Ġindivis": 6531,
      "ĠaccordÃ©s": 6532,
      "Ġstages": 6533,
      "Ġinstitution": 6534,
      "ĠperÃ§oit": 6535,
      "ĠrÃ©tablissement": 6536,
      "tionnel": 6537,
      "Ġjeune": 6538,
      "ĠadoptÃ©": 6539,
      "ĠmÃ©diation": 6540,
      "Ġinterprofessionnel": 6541,
      "Ġconcubin": 6542,
      "Ġensuite": 6543,
      "ĠdÃ©cou": 6544,
      "Ġsaisis": 6545,
      "Ġsuspendue": 6546,
      "Ġcopies": 6547,
      "Ġsollicite": 6548,
      "ĠextÃ©rieures": 6549,
      "amÃ©nag": 6550,
      "Ġpassible": 6551,
      "teste": 6552,
      "Ġseraient": 6553,
      "Ġaudience": 6554,
      "Ġemporte": 6555,
      "associations": 6556,
      "bilitÃ©s": 6557,
      "apparten": 6558,
      "intro": 6559,
      "airement": 6560,
      "Ġancien": 6561,
      "assistant": 6562,
      "Ã©chelon": 6563,
      "Ġsavoir": 6564,
      "Ġinval": 6565,
      "Ġserre": 6566,
      "Ã©terminÃ©e": 6567,
      "stÃ©": 6568,
      "Ã©lev": 6569,
      "Ġconcent": 6570,
      "ĠfinalitÃ©s": 6571,
      "Ġconfiance": 6572,
      "Ġ86": 6573,
      "Ġentendre": 6574,
      "ĠÃ©volu": 6575,
      "kinÃ©sithÃ©rapeu": 6576,
      "07": 6577,
      "matiques": 6578,
      "Ã©valu": 6579,
      "Ġquote": 6580,
      "adhÃ©r": 6581,
      "Ġmobiliers": 6582,
      "ĠÃ¢ge": 6583,
      "Ġgratu": 6584,
      "Ġsatisfont": 6585,
      "onau": 6586,
      "Ġtoujours": 6587,
      "Ġporteurs": 6588,
      "Ġincidences": 6589,
      "Ġmines": 6590,
      "Ġpersonnellement": 6591,
      "ĠprocÃ¨dent": 6592,
      "ĠdÃ©posÃ©s": 6593,
      "ect": 6594,
      "Ġ55": 6595,
      "ĠeuropÃ©ens": 6596,
      "ĠnÃ©cessite": 6597,
      "ĠprocÃ©dÃ©s": 6598,
      "ĠrÃ©capit": 6599,
      "Ġordonne": 6600,
      "ĠpassÃ©e": 6601,
      "ĠentraÃ®nant": 6602,
      "ĠcomplÃ©ter": 6603,
      "ĠÃ©dit": 6604,
      "Ġobtenues": 6605,
      "ĠrefusÃ©": 6606,
      "Ġnormal": 6607,
      "Ġincombent": 6608,
      "alogue": 6609,
      "ĠÃ©laborÃ©": 6610,
      "Ġauxiliaires": 6611,
      "abs": 6612,
      "intention": 6613,
      "utiliser": 6614,
      "Ġpollu": 6615,
      "ĠdÃ©libÃ©rante": 6616,
      "ĠindÃ©terminÃ©e": 6617,
      "ĠsupÃ©rieures": 6618,
      "quÃªtes": 6619,
      "ĠdemandÃ©es": 6620,
      "Ġtissus": 6621,
      "Ġdemeurent": 6622,
      "94": 6623,
      "irrecevabilitÃ©": 6624,
      "ographie": 6625,
      "Ġprescrits": 6626,
      "Ġtri": 6627,
      "Ġamendes": 6628,
      "instruments": 6629,
      "ĠdÃ©g": 6630,
      "Ġnette": 6631,
      "Ġquot": 6632,
      "ĠreprÃ©sentative": 6633,
      "ĠincapacitÃ©": 6634,
      "Ġcontenues": 6635,
      "Ġplaces": 6636,
      "ĠthÃ©rapeutiques": 6637,
      "anch": 6638,
      "Ġrevient": 6639,
      "Ã©cart": 6640,
      "Ġhoraires": 6641,
      "Ġtechnologiques": 6642,
      "ule": 6643,
      "aug": 6644,
      "Ġborde": 6645,
      "Ġ35": 6646,
      "ĠindÃ©": 6647,
      "ĠadressÃ©s": 6648,
      "Ġconclues": 6649,
      "Ġoccupants": 6650,
      "Ġauraient": 6651,
      "Ġsuffisant": 6652,
      "ĠplÃ©niÃ¨re": 6653,
      "Ġsage": 6654,
      "ĠÃ©lection": 6655,
      "Ġrentes": 6656,
      "ĠrÃ©sulter": 6657,
      "ĠradioÃ©lectr": 6658,
      "Ġperformances": 6659,
      "Ġsignificative": 6660,
      "Ġfrancs": 6661,
      "Ġcur": 6662,
      "quement": 6663,
      "Ġintel": 6664,
      "ĠcessÃ©": 6665,
      "lÃ¨vement": 6666,
      "Ġrechercher": 6667,
      "ĠdiffÃ©rend": 6668,
      "femme": 6669,
      "ĠÃ©chantillons": 6670,
      "aÃ©rodrome": 6671,
      "Ġcat": 6672,
      "Ġviv": 6673,
      "Ġvous": 6674,
      "ĠarchÃ©": 6675,
      "ĠcrÃ©Ã©s": 6676,
      "Ġplainte": 6677,
      "ĠrenouvelÃ©e": 6678,
      "Ġexplic": 6679,
      "Ġcliniques": 6680,
      "arqu": 6681,
      "Ġbour": 6682,
      "Ġdirects": 6683,
      "ĠÃ©labore": 6684,
      "innovation": 6685,
      "aculture": 6686,
      "ceptions": 6687,
      "Ġamortissement": 6688,
      "Ġcaus": 6689,
      "ĠexigÃ©": 6690,
      "affiliation": 6691,
      "ĠappropriÃ©s": 6692,
      "Ġhabituellement": 6693,
      "ĠultÃ©rieure": 6694,
      "mage": 6695,
      "ĠmÃ¨tre": 6696,
      "itent": 6697,
      "accusÃ©": 6698,
      "Ġclas": 6699,
      "Ġminimales": 6700,
      "ĠÃ©viter": 6701,
      "Ġorganique": 6702,
      "ĠcÃ©dÃ©s": 6703,
      "Ġmarquage": 6704,
      "ĠdÃ©chÃ©ance": 6705,
      "ĠrÃ©fug": 6706,
      "ĠfourriÃ¨re": 6707,
      "ĠindÃ©sir": 6708,
      "cf": 6709,
      "Ġloyers": 6710,
      "ĠprÃ©val": 6711,
      "igration": 6712,
      "ĠsupprimÃ©e": 6713,
      "Ġpoursuivie": 6714,
      "Ġcouple": 6715,
      "glomÃ©ration": 6716,
      "67": 6717,
      "ĠrÃ©elle": 6718,
      "ĠprotÃ©": 6719,
      "Ġpersonnelles": 6720,
      "Ġinstruction": 6721,
      "Ġrappel": 6722,
      "ĠplacÃ©es": 6723,
      "ĠdÃ©cidÃ©e": 6724,
      "Ġorgane": 6725,
      "Ġprioritaire": 6726,
      "Ġreprodu": 6727,
      "infirmier": 6728,
      "Ġvendre": 6729,
      "ĠcalculÃ©es": 6730,
      "Ġdiligence": 6731,
      "ĠdÃ©grad": 6732,
      "Ġcorporel": 6733,
      "ĠtÃ©lÃ©s": 6734,
      "apprÃ©cier": 6735,
      "ition": 6736,
      "Ġproduite": 6737,
      "Ġautorise": 6738,
      "Ġrapportant": 6739,
      "Ġtrouvent": 6740,
      "ĠpÃ©dagogiques": 6741,
      "Ġsubstantielle": 6742,
      "titudes": 6743,
      "oirs": 6744,
      "ĠdÃ©cidÃ©": 6745,
      "Ġpatrimoni": 6746,
      "ĠnumÃ©ros": 6747,
      "ĠvidÃ©o": 6748,
      "ainis": 6749,
      "Ġetre": 6750,
      "Ġdirectives": 6751,
      "Ġ41": 6752,
      "omptes": 6753,
      "Ġdomes": 6754,
      "informer": 6755,
      "Ġinstituant": 6756,
      "ĠenvisagÃ©": 6757,
      "Ġassujettis": 6758,
      "ani": 6759,
      "ĠrÃ©novation": 6760,
      "Ġcontenus": 6761,
      "Ġmaintenance": 6762,
      "Ġdangers": 6763,
      "ainissement": 6764,
      "Ġsomm": 6765,
      "Ġparvenir": 6766,
      "Ġretra": 6767,
      "Ġterre": 6768,
      "Ġsalle": 6769,
      "Ġopposable": 6770,
      "Ġpup": 6771,
      "Ġment": 6772,
      "exam": 6773,
      "Ġannuelles": 6774,
      "Ġbureaux": 6775,
      "Ġartistique": 6776,
      "ĠprÃ©sidÃ©": 6777,
      "aquaculture": 6778,
      "Ġtechnicien": 6779,
      "ry": 6780,
      "Ġdemi": 6781,
      "ĠgÃ©rÃ©s": 6782,
      "Ġassiste": 6783,
      "Ġcontestations": 6784,
      "Ġcouvrant": 6785,
      "ĠdÃ©faillance": 6786,
      "trice": 6787,
      "Ġbin": 6788,
      "Ġpublications": 6789,
      "Ġimputable": 6790,
      "ĠlevÃ©e": 6791,
      "eler": 6792,
      "Ġaient": 6793,
      "Ġretr": 6794,
      "Ġvot": 6795,
      "Ġgen": 6796,
      "Ġassistants": 6797,
      "Ġperd": 6798,
      "ĠrÃ©sultent": 6799,
      "Ġabsence": 6800,
      "Ġinitialement": 6801,
      "ĠdÃ©mont": 6802,
      "ĠmainlevÃ©e": 6803,
      "Ġimmobilisations": 6804,
      "ĠÃ©tablissent": 6805,
      "Ġordinaire": 6806,
      "Ġlucratif": 6807,
      "Ġparquet": 6808,
      "ĠdÃ©pass": 6809,
      "Ġcorrig": 6810,
      "ĠÃ©ventuel": 6811,
      "ĠconvoquÃ©": 6812,
      "ĠconsolidÃ©s": 6813,
      "ĠcopropriÃ©tÃ©": 6814,
      "ĠdurÃ©es": 6815,
      "Ġenvoi": 6816,
      "ĠpubliÃ©es": 6817,
      "Ġbudgets": 6818,
      "ĠsÃ©parÃ©ment": 6819,
      "ĠdifficultÃ©": 6820,
      "ĠamÃ©liorer": 6821,
      "ĠdÃ©ontologie": 6822,
      "Ã¨les": 6823,
      "tifici": 6824,
      "ĠentrÃ©e": 6825,
      "Ġlabel": 6826,
      "Ġimpliquant": 6827,
      "Ã©levage": 6828,
      "astre": 6829,
      "Ã©tÃ©": 6830,
      "ĠpostÃ©rieure": 6831,
      "ĠgÃ©rants": 6832,
      "Ãªte": 6833,
      "Ġservitude": 6834,
      "Ġouvre": 6835,
      "ĠprÃ©cisÃ©s": 6836,
      "Ġconcessions": 6837,
      "aurÃ©": 6838,
      "ĠvolontÃ©": 6839,
      "ĠprÃ©sidence": 6840,
      "ĠultÃ©rieurement": 6841,
      "tractant": 6842,
      "Ġtrimestres": 6843,
      "Ġ34": 6844,
      "Ġsouscrire": 6845,
      "ĠdÃ©pendant": 6846,
      "ĠapparaÃ®t": 6847,
      "Ġpasser": 6848,
      "Ġfournitures": 6849,
      "ĠapprÃ©ciÃ©e": 6850,
      "Ġenvers": 6851,
      "Ġadjudic": 6852,
      "Ġ46": 6853,
      "ĠdÃ©chargement": 6854,
      "assujet": 6855,
      "Ġtouris": 6856,
      "Ġmixtes": 6857,
      "Ġsexies": 6858,
      "ĠmÃ©tropolitaine": 6859,
      "Ġache": 6860,
      "Ġentrepr": 6861,
      "Ġpublie": 6862,
      "Ġscission": 6863,
      "Ġmeilleurs": 6864,
      "Ġisol": 6865,
      "Ġlaiss": 6866,
      "orth": 6867,
      "Ã©cl": 6868,
      "grav": 6869,
      "Ġinvestigations": 6870,
      "Ġveu": 6871,
      "Ġchange": 6872,
      "Ġcomplex": 6873,
      "ĠentraÃ®ner": 6874,
      "ĠcopropriÃ©taires": 6875,
      "assainissement": 6876,
      "aliser": 6877,
      "Ã©vÃ©n": 6878,
      "immigration": 6879,
      "engager": 6880,
      "ĠmÃ©d": 6881,
      "Ġdisc": 6882,
      "Ġannul": 6883,
      "Ġ84": 6884,
      "conseil": 6885,
      "Ġfiscaux": 6886,
      "ĠappliquÃ©": 6887,
      "Ġpartenariat": 6888,
      "armÃ©e": 6889,
      "Ġloisir": 6890,
      "Ġclinique": 6891,
      "Ġintrodu": 6892,
      "ĠreprÃ©sentent": 6893,
      "Ġpercevoir": 6894,
      "Ġobjectif": 6895,
      "Ġpilotage": 6896,
      "Ġuniversel": 6897,
      "cad": 6898,
      "ĠÃ©mettre": 6899,
      "Ġmobiles": 6900,
      "ĠappliquÃ©e": 6901,
      "ĠlÃ©gislative": 6902,
      "ĠprÃ©voyant": 6903,
      "ĠcÃ©der": 6904,
      "ĠentiÃ¨re": 6905,
      "Ġcommunal": 6906,
      "ĠpassÃ©s": 6907,
      "sociaux": 6908,
      "ĠtÃ©moins": 6909,
      "Ġastreinte": 6910,
      "aliÃ©nation": 6911,
      "100": 6912,
      "Ġdesdits": 6913,
      "Ġvoit": 6914,
      "ĠbudgÃ©taires": 6915,
      "Ġprincipaux": 6916,
      "ĠassurÃ©es": 6917,
      "ĠaccompagnÃ©es": 6918,
      "ĠexprimÃ©": 6919,
      "Ġmensu": 6920,
      "ĠÃ©valuations": 6921,
      "ĠextÃ©rieurs": 6922,
      "Ġchimiques": 6923,
      "Ġextraord": 6924,
      "Ġsocio": 6925,
      "Ġ1984": 6926,
      "Ġexistantes": 6927,
      "Ġpan": 6928,
      "Ã©rative": 6929,
      "Ġriv": 6930,
      "Ġmains": 6931,
      "Ġprescrite": 6932,
      "Ġattestations": 6933,
      "Ġdescrip": 6934,
      "Ġpression": 6935,
      "Ã©chelle": 6936,
      "Ġterrestres": 6937,
      "ĠsÃ©rie": 6938,
      "etablissement": 6939,
      "ĠchÃ´": 6940,
      "expression": 6941,
      "ĠprononÃ§ant": 6942,
      "ĠpayÃ©": 6943,
      "ĠpÃªches": 6944,
      "ĠrecrutÃ©s": 6945,
      "ĠfrÃ©quence": 6946,
      "Ġgrossesse": 6947,
      "ĠdÃ©rivÃ©s": 6948,
      "br": 6949,
      "ĠdÃ©mis": 6950,
      "tuelle": 6951,
      "inves": 6952,
      "deux": 6953,
      "retÃ©s": 6954,
      "signation": 6955,
      "Ġveiller": 6956,
      "Ġmachines": 6957,
      "Ġmeub": 6958,
      "Ġproduites": 6959,
      "valor": 6960,
      "Ġjustificatif": 6961,
      "ĠlibÃ©rale": 6962,
      "Ġressortissant": 6963,
      "Ġdangereuses": 6964,
      "igilance": 6965,
      "Ġmess": 6966,
      "Ġrempla": 6967,
      "ĠjournÃ©e": 6968,
      "Ġbranches": 6969,
      "Ġassurance": 6970,
      "acquÃ©rir": 6971,
      "ĠrÃ©vocation": 6972,
      "Ġfinancer": 6973,
      "Ġremor": 6974,
      "Ġcocontractant": 6975,
      "temp": 6976,
      "Ġface": 6977,
      "Ġvacc": 6978,
      "Ã©conom": 6979,
      "enseign": 6980,
      "Ġminutes": 6981,
      "ĠministÃ©riel": 6982,
      "Ġconclut": 6983,
      "Ġchangements": 6984,
      "ĠassimilÃ©es": 6985,
      "Ġfacturation": 6986,
      "Ġcessent": 6987,
      "Ġlocative": 6988,
      "Ġlivres": 6989,
      "Ġautrement": 6990,
      "Ġavantage": 6991,
      "Ġrestent": 6992,
      "ĠadoptÃ©es": 6993,
      "Ġaudiovisuelles": 6994,
      "Ġadultes": 6995,
      "rÃ©d": 6996,
      "Ġenj": 6997,
      "Ġve": 6998,
      "Ġcommenc": 6999,
      "Ġ83": 7000,
      "Ġcomptabil": 7001,
      "Ġvaloir": 7002,
      "Ġstatutaire": 7003,
      "Ġouvertes": 7004,
      "tur": 7005,
      "tract": 7006,
      "Ġrevalor": 7007,
      "exac": 7008,
      "lieu": 7009,
      "Ġ300": 7010,
      "Ġfonctionnelle": 7011,
      "ĠrÃ©forme": 7012,
      "Ġconduisant": 7013,
      "ĠsÃ»retÃ©s": 7014,
      "ĠexÃ©cutÃ©s": 7015,
      "social": 7016,
      "Ġpasseport": 7017,
      "ativement": 7018,
      "Ġcam": 7019,
      "ulgation": 7020,
      "Ġcela": 7021,
      "Ġmodific": 7022,
      "Ġprincipalement": 7023,
      "Ġcouvertes": 7024,
      "Ġaccessoire": 7025,
      "Ġmouvement": 7026,
      "Ġintellec": 7027,
      "Ã©diteur": 7028,
      "Ġconnu": 7029,
      "ĠnotifiÃ©s": 7030,
      "Ġconsignation": 7031,
      "Ġincidents": 7032,
      "adjud": 7033,
      "Ġpartiellement": 7034,
      "ĠaccusÃ©": 7035,
      "excÃ©dant": 7036,
      "Ġpopulations": 7037,
      "Ġsinistre": 7038,
      "Ġrech": 7039,
      "ĠÃ©cl": 7040,
      "Ġnuit": 7041,
      "Ġconsiste": 7042,
      "Ġgros": 7043,
      "Ġradioprotection": 7044,
      "Ġrayonnements": 7045,
      "adhÃ©rent": 7046,
      "Ġnat": 7047,
      "ĠsupÃ©rieurs": 7048,
      "ĠscolaritÃ©": 7049,
      "ĠprotÃ©gÃ©s": 7050,
      "ĠsiÃ©geant": 7051,
      "Ã©nieurs": 7052,
      "Ġchauffage": 7053,
      "Ġpli": 7054,
      "inv": 7055,
      "ĠcarrÃ©s": 7056,
      "ĠmajorÃ©e": 7057,
      "ĠtrÃ©sorer": 7058,
      "omalies": 7059,
      "Ġcombattant": 7060,
      "ĠhÃ©ritiers": 7061,
      "cv": 7062,
      "aissent": 7063,
      "ĠnÃ©cessitant": 7064,
      "maj": 7065,
      "Ġjugements": 7066,
      "ĠantÃ©rieur": 7067,
      "Ġtemporairement": 7068,
      "ĠmenÃ©es": 7069,
      "Ġvariation": 7070,
      "ĠtrÃ©sorerie": 7071,
      "53": 7072,
      "Ġquart": 7073,
      "ĠlimitÃ©": 7074,
      "ĠprÃ©cÃ©dentes": 7075,
      "ĠdixiÃ¨me": 7076,
      "ovigilance": 7077,
      "ĠhospitaliÃ¨re": 7078,
      "exigence": 7079,
      "ĠvÃ©gÃ©taux": 7080,
      "Ġprorogation": 7081,
      "Ġquant": 7082,
      "ologue": 7083,
      "Ġadressent": 7084,
      "ĠpossibilitÃ©s": 7085,
      "Ġdivor": 7086,
      "ĠapprouvÃ©s": 7087,
      "Ġaqu": 7088,
      "Ġnan": 7089,
      "Ġunitaire": 7090,
      "ĠaccrÃ©d": 7091,
      "ĠtransfÃ©rÃ©es": 7092,
      "Ġenvoy": 7093,
      "ĠbinÃ´": 7094,
      "Ġprocla": 7095,
      "Ġfondament": 7096,
      "Ġabattement": 7097,
      "ĠjustifiÃ©e": 7098,
      "parer": 7099,
      "ĠmobilitÃ©s": 7100,
      "Ġbordere": 7101,
      "Ġing": 7102,
      "dix": 7103,
      "Ġbib": 7104,
      "Ġouvriers": 7105,
      "Ġaccomplies": 7106,
      "Ġlitiges": 7107,
      "cvm": 7108,
      "ii": 7109,
      "aritÃ©s": 7110,
      "Ġnuis": 7111,
      "illement": 7112,
      "ĠÃ©taient": 7113,
      "Ġremplacer": 7114,
      "ĠdÃ©taillÃ©": 7115,
      "ĠextÃ©rieure": 7116,
      "ĠrÃ©gularitÃ©": 7117,
      "arquement": 7118,
      "trices": 7119,
      "Ġsignalisation": 7120,
      "ĠrespectÃ©es": 7121,
      "Ġatteindre": 7122,
      "ĠdispensÃ©es": 7123,
      "oxy": 7124,
      "Ġtransparence": 7125,
      "Ġsit": 7126,
      "aissement": 7127,
      "ĠprÃ©cÃ¨dent": 7128,
      "Ġfacteurs": 7129,
      "Ġinvoqu": 7130,
      "acu": 7131,
      "Ġgra": 7132,
      "ĠorganisÃ©s": 7133,
      "Ġ95": 7134,
      "Ġconservatoires": 7135,
      "atrices": 7136,
      "Ġouvrage": 7137,
      "Ġincidence": 7138,
      "alables": 7139,
      "ĠprÃ©alables": 7140,
      "exÃ©cu": 7141,
      "Ġfondation": 7142,
      "illeurs": 7143,
      "Ġcanalisations": 7144,
      "Ġagricul": 7145,
      "experts": 7146,
      "ĠconsultÃ©e": 7147,
      "Ġmenace": 7148,
      "Ġpourvu": 7149,
      "ĠfrÃ©quences": 7150,
      "ĠÃ©moluments": 7151,
      "Ġpassif": 7152,
      "uitiÃ¨me": 7153,
      "Ġtraitant": 7154,
      "ĠÃ©quipes": 7155,
      "ĠhÃ´pitaux": 7156,
      "ĠdÃ©conc": 7157,
      "ĠrÃ©gissant": 7158,
      "Ġorganiser": 7159,
      "ĠspÃ©cifications": 7160,
      "Ġnaturelles": 7161,
      "Ġstocks": 7162,
      "avantage": 7163,
      "ĠlibÃ©ral": 7164,
      "ĠgÃ©ographiques": 7165,
      "quetage": 7166,
      "47": 7167,
      "moins": 7168,
      "Ġvire": 7169,
      "ĠÃ©tendu": 7170,
      "ĠadÃ©qu": 7171,
      "Ġsignataires": 7172,
      "ĠpayÃ©es": 7173,
      "Ġdispenser": 7174,
      "Ġlongueur": 7175,
      "thÃ¨que": 7176,
      "Ġcommises": 7177,
      "Ġ47": 7178,
      "ĠÃ©gales": 7179,
      "allage": 7180,
      "Ġfemme": 7181,
      "Ġsuspensif": 7182,
      "Ġlour": 7183,
      "itement": 7184,
      "opor": 7185,
      "Ġdomani": 7186,
      "ĠrecouvrÃ©es": 7187,
      "Ġmobilier": 7188,
      "Ġsatisfaisant": 7189,
      "Ġcoupables": 7190,
      "Ġtransi": 7191,
      "Ġascendants": 7192,
      "ĠlycÃ©es": 7193,
      "ĠreprÃ©sentÃ©": 7194,
      "Ġcontrevenir": 7195,
      "Ġimposables": 7196,
      "Ġpourrait": 7197,
      "Ġdite": 7198,
      "ondi": 7199,
      "orb": 7200,
      "Ġbaign": 7201,
      "Ġhect": 7202,
      "recteur": 7203,
      "Ġ244": 7204,
      "Ġsupervision": 7205,
      "alaurÃ©": 7206,
      "euro": 7207,
      "Ġassistance": 7208,
      "accalaurÃ©": 7209,
      "ĠimmobiliÃ¨res": 7210,
      "Ġ1999": 7211,
      "2009": 7212,
      "Ġsitue": 7213,
      "olement": 7214,
      "inement": 7215,
      "Ġtierce": 7216,
      "Ġnomme": 7217,
      "exploiter": 7218,
      "Ġcapitalisation": 7219,
      "Ġoctr": 7220,
      "ĠexprimÃ©e": 7221,
      "Ġmaintenu": 7222,
      "ĠexonÃ©rÃ©s": 7223,
      "58": 7224,
      "aur": 7225,
      "env": 7226,
      "erie": 7227,
      "assignation": 7228,
      "Ġfrapp": 7229,
      "ĠdonnÃ©s": 7230,
      "Ġ1983": 7231,
      "Ġexemplaires": 7232,
      "Ġcompromettre": 7233,
      "40": 7234,
      "Ġaid": 7235,
      "Ġtonnes": 7236,
      "ĠpersonnalisÃ©": 7237,
      "ĠgÃ©nÃ©tiques": 7238,
      "otechn": 7239,
      "Ġdouane": 7240,
      "anmoins": 7241,
      "Ġmic": 7242,
      "assurances": 7243,
      "Ġaffectant": 7244,
      "ĠinstituÃ©es": 7245,
      "excÃ©dent": 7246,
      "ĠformulÃ©es": 7247,
      "Ġorales": 7248,
      "ĠtÃ©lÃ©phon": 7249,
      "ĠdÃ©concent": 7250,
      "opie": 7251,
      "Ġatten": 7252,
      "ĠpÃ©nalement": 7253,
      "ĠdÃ©libÃ©rative": 7254,
      "Ġbruit": 7255,
      "ĠaffÃ©rente": 7256,
      "ĠproposÃ©e": 7257,
      "Ġsuffisantes": 7258,
      "ĠÃ©vÃ©nement": 7259,
      "Ġsuccursale": 7260,
      "Ġbibli": 7261,
      "ĠrÃ©examen": 7262,
      "Ġnotifier": 7263,
      "Ġconservent": 7264,
      "Ġcauses": 7265,
      "ĠÃ©volution": 7266,
      "ĠprotÃ©ger": 7267,
      "Ġamortissements": 7268,
      "Ġenjeux": 7269,
      "Ã¨lement": 7270,
      "Ġacquisition": 7271,
      "armement": 7272,
      "enlÃ¨vement": 7273,
      "alco": 7274,
      "Ġvole": 7275,
      "liers": 7276,
      "Ġautorisant": 7277,
      "Ġexigibles": 7278,
      "Ġdistinct": 7279,
      "Ġregroupement": 7280,
      "Ġtransition": 7281,
      "cevant": 7282,
      "Ġchaleur": 7283,
      "Ġrapp": 7284,
      "ĠrecouvrÃ©e": 7285,
      "Ġ238": 7286,
      "Ġculturelles": 7287,
      "Ã©tend": 7288,
      "Ġassistent": 7289,
      "ĠparticuliÃ¨rement": 7290,
      "Ġsecondaires": 7291,
      "enfants": 7292,
      "Ġconsolidation": 7293,
      "ĠaugmentÃ©": 7294,
      "ĠÃ©manant": 7295,
      "Ġreversement": 7296,
      "ĠconfiÃ©s": 7297,
      "ĠsystÃ©": 7298,
      "ĠtÃ©lÃ©v": 7299,
      "1246": 7300,
      "uffisance": 7301,
      "Ġcouvre": 7302,
      "Ġsensi": 7303,
      "accalaurÃ©at": 7304,
      "Ġliens": 7305,
      "Ġgarantit": 7306,
      "Ġprescrip": 7307,
      "Ġ138": 7308,
      "Ġaccompagnement": 7309,
      "ĠmotivÃ©es": 7310,
      "ĠtÃ©lÃ©ph": 7311,
      "Ġanonyme": 7312,
      "ĠpartagÃ©": 7313,
      "ĠrÃ©cupÃ©ration": 7314,
      "Ġprogres": 7315,
      "37": 7316,
      "ĠdÃ©fici": 7317,
      "assises": 7318,
      "ĠarrÃªtÃ©es": 7319,
      "offres": 7320,
      "tionnelles": 7321,
      "ĠrecommandÃ©": 7322,
      "Ġrecueillis": 7323,
      "Ġfournissent": 7324,
      "ĠdÃ©nonciation": 7325,
      "Ġsurvenus": 7326,
      "ĠhiÃ©rarchique": 7327,
      "Ġile": 7328,
      "ĠconfÃ©d": 7329,
      "ĠconservÃ©": 7330,
      "ĠtraÃ§": 7331,
      "Ġrestreinte": 7332,
      "Ġextraordinaire": 7333,
      "Ġveill": 7334,
      "entr": 7335,
      "ĠprÃ©parer": 7336,
      "Ġconstruc": 7337,
      "ĠconfÃ©rant": 7338,
      "joindre": 7339,
      "Ġsignalement": 7340,
      "ĠcalculÃ©s": 7341,
      "Ġcertifications": 7342,
      "ĠrÃ©putÃ©es": 7343,
      "ĠÃ©ligible": 7344,
      "ĠdÃ©cr": 7345,
      "Ġavenant": 7346,
      "Ġattrib": 7347,
      "Ġmandant": 7348,
      "ĠcaractÃ¨res": 7349,
      "Ġanimal": 7350,
      "ĠappelÃ©e": 7351,
      "Ġsecondaire": 7352,
      "ĠsupportÃ©s": 7353,
      "ĠaffÃ©rent": 7354,
      "Ġhabitant": 7355,
      "Ġsurvenu": 7356,
      "ĠdÃ©tru": 7357,
      "Ġtaille": 7358,
      "onnÃ©": 7359,
      "Ġvise": 7360,
      "Ġchron": 7361,
      "Ġ76": 7362,
      "Ġhumain": 7363,
      "ĠcertifiÃ©e": 7364,
      "othÃ¨": 7365,
      "41": 7366,
      "Ġagence": 7367,
      "ĠdÃ©signent": 7368,
      "Ġdonation": 7369,
      "Ġarchitec": 7370,
      "hib": 7371,
      "insuffisance": 7372,
      "Ġsubs": 7373,
      "Ġconstitutifs": 7374,
      "Ġfabricants": 7375,
      "Ã©tudiant": 7376,
      "ĠprÃ©valoir": 7377,
      "old": 7378,
      "Ġinterdire": 7379,
      "Ġverse": 7380,
      "Ġ107": 7381,
      "ĠdiminuÃ©": 7382,
      "ĠirrÃ©guli": 7383,
      "Ã©ligibilitÃ©": 7384,
      "Ġconcentration": 7385,
      "Ġailleurs": 7386,
      "accidents": 7387,
      "ĠgrÃ©": 7388,
      "Ġsuites": 7389,
      "Ġnonobstant": 7390,
      "ĠcarriÃ¨re": 7391,
      "ĠÃ©chelon": 7392,
      "ĠdispensÃ©": 7393,
      "Ġmilieux": 7394,
      "introduction": 7395,
      "augmentation": 7396,
      "Ġclassification": 7397,
      "Ġnantissement": 7398,
      "ĠtraÃ§abilitÃ©": 7399,
      "are": 7400,
      "ncf": 7401,
      "Ġom": 7402,
      "ĠdÃ©gag": 7403,
      "existe": 7404,
      "Ġraccord": 7405,
      "Ġmentionner": 7406,
      "ĠmodÃ¨les": 7407,
      "ĠrÃ©servÃ©s": 7408,
      "Ġpromoteur": 7409,
      "Ġemprisonnement": 7410,
      "Ġfluvial": 7411,
      "Ġdresse": 7412,
      "Ġbat": 7413,
      "apporter": 7414,
      "Ġill": 7415,
      "Ġcontribuent": 7416,
      "Ġfactu": 7417,
      "Ġfacult": 7418,
      "Ġfamiliaux": 7419,
      "Ġtacite": 7420,
      "Ġdiscrimin": 7421,
      "ĠdotÃ©": 7422,
      "Ġlis": 7423,
      "Ã©rique": 7424,
      "Ġagir": 7425,
      "ĠinstallÃ©s": 7426,
      "ĠperÃ§oivent": 7427,
      "Ġidentification": 7428,
      "ĠallouÃ©es": 7429,
      "ĠinterministÃ©riel": 7430,
      "ĠprotÃ©gÃ©": 7431,
      "Ġsorti": 7432,
      "Ġmas": 7433,
      "accession": 7434,
      "sionnÃ©s": 7435,
      "Ġatteste": 7436,
      "Ġeffectuent": 7437,
      "Ġplanification": 7438,
      "ĠreÃ§ue": 7439,
      "Ġrendent": 7440,
      "Ġencourue": 7441,
      "Ġcumula": 7442,
      "Ġincluant": 7443,
      "Ġissue": 7444,
      "ĠrÃ©elles": 7445,
      "Ġmotor": 7446,
      "ulsion": 7447,
      "ĠprÃ©cÃ¨de": 7448,
      "Ġ56": 7449,
      "Ġattribution": 7450,
      "Ġhumaines": 7451,
      "alcool": 7452,
      "Ġledit": 7453,
      "Ġrespectant": 7454,
      "Ġversion": 7455,
      "Ġmanifeste": 7456,
      "Ġanonymes": 7457,
      "Ġpal": 7458,
      "ĠparaÃ®t": 7459,
      "dule": 7460,
      "Ġhau": 7461,
      "Ġhold": 7462,
      "Ġteneur": 7463,
      "ĠrÃ©sidences": 7464,
      "Ġinstrument": 7465,
      "ĠsollicitÃ©": 7466,
      "Ġsignificatives": 7467,
      "unitÃ©s": 7468,
      "ivent": 7469,
      "avances": 7470,
      "Ġimpossible": 7471,
      "Ġrecevable": 7472,
      "Ġrevers": 7473,
      "ajou": 7474,
      "Ġespace": 7475,
      "ĠdÃ©pou": 7476,
      "Ġ160": 7477,
      "Ġnormalement": 7478,
      "ĠrÃ©ductions": 7479,
      "ĠprÃ©visible": 7480,
      "Ġtechniciens": 7481,
      "lations": 7482,
      "Ġaven": 7483,
      "Ġimprim": 7484,
      "ww": 7485,
      "Ã©th": 7486,
      "organiser": 7487,
      "exercent": 7488,
      "ĠrÃ©gulier": 7489,
      "ĠoccupÃ©": 7490,
      "Ġpuissent": 7491,
      "animal": 7492,
      "ĠprÃ©visionnelle": 7493,
      "ĠremboursÃ©s": 7494,
      "Ġproportionnellement": 7495,
      "Ġholding": 7496,
      "Ġproch": 7497,
      "Ġartifici": 7498,
      "Ġavanc": 7499,
      "Ã¨ses": 7500,
      "Ġindustries": 7501,
      "ĠapprÃ©ciÃ©": 7502,
      "Ġviolences": 7503,
      "Ġcant": 7504,
      "Ġstu": 7505,
      "Ã©res": 7506,
      "ogement": 7507,
      "ĠopÃ©rÃ©e": 7508,
      "Ġauth": 7509,
      "ĠdÃ©taillÃ©e": 7510,
      "ĠconÃ§us": 7511,
      "Ġtentative": 7512,
      "Ġexclus": 7513,
      "ĠprivilÃ¨ge": 7514,
      "Ġcabin": 7515,
      "ĠchÃ´mage": 7516,
      "ĠtÃ©lÃ©vision": 7517,
      "ieux": 7518,
      "Ġpen": 7519,
      "organisateur": 7520,
      "Ġfron": 7521,
      "Ġmarques": 7522,
      "Ġnonies": 7523,
      "Ġdistingu": 7524,
      "apprÃ©cie": 7525,
      "armon": 7526,
      "Ġchasseurs": 7527,
      "Ġinclut": 7528,
      "Ġdiminution": 7529,
      "ĠcausÃ©s": 7530,
      "iment": 7531,
      "ly": 7532,
      "mÃ©s": 7533,
      "Ġsages": 7534,
      "Ġbande": 7535,
      "Ġformer": 7536,
      "Ġfondations": 7537,
      "Ġmino": 7538,
      "Ġmajoritaire": 7539,
      "indÃ©pendance": 7540,
      "comp": 7541,
      "Ġamb": 7542,
      "Ġfou": 7543,
      "Ġplantes": 7544,
      "Ġconventionnelle": 7545,
      "Ã©chantil": 7546,
      "ĠappliquÃ©es": 7547,
      "ĠassimilÃ©": 7548,
      "Ġsouscrite": 7549,
      "Ġinvestis": 7550,
      "femmes": 7551,
      "ĠpÃ©cuniaire": 7552,
      "90": 7553,
      "Ġsncf": 7554,
      "analy": 7555,
      "Ġundecies": 7556,
      "auv": 7557,
      "entiques": 7558,
      "Ã»ment": 7559,
      "Ġcontref": 7560,
      "Ġconduites": 7561,
      "ĠrequÃ©rir": 7562,
      "Ġlivraisons": 7563,
      "Ġconcourent": 7564,
      "Ġsciences": 7565,
      "astreinte": 7566,
      "96": 7567,
      "cture": 7568,
      "ĠpÃ©tition": 7569,
      "lever": 7570,
      "Ġvivant": 7571,
      "Ġobtenue": 7572,
      "ĠaccompagnÃ©s": 7573,
      "Ġmagas": 7574,
      "Ġplateformes": 7575,
      "emprunt": 7576,
      "ĠÃ©value": 7577,
      "usufr": 7578,
      "osph": 7579,
      "Ġinterviennent": 7580,
      "Ġmodern": 7581,
      "Ġ121": 7582,
      "Ġidentique": 7583,
      "Ġ1990": 7584,
      "ĠoccupÃ©s": 7585,
      "ĠmÃ©canisme": 7586,
      "Ġengage": 7587,
      "Ġeffic": 7588,
      "celle": 7589,
      "Ġlecture": 7590,
      "Ã©gi": 7591,
      "Ġinsertion": 7592,
      "ĠcollÃ©gi": 7593,
      "Ġintercommunal": 7594,
      "ĠdispensÃ©e": 7595,
      "Ġembarqu": 7596,
      "cadre": 7597,
      "Ġpassibles": 7598,
      "ĠdÃ©pist": 7599,
      "ĠamÃ©nagement": 7600,
      "Ġoccupant": 7601,
      "Ġradioactifs": 7602,
      "ĠexonÃ©ration": 7603,
      "Ġstipulation": 7604,
      "Ġincorpo": 7605,
      "ĠthÃ©orique": 7606,
      "ĠbibliothÃ¨": 7607,
      "ĠbaccalaurÃ©at": 7608,
      "Ġrecette": 7609,
      "Ġillic": 7610,
      "ĠÃ©car": 7611,
      "Ġrecherch": 7612,
      "Ġindemnisation": 7613,
      "ĠdurabilitÃ©": 7614,
      "Ġurbain": 7615,
      "Ġdescendants": 7616,
      "aÃ©ronef": 7617,
      "Ã©met": 7618,
      "ates": 7619,
      "ĠgÃ¨re": 7620,
      "Ã©crit": 7621,
      "Ġcommunaux": 7622,
      "Ġbiog": 7623,
      "ĠrÃ©clusion": 7624,
      "ĠprÃ©visibles": 7625,
      "ĠcontestÃ©e": 7626,
      "ĠÃ©dictÃ©es": 7627,
      "Ġsis": 7628,
      "Ġplas": 7629,
      "ĠcontrÃ´leurs": 7630,
      "ĠdiffÃ©rÃ©": 7631,
      "ĠindÃ»ment": 7632,
      "Ġissu": 7633,
      "Ġrestrictions": 7634,
      "Ġion": 7635,
      "Ġchasser": 7636,
      "Ġtrac": 7637,
      "ĠÃ©cologique": 7638,
      "Ġsaisonn": 7639,
      "itesse": 7640,
      "Ġconstatations": 7641,
      "Ġattribuer": 7642,
      "ĠordonnÃ©": 7643,
      "Ġruraux": 7644,
      "Ġcontrainte": 7645,
      "ĠconfÃ©dÃ©ration": 7646,
      "Ġvitesse": 7647,
      "ĠrÃ©fÃ©rent": 7648,
      "Ġsolution": 7649,
      "Ġbrute": 7650,
      "Ġretenir": 7651,
      "ĠaÃ©riens": 7652,
      "Ġincombant": 7653,
      "Ġspectacle": 7654,
      "ĠchÃ¨ques": 7655,
      "Ġloisirs": 7656,
      "ĠpÃ¨re": 7657,
      "ĠrÃ©Ã©ducation": 7658,
      "Ġrenc": 7659,
      "ĠrÃ©fÃ©rÃ©": 7660,
      "ĠantÃ©rieures": 7661,
      "effacement": 7662,
      "Ġcontractuel": 7663,
      "ĠaÃ©ronau": 7664,
      "ĠirrÃ©": 7665,
      "conformitÃ©": 7666,
      "Ġextraits": 7667,
      "Ġkilom": 7668,
      "78": 7669,
      "Ġdesdites": 7670,
      "traction": 7671,
      "chac": 7672,
      "ĠcomprÃ©": 7673,
      "Ã©dents": 7674,
      "Ġgraph": 7675,
      "posÃ©": 7676,
      "ĠavisÃ©": 7677,
      "ĠbÃ¢tis": 7678,
      "ĠprÃ©server": 7679,
      "lise": 7680,
      "ĠdÃ©moli": 7681,
      "Ġjoindre": 7682,
      "ĠdÃ©marches": 7683,
      "ogrammes": 7684,
      "ĠprÃ©lim": 7685,
      "Ġincident": 7686,
      "ocon": 7687,
      "ensitÃ©": 7688,
      "Ġ63": 7689,
      "Ġmanip": 7690,
      "ĠrenouvelÃ©": 7691,
      "ĠjournaliÃ¨res": 7692,
      "Ġvacances": 7693,
      "major": 7694,
      "Ġrecl": 7695,
      "Ġaband": 7696,
      "Ġpaysages": 7697,
      "ĠenquÃªteur": 7698,
      "Ġbiogaz": 7699,
      "Ġtox": 7700,
      "Ġanci": 7701,
      "Ġmarines": 7702,
      "ĠpÃ©rimÃ¨tres": 7703,
      "Ġdistincts": 7704,
      "ĠindÃ©pendante": 7705,
      "Ġpourraient": 7706,
      "dis": 7707,
      "orts": 7708,
      "ĠprÃ©sentes": 7709,
      "ĠinsÃ©rÃ©s": 7710,
      "alistes": 7711,
      "ĠqualifiÃ©s": 7712,
      "ĠmatÃ©rielle": 7713,
      "Ġgreffiers": 7714,
      "Ġ302": 7715,
      "Ġnominative": 7716,
      "ĠacquittÃ©": 7717,
      "ĠdÃ©cÃ©dÃ©": 7718,
      "ĠdÃ©pouillement": 7719,
      "ĠdÃ©pistage": 7720,
      "Ġcarn": 7721,
      "Ġremplie": 7722,
      "ĠÃ©quipe": 7723,
      "Ã©lecteur": 7724,
      "ĠindÃ©pendamment": 7725,
      "lier": 7726,
      "Ġinfec": 7727,
      "ĠparticipÃ©": 7728,
      "ĠexpÃ©di": 7729,
      "Ġcirconst": 7730,
      "Ġparagraphes": 7731,
      "Ġcontractuelles": 7732,
      "ĠidentifiÃ©": 7733,
      "Ġvolumes": 7734,
      "Ġdiligences": 7735,
      "ĠdÃ©marche": 7736,
      "Ġoctroy": 7737,
      "ertis": 7738,
      "ĠcompÃ©ti": 7739,
      "Ġadoption": 7740,
      "ĠÃ©lit": 7741,
      "Ġsaisies": 7742,
      "Ġjuridictionnelle": 7743,
      "ĠextÃ©rieur": 7744,
      "homme": 7745,
      "Ġaugmentation": 7746,
      "ĠnumÃ©raire": 7747,
      "Ã¨ve": 7748,
      "expl": 7749,
      "Ġbille": 7750,
      "ĠopÃ©rÃ©": 7751,
      "ĠsÃ©qu": 7752,
      "ĠdÃ©finitives": 7753,
      "Ġmoyennes": 7754,
      "Ġsauv": 7755,
      "ĠministÃ©ri": 7756,
      "Ġsyndical": 7757,
      "Ġscolar": 7758,
      "Ġgouvern": 7759,
      "ĠenregistrÃ©s": 7760,
      "Ġstipul": 7761,
      "opharma": 7762,
      "Ġsimilaires": 7763,
      "ĠdÃ©ficit": 7764,
      "ĠrÃ©fugiÃ©s": 7765,
      "Ġprocuration": 7766,
      "ĠrÃ©pression": 7767,
      "Ġconnex": 7768,
      "constitu": 7769,
      "estime": 7770,
      "ĠdÃ©velopper": 7771,
      "Ġnormales": 7772,
      "Ġ1985": 7773,
      "ĠapprouvÃ©e": 7774,
      "Ã©tiquetage": 7775,
      "Ġfraudule": 7776,
      "Ġdevra": 7777,
      "ĠclientÃ¨le": 7778,
      "Ġhydrau": 7779,
      "oxyde": 7780,
      "98": 7781,
      "vingt": 7782,
      "Ġinterdits": 7783,
      "Ġabord": 7784,
      "ĠhÃ©berg": 7785,
      "ĠrÃ©capitula": 7786,
      "ĠremplaÃ§ant": 7787,
      "55": 7788,
      "urÃ©": 7789,
      "Ġlet": 7790,
      "Ġramen": 7791,
      "Ġconvoque": 7792,
      "Ġnotifications": 7793,
      "Ġtension": 7794,
      "ĠexcÃ©dant": 7795,
      "Ġdiriger": 7796,
      "Ġincompatible": 7797,
      "Ġoutils": 7798,
      "Ġdesser": 7799,
      "ĠexercÃ©s": 7800,
      "officine": 7801,
      "Ġ1649": 7802,
      "Ġchirurgien": 7803,
      "ĠpÃ©titionnaire": 7804,
      "Ġionis": 7805,
      "oin": 7806,
      "Ġfeux": 7807,
      "Ġrecevant": 7808,
      "Ġpourront": 7809,
      "ĠdÃ©compte": 7810,
      "ĠhuitiÃ¨me": 7811,
      "Ġservies": 7812,
      "Ġplais": 7813,
      "Ġincompl": 7814,
      "Ġpermanents": 7815,
      "Ġcombin": 7816,
      "Ġaccueillie": 7817,
      "Ġindispensables": 7818,
      "Ġinvalides": 7819,
      "Ġmodernisation": 7820,
      "iants": 7821,
      "Ġfau": 7822,
      "ĠvÃ©n": 7823,
      "Ġtranche": 7824,
      "ĠtirÃ©": 7825,
      "ĠadhÃ©sion": 7826,
      "Ġcartes": 7827,
      "ĠÃ©lecteur": 7828,
      "Ġretraites": 7829,
      "Ġcomposants": 7830,
      "ĠrÃ©side": 7831,
      "Ġsubstitue": 7832,
      "ĠenregistrÃ©e": 7833,
      "Ġcollaborateurs": 7834,
      "inage": 7835,
      "Ġindu": 7836,
      "agr": 7837,
      "ĠdÃ©fun": 7838,
      "Ġcontreven": 7839,
      "ĠÃ©chang": 7840,
      "ĠcomplÃ©tÃ©e": 7841,
      "Ã©metteur": 7842,
      "Ġionisants": 7843,
      "ĠarrÃªt": 7844,
      "ĠdÃ©lÃ©gations": 7845,
      "ĠrÃ©partie": 7846,
      "ĠopÃ©rationnel": 7847,
      "Ġrubrique": 7848,
      "ĠtÃ©lÃ©phone": 7849,
      "Ġbillets": 7850,
      "opharmaceuti": 7851,
      "ĠpÃ©di": 7852,
      "ĠmÃ©nag": 7853,
      "Ġfort": 7854,
      "Ã©ritÃ©": 7855,
      "Ġva": 7856,
      "Ġvul": 7857,
      "Ġinterentreprises": 7858,
      "Ġ48": 7859,
      "ĠrattachÃ©es": 7860,
      "Ġconvenu": 7861,
      "ĠscellÃ©s": 7862,
      "Ġ66": 7863,
      "expÃ©ri": 7864,
      "ĠannexÃ©s": 7865,
      "exigibilitÃ©": 7866,
      "Ġcouverte": 7867,
      "atÃ©ral": 7868,
      "Ġprescripteur": 7869,
      "ĠdÃ©pose": 7870,
      "agglomÃ©ration": 7871,
      "andes": 7872,
      "Ġconflit": 7873,
      "Ġdemandent": 7874,
      "Ġencad": 7875,
      "ĠdÃ©roule": 7876,
      "ĠgÃ©nÃ©tiquement": 7877,
      "Ġplaisance": 7878,
      "Ġdopage": 7879,
      "ĠdÃ©couver": 7880,
      "ĠrespectÃ©": 7881,
      "Ġ1996": 7882,
      "Ġmobilisation": 7883,
      "ĠradioÃ©lectriques": 7884,
      "ĠdÃ©funt": 7885,
      "92": 7886,
      "pÃ©f": 7887,
      "ares": 7888,
      "Ġflu": 7889,
      "Ġnu": 7890,
      "ĠrequÃªtes": 7891,
      "ancien": 7892,
      "toutes": 7893,
      "Ġeffectuant": 7894,
      "ographique": 7895,
      "ĠfiliÃ¨re": 7896,
      "Ġauthentique": 7897,
      "Ġapatr": 7898,
      "Ġimages": 7899,
      "ĠprÃ©citÃ©s": 7900,
      "Ġannonces": 7901,
      "Ġaffections": 7902,
      "Ġ225": 7903,
      "ĠsupprimÃ©es": 7904,
      "Ġappels": 7905,
      "Ġtrimestri": 7906,
      "rÃ©ation": 7907,
      "uls": 7908,
      "Ġinflu": 7909,
      "traitant": 7910,
      "emprise": 7911,
      "ĠrÃ©cus": 7912,
      "Ġidentiques": 7913,
      "Ġconsulte": 7914,
      "Ġapprouve": 7915,
      "ĠfabriquÃ©s": 7916,
      "alerte": 7917,
      "Ġdescriptif": 7918,
      "Ġlettres": 7919,
      "non": 7920,
      "Ġend": 7921,
      "seille": 7922,
      "Ġtransfront": 7923,
      "Ġatteints": 7924,
      "2008": 7925,
      "ĠdÃ©limitation": 7926,
      "ĠanticipÃ©e": 7927,
      "Ġchirurgiens": 7928,
      "ausse": 7929,
      "Ġenveloppes": 7930,
      "investi": 7931,
      "Ġvolet": 7932,
      "Ġtransfrontal": 7933,
      "Ġpav": 7934,
      "Ġnettes": 7935,
      "Ã´ne": 7936,
      "ĠassociÃ©e": 7937,
      "illon": 7938,
      "Ġroutiers": 7939,
      "ĠfonciÃ¨res": 7940,
      "ennemi": 7941,
      "Ġferroviaires": 7942,
      "Ġdesserv": 7943,
      "Ġconsentis": 7944,
      "tous": 7945,
      "Ġconducteurs": 7946,
      "Ġfaune": 7947,
      "Ġacceptation": 7948,
      "Ġlittoral": 7949,
      "ĠprÃ©levÃ©s": 7950,
      "Ġgib": 7951,
      "Ġcollections": 7952,
      "Ġmoyennant": 7953,
      "espÃ¨ce": 7954,
      "estimation": 7955,
      "Ġintervenu": 7956,
      "Ġconsulaires": 7957,
      "ĠpossÃ¨de": 7958,
      "ĠÃ©noncÃ©s": 7959,
      "Ġterrestre": 7960,
      "Ġreconduction": 7961,
      "ĠmÃ©daille": 7962,
      "Ġintellectuelle": 7963,
      "Ġurgence": 7964,
      "ĠtÃªte": 7965,
      "Ġdirections": 7966,
      "ĠminÃ©r": 7967,
      "Ġemplacements": 7968,
      "Ã©quival": 7969,
      "Ġengager": 7970,
      "Ġhumains": 7971,
      "Ġchiffres": 7972,
      "Ġfraudes": 7973,
      "Ġsorte": 7974,
      "ĠdÃ©duc": 7975,
      "abattement": 7976,
      "Ġaverti": 7977,
      "Ġinformatiques": 7978,
      "Ġ96": 7979,
      "ĠantÃ©rieurs": 7980,
      "Ġappareil": 7981,
      "Ġpetites": 7982,
      "Ġblessures": 7983,
      "Ã©valuer": 7984,
      "ĠingÃ©nieurs": 7985,
      "lles": 7986,
      "tim": 7987,
      "Ã©raire": 7988,
      "Ġdissim": 7989,
      "Ġprofesseurs": 7990,
      "posÃ©s": 7991,
      "Ġaffaire": 7992,
      "ĠÃ©change": 7993,
      "ĠapportÃ©e": 7994,
      "Ġflux": 7995,
      "armac": 7996,
      "Ġdimensions": 7997,
      "ĠrÃ©version": 7998,
      "Ġ712": 7999,
      "ĠdemandÃ©s": 8000,
      "Ġtableaux": 8001,
      "ĠdÃ©finissent": 8002,
      "Ġsepties": 8003,
      "erreur": 8004,
      "Ġadopte": 8005,
      "Ġsuffisamment": 8006,
      "Ġsouscrites": 8007,
      "ĠenregistrÃ©": 8008,
      "Ġquitter": 8009,
      "Ġorigin": 8010,
      "ĠmÃ©nage": 8011,
      "oignement": 8012,
      "Ġtre": 8013,
      "Ġlarg": 8014,
      "Ġparall": 8015,
      "Ġprohib": 8016,
      "Ġressource": 8017,
      "ĠdÃ©biteurs": 8018,
      "Ġcondamnations": 8019,
      "Ġinvite": 8020,
      "observatoire": 8021,
      "ĠremÃ©di": 8022,
      "ĠoccasionnÃ©s": 8023,
      "connexion": 8024,
      "adjudication": 8025,
      "mosph": 8026,
      "crivent": 8027,
      "ĠdÃ©charge": 8028,
      "Ġjournaux": 8029,
      "Ġaudition": 8030,
      "Ġchoisies": 8031,
      "Ġdivision": 8032,
      "Ġappliquant": 8033,
      "Ġcautionnement": 8034,
      "Ġreconstitu": 8035,
      "Ġvuln": 8036,
      "48": 8037,
      "extrait": 8038,
      "Ġgam": 8039,
      "Ġlocatif": 8040,
      "Ġsuspend": 8041,
      "ĠforestiÃ¨res": 8042,
      "ĠexposÃ©es": 8043,
      "ĠprivilÃ©g": 8044,
      "Ã©vÃ©nement": 8045,
      "ĠstupÃ©f": 8046,
      "Ġconnexes": 8047,
      "Ġlac": 8048,
      "Ġpros": 8049,
      "Ġrecyc": 8050,
      "ĠsignÃ©s": 8051,
      "Ġfournie": 8052,
      "Ġmutuel": 8053,
      "Ġimportante": 8054,
      "Ġprioritaires": 8055,
      "Ġconsentir": 8056,
      "ĠrÃ©visÃ©": 8057,
      "Ġvins": 8058,
      "Ġexcessi": 8059,
      "Ã´les": 8060,
      "ĠouvrÃ©s": 8061,
      "Ġouvrir": 8062,
      "engagements": 8063,
      "ĠdotÃ©s": 8064,
      "ĠsÃ©paration": 8065,
      "Ġabsorb": 8066,
      "Ġsuccursales": 8067,
      "dentiste": 8068,
      "dentistes": 8069,
      "Ġsanguine": 8070,
      "Ġarbit": 8071,
      "ĠdÃ©molition": 8072,
      "table": 8073,
      "ĠpÃ©riodiques": 8074,
      "Ġindice": 8075,
      "Ġquantit": 8076,
      "Ġencourues": 8077,
      "ophes": 8078,
      "Ġconsenties": 8079,
      "Ġrenforc": 8080,
      "Ġfinancements": 8081,
      "42": 8082,
      "mination": 8083,
      "riÃ¨res": 8084,
      "ocarb": 8085,
      "ĠtransfÃ©rÃ©": 8086,
      "Ġindustrielles": 8087,
      "euvres": 8088,
      "Ġreprendre": 8089,
      "Ġaccueillies": 8090,
      "Ġlogiciels": 8091,
      "Ġachev": 8092,
      "urants": 8093,
      "Ġaptitudes": 8094,
      "ĠdÃ©rogÃ©": 8095,
      "Ġrequiert": 8096,
      "Ġparcs": 8097,
      "ĠvulnÃ©r": 8098,
      "sal": 8099,
      "eneurs": 8100,
      "ĠprocrÃ©ation": 8101,
      "Ġprofil": 8102,
      "Ġimmatriculation": 8103,
      "Ġforte": 8104,
      "Ġutilisatrice": 8105,
      "Ġ108": 8106,
      "Ġremboursements": 8107,
      "ĠhandicapÃ©": 8108,
      "ĠrÃ©parations": 8109,
      "ĠapprÃ©cie": 8110,
      "Ġartistiques": 8111,
      "Ġcoupable": 8112,
      "Ġarrondi": 8113,
      "ubritÃ©": 8114,
      "43": 8115,
      "iciers": 8116,
      "Ġ73": 8117,
      "ponses": 8118,
      "Ġoffer": 8119,
      "Ġsauvet": 8120,
      "ĠexÃ©cutÃ©e": 8121,
      "Ġaliments": 8122,
      "ĠacceptÃ©": 8123,
      "ĠmusÃ©es": 8124,
      "exÃ©cuter": 8125,
      "Ġreclassement": 8126,
      "rou": 8127,
      "Ġperspec": 8128,
      "Ġmarche": 8129,
      "ĠmodifiÃ©es": 8130,
      "ĠconsultÃ©s": 8131,
      "Ġutilise": 8132,
      "Ġforfaitaires": 8133,
      "ĠexÃ©cutÃ©es": 8134,
      "ĠrÃ©guliers": 8135,
      "93": 8136,
      "Ġ[": 8137,
      "side": 8138,
      "Ġence": 8139,
      "ĠstabilitÃ©": 8140,
      "jection": 8141,
      "Ġconsulaire": 8142,
      "appu": 8143,
      "ĠprolongÃ©": 8144,
      "Ġexterne": 8145,
      "Ġpavillon": 8146,
      "catÃ©gor": 8147,
      "Ġvenir": 8148,
      "Ġexist": 8149,
      "tements": 8150,
      "ĠreprÃ©sentatifs": 8151,
      "Ã©viter": 8152,
      "Ġconstruits": 8153,
      "Ġfun": 8154,
      "ĠrÃ©us": 8155,
      "Ġgrie": 8156,
      "Ġtransfusion": 8157,
      "ĠcondamnÃ©es": 8158,
      "ĠappliquÃ©s": 8159,
      "ĠajoutÃ©s": 8160,
      "ĠexposÃ©": 8161,
      "Ġvoter": 8162,
      "Ġblanch": 8163,
      "Ġagriculteurs": 8164,
      "ys": 8165,
      "Ġlum": 8166,
      "ĠprÃ©side": 8167,
      "ĠrÃ©ponses": 8168,
      "ĠexprÃ¨s": 8169,
      "ĠreprÃ©sentÃ©es": 8170,
      "ĠdÃ©clen": 8171,
      "ĠcomposÃ©s": 8172,
      "Ġmener": 8173,
      "Ġreproduit": 8174,
      "ĠÃ©ducatif": 8175,
      "Ġdomestiques": 8176,
      "Ġinventaire": 8177,
      "Ġpharmac": 8178,
      "ouvrages": 8179,
      "ĠimmÃ©diat": 8180,
      "ĠannexÃ©e": 8181,
      "Ġpostal": 8182,
      "Ġfavorables": 8183,
      "Ġcomparution": 8184,
      "Ġphytopharmaceuti": 8185,
      "Ġvirement": 8186,
      "ĠdÃ©concentrÃ©s": 8187,
      "ĠillÃ©g": 8188,
      "72": 8189,
      "bail": 8190,
      "iction": 8191,
      "Ġtradi": 8192,
      "Ġaccuse": 8193,
      "umÃ©": 8194,
      "Ġconfir": 8195,
      "ĠrÃ©alisent": 8196,
      "Ġenvironnementales": 8197,
      "Ġpilote": 8198,
      "honor": 8199,
      "Ġdesserte": 8200,
      "Ġgibier": 8201,
      "iement": 8202,
      "inqu": 8203,
      "Ã©raires": 8204,
      "ĠconvoquÃ©e": 8205,
      "nat": 8206,
      "Ġvendus": 8207,
      "ĠdÃ©linqu": 8208,
      "Ġaggrav": 8209,
      "Ġrespectifs": 8210,
      "ĠsÃ©lec": 8211,
      "Ġtotalement": 8212,
      "Ġimportant": 8213,
      "Ġvolontairement": 8214,
      "Ġrenoncer": 8215,
      "Ġnatur": 8216,
      "envelopp": 8217,
      "actives": 8218,
      "Ġtimbre": 8219,
      "oses": 8220,
      "Ġprivative": 8221,
      "ĠemployÃ©": 8222,
      "ĠinfÃ©rieures": 8223,
      "apprentis": 8224,
      "Ġcoordonne": 8225,
      "Ġjointes": 8226,
      "ĠrattachÃ©s": 8227,
      "ĠrelevÃ©s": 8228,
      "ĠinfirmitÃ©s": 8229,
      "Ġfiduci": 8230,
      "73": 8231,
      "Ġconsig": 8232,
      "Ġbons": 8233,
      "Ġagro": 8234,
      "Ġnotes": 8235,
      "Ġgarant": 8236,
      "ĠcausÃ©": 8237,
      "ĠindiquÃ©es": 8238,
      "Ã©limination": 8239,
      "euviÃ¨me": 8240,
      "Ġchoisie": 8241,
      "Ġbloc": 8242,
      "Ġtests": 8243,
      "ĠaÃ©ronef": 8244,
      "rir": 8245,
      "Ġexport": 8246,
      "Ġconcord": 8247,
      "ĠinfÃ©rieurs": 8248,
      "joint": 8249,
      "Ġtraduction": 8250,
      "Ġclimatique": 8251,
      "Ġdiver": 8252,
      "Ġjointe": 8253,
      "ĠinvitÃ©": 8254,
      "ĠallouÃ©e": 8255,
      "Ġtrouble": 8256,
      "ĠvÃ©nale": 8257,
      "ĠstupÃ©fiants": 8258,
      "hension": 8259,
      "ores": 8260,
      "Ġpours": 8261,
      "Ġfixes": 8262,
      "Ġfractions": 8263,
      "Ġconstitutives": 8264,
      "expÃ©dition": 8265,
      "Ġaffichage": 8266,
      "Ġmalades": 8267,
      "ĠdiffÃ©rente": 8268,
      "Ġappliquer": 8269,
      "informe": 8270,
      "Ġimputables": 8271,
      "Ġmensuellement": 8272,
      "exactitude": 8273,
      "Ġadh": 8274,
      "Ġrelever": 8275,
      "Ġcontenir": 8276,
      "Ġdisciplines": 8277,
      "ĠtraitÃ©s": 8278,
      "ĠcÃ©dÃ©": 8279,
      "Ġembry": 8280,
      "ĠrÃ©sidents": 8281,
      "ĠrÃ©gulariser": 8282,
      "Ġenregistrements": 8283,
      "Ġsensibil": 8284,
      "Ġpoursuit": 8285,
      "66": 8286,
      "lants": 8287,
      "Ġpy": 8288,
      "ĠqualitÃ©s": 8289,
      "Ġexceptions": 8290,
      "icies": 8291,
      "entielle": 8292,
      "Ġrapportent": 8293,
      "Ġpleine": 8294,
      "Ġquartier": 8295,
      "ĠprÃ©citÃ©es": 8296,
      "phel": 8297,
      "entraÃ®ner": 8298,
      "ĠtÃ©moin": 8299,
      "Ġincompatibles": 8300,
      "ĠhomologuÃ©": 8301,
      "Ġsism": 8302,
      "Ġra": 8303,
      "opath": 8304,
      "ĠexÃ©cute": 8305,
      "ĠdistribuÃ©s": 8306,
      "armateur": 8307,
      "ĠÃ©nergies": 8308,
      "Ã©ressement": 8309,
      "01": 8310,
      "num": 8311,
      "torat": 8312,
      "ĠÃ©nergie": 8313,
      "Ġdouanier": 8314,
      "Ġvitro": 8315,
      "ĠmusÃ©e": 8316,
      "Ġbordereau": 8317,
      "Ġapatrides": 8318,
      ".*": 8319,
      "Ġdeviennent": 8320,
      "ortis": 8321,
      "dex": 8322,
      "ĠdÃ©fendeur": 8323,
      "Ġcarence": 8324,
      "Ã©loignement": 8325,
      "ĠscÃ©n": 8326,
      "Ã©quipage": 8327,
      "accomplir": 8328,
      "Ġentendus": 8329,
      "ĠintÃ©grale": 8330,
      "rhÃ´ne": 8331,
      "ĠdÃ©pendance": 8332,
      "Ġpes": 8333,
      "itÃ´t": 8334,
      "oid": 8335,
      "Ġdign": 8336,
      "Ġdioxyde": 8337,
      "embauche": 8338,
      "Ġperf": 8339,
      "ĠcontrÃ´lÃ©es": 8340,
      "Ġexploiter": 8341,
      "pay": 8342,
      "Ġsubstituer": 8343,
      "Ġmultip": 8344,
      "ĠexonÃ©rÃ©es": 8345,
      "Ġcommencement": 8346,
      "08": 8347,
      "Ġpie": 8348,
      "Ġ54": 8349,
      "ĠeuropÃ©ennes": 8350,
      "Ġtechnologies": 8351,
      "ĠconnaÃ®t": 8352,
      "Ġaudiovisuels": 8353,
      "Ġculturels": 8354,
      "Ġascense": 8355,
      "Ġavenants": 8356,
      "Ġblanchiment": 8357,
      "tex": 8358,
      "ĠgÃª": 8359,
      "ssitÃ´t": 8360,
      "Ġrapatr": 8361,
      "Ġstations": 8362,
      "Ġstand": 8363,
      "Ġentrent": 8364,
      "ĠprÃ©cisÃ©": 8365,
      "effort": 8366,
      "ĠacceptÃ©e": 8367,
      "Ġbancaires": 8368,
      "Ġdessais": 8369,
      "Ġproches": 8370,
      "ĠfaÃ§": 8371,
      "ĠcertifiÃ©s": 8372,
      "assujetti": 8373,
      "ĠentiÃ¨rement": 8374,
      "ĠpÃ©diatr": 8375,
      "ules": 8376,
      "cee": 8377,
      "ĠdÃ©comp": 8378,
      "ĠtirÃ©s": 8379,
      "torale": 8380,
      "ĠsalariÃ©es": 8381,
      "Ġpose": 8382,
      "ĠÃ©quilib": 8383,
      "Ġcollaboration": 8384,
      "ĠintÃ©rieures": 8385,
      "Ġpoursuivi": 8386,
      "Ġsimilaire": 8387,
      "Ġartisanale": 8388,
      "ĠprÃ©liminaire": 8389,
      "tants": 8390,
      "Ġorigine": 8391,
      "ĠpÃ©dic": 8392,
      "ases": 8393,
      "Ġavaient": 8394,
      "ocable": 8395,
      "Ġrectific": 8396,
      "assister": 8397,
      "tifiÃ©": 8398,
      "Ã¢ts": 8399,
      "Ġinstruit": 8400,
      "Ġpostale": 8401,
      "ĠcertifiÃ©": 8402,
      "Ã©nieur": 8403,
      "Ġthermique": 8404,
      "ĠdÃ©favorable": 8405,
      "Ġcorporels": 8406,
      "Ġgenre": 8407,
      "Ġveillent": 8408,
      "injonction": 8409,
      "ĠrÃ©insertion": 8410,
      "Ġcependant": 8411,
      "rich": 8412,
      "Ġutilisateur": 8413,
      "Ġinstituts": 8414,
      "Ġonze": 8415,
      "Ġprovoquer": 8416,
      "ĠlÃ©": 8417,
      "oute": 8418,
      "six": 8419,
      "onnÃ©s": 8420,
      "Ġmoteurs": 8421,
      "Ġfruits": 8422,
      "uide": 8423,
      "Ġoptions": 8424,
      "ĠcollectÃ©es": 8425,
      "ologues": 8426,
      "Ġvalables": 8427,
      "Ġexceptionnelle": 8428,
      "ĠacquittÃ©e": 8429,
      "Ġhabituel": 8430,
      "ĠvÃ©gÃ©tale": 8431,
      "Ġhistorique": 8432,
      "Ġlimitr": 8433,
      "oce": 8434,
      "mbles": 8435,
      "ĠcollectÃ©s": 8436,
      "Ġmalade": 8437,
      "Ġcrimes": 8438,
      "ĠapprÃ©ciation": 8439,
      "Ġurbaines": 8440,
      "Ġbaignade": 8441,
      "ez": 8442,
      "Ġponc": 8443,
      "Ġparitaires": 8444,
      "Ġcivique": 8445,
      "Ġvient": 8446,
      "ĠmathÃ©": 8447,
      "ĠdÃ©roger": 8448,
      "Ġnavigant": 8449,
      "Ġnavigables": 8450,
      "ĠpratiquÃ©s": 8451,
      "ĠsÃ©rieux": 8452,
      "Ġlargeur": 8453,
      "ĠprÃ©rog": 8454,
      "ĠrÃ©tract": 8455,
      "ĠmodalitÃ©": 8456,
      "Ġagriculture": 8457,
      "Ġcriti": 8458,
      "ĠpratiquÃ©e": 8459,
      "Ġenseignant": 8460,
      "entraÃ®ne": 8461,
      "Ġfutur": 8462,
      "appareil": 8463,
      "ĠdÃ©coulant": 8464,
      "ertises": 8465,
      "Ġsauvetage": 8466,
      "dÃ©c": 8467,
      "Ġgardi": 8468,
      "Ġsignes": 8469,
      "Ġverb": 8470,
      "rogation": 8471,
      "Ġpropag": 8472,
      "Ġfonciers": 8473,
      "ĠÃ©quivalents": 8474,
      "âĢľ": 8475,
      "ĠstratÃ©giques": 8476,
      "ĠconvoquÃ©s": 8477,
      "Ġcommunautaires": 8478,
      "ĠfrÃ©quent": 8479,
      "ĠvÃ©gÃ©tales": 8480,
      "Ġvitale": 8481,
      "acuation": 8482,
      "vets": 8483,
      "Ġsk": 8484,
      "Ġsinistres": 8485,
      "Ġreli": 8486,
      "Ġbal": 8487,
      "ĠgÃ©nÃ©ralement": 8488,
      "ĠrÃ©fÃ©rentiels": 8489,
      "ĠtransfÃ©rer": 8490,
      "Ġindiquent": 8491,
      "Ġoccuper": 8492,
      "Ġjoints": 8493,
      "Ġcontinuer": 8494,
      "Ġartistes": 8495,
      "Ġinfirmier": 8496,
      "Ġcirconscriptions": 8497,
      "Ġinspections": 8498,
      "Ġpertinentes": 8499,
      "ĠquotitÃ©": 8500,
      "Ġdivorce": 8501,
      "Ġvendu": 8502,
      "Ġavance": 8503,
      "Ġdialogue": 8504,
      "Ġsouscriptions": 8505,
      "ĠprÃ©fÃ©rence": 8506,
      "ĠdÃ©march": 8507,
      "Ġcentrales": 8508,
      "ĠsubstituÃ©e": 8509,
      "ĠrejetÃ©e": 8510,
      "Ġbrevets": 8511,
      "ĠvalidÃ©": 8512,
      "Ġcomparable": 8513,
      "2004": 8514,
      "ĠtÃ©lÃ©communications": 8515,
[...]
