{
  "version": "1.0",
  "truncation": null,
  "padding": null,
  "added_tokens": [
    {
      "id": 0,
      "content": "[PAD]",
      "single_word": false,
      "lstrip": false,
      "rstrip": false,
      "normalized": false,
      "special": true
    },
    {
      "id": 1,
      "content": "[UNK]",
      "single_word": false,
      "lstrip": false,
      "rstrip": false,
      "normalized": false,
      "special": true
    },
    {
      "id": 2,
      "content": "[EOS]",
      "single_word": false,
      "lstrip": false,
      "rstrip": false,
      "normalized": false,
      "special": true
    }
  ],
  "normalizer": {
    "type": "Sequence",
    "normalizers": [
      {
        "type": "Lowercase"
      },
      {
        "type": "StripAccents"
      }
    ]
  },
  "pre_tokenizer": {
    "type": "ByteLevel",
    "add_prefix_space": false,
    "trim_offsets": true,
    "use_regex": true
  },
  "post_processor": null,
  "decoder": {
    "type": "ByteLevel",
    "add_prefix_space": true,
    "trim_offsets": true,
    "use_regex": true
  },
  "model": {
    "type": "BPE",
    "dropout": null,
    "unk_token": "[UNK]",
    "continuing_subword_prefix": null,
    "end_of_word_suffix": null,
    "fuse_unk": false,
    "byte_fallback": false,
    "ignore_merges": false,
    "vocab": {
      "[PAD]": 0,
      "[UNK]": 1,
      "[EOS]": 2,
      "!": 3,
      "\"": 4,
      "#": 5,
      "%": 6,
      "&": 7,
      "'": 8,
      "(": 9,
      ")": 10,
      "*": 11,
      "+": 12,
      ",": 13,
      "-": 14,
      ".": 15,
      "/": 16,
      "0": 17,
      "1": 18,
      "2": 19,
      "3": 20,
      "4": 21,
      "5": 22,
      "6": 23,
      "7": 24,
      "8": 25,
      "9": 26,
      ":": 27,
      ";": 28,
      "=": 29,
      "?": 30,
      "@": 31,
      "[": 32,
      "]": 33,
      "^": 34,
      "_": 35,
      "a": 36,
      "b": 37,
      "c": 38,
      "d": 39,
      "e": 40,
      "f": 41,
      "g": 42,
      "h": 43,
      "i": 44,
      "j": 45,
      "k": 46,
      "l": 47,
      "m": 48,
      "n": 49,
      "o": 50,
      "p": 51,
      "q": 52,
      "r": 53,
      "s": 54,
      "t": 55,
      "u": 56,
      "v": 57,
      "w": 58,
      "x": 59,
      "y": 60,
      "z": 61,
      "{": 62,
      "|": 63,
      "}": 64,
      "¡": 65,
      "¢": 66,
      "£": 67,
      "¤": 68,
      "¦": 69,
      "§": 70,
      "¨": 71,
      "©": 72,
      "ª": 73,
      "«": 74,
      "¬": 75,
      "®": 76,
      "¯": 77,
      "°": 78,
      "±": 79,
      "²": 80,
      "³": 81,
      "´": 82,
      "µ": 83,
      "¶": 84,
      "·": 85,
      "¸": 86,
      "¹": 87,
      "º": 88,
      "»": 89,
      "¼": 90,
      "½": 91,
      "¾": 92,
      "¿": 93,
      "Â": 94,
      "Ã": 95,
      "Ä": 96,
      "Å": 97,
      "Ê": 98,
      "Ë": 99,
      "Î": 100,
      "Ï": 101,
      "Ð": 102,
      "Ñ": 103,
      "á": 104,
      "â": 105,
      "ï": 106,
      "Ċ": 107,
      "Ġ": 108,
      "Ģ": 109,
      "ģ": 110,
      "Ĥ": 111,
      "ĥ": 112,
      "Ħ": 113,
      "ħ": 114,
      "Ĩ": 115,
      "ĩ": 116,
      "Ī": 117,
      "ī": 118,
      "Į": 119,
      "į": 120,
      "İ": 121,
      "ı": 122,
      "ĳ": 123,
      "Ĵ": 124,
      "ĵ": 125,
      "Ķ": 126,
      "ķ": 127,
      "ĸ": 128,
      "Ĺ": 129,
      "ĺ": 130,
      "Ļ": 131,
      "ľ": 132,
      "Ŀ": 133,
      "Ł": 134,
      "ł": 135,
      "Ń": 136,
      "Ġd": 137,
      "Ã©": 138,
      "es": 139,
      "Ġl": 140,
      "on": 141,
      "ti": 142,
      "en": 143,
      "Ġp": 144,
      "Ġde": 145,
      "Ġc": 146,
      "Ġa": 147,
      "tion": 148,
      "re": 149,
      "Ġs": 150,
      "an": 151,
      "is": 152,
      "ent": 153,
      "ar": 154,
      "le": 155,
      "ou": 156,
      "er": 157,
      "in": 158,
      "et": 159,
      "Ġm": 160,
      "it": 161,
      "rÃ©": 162,
      "Ġla": 163,
      "qu": 164,
      "ation": 165,
      "ĠÃ": 166,
      "or": 167,
      "Ġdes": 168,
      "ĠÃł": 169,
      "ur": 170,
      "un": 171,
      "Ġdu": 172,
      "Ġau": 173,
      "ment": 174,
      "Ġet": 175,
      "Ġle": 176,
      "Ġles": 177,
      "Ġcon": 178,
      "ic": 179,
      "te": 180,
      "tr": 181,
      "al": 182,
      "om": 183,
      "si": 184,
      "ant": 185,
      "ĠdÃ©": 186,
      "Ġf": 187,
      "Ġpar": 188,
      "Ġou": 189,
      "Ġn": 190,
      "il": 191,
      "Ġpr": 192,
      "tic": 193,
      "que": 194,
      "ĠprÃ©": 195,
      "Ġen": 196,
      "ai": 197,
      "se": 198,
      "Ã©s": 199,
      "our": 200,
      "Ã¨": 201,
      "les": 202,
      "ans": 203,
      "el": 204,
      "Ġcom": 205,
      "Ã©r": 206,
      "at": 207,
      "ce": 208,
      "Ġre": 209,
      "Ġun": 210,
      "ĠrÃ©": 211,
      "ĠÃ©": 212,
      "ticle": 213,
      "est": 214,
      "ont": 215,
      "res": 216,
      "au": 217,
      "tre": 218,
      "article": 219,
      "Â°": 220,
      "ab": 221,
      "itÃ©": 222,
      "Ġin": 223,
      "Ġpro": 224,
      "as": 225,
      "de": 226,
      "pl": 227,
      "eu": 228,
      "ci": 229,
      "Ġt": 230,
      "onn": 231,
      "Ġest": 232,
      "Ã©e": 233,
      "tions": 234,
      "Ġdans": 235,
      "ex": 236,
      "Ġqu": 237,
      "Ġv": 238,
      "ac": 239,
      "Ã©es": 240,
      "di": 241,
      "Ġ;": 242,
      "me": 243,
      "ale": 244,
      "Ġaux": 245,
      "aire": 246,
      "Ġpour": 247,
      "Ġmo": 248,
      "ention": 249,
      "Ġch": 250,
      "ag": 251,
      "Ġg": 252,
      "ement": 253,
      "Ġtr": 254,
      "Ġb": 255,
      "Ġco": 256,
      "pr": 257,
      "ers": 258,
      "li": 259,
      "po": 260,
      "us": 261,
      "Ġsont": 262,
      "ec": 263,
      "tiv": 264,
      "ations": 265,
      "Ġ1": 266,
      "Ġr": 267,
      "im": 268,
      "ap": 269,
      "ch": 270,
      "Ã©t": 271,
      "oi": 272,
      "sent": 273,
      "Ġsur": 274,
      "Ãª": 275,
      "Ġj": 276,
      "Ġ2": 277,
      "Ġmention": 278,
      "ĠprÃ©v": 279,
      "tif": 280,
      "tu": 281,
      "Ġcomp": 282,
      "eur": 283,
      "Ġmentionn": 284,
      "Ġar": 285,
      "Ġso": 286,
      "ff": 287,
      "iv": 288,
      "Ġpeu": 289,
      "Ġdis": 290,
      "ter": 291,
      "Ġune": 292,
      "sion": 293,
      "la": 294,
      "du": 295,
      "ication": 296,
      "Ã©n": 297,
      "Ġo": 298,
      "Ġcomm": 299,
      "une": 300,
      "elle": 301,
      "orm": 302,
      "ance": 303,
      "inis": 304,
      "ces": 305,
      "Ġque": 306,
      "ub": 307,
      "Ġex": 308,
      "Ġac": 309,
      "Ġap": 310,
      "teur": 311,
      "Ġqui": 312,
      "tÃ©": 313,
      "ul": 314,
      "sement": 315,
      "erv": 316,
      "posi": 317,
      "Ġ:": 318,
      "ĠdÃ©c": 319,
      "mb": 320,
      "ise": 321,
      "ĠprÃ©vu": 322,
      "ion": 323,
      "Ġpers": 324,
      "Ġpersonn": 325,
      "lis": 326,
      "ors": 327,
      "Ġti": 328,
      "oit": 329,
      "av": 330,
      "Ã©ri": 331,
      "ier": 332,
      "ction": 333,
      "Ġav": 334,
      "Ġsu": 335,
      "aires": 336,
      "ins": 337,
      "ort": 338,
      "ie": 339,
      "itÃ©s": 340,
      "ais": 341,
      "ice": 342,
      "Ġpeut": 343,
      "aux": 344,
      "am": 345,
      "tor": 346,
      "Ġleur": 347,
      "Ġcontr": 348,
      "Ġcondi": 349,
      "ĠprÃ©sent": 350,
      "Ġpub": 351,
      "Ġcons": 352,
      "Ġ,": 353,
      "Ġdisposi": 354,
      "Ġdi": 355,
      "Ã©d": 356,
      "Ġcas": 357,
      "Ġcode": 358,
      "Ġan": 359,
      "iÃ¨": 360,
      "Ġi": 361,
      "man": 362,
      "ait": 363,
      "oc": 364,
      "arg": 365,
      "ig": 366,
      "ence": 367,
      "Ġconditions": 368,
      "seil": 369,
      "ques": 370,
      "ib": 371,
      "Ġne": 372,
      "Ġconseil": 373,
      "ix": 374,
      "Ġpas": 375,
      "Ġsoci": 376,
      "ĠrÃ©g": 377,
      "Ġappl": 378,
      "ĠÃª": 379,
      "ĠÃªtre": 380,
      "par": 381,
      "Ġtou": 382,
      "Ġcharg": 383,
      "ablis": 384,
      "Ã¨s": 385,
      "ts": 386,
      "ouv": 387,
      "ure": 388,
      "entre": 389,
      "Ã©c": 390,
      "Ġpl": 391,
      "op": 392,
      "Ġsou": 393,
      "Ã´": 394,
      "form": 395,
      "ir": 396,
      "ablissement": 397,
      "ique": 398,
      "ĠÃ©t": 399,
      "Ġh": 400,
      "inÃ©": 401,
      "Ġdeman": 402,
      "ad": 403,
      "ord": 404,
      "ĠdÃ©f": 405,
      "ol": 406,
      "end": 407,
      "tes": 408,
      "Ġal": 409,
      "Ġfon": 410,
      "rit": 411,
      "Ġson": 412,
      "vent": 413,
      "Ġserv": 414,
      "ue": 415,
      "org": 416,
      "organ": 417,
      "Ġces": 418,
      "Ġ3": 419,
      "able": 420,
      "Ġdispositions": 421,
      "ens": 422,
      "ission": 423,
      "ette": 424,
      "Ġad": 425,
      "Ġe": 426,
      "ss": 427,
      "Ġconc": 428,
      "ants": 429,
      "ĠdÃ©l": 430,
      "og": 431,
      "mes": 432,
      "ip": 433,
      "prÃ©": 434,
      "ois": 435,
      "organis": 436,
      "port": 437,
      "Ġtrans": 438,
      "Ġter": 439,
      "inistr": 440,
      "Ã©g": 441,
      "Ġfix": 442,
      "Ġpubl": 443,
      "Ġâ": 444,
      "Ġfr": 445,
      "ticles": 446,
      "lec": 447,
      "age": 448,
      "Ġarticles": 449,
      "sid": 450,
      "ales": 451,
      "mpl": 452,
      "tement": 453,
      "ours": 454,
      "ĠprÃ©vues": 455,
      "ot": 456,
      "Ġma": 457,
      "ĠalinÃ©": 458,
      "Ġlors": 459,
      "Ġtitre": 460,
      "jet": 461,
      "elles": 462,
      "Ġce": 463,
      "Ġdemande": 464,
      "Ġres": 465,
      "Ġpublic": 466,
      "ĠmÃª": 467,
      "Ġproc": 468,
      "Ã¨re": 469,
      "ob": 470,
      "ici": 471,
      "Ġass": 472,
      "ĠâĢ": 473,
      "Ġsa": 474,
      "Ġrec": 475,
      "Ġdire": 476,
      "quel": 477,
      "rÃ©e": 478,
      "Ġdr": 479,
      "Ġminis": 480,
      "emb": 481,
      "Ġob": 482,
      "ass": 483,
      "ministr": 484,
      "Ġdroit": 485,
      "autor": 486,
      "tive": 487,
      "Ġprof": 488,
      "Ġli": 489,
      "Ġtrav": 490,
      "Ġfin": 491,
      "Ġnation": 492,
      "prÃ©sent": 493,
      "ĠalinÃ©a": 494,
      "Ã©ment": 495,
      "ĠreprÃ©sent": 496,
      "ĠgÃ©n": 497,
      "ine": 498,
      "insi": 499,
      "Ġainsi": 500,
      "ĠrÃ©s": 501,
      "isation": 502,
      "ision": 503,
      "ail": 504,
      "int": 505,
      "ne": 506,
      "Ġil": 507,
      "Ġcette": 508,
      "os": 509,
      "Ġim": 510,
      "Ġinter": 511,
      "Ġ20": 512,
      "sionn": 513,
      "Ġju": 514,
      "Ġte": 515,
      "Ġsous": 516,
      "ĠgÃ©nÃ©r": 517,
      "Ġse": 518,
      "lement": 519,
      "Ġag": 520,
      "Ã§": 521,
      "Ġmemb": 522,
      "Ġpre": 523,
      "id": 524,
      "etat": 525,
      "Ġprofes": 526,
      "Ã¨g": 527,
      "prÃ¨s": 528,
      "erc": 529,
      "Ġentre": 530,
      "Ġdirec": 531,
      "ises": 532,
      "Ġcol": 533,
      "Ġprodu": 534,
      "ux": 535,
      "Ġins": 536,
      "ĠdÃ©lai": 537,
      "chÃ©": 538,
      "tres": 539,
      "Ġper": 540,
      "ui": 541,
      "titu": 542,
      "Ġ\"": 543,
      "Ġprem": 544,
      "Ġii": 545,
      "Ġministre": 546,
      "ten": 547,
      "ables": 548,
      "Ġfait": 549,
      "Ġdont": 550,
      "tis": 551,
      "ution": 552,
      "cep": 553,
      "pon": 554,
      "Ġapplication": 555,
      "Ġform": 556,
      "Ġpersonnes": 557,
      "ĠmÃªme": 558,
      "Ġcommun": 559,
      "Ġpeuvent": 560,
      "Ġmar": 561,
      "Ġparti": 562,
      "Ġpersonne": 563,
      "Ġsuiv": 564,
      "appl": 565,
      "ĠprÃ©c": 566,
      "Ġsup": 567,
      "sident": 568,
      "Ġdeux": 569,
      "Ã©ration": 570,
      "ffec": 571,
      "Ġ4": 572,
      "Ġsec": 573,
      "Ġterrit": 574,
      "ĠmentionnÃ©s": 575,
      "Ġnom": 576,
      "alitÃ©s": 577,
      "ense": 578,
      "Ġmod": 579,
      "rÃª": 580,
      "tives": 581,
      "ĠdÃ©cision": 582,
      "Ġprofessionn": 583,
      "Ġavec": 584,
      "Ġrela": 585,
      "tin": 586,
      "antÃ©": 587,
      "ĠchargÃ©": 588,
      "Ġcha": 589,
      "ĠmentionnÃ©es": 590,
      "ĠÃ©tablissement": 591,
      "Ġgr": 592,
      "nement": 593,
      "Ġacc": 594,
      "ĠsantÃ©": 595,
      "ate": 596,
      "pos": 597,
      "tat": 598,
      "ies": 599,
      "tivitÃ©": 600,
      "ĠdÃ©par": 601,
      "ĠrÃ¨g": 602,
      "ĠdÃ©fin": 603,
      "Ġorganis": 604,
      "acc": 605,
      "ĠprÃ©sident": 606,
      "ices": 607,
      "Ġses": 608,
      "ents": 609,
      "Ġtravail": 610,
      "oire": 611,
      "ĠcompÃ©t": 612,
      "ĠrÃ©gion": 613,
      "ite": 614,
      "Ġsoit": 615,
      "ĠdÃ©partement": 616,
      "Ġconcer": 617,
      "ateur": 618,
      "lors": 619,
      "Ġmont": 620,
      "ĠdÃ©li": 621,
      "iques": 622,
      "ret": 623,
      "and": 624,
      "nÃ©e": 625,
      "Ġautor": 626,
      "alitÃ©": 627,
      "tifs": 628,
      "ĠsociÃ©t": 629,
      "autoritÃ©": 630,
      "Ã©cur": 631,
      "ĠsÃ©cur": 632,
      "iÃ¨me": 633,
      "Ġcommission": 634,
      "sig": 635,
      "Ġ5": 636,
      "Ġapplic": 637,
      "tru": 638,
      "ĠÃ©g": 639,
      "ture": 640,
      "Ã©tablissement": 641,
      "Ġconv": 642,
      "Ġservice": 643,
      "ente": 644,
      "Ġop": 645,
      "ĠsÃ©curitÃ©": 646,
      "Ġcontrat": 647,
      "met": 648,
      "ĠmodalitÃ©s": 649,
      "uti": 650,
      "ĠgÃ©nÃ©ral": 651,
      "Ã©f": 652,
      "eurs": 653,
      "Ġpremier": 654,
      "ut": 655,
      "ge": 656,
      "Ġdonn": 657,
      "Ġmois": 658,
      "ĠdurÃ©e": 659,
      "Ġcollec": 660,
      "ari": 661,
      "cr": 662,
      "ĠbÃ©n": 663,
      "alement": 664,
      "Ġarticle": 665,
      "ĠÃ©tÃ©": 666,
      "Ġjus": 667,
      "Ġmontant": 668,
      "ĠcontrÃ´": 669,
      "Ġcompte": 670,
      "oir": 671,
      "ĠbÃ©nÃ©f": 672,
      "Ġdate": 673,
      "ĠarrÃª": 674,
      "ori": 675,
      "ures": 676,
      "um": 677,
      "ĠprÃ©vue": 678,
      "Ġmembres": 679,
      "Ġpubli": 680,
      "pec": 681,
      "els": 682,
      "alis": 683,
      "application": 684,
      "ements": 685,
      "ĠcrÃ©": 686,
      "lig": 687,
      "Ġlorsque": 688,
      "iss": 689,
      "Ġleurs": 690,
      "Ġpartic": 691,
      "Ġeur": 692,
      "Ġinform": 693,
      "ĠmentionnÃ©": 694,
      "oci": 695,
      "Ġtout": 696,
      "Ġinf": 697,
      "Ġlieu": 698,
      "Ġdirecteur": 699,
      "Ġservices": 700,
      "Ġfonction": 701,
      "Ġplus": 702,
      "oy": 703,
      "ilitÃ©": 704,
      "00": 705,
      "Ã©rieur": 706,
      "ud": 707,
      "ances": 708,
      "ĠdÃ©p": 709,
      "ĠdÃ©cret": 710,
      "ĠdÃ©cl": 711,
      "Ġloc": 712,
      "its": 713,
      "estion": 714,
      "Ġmise": 715,
      "Ġ(": 716,
      "Ġat": 717,
      "Ġsp": 718,
      "sign": 719,
      "enti": 720,
      "Ġsi": 721,
      "anci": 722,
      "uv": 723,
      "tant": 724,
      "apit": 725,
      "ments": 726,
      "ature": 727,
      "ĠdÃ©clar": 728,
      "mis": 729,
      "ception": 730,
      "Ġmes": 731,
      "ĠmentionnÃ©e": 732,
      "ĠÃ©chÃ©": 733,
      "ĠaprÃ¨s": 734,
      "Ġmoins": 735,
      "Ġgestion": 736,
      "omm": 737,
      "Ġnon": 738,
      "Ġtrois": 739,
      "oup": 740,
      "ĠÃ©c": 741,
      "Ġsociale": 742,
      "term": 743,
      "trib": 744,
      "ang": 745,
      "Ã©dic": 746,
      "ĠÃ©chÃ©ant": 747,
      "ven": 748,
      "ences": 749,
      "Ġnot": 750,
      "des": 751,
      "Ġadministr": 752,
      "ĠcontrÃ´le": 753,
      "tivitÃ©s": 754,
      "ric": 755,
      "administr": 756,
      "Ġcar": 757,
      "Ġtoute": 758,
      "ative": 759,
      "amment": 760,
      "ĠmÃ©dic": 761,
      "Ġfor": 762,
      "ĠÃ©l": 763,
      "ĠÃ©tablissements": 764,
      "Ġchaque": 765,
      "prise": 766,
      "pour": 767,
      "exerc": 768,
      "Ġann": 769,
      "Ã©du": 770,
      "ĠarrÃªtÃ©": 771,
      "eure": 772,
      "Ġrempl": 773,
      "Ġno": 774,
      "pri": 775,
      "cess": 776,
      "aut": 777,
      "Ã©rations": 778,
      "ĠreprÃ©sentant": 779,
      "iÃ¨re": 780,
      "onom": 781,
      "Ġsans": 782,
      "Ġterritori": 783,
      "Ġcor": 784,
      "lorsque": 785,
      "elon": 786,
      "Ġconform": 787,
      "Ġapplicables": 788,
      "ĠdÃ©term": 789,
      "Ġindi": 790,
      "che": 791,
      "opÃ©": 792,
      "ploit": 793,
      "Ġnotamment": 794,
      "Ġ6": 795,
      "ils": 796,
      "Ġbi": 797,
      "mp": 798,
      "Ġsal": 799,
      "ĠdÃ©sign": 800,
      "iste": 801,
      "ĠeuropÃ©": 802,
      "Ġformation": 803,
      "crip": 804,
      "administration": 805,
      "action": 806,
      "anti": 807,
      "lu": 808,
      "Ġans": 809,
      "ert": 810,
      "objet": 811,
      "Ġten": 812,
      "utilis": 813,
      "Ġint": 814,
      "Ġsuivant": 815,
      "Ġselon": 816,
      "Ġph": 817,
      "all": 818,
      "ĠnÃ©": 819,
      "ĠeuropÃ©en": 820,
      "ĠmÃ©": 821,
      "Ġcompr": 822,
      "Ġnational": 823,
      "ati": 824,
      "Ġconcern": 825,
      "Ġeffec": 826,
      "Ġcl": 827,
      "Ġfinanci": 828,
      "Ġ7": 829,
      "ĠâĢĶ": 830,
      "Ġfran": 831,
      "itu": 832,
      "Ġrap": 833,
      "Ã¨res": 834,
      "Ġren": 835,
      "ĠspÃ©": 836,
      "eux": 837,
      "Ġport": 838,
      "Ġay": 839,
      "ĠspÃ©ci": 840,
      "Ġgar": 841,
      "iciaire": 842,
      "ĠprÃ©f": 843,
      "ĠrÃ¨glement": 844,
      "Ġpartie": 845,
      "ĠnÃ©cess": 846,
      "Ġnationale": 847,
      "ĠrÃ©f": 848,
      "Ġdoit": 849,
      "Ġliv": 850,
      "Ġnature": 851,
      "Ġdoc": 852,
      "ctions": 853,
      "act": 854,
      "Åĵ": 855,
      "Ġ201": 856,
      "val": 857,
      "exercice": 858,
      "Ġavis": 859,
      "Ġconf": 860,
      "ĠsociÃ©tÃ©": 861,
      "ĠfixÃ©es": 862,
      "Ġautres": 863,
      "ĠrÃ©serv": 864,
      "empl": 865,
      "Ġsus": 866,
      "Ġlui": 867,
      "Ġmoy": 868,
      "Ã©rÃ©": 869,
      "Ġdocu": 870,
      "ĠfranÃ§": 871,
      "Ġont": 872,
      "Ġrespec": 873,
      "Ġoblig": 874,
      "Ġfond": 875,
      "ourn": 876,
      "mbre": 877,
      "Åĵuv": 878,
      "ĠÃ©lec": 879,
      "iti": 880,
      "ve": 881,
      "ats": 882,
      "Ġexerc": 883,
      "ess": 884,
      "Ġautre": 885,
      "Ġcompter": 886,
      "Ġayant": 887,
      "ille": 888,
      "ign": 889,
      "ma": 890,
      "ordonn": 891,
      "Ã®": 892,
      "position": 893,
      "Ġder": 894,
      "Ġdroits": 895,
      "Ġdern": 896,
      "Ġgroup": 897,
      "omp": 898,
      "ĠrÃ©sul": 899,
      "dans": 900,
      "chn": 901,
      "Ġ19": 902,
      "pond": 903,
      "onnement": 904,
      "Ġavant": 905,
      "Ġcommer": 906,
      "Ġtransport": 907,
      "st": 908,
      "Ġsitu": 909,
      "ĠÃ©galement": 910,
      "tification": 911,
      "Ġciv": 912,
      "priÃ©t": 913,
      "Ġy": 914,
      "Ġconvention": 915,
      "ĠdÃ©liv": 916,
      "Ġpla": 917,
      "Ġcours": 918,
      "Ġsy": 919,
      "vant": 920,
      "iqu": 921,
      "ĠprÃ©fet": 922,
      "gr": 923,
      "ages": 924,
      "abilitÃ©": 925,
      "if": 926,
      "endant": 927,
      "Ġnouv": 928,
      "Ġsub": 929,
      "Ġproduits": 930,
      "ĠpÃ©ri": 931,
      "urs": 932,
      "Ġtechn": 933,
      "ĠrÃ©fÃ©r": 934,
      "assur": 935,
      "dic": 936,
      "asse": 937,
      "tul": 938,
      "ĠpÃ©rio": 939,
      "Ġpublique": 940,
      "Ġconstitu": 941,
      "Ġinformations": 942,
      "ili": 943,
      "Ġcel": 944,
      "dit": 945,
      "aiss": 946,
      "Ġtitul": 947,
      "Ġprest": 948,
      "Ġvis": 949,
      "ĠrÃ©p": 950,
      "Ġprojet": 951,
      "dif": 952,
      "Ġlim": 953,
      "eau": 954,
      "tou": 955,
      "Ġjud": 956,
      "union": 957,
      "tifi": 958,
      "Ġsalari": 959,
      "Ġmots": 960,
      "Ãł": 961,
      "ines": 962,
      "ĠprocÃ©d": 963,
      "Ã©dure": 964,
      "Ġliste": 965,
      "bles": 966,
      "ĠdÃ©claration": 967,
      "ard": 968,
      "ues": 969,
      "ĠprocÃ©dure": 970,
      "ach": 971,
      "olog": 972,
      "ĠpropriÃ©t": 973,
      "assurance": 974,
      "Ġmodif": 975,
      "ult": 976,
      "ble": 977,
      "Ġdom": 978,
      "Ġrapport": 979,
      "Ġpo": 980,
      "Ġparticip": 981,
      "Ã©rieure": 982,
      "ĠÅĵuv": 983,
      "truction": 984,
      "Ġjours": 985,
      "ĠÃ©tab": 986,
      "Ġrelatives": 987,
      "Ġchapit": 988,
      "Ġvoi": 989,
      "Ġcad": 990,
      "ĠconformÃ©ment": 991,
      "bre": 992,
      "alisation": 993,
      "Ġmission": 994,
      "ace": 995,
      "Ġfaire": 996,
      "Ġmin": 997,
      "Ġpol": 998,
      "teurs": 999,
      "vi": 1000,
      "uli": 1001,
      "Ġstat": 1002,
      "Ġpermet": 1003,
      "Ġorganismes": 1004,
      "Ã»": 1005,
      "Ġimm": 1006,
      "pons": 1007,
      "Ġlivre": 1008,
      "Ġnombre": 1009,
      "ossi": 1010,
      "adi": 1011,
      "tiÃ¨re": 1012,
      "Ġman": 1013,
      "Ã¹": 1014,
      "ĠoÃ¹": 1015,
      "Ġassoci": 1016,
      "Ġaccord": 1017,
      "ĠrÃ©alis": 1018,
      "Ġcelui": 1019,
      "Ġcharge": 1020,
      "prises": 1021,
      "Ġmand": 1022,
      "exploit": 1023,
      "pÃ´": 1024,
      "Ġeffectu": 1025,
      "Ġmembre": 1026,
      "ĠrÃ©serve": 1027,
      "usi": 1028,
      "jo": 1029,
      "cher": 1030,
      "Ġelle": 1031,
      "ĠpÃ©n": 1032,
      "vis": 1033,
      "agence": 1034,
      "tall": 1035,
      "pro": 1036,
      "Ġrespons": 1037,
      "Ġcet": 1038,
      "Ġchapitre": 1039,
      "Ã©ress": 1040,
      "ante": 1041,
      "quelle": 1042,
      "Ġlorsqu": 1043,
      "autorisation": 1044,
      "ves": 1045,
      "crit": 1046,
      "Ġmesures": 1047,
      "Ġpor": 1048,
      "ignement": 1049,
      "Ġst": 1050,
      "Ġlaquelle": 1051,
      "Ġiii": 1052,
      "amen": 1053,
      "cul": 1054,
      "aison": 1055,
      "Ġcadre": 1056,
      "gis": 1057,
      "Ġ%": 1058,
      "Ġsection": 1059,
      "usieurs": 1060,
      "activitÃ©": 1061,
      "Ġgaranti": 1062,
      "Ġcaract": 1063,
      "ra": 1064,
      "Ġfonds": 1065,
      "itaire": 1066,
      "Ġplusieurs": 1067,
      "ĠopÃ©rations": 1068,
      "ellement": 1069,
      "Ġcelle": 1070,
      "Ġsign": 1071,
      "ĠprÃ©cÃ©d": 1072,
      "ĠlÃ©g": 1073,
      "Ġtrib": 1074,
      "Ġfrance": 1075,
      "cription": 1076,
      "Ġpublics": 1077,
      "Ġpart": 1078,
      "onc": 1079,
      "Ġcomptes": 1080,
      "Ġprofessionnelle": 1081,
      "Ġver": 1082,
      "orme": 1083,
      "Ġautoris": 1084,
      "Ġtribun": 1085,
      "Ġlog": 1086,
      "Ġcan": 1087,
      "Ġloi": 1088,
      "Ġjudiciaire": 1089,
      "ĠsÃ©": 1090,
      "Ġ8": 1091,
      "Ġvale": 1092,
      "Ġcer": 1093,
      "Ġdiff": 1094,
      "ĠcomitÃ©": 1095,
      "Ġcompl": 1096,
      "entreprise": 1097,
      "tection": 1098,
      "Ġadres": 1099,
      "Ġtemp": 1100,
      "Ġcelles": 1101,
      "quis": 1102,
      "Ġconn": 1103,
      "erg": 1104,
      "ĠdÃ©lÃ©g": 1105,
      "Ġris": 1106,
      "ffet": 1107,
      "ĠÅĵuvre": 1108,
      "Ġtravaux": 1109,
      "ulture": 1110,
      "ĠdÃ©lib": 1111,
      "Ġsais": 1112,
      "tific": 1113,
      "ĠrÃ©ception": 1114,
      "ĠdÃ©finies": 1115,
      "gag": 1116,
      "Ġremplac": 1117,
      "ĠdÃ©termin": 1118,
      "Ġcour": 1119,
      "lÃ¨": 1120,
      "dem": 1121,
      "rog": 1122,
      "Ġpa": 1123,
      "Ġagric": 1124,
      "ĠdeuxiÃ¨me": 1125,
      "atÃ©g": 1126,
      "por": 1127,
      "trait": 1128,
      "tribu": 1129,
      "ĠÃ©tabli": 1130,
      "oivent": 1131,
      "vir": 1132,
      "Ġplan": 1133,
      "quelles": 1134,
      "pel": 1135,
      "rer": 1136,
      "Ġexc": 1137,
      "ĠÃ©qu": 1138,
      "Ġpai": 1139,
      "Ġentreprises": 1140,
      "Ġsan": 1141,
      "Ã©rÃª": 1142,
      "enseignement": 1143,
      "Ġfourn": 1144,
      "exp": 1145,
      "ĠÃ©conom": 1146,
      "vironnement": 1147,
      "Ġind": 1148,
      "Ġmandat": 1149,
      "ole": 1150,
      "mission": 1151,
      "organisme": 1152,
      "Ġterritoire": 1153,
      "Ġouv": 1154,
      "Ġdestin": 1155,
      "Ġcin": 1156,
      "Ġjur": 1157,
      "off": 1158,
      "ettre": 1159,
      "ĠdonnÃ©es": 1160,
      "ordre": 1161,
      "ĠdÃ©fini": 1162,
      "cid": 1163,
      "Ã©cution": 1164,
      "Ġpres": 1165,
      "Ġutilis": 1166,
      "aine": 1167,
      "ĠsociÃ©tÃ©s": 1168,
      "Ġprotection": 1169,
      "opÃ©ration": 1170,
      "ueil": 1171,
      "tiques": 1172,
      "Ġress": 1173,
      "Ġagents": 1174,
      "demn": 1175,
      "ouver": 1176,
      "ension": 1177,
      "ĠrÃ¨gles": 1178,
      "endre": 1179,
      "ateurs": 1180,
      "ĠprÃ©vus": 1181,
      "Ġpe": 1182,
      "Ġcontre": 1183,
      "ĠprÃ©sente": 1184,
      "ime": 1185,
      "mble": 1186,
      "ĠmatiÃ¨re": 1187,
      "Ġrecher": 1188,
      "valu": 1189,
      "Ġpron": 1190,
      "ĠÃ©lectr": 1191,
      "Ġtribunal": 1192,
      "ĠactivitÃ©s": 1193,
      "Ġmoyen": 1194,
      "Ġjour": 1195,
      "ĠdÃ©t": 1196,
      "ĠreprÃ©sentants": 1197,
      "Ġrele": 1198,
      "toute": 1199,
      "Ġfrais": 1200,
      "Ã¢": 1201,
      "Ġprise": 1202,
      "ĠÃ©lÃ©ment": 1203,
      "entes": 1204,
      "Ġcorres": 1205,
      "Ġdisposition": 1206,
      "ĠrÃ©glement": 1207,
      "Ġcorrespond": 1208,
      "cette": 1209,
      "ĠpÃ©riode": 1210,
      "Ġcal": 1211,
      "did": 1212,
      "inform": 1213,
      "Ġcandid": 1214,
      "Ġaff": 1215,
      "Ġpendant": 1216,
      "Ġdoivent": 1217,
      "Ġcontrib": 1218,
      "Ġseu": 1219,
      "Ġpaiement": 1220,
      "tÃ©s": 1221,
      "abit": 1222,
      "Ġ9": 1223,
      "Ġtous": 1224,
      "Ã©p": 1225,
      "Ġ200": 1226,
      "ĠâĢľ": 1227,
      "Ġfonctions": 1228,
      "aph": 1229,
      "ĠmÃªmes": 1230,
      "Ġjuge": 1231,
      "Ġent": 1232,
      "tique": 1233,
      "Ġdernier": 1234,
      "Ġparticuli": 1235,
      "lÃ©e": 1236,
      "udg": 1237,
      "Ġbudg": 1238,
      "ĠeuropÃ©enne": 1239,
      "ĠqualitÃ©": 1240,
      "ĠnÃ©cessaires": 1241,
      "ile": 1242,
      "Ã©di": 1243,
      "Ġeffet": 1244,
      "ond": 1245,
      "ites": 1246,
      "Ġlib": 1247,
      "ill": 1248,
      "tissement": 1249,
      "Ġcommunes": 1250,
      "con": 1251,
      "atives": 1252,
      "rÃ©s": 1253,
      "Ġcomme": 1254,
      "Ġtot": 1255,
      "gistre": 1256,
      "Ġadministrative": 1257,
      "Ġempl": 1258,
      "ĠsupÃ©rieur": 1259,
      "iers": 1260,
      "Ġsens": 1261,
      "enn": 1262,
      "trang": 1263,
      "dec": 1264,
      "atÃ©gor": 1265,
      "ire": 1266,
      "accord": 1267,
      "Ġpris": 1268,
      "Ġfam": 1269,
      "annÃ©e": 1270,
      "Ã©qu": 1271,
      "Ġtel": 1272,
      "parti": 1273,
      "Ġdocuments": 1274,
      "ĠdÃ©b": 1275,
      "Ġcompt": 1276,
      "sence": 1277,
      "ĠactivitÃ©": 1278,
      "Ġvaleur": 1279,
      "aissance": 1280,
      "nÃ©": 1281,
      "alable": 1282,
      "exÃ©cution": 1283,
      "up": 1284,
      "Ġdossi": 1285,
      "ensemble": 1286,
      "tribution": 1287,
      "inter": 1288,
      "avis": 1289,
      "ĠÃ©lÃ©ments": 1290,
      "ĠsiÃ¨": 1291,
      "Ġannu": 1292,
      "ĠcatÃ©gor": 1293,
      "Ġsom": 1294,
      "Ġsuivantes": 1295,
      "ax": 1296,
      "Ġmor": 1297,
      "ist": 1298,
      "raph": 1299,
      "Ġvers": 1300,
      "olution": 1301,
      "Ġconstat": 1302,
      "test": 1303,
      "hÃ©": 1304,
      "Ġoff": 1305,
      "ulation": 1306,
      "ĠdÃ©faut": 1307,
      "Ġsau": 1308,
      "Ġmal": 1309,
      "fois": 1310,
      "serv": 1311,
      "ĠcollectivitÃ©s": 1312,
      "Ġtaux": 1313,
      "ĠâĢĿ": 1314,
      "Ġobligations": 1315,
      "Ġz": 1316,
      "Ġphy": 1317,
      "Ġtax": 1318,
      "quÃª": 1319,
      "ĠÃ©lectron": 1320,
      "Ġvi": 1321,
      "ĠmÃ©dec": 1322,
      "mise": 1323,
      "Ġinc": 1324,
      "ĠfixÃ©": 1325,
      "ompag": 1326,
      "Ġmesure": 1327,
      "ĠdÃ©fense": 1328,
      "Ġceux": 1329,
      "ĠagrÃ©": 1330,
      "cip": 1331,
      "Ġ10": 1332,
      "Ġdou": 1333,
      "Ġtransf": 1334,
      "ĠÃ©conomique": 1335,
      "Ġpriv": 1336,
      "Ġaffec": 1337,
      "Ġche": 1338,
      "ĠrÃ©fÃ©rence": 1339,
      "Ġplace": 1340,
      "Ġcalcul": 1341,
      "Ã©l": 1342,
      "Ġretrait": 1343,
      "Ġconsult": 1344,
      "oires": 1345,
      "Ġconserv": 1346,
      "ĠauprÃ¨s": 1347,
      "Ġexp": 1348,
      "Ġattribu": 1349,
      "ze": 1350,
      "Ġam": 1351,
      "xim": 1352,
      "Ġsoumis": 1353,
      "Ġparties": 1354,
      "aise": 1355,
      "enses": 1356,
      "Ġinstall": 1357,
      "ĠrÃ©gime": 1358,
      "Ġpouv": 1359,
      "mun": 1360,
      "aisse": 1361,
      "Ġbiens": 1362,
      "Ġdemand": 1363,
      "Ġtitulaire": 1364,
      "Ġmat": 1365,
      "ications": 1366,
      "Ġmarch": 1367,
      "Ġmaj": 1368,
      "Ġdossier": 1369,
      "Ġactions": 1370,
      "Ġcommune": 1371,
      "Ġzon": 1372,
      "ler": 1373,
      "Ġtrait": 1374,
      "comm": 1375,
      "Ġcau": 1376,
      "icu": 1377,
      "Ġprofessionnel": 1378,
      "Ġmil": 1379,
      "atif": 1380,
      "Ã©nag": 1381,
      "Ġavoir": 1382,
      "Ġconjo": 1383,
      "Ġrespect": 1384,
      "Ġpersonnel": 1385,
      "ĠcompÃ©tente": 1386,
      "Ġrelevant": 1387,
      "Ġvue": 1388,
      "Ġcir": 1389,
      "Ġportant": 1390,
      "ind": 1391,
      "Ã©h": 1392,
      "ĠbÃ©nÃ©fici": 1393,
      "ĠrÃ©mun": 1394,
      "ĠdÃ©penses": 1395,
      "Ã©hicu": 1396,
      "ĠfranÃ§aise": 1397,
      "prim": 1398,
      "entions": 1399,
      "incip": 1400,
      "urer": 1401,
      "Ġchac": 1402,
      "Ġphysi": 1403,
      "tric": 1404,
      "Ġprincip": 1405,
      "ĠrÃ©gional": 1406,
      "uit": 1407,
      "ĠvÃ©hicu": 1408,
      "Ġrecherche": 1409,
      "Ġcapit": 1410,
      "Ġfixe": 1411,
      "ĠfranÃ§ais": 1412,
      "Ġrenouv": 1413,
      "Ġus": 1414,
      "ocation": 1415,
      "environnement": 1416,
      "isc": 1417,
      "Ġcommerce": 1418,
      "Ġils": 1419,
      "Ġcaisse": 1420,
      "lorsqu": 1421,
      "Ġprononc": 1422,
      "Ġfonctionnement": 1423,
      "esp": 1424,
      "exploitation": 1425,
      "Ġcondu": 1426,
      "Ġpos": 1427,
      "Ġcoll": 1428,
      "ĠsalariÃ©s": 1429,
      "Ġas": 1430,
      "Ġsituation": 1431,
      "Ġmis": 1432,
      "Ġapplicable": 1433,
      "ĠchargÃ©s": 1434,
      "valuation": 1435,
      "Ġprestations": 1436,
      "ĠcomplÃ©ment": 1437,
      "Ġtitres": 1438,
      "Ġvoie": 1439,
      "Ġbudget": 1440,
      "pose": 1441,
      "ĠrÃ©se": 1442,
      "atoire": 1443,
      "Ġnouvelle": 1444,
      "Ġsocial": 1445,
      "Ġcotis": 1446,
      "tation": 1447,
      "Ġtiers": 1448,
      "Ġsuppl": 1449,
      "Ġnum": 1450,
      "Ġproduit": 1451,
      "lique": 1452,
      "ĠannÃ©e": 1453,
      "Ġ13": 1454,
      "ver": 1455,
      "Ġexer": 1456,
      "ĠmarchÃ©": 1457,
      "Ġetat": 1458,
      "Ġcinq": 1459,
      "Ġsusp": 1460,
      "Ġmaladi": 1461,
      "mblÃ©e": 1462,
      "Ġgu": 1463,
      "Ġsix": 1464,
      "em": 1465,
      "ĠcollectivitÃ©": 1466,
      "Ġpolice": 1467,
      "atr": 1468,
      "Ġlesquelles": 1469,
      "Ġcertific": 1470,
      "Ġprogr": 1471,
      "Ġcivile": 1472,
      "Ġchambre": 1473,
      "habit": 1474,
      "Ã¨me": 1475,
      "Ġtoutes": 1476,
      "000": 1477,
      "ĠdÃ©rog": 1478,
      "Ġassu": 1479,
      "ase": 1480,
      "ĠrÃ©sultat": 1481,
      "Ġconsomm": 1482,
      "veill": 1483,
      "ataire": 1484,
      "naire": 1485,
      "Ġprogram": 1486,
      "duction": 1487,
      "gÃ©": 1488,
      "Ġcent": 1489,
      "ĠsiÃ¨ge": 1490,
      "Ġrelative": 1491,
      "Ġmissions": 1492,
      "Ġmaxim": 1493,
      "Ġquat": 1494,
      "Ġprop": 1495,
      "ĠdÃ©v": 1496,
      "Ġengag": 1497,
      "ĠcoopÃ©ration": 1498,
      "Ġproduction": 1499,
      "Ġpay": 1500,
      "Ġoc": 1501,
      "Ġpermettant": 1502,
      "ĠgÃ©nÃ©rale": 1503,
      "ĠpiÃ¨": 1504,
      "Ġadress": 1505,
      "Ġsol": 1506,
      "fr": 1507,
      "Ġ000": 1508,
      "Ġterritoriales": 1509,
      "ĠintÃ©ress": 1510,
      "Ġsyn": 1511,
      "ĠprÃ©cise": 1512,
      "ĠprÃ©alable": 1513,
      "pÃ´ts": 1514,
      "Ġval": 1515,
      "information": 1516,
      "Ġexig": 1517,
      "uis": 1518,
      "ĠdÃ©lÃ©gu": 1519,
      "ĠrÃ©pub": 1520,
      "uni": 1521,
      "veillance": 1522,
      "Ġconten": 1523,
      "employ": 1524,
      "ination": 1525,
      "ĠrÃ©c": 1526,
      "Ġniv": 1527,
      "ĠdÃ©pÃ´": 1528,
      "Ġrecours": 1529,
      "ĠdÃ©partemental": 1530,
      "cepti": 1531,
      "Ġsein": 1532,
      "Ġsaint": 1533,
      "Ġsyst": 1534,
      "Ġnav": 1535,
      "Ġcommerci": 1536,
      "Ġdocument": 1537,
      "ĠrÃ©publique": 1538,
      "Ġobjet": 1539,
      "Ġintern": 1540,
      "Ġraison": 1541,
      "ĠtroisiÃ¨me": 1542,
      "Ġreven": 1543,
      "inistres": 1544,
      "vidu": 1545,
      "mises": 1546,
      "urant": 1547,
      "Ġsuscepti": 1548,
      "quisi": 1549,
      "Ġci": 1550,
      "abil": 1551,
      "Ġtenu": 1552,
      "idic": 1553,
      "Ġjuridic": 1554,
      "itaires": 1555,
      "Ġstatu": 1556,
      "ancement": 1557,
      "Ġprix": 1558,
      "actions": 1559,
      "aide": 1560,
      "Ã©rÃªt": 1561,
      "ĠimpÃ´ts": 1562,
      "Â°,": 1563,
      "opp": 1564,
      "Ã®tre": 1565,
      "jud": 1566,
      "Ġrisques": 1567,
      "ĠprÃ©cis": 1568,
      "Ġconsid": 1569,
      "elopp": 1570,
      "Ġindividu": 1571,
      "ĠcaractÃ¨re": 1572,
      "jec": 1573,
      "Ġnotification": 1574,
      "ĠpremiÃ¨re": 1575,
      "quÃªte": 1576,
      "ennent": 1577,
      "Ġsurveillance": 1578,
      "Ġinscrit": 1579,
      "Ġiv": 1580,
      "Ġcompor": 1581,
      "vier": 1582,
      "Ġvol": 1583,
      "Ġcompris": 1584,
      "inte": 1585,
      "Ġlimite": 1586,
      "Ġqual": 1587,
      "onomie": 1588,
      "Ġsauf": 1589,
      "Ġtemps": 1590,
      "Ġfisc": 1591,
      "toutefois": 1592,
      "Ġconclu": 1593,
      "Ġchef": 1594,
      "Ã©m": 1595,
      "Ġoutre": 1596,
      "Ġjan": 1597,
      "Ġjanvier": 1598,
      "oles": 1599,
      "tien": 1600,
      "Ġbase": 1601,
      "ĠcrÃ©dit": 1602,
      "ĠrÃ©gionale": 1603,
      "Ġministres": 1604,
      "truc": 1605,
      "vestissement": 1606,
      "Ġ15": 1607,
      "ĠdÃ©signÃ©": 1608,
      "quels": 1609,
      "ĠrÃ©alisation": 1610,
      "ergie": 1611,
      "ĠdÃ©ce": 1612,
      "hÃ©r": 1613,
      "esti": 1614,
      "arrÃª": 1615,
      "Ġinstitu": 1616,
      "ureur": 1617,
      "Ġminim": 1618,
      "emploi": 1619,
      "Ġagricole": 1620,
      "assemblÃ©e": 1621,
      "ĠdÃ©cisions": 1622,
      "ĠdÃ©cembre": 1623,
      "Ġforme": 1624,
      "agric": 1625,
      "ĠmÃ©dica": 1626,
      "Ġsoins": 1627,
      "Ġqualif": 1628,
      "ote": 1629,
      "Ġactes": 1630,
      "Ġni": 1631,
      "Ġvie": 1632,
      "Ġtechniques": 1633,
      "oration": 1634,
      "ĠdiffÃ©r": 1635,
      "organisation": 1636,
      "Ġinfr": 1637,
      "Ġjusqu": 1638,
      "Ġier": 1639,
      "Ġcontrats": 1640,
      "ĠdÃ©ten": 1641,
      "office": 1642,
      "vement": 1643,
      "Ġcontribu": 1644,
      "ĠÃ©quip": 1645,
      "agriculture": 1646,
      "Ġjug": 1647,
      "ĠmatÃ©ri": 1648,
      "Ġminist": 1649,
      "Ġvente": 1650,
      "ĠÃ©lectronique": 1651,
      "Ġbes": 1652,
      "Ġref": 1653,
      "agrÃ©": 1654,
      "Ġbeso": 1655,
      "Ġremb": 1656,
      "ĠÃ©n": 1657,
      "Ġniveau": 1658,
      "Ġab": 1659,
      "Ġ202": 1660,
      "Ã©nergie": 1661,
      "Ġlogement": 1662,
      "ustr": 1663,
      "Ġliqu": 1664,
      "aprÃ¨s": 1665,
      "Ġfig": 1666,
      "Ġversement": 1667,
      "commun": 1668,
      "sions": 1669,
      "Ġprises": 1670,
      "mer": 1671,
      "Ġlocaux": 1672,
      "Ġconstruction": 1673,
      "agrÃ©ment": 1674,
      "bilitÃ©": 1675,
      "ĠÃ©crit": 1676,
      "Ġcentre": 1677,
      "Ġcivil": 1678,
      "ĠpiÃ¨ces": 1679,
      "Ġexploit": 1680,
      "ĠexÃ©c": 1681,
      "Ġmaladie": 1682,
      "Ġcommiss": 1683,
      "Ã©der": 1684,
      "ĠcollÃ¨g": 1685,
      "tice": 1686,
      "Ġgre": 1687,
      "Ġinforme": 1688,
      "Ġintercommun": 1689,
      "ĠcompÃ©tences": 1690,
      "tro": 1691,
      "Ġser": 1692,
      "Ġcert": 1693,
      "appel": 1694,
      "Ġmariti": 1695,
      "Ġsuivants": 1696,
      "Ġcop": 1697,
      "Ġterritoriale": 1698,
      "Ġtable": 1699,
      "Ġsyndic": 1700,
      "Ġdevant": 1701,
      "ann": 1702,
      "Ġmoyens": 1703,
      "Ã©v": 1704,
      "Ġcapital": 1705,
      "Ġmu": 1706,
      "ograph": 1707,
      "Ġtitulaires": 1708,
      "Ġappar": 1709,
      "tionn": 1710,
      "ompl": 1711,
      "Ġbis": 1712,
      "Ã¨de": 1713,
      "employeur": 1714,
      "orig": 1715,
      "Ġdix": 1716,
      "ons": 1717,
      "Ġobten": 1718,
      "rÃ©es": 1719,
      "tivement": 1720,
      "Ġcorrespondant": 1721,
      "Ġmutu": 1722,
      "Ã©rif": 1723,
      "Ġdemandeur": 1724,
      "Ġaccompag": 1725,
      "eures": 1726,
      "ĠvÃ©rif": 1727,
      "inaire": 1728,
      "icier": 1729,
      "Ġquel": 1730,
      "Ġindemn": 1731,
      "urb": 1732,
      "ing": 1733,
      "Ġcomprend": 1734,
      "Ġpubliques": 1735,
      "ĠreÃ§": 1736,
      "cipl": 1737,
      "Ġpension": 1738,
      "ich": 1739,
      "Ġfinancement": 1740,
      "Ã©valuation": 1741,
      "arma": 1742,
      "ĠdÃ©velopp": 1743,
      "ĠautoritÃ©s": 1744,
      "apac": 1745,
      "utilisation": 1746,
      "atique": 1747,
      "Ã©duc": 1748,
      "absence": 1749,
      "ĠrÃ©sultant": 1750,
      "ĠpropriÃ©taire": 1751,
      "isme": 1752,
      "urg": 1753,
      "Ġcharges": 1754,
      "Ġsommes": 1755,
      "Ġordonn": 1756,
      "aines": 1757,
      "amende": 1758,
      "Ġliquid": 1759,
      "Ġquin": 1760,
      "ĠdÃ©signÃ©s": 1761,
      "Ã©ro": 1762,
      "Ġtransmet": 1763,
      "iration": 1764,
      "ĠrÃ©munÃ©ration": 1765,
      "Ġtaxe": 1766,
      "Ġprofessionnels": 1767,
      "pÃ´t": 1768,
      "exe": 1769,
      "Ġgreff": 1770,
      "ĠrÃ©solution": 1771,
      "Ã©nagement": 1772,
      "ĠfixÃ©e": 1773,
      "lid": 1774,
      "Ġouvr": 1775,
      "Ġtraitement": 1776,
      "Ã©tat": 1777,
      "exception": 1778,
      "Ġrelatif": 1779,
      "Ġelles": 1780,
      "Ã§ant": 1781,
      "occ": 1782,
      "Ġcause": 1783,
      "instruction": 1784,
      "Ã©rÃ©s": 1785,
      "att": 1786,
      "Ġtechnique": 1787,
      "Ġcommuniqu": 1788,
      "ĠprÃ©cÃ©dent": 1789,
      "ĠdÃ©rogation": 1790,
      "fin": 1791,
      "accÃ¨s": 1792,
      "Ġgroupe": 1793,
      "Ġfois": 1794,
      "ĠÃ©gal": 1795,
      "tranger": 1796,
      "cien": 1797,
      "ources": 1798,
      "Ġconcernant": 1799,
      "Ġinterven": 1800,
      "su": 1801,
      "intÃ©rÃªt": 1802,
      "tent": 1803,
      "Ġautorisation": 1804,
      "Ġtableau": 1805,
      "Ġdomaine": 1806,
      "ĠremplacÃ©s": 1807,
      "Ã©ducation": 1808,
      "Ġcopie": 1809,
      "illes": 1810,
      "expiration": 1811,
      "Ġconcerne": 1812,
      "Ġinstallations": 1813,
      "ĠalinÃ©as": 1814,
      "ociation": 1815,
      "ĠbÃ¢": 1816,
      "ĠprocÃ©der": 1817,
      "lÃ©": 1818,
      "Ġmodification": 1819,
      "Ġobserv": 1820,
      "quisition": 1821,
      "Ġreconn": 1822,
      "fait": 1823,
      "aff": 1824,
      "orti": 1825,
      "Ġpharma": 1826,
      "Ġpass": 1827,
      "Ġproposition": 1828,
      "ĠdÃ©pos": 1829,
      "Ġpersonnels": 1830,
      "mand": 1831,
      "Ġrede": 1832,
      "Ġprocureur": 1833,
      "Ġrou": 1834,
      "Ġcondition": 1835,
      "Ġpeine": 1836,
      "Ġmotiv": 1837,
      "ĠmÃ©decin": 1838,
      "ĠprÃ©jud": 1839,
      "intÃ©ress": 1840,
      "Ġjustice": 1841,
      "Ġconjoint": 1842,
      "ĠcompÃ©tence": 1843,
      "atifs": 1844,
      "Ġintercommunale": 1845,
      "ĠbÃ©nÃ©ficiaire": 1846,
      "Ġredev": 1847,
      "Ġrecom": 1848,
      "Ġpouvoir": 1849,
      "Ġrefus": 1850,
      "ĠspÃ©cif": 1851,
      "Ġadap": 1852,
      "Ġgarantie": 1853,
      "ventu": 1854,
      "Ġplac": 1855,
      "Ġfinanciers": 1856,
      "ĠÃ©tu": 1857,
      "ous": 1858,
      "Ġrecommand": 1859,
      "Ġ11": 1860,
      "ĠrÃ©seau": 1861,
      "Ã©ris": 1862,
      "tÃ©e": 1863,
      "ĠdÃ©finis": 1864,
      "Ġrecouv": 1865,
      "Ġcond": 1866,
      "mi": 1867,
      "vision": 1868,
      "Ġfont": 1869,
      "Ġdirection": 1870,
      "Ġatte": 1871,
      "intÃ©ressÃ©": 1872,
      "Ġquatre": 1873,
      "ĠrÃ©union": 1874,
      "iÃ¨res": 1875,
      "Ġresponsable": 1876,
      "lais": 1877,
      "ints": 1878,
      "Ġcondam": 1879,
      "impÃ´t": 1880,
      "ĠministÃ¨re": 1881,
      "Ġfinancier": 1882,
      "ĠdÃ©veloppement": 1883,
      "ĠrelÃ¨": 1884,
      "ĠprÃª": 1885,
      "acte": 1886,
      "ivers": 1887,
      "Ġporte": 1888,
      "lon": 1889,
      "Ġdipl": 1890,
      "Ġbr": 1891,
      "Ġsc": 1892,
      "Ġgroupement": 1893,
      "Ġindiqu": 1894,
      "amÃ©nagement": 1895,
      "Ġcontin": 1896,
      "fs": 1897,
      "exc": 1898,
      "ĠdÃ¨s": 1899,
      "pit": 1900,
      "Ġnotifi": 1901,
      "rement": 1902,
      "Ġauc": 1903,
      "Ġentreprise": 1904,
      "Ġjuridiction": 1905,
      "eubles": 1906,
      "opÃ©r": 1907,
      "Ġfac": 1908,
      "ĠdÃ©pÃ´t": 1909,
      "Ġcotisations": 1910,
      "Ġorganisme": 1911,
      "entitÃ©": 1912,
      "Ġparticipation": 1913,
      "ĠÃ©tat": 1914,
      "Ġzone": 1915,
      "entiel": 1916,
      "ches": 1917,
      "ĠdÃ©lais": 1918,
      "Ġ12": 1919,
      "Ġlettre": 1920,
      "institu": 1921,
      "investissement": 1922,
      "ĠsalariÃ©": 1923,
      "ĠprÃ©vention": 1924,
      "prÃ©ci": 1925,
      "Ġeuros": 1926,
      "appliqu": 1927,
      "indemn": 1928,
      "vention": 1929,
      "ouverture": 1930,
      "Ġdiscipl": 1931,
      "Ġcommunication": 1932,
      "oraire": 1933,
      "tance": 1934,
      "ĠcompÃ©tent": 1935,
      "ĠpÃª": 1936,
      "Ġemploy": 1937,
      "ĠrÃ©sid": 1938,
      "ĠprÃ©judice": 1939,
      "ĠcaractÃ©ris": 1940,
      "ĠÃ©ventu": 1941,
      "Ġrest": 1942,
      "ĠresponsabilitÃ©": 1943,
      "ĠcollÃ¨ge": 1944,
      "Ġdirectement": 1945,
      "Ġcertificat": 1946,
      "Ġmorale": 1947,
      "Ġregistre": 1948,
      "ueur": 1949,
      "Ġcomptable": 1950,
      "Ġ22": 1951,
      "ĠsystÃ¨me": 1952,
      "Ġressources": 1953,
      "Ġaut": 1954,
      "orient": 1955,
      "Ġtransports": 1956,
      "Ġanim": 1957,
      "rec": 1958,
      "Ġreten": 1959,
      "ides": 1960,
      "Ġvig": 1961,
      "Ġdistribution": 1962,
      "Ġradi": 1963,
      "Ġparlement": 1964,
      "Ġnomm": 1965,
      "ĠdiplÃ´": 1966,
      "Ġcompos": 1967,
      "Ġlequel": 1968,
      "resse": 1969,
      "Ġprofessionnelles": 1970,
      "Ġconnaissance": 1971,
      "ĠprocÃ¨s": 1972,
      "testation": 1973,
      "Ġenc": 1974,
      "Ġheures": 1975,
      "Ġtard": 1976,
      "Ġcr": 1977,
      "ĠdÃ©partements": 1978,
      "registre": 1979,
      "ĠbÃ¢ti": 1980,
      "verb": 1981,
      "Ġrequ": 1982,
      "Ġimmob": 1983,
      "tifie": 1984,
      "ĠcatÃ©gorie": 1985,
      "Ġcession": 1986,
      "Ġchacun": 1987,
      "Ġmettre": 1988,
      "rance": 1989,
      "Ġmoment": 1990,
      "Ġprendre": 1991,
      "Ġobservations": 1992,
      "Ġmet": 1993,
      "endu": 1994,
      "autres": 1995,
      "naires": 1996,
      "aisant": 1997,
      "Ġpoursu": 1998,
      "ĠpropriÃ©tÃ©": 1999,
      "Ġtari": 2000,
      "origine": 2001,
      "Ġpuni": 2002,
      "Ġiniti": 2003,
      "iden": 2004,
      "issant": 2005,
      "Ġcomporte": 2006,
      "Ġ16": 2007,
      "ĠmÃ©dicale": 2008,
      "cev": 2009,
      "Ġfav": 2010,
      "Ġgestionnaire": 2011,
      "imes": 2012,
      "Ġappel": 2013,
      "Ġjustifi": 2014,
      "Ĥ¬": 2015,
      "Ġprend": 2016,
      "Ġacqu": 2017,
      "Ãªtre": 2018,
      "ĠdÃ©ch": 2019,
      "Ġfab": 2020,
      "Ġmun": 2021,
      "ĠâĤ¬": 2022,
      "Ġid": 2023,
      "alinÃ©": 2024,
      "ĠdÃ©m": 2025,
      "Ġdemander": 2026,
      "Ġusage": 2027,
      "ĠrÃ©parti": 2028,
      "art": 2029,
      "Ġbien": 2030,
      "iter": 2031,
      "aÃ®tre": 2032,
      "yp": 2033,
      "Ġlogements": 2034,
      "Ġdispositif": 2035,
      "ĠdÃ©termine": 2036,
      "Ġperman": 2037,
      "Ġtravaille": 2038,
      "Ġrisque": 2039,
      "nom": 2040,
      "accueil": 2041,
      "Ġvote": 2042,
      "alinÃ©a": 2043,
      "ĠconcernÃ©s": 2044,
      "ets": 2045,
      "ettes": 2046,
      "Ġvic": 2047,
      "Ġdemandes": 2048,
      "Ã©quip": 2049,
      "iÃ©": 2050,
      "Ġdispose": 2051,
      "Ġenf": 2052,
      "Ġrembour": 2053,
      "illet": 2054,
      "Ġvicti": 2055,
      "Ġquinze": 2056,
      "Ġparts": 2057,
      "ĠbÃ©nÃ©fice": 2058,
      "sont": 2059,
      "poser": 2060,
      "Ġspor": 2061,
      "ouvr": 2062,
      "Ġobjec": 2063,
      "Ġ31": 2064,
      "Ġterme": 2065,
      "Ġhors": 2066,
      "ĠdÃ©bit": 2067,
      "icile": 2068,
      "dess": 2069,
      "Ġ30": 2070,
      "ĠÃ©gale": 2071,
      "ĠmarchÃ©s": 2072,
      "Ã©conomie": 2073,
      "criptions": 2074,
      "Ġtotal": 2075,
      "sie": 2076,
      "Ġfamili": 2077,
      "Ġcircon": 2078,
      "Ġrendu": 2079,
      "arrÃªtÃ©": 2080,
      "itation": 2081,
      "imm": 2082,
      "Ġsim": 2083,
      "ĠcatÃ©gories": 2084,
      "ĠnÃ©cessaire": 2085,
      "Ġdomicile": 2086,
      "ĠrÃ©pond": 2087,
      "Ġvigueur": 2088,
      "Ã©lec": 2089,
      "Ġappr": 2090,
      "Ġcandidats": 2091,
      "Ġense": 2092,
      "Ġfins": 2093,
      "Ġfonci": 2094,
      "Ġmag": 2095,
      "oblig": 2096,
      "Ġcandidat": 2097,
      "Ġtant": 2098,
      "Ġcommissaire": 2099,
      "ĠdÃ©livrance": 2100,
      "ĠrÃ©fÃ©rences": 2101,
      "ĠrÃ©sultats": 2102,
      "ĠexcÃ©der": 2103,
      "apacitÃ©": 2104,
      "ĠnÃ©g": 2105,
      "Ã©rÃªts": 2106,
      "Ġremboursement": 2107,
      "Ġant": 2108,
      "Ġtransmission": 2109,
      "iditÃ©": 2110,
      "inc": 2111,
      "lation": 2112,
      "Ġafin": 2113,
      "ĠfinanciÃ¨re": 2114,
      "Ġpoly": 2115,
      "Ġtransfert": 2116,
      "Ġnaturel": 2117,
      "Ġmaire": 2118,
      "Ġsociales": 2119,
      "ĠmaniÃ¨re": 2120,
      "appliquent": 2121,
      "enc": 2122,
      "ĠprocÃ©dures": 2123,
      "Ġpeines": 2124,
      "Ġjuillet": 2125,
      "habitation": 2126,
      "ĠsupÃ©rieure": 2127,
      "Ġsatis": 2128,
      "onie": 2129,
      "ĠcoÃ»": 2130,
      "Ġsupprim": 2131,
      "Ġsuivi": 2132,
      "Ġocc": 2133,
      "ĠprÃ©senter": 2134,
      "Ġoffici": 2135,
      "cal": 2136,
      "Ġparis": 2137,
      "Ġdisp": 2138,
      "Ġcomport": 2139,
      "Ġbail": 2140,
      "stances": 2141,
      "infr": 2142,
      "Ġhand": 2143,
      "ĠcaractÃ©ristiques": 2144,
      "Ġparc": 2145,
      "icap": 2146,
      "Ġinternation": 2147,
      "ps": 2148,
      "lit": 2149,
      "ival": 2150,
      "Ġconseiller": 2151,
      "Ġassur": 2152,
      "Ġhandicap": 2153,
      "Ġretraite": 2154,
      "tÃ©es": 2155,
      "ospit": 2156,
      "Ġsecond": 2157,
      "ibles": 2158,
      "tÃ©gr": 2159,
      "icip": 2160,
      "onne": 2161,
      "Ġmunicip": 2162,
      "Ġmaritime": 2163,
      "Ġfaisant": 2164,
      "ologie": 2165,
      "Ġprogramme": 2166,
      "Ġorganisations": 2167,
      "ĠpÃ©r": 2168,
      "install": 2169,
      "Ġdouan": 2170,
      "inscription": 2171,
      "Ġagricoles": 2172,
      "az": 2173,
      "raÃ®": 2174,
      "Ġmajor": 2175,
      "aritÃ©": 2176,
      "empr": 2177,
      "ĠÃ©ch": 2178,
      "Ġtra": 2179,
      "Ã©rÃ©e": 2180,
      "autre": 2181,
      "exploitant": 2182,
      "Ġunique": 2183,
      "Ġconsommation": 2184,
      "ingt": 2185,
      "oix": 2186,
      "ĠlÃ©gis": 2187,
      "ĠvÃ©hicule": 2188,
      "Ġphysique": 2189,
      "ĠsÃ»": 2190,
      "Ġrenouvel": 2191,
      "Ġcentr": 2192,
      "ĠcrÃ©ation": 2193,
      "Ġsep": 2194,
      "ĠassociÃ©s": 2195,
      "Ġprud": 2196,
      "Ġadresse": 2197,
      "ĠsupplÃ©": 2198,
      "Ġstatut": 2199,
      "tropo": 2200,
      "Ġsite": 2201,
      "ĠautoritÃ©": 2202,
      "ĠperÃ§": 2203,
      "issement": 2204,
      "propri": 2205,
      "Ġindustr": 2206,
      "Ġtyp": 2207,
      "aly": 2208,
      "Ġpoli": 2209,
      "Ġmob": 2210,
      "Ġconsultation": 2211,
      "issue": 2212,
      "acement": 2213,
      "20": 2214,
      "ĠpÃªche": 2215,
      "enf": 2216,
      "Ġduquel": 2217,
      "Ã©donie": 2218,
      "Ġexercer": 2219,
      "lection": 2220,
      "ĠvÃ©hicules": 2221,
      "obligation": 2222,
      "ĠâĢĵ": 2223,
      "ĠmÃ©tropo": 2224,
      "nÃ©sie": 2225,
      "Ġculture": 2226,
      "ĠannÃ©es": 2227,
      "ĠcinÃ©": 2228,
      "Ġsolid": 2229,
      "Ġnorm": 2230,
      "ĠpolynÃ©sie": 2231,
      "Ġjourn": 2232,
      "calÃ©donie": 2233,
      "ĠopÃ©ration": 2234,
      "ĠdÃ©sig": 2235,
      "Ġtemporaire": 2236,
      "Ġfer": 2237,
      "Ġphysiques": 2238,
      "Ã©rant": 2239,
      "ĠfixÃ©s": 2240,
      "ĠinfÃ©rieur": 2241,
      "Ġexclu": 2242,
      "Ġlocal": 2243,
      "Ġprati": 2244,
      "ĠimmÃ©di": 2245,
      "Ġrecueil": 2246,
      "Ġstatuts": 2247,
      "Ġfaite": 2248,
      "Ġjugement": 2249,
      "otte": 2250,
      "Ġremise": 2251,
      "Ġrelatifs": 2252,
      "Ġconventions": 2253,
      "ĠmÃ©dical": 2254,
      "aient": 2255,
      "Ġdem": 2256,
      "Ġsuspension": 2257,
      "Ã©tranger": 2258,
      "anc": 2259,
      "ĠprÃ©par": 2260,
      "examen": 2261,
      "espace": 2262,
      "registrement": 2263,
      "Ġuti": 2264,
      "adÃ©m": 2265,
      "rig": 2266,
      "Ġterritorial": 2267,
      "Ġpatr": 2268,
      "Ġprofession": 2269,
      "Ġpermis": 2270,
      "Ġrend": 2271,
      "ĠÃ©trang": 2272,
      "anisme": 2273,
      "Ġpossi": 2274,
      "istr": 2275,
      "Ġressort": 2276,
      "engag": 2277,
      "Ġmagistr": 2278,
      "ĠconcernÃ©": 2279,
      "Ġsusceptibles": 2280,
      "Ã¨tre": 2281,
      "usion": 2282,
      "ĠdÃ©finie": 2283,
      "ĠÃ©quival": 2284,
      "ĠexerÃ§ant": 2285,
      "ĠsÃ©j": 2286,
      "ĠdÃ©cid": 2287,
      "attribution": 2288,
      "lev": 2289,
      "Ã©rÃ©es": 2290,
      "ĠmÃ©dicament": 2291,
      "Ġrecettes": 2292,
      "Ġfinances": 2293,
      "Ġassociations": 2294,
      "Ġmilitaire": 2295,
      "Ġmain": 2296,
      "Ġmon": 2297,
      "Ġvertu": 2298,
      "dement": 2299,
      "yotte": 2300,
      "ĠÃ©p": 2301,
      "ĠnumÃ©ro": 2302,
      "Ġconcl": 2303,
      "Ġpublication": 2304,
      "Ġassurer": 2305,
      "urr": 2306,
      "Ġinfractions": 2307,
      "Ġple": 2308,
      "tifier": 2309,
      "Ġdot": 2310,
      "Ġ14": 2311,
      "ĠbÃ©nÃ©ficier": 2312,
      "Ġmayotte": 2313,
      "diction": 2314,
      "ffis": 2315,
      "Ġall": 2316,
      "atoires": 2317,
      "amp": 2318,
      "Ġclass": 2319,
      "erts": 2320,
      "ataires": 2321,
      "ĠdÃ©libÃ©ration": 2322,
      "antes": 2323,
      "Ġmarchand": 2324,
      "gard": 2325,
      "dits": 2326,
      "acquisition": 2327,
      "Ġimmobil": 2328,
      "Ġparmi": 2329,
      "Ġconces": 2330,
      "Ġvingt": 2331,
      "Ġfaits": 2332,
      "Ġstruc": 2333,
      "ses": 2334,
      "ĠtÃ©l": 2335,
      "asion": 2336,
      "Ġannuel": 2337,
      "ĠrÃ©d": 2338,
      "oyer": 2339,
      "Ġscien": 2340,
      "ĠprocÃ©dÃ©": 2341,
      "Ġscientif": 2342,
      "retÃ©": 2343,
      "ute": 2344,
      "Ġconseils": 2345,
      "ende": 2346,
      "cessi": 2347,
      "intÃ©rieur": 2348,
      "Ġpartir": 2349,
      "Ġregard": 2350,
      "Ġw": 2351,
      "ĠÃ©v": 2352,
      "Ġexerce": 2353,
      "oient": 2354,
      "ĠprÃ©lÃ¨": 2355,
      "yc": 2356,
      "Ġlesquels": 2357,
      "Ġobjectifs": 2358,
      "itÃ©e": 2359,
      "Ġlieux": 2360,
      "Ġdemeure": 2361,
      "Ġvoix": 2362,
      "applique": 2363,
      "Ġvolont": 2364,
      "verbal": 2365,
      "ĠÃ©quipements": 2366,
      "Ġsupport": 2367,
      "atriÃ¨me": 2368,
      "ĠÃ©tablis": 2369,
      "association": 2370,
      "Ã©rer": 2371,
      "vient": 2372,
      "ĠrÃ©du": 2373,
      "dessus": 2374,
      "ĠrÃ©daction": 2375,
      "Ġgroupements": 2376,
      "agent": 2377,
      "Ġarm": 2378,
      "abilitÃ©s": 2379,
      "enant": 2380,
      "Ġsanction": 2381,
      "ĠquatriÃ¨me": 2382,
      "litÃ©": 2383,
      "Ġrenouvellement": 2384,
      "13": 2385,
      "cteur": 2386,
      "identification": 2387,
      "Ġconcurr": 2388,
      "Ġbesoins": 2389,
      "Ġ17": 2390,
      "Ġhaut": 2391,
      "Ġterra": 2392,
      "ains": 2393,
      "appr": 2394,
      "irm": 2395,
      "ĠsupplÃ©ment": 2396,
      "Ġaudi": 2397,
      "Ġimpos": 2398,
      "Ġcarte": 2399,
      "ĠaffÃ©r": 2400,
      "ange": 2401,
      "Ġfa": 2402,
      "ologique": 2403,
      "Ġ199": 2404,
      "Ġnouveau": 2405,
      "pa": 2406,
      "ong": 2407,
      "Ġforfait": 2408,
      "Ġparticulier": 2409,
      "lic": 2410,
      "Ġpatrim": 2411,
      "Ġgaranties": 2412,
      "ĠdÃ©tention": 2413,
      "ĠpÃ©rim": 2414,
      "Ġcli": 2415,
      "Ġseul": 2416,
      "installation": 2417,
      "Ġindustri": 2418,
      "Ġassure": 2419,
      "ĠfÃ©d": 2420,
      "Ġchacune": 2421,
      "Ġfigurant": 2422,
      "Ġrecouvrement": 2423,
      "ĠsÃ»retÃ©": 2424,
      "Ġmorales": 2425,
      "ĠexÃ©cut": 2426,
      "ĠcomplÃ©mentaire": 2427,
      "lusion": 2428,
      "Ġgaz": 2429,
      "ern": 2430,
      "Ġfournis": 2431,
      "ĠsÃ©jour": 2432,
      "ordonnance": 2433,
      "Ġchang": 2434,
      "ade": 2435,
      "urbanisme": 2436,
      "outre": 2437,
      "iÃ©e": 2438,
      "Ġadministratif": 2439,
      "Ġindirec": 2440,
      "Ġobligatoire": 2441,
      "assu": 2442,
      "Ġpropre": 2443,
      "ĠdÃ©lÃ©guÃ©": 2444,
      "sation": 2445,
      "iÃ©es": 2446,
      "Ġcinqu": 2447,
      "Ġcrit": 2448,
      "assement": 2449,
      "uve": 2450,
      "voi": 2451,
      "ĠconcernÃ©e": 2452,
      "ĠintÃ©rieur": 2453,
      "Ġprojets": 2454,
      "ĠdÃ©livrÃ©": 2455,
      "emp": 2456,
      "mat": 2457,
      "Ġplein": 2458,
      "ĠbÃ©nÃ©ficiaires": 2459,
      "oqu": 2460,
      "Ġapparten": 2461,
      "ĠadressÃ©e": 2462,
      "rÃ©t": 2463,
      "assurer": 2464,
      "Ġsanitaire": 2465,
      "Ġmilitaires": 2466,
      "Ġprestation": 2467,
      "Ġfournit": 2468,
      "Ġannex": 2469,
      "Ġrur": 2470,
      "ĠrecommandÃ©e": 2471,
      "ĠdÃ©cÃ¨s": 2472,
      "Ġenvis": 2473,
      "ĠconformitÃ©": 2474,
      "Ġcomb": 2475,
      "Ġbure": 2476,
      "ĠdiplÃ´me": 2477,
      "itenti": 2478,
      "sif": 2479,
      "ĠpÃ©nitenti": 2480,
      "Ġtransmis": 2481,
      "Ã©taire": 2482,
      "ĠÃ©tablie": 2483,
      "Ġca": 2484,
      "mentation": 2485,
      "ĠrÃ©duction": 2486,
      "ĠspÃ©cialis": 2487,
      "Ġmandataire": 2488,
      "ĠÃ©lus": 2489,
      "Ġpropor": 2490,
      "ĠsecrÃ©t": 2491,
      "12": 2492,
      "Ġconcurrence": 2493,
      "Ġclasse": 2494,
      "ĠfinanciÃ¨res": 2495,
      "ĠpÃ©nal": 2496,
      "istes": 2497,
      "uc": 2498,
      "ĠprÃ©sentation": 2499,
      "Ġplaf": 2500,
      "ĠdÃ©biteur": 2501,
      "Ã©li": 2502,
      "Ġdispositifs": 2503,
      "Ã©ch": 2504,
      "ĠopÃ©r": 2505,
      "eff": 2506,
      "ĠrÃ©sidence": 2507,
      "Ġcompens": 2508,
      "urgence": 2509,
      "Ġzones": 2510,
      "ĠschÃ©": 2511,
      "Ġaccompl": 2512,
      "ĠintÃ©rÃªts": 2513,
      "Ġinstru": 2514,
      "Ġpost": 2515,
      "Ġgrav": 2516,
      "Ġsomme": 2517,
      "auteur": 2518,
      "istance": 2519,
      "ĠdÃ©lÃ©gation": 2520,
      "euv": 2521,
      "Ġaides": 2522,
      "Ġhospit": 2523,
      "Ġrevenus": 2524,
      "Ġpays": 2525,
      "Ġscol": 2526,
      "Ġprovis": 2527,
      "Ġexercice": 2528,
      "Ġfavor": 2529,
      "effec": 2530,
      "ĠdÃ©signation": 2531,
      "enregistrement": 2532,
      "ĠcritÃ¨res": 2533,
      "Ġjournal": 2534,
      "positions": 2535,
      "Ġsoumises": 2536,
      "Ġesti": 2537,
      "Ġcontrav": 2538,
      "Ġmanque": 2539,
      "Ġfich": 2540,
      "Ã¨le": 2541,
      "Ġinformation": 2542,
      "ĠrÃ©partition": 2543,
      "ĠchargÃ©e": 2544,
      "ĠdÃ©chets": 2545,
      "tricitÃ©": 2546,
      "lle": 2547,
      "Ġrenseignement": 2548,
      "ĠrÃ©di": 2549,
      "Ġcorps": 2550,
      "Ġjustific": 2551,
      "ain": 2552,
      "tout": 2553,
      "Ġdispens": 2554,
      "Ġchi": 2555,
      "Ġprom": 2556,
      "Ġsuc": 2557,
      "Ġsaisie": 2558,
      "cident": 2559,
      "dique": 2560,
      "Ġalors": 2561,
      "Ġmer": 2562,
      "Ġorgan": 2563,
      "ĠparticuliÃ¨res": 2564,
      "Ġchois": 2565,
      "agn": 2566,
      "isonnement": 2567,
      "sim": 2568,
      "Ġesp": 2569,
      "ali": 2570,
      "adresse": 2571,
      "ĠinfÃ©rieure": 2572,
      "matric": 2573,
      "Ġconsul": 2574,
      "Ġcircul": 2575,
      "Ġenfants": 2576,
      "ĠdÃ©libÃ©rations": 2577,
      "Ġplacement": 2578,
      "ĠÂ": 2579,
      "Ġexam": 2580,
      "Ġdirig": 2581,
      "ertion": 2582,
      "Ġsusceptible": 2583,
      "occasion": 2584,
      "Ġdomm": 2585,
      "ĠintÃ©ressÃ©s": 2586,
      "Ġgreffe": 2587,
      "Ġcomposition": 2588,
      "tici": 2589,
      "erre": 2590,
      "institut": 2591,
      "Ġenvironnement": 2592,
      "enquÃªte": 2593,
      "allocation": 2594,
      "ible": 2595,
      "Ġiden": 2596,
      "ĠdÃ©terminÃ©": 2597,
      "Ġprescriptions": 2598,
      "Ġlong": 2599,
      "Ġrecev": 2600,
      "Ġcontribution": 2601,
      "ĠmotivÃ©e": 2602,
      "eille": 2603,
      "ĠrÃ©guli": 2604,
      "Ġpropres": 2605,
      "mbres": 2606,
      "section": 2607,
      "tÃ©g": 2608,
      "ĠÃ¢": 2609,
      "Ġrevenu": 2610,
      "Ġconforme": 2611,
      "Ġpermettre": 2612,
      "Ġaffaires": 2613,
      "Ġdonner": 2614,
      "Ġpati": 2615,
      "Ġtelle": 2616,
      "Ġconservation": 2617,
      "ĠpÃ©nale": 2618,
      "Ġsignature": 2619,
      "ĠpublicitÃ©": 2620,
      "Ġfonctionnaires": 2621,
      "Ġconcours": 2622,
      "11": 2623,
      "sous": 2624,
      "dr": 2625,
      "ĠentraÃ®": 2626,
      "Ġsanctions": 2627,
      "Ġmises": 2628,
      "agraph": 2629,
      "Ġbil": 2630,
      "Ġtravailleurs": 2631,
      "th": 2632,
      "imin": 2633,
      "tient": 2634,
      "Ġali": 2635,
      "ĠmÃ©t": 2636,
      "tiers": 2637,
      "ĠprocÃ¨de": 2638,
      "ĠprÃ©sence": 2639,
      "Ã§on": 2640,
      "mar": 2641,
      "esse": 2642,
      "Ġje": 2643,
      "Ġdiv": 2644,
      "Ġimmeubles": 2645,
      "Ġcomportant": 2646,
      "Ġsecteur": 2647,
      "Ġpropos": 2648,
      "euble": 2649,
      "Ġprudentiel": 2650,
      "utÃ©": 2651,
      "Ġliquidation": 2652,
      "Ġlimites": 2653,
      "Ġdouanes": 2654,
      "Ġmai": 2655,
      "Ġacte": 2656,
      "stitu": 2657,
      "ock": 2658,
      "Ã©lectricitÃ©": 2659,
      "ĠpÃ©rimÃ¨tre": 2660,
      "Ġpatrimo": 2661,
      "Ġplur": 2662,
      "atement": 2663,
      "Ġmarchandises": 2664,
      "Ġprescrit": 2665,
      "ĠprononcÃ©e": 2666,
      "aces": 2667,
      "ĠrÃ©un": 2668,
      "Ġengagements": 2669,
      "tiÃ¨res": 2670,
      "affec": 2671,
      "ĠdestinÃ©s": 2672,
      "aute": 2673,
      "ĠconcernÃ©es": 2674,
      "ĠdÃ©partementale": 2675,
      "indemnitÃ©": 2676,
      "uclÃ©": 2677,
      "Ġplafond": 2678,
      "Ġstock": 2679,
      "una": 2680,
      "allis": 2681,
      "ĠrÃ©par": 2682,
      "Ġdonne": 2683,
      "posent": 2684,
      "accompag": 2685,
      "infraction": 2686,
      "Ġwallis": 2687,
      "utuna": 2688,
      "jou": 2689,
      "ĠhabilitÃ©": 2690,
      "inspec": 2691,
      "uelle": 2692,
      "Ġchambres": 2693,
      "Ġsoumise": 2694,
      "ĠcrÃ©anci": 2695,
      "ĠdÃ©terminÃ©es": 2696,
      "Ġpolitique": 2697,
      "Ġ23": 2698,
      "Ġminimum": 2699,
      "ĠdÃ©terminÃ©e": 2700,
      "Ġsubordonn": 2701,
      ").": 2702,
      "Ġmanif": 2703,
      "istant": 2704,
      "ĠcongÃ©": 2705,
      "Ġappartenant": 2706,
      "Ġsuite": 2707,
      "Ġmobil": 2708,
      "ĠarmÃ©es": 2709,
      "ĠforÃª": 2710,
      "import": 2711,
      "Ġsurf": 2712,
      "titude": 2713,
      "ĠmajoritÃ©": 2714,
      "one": 2715,
      "ĠhabilitÃ©s": 2716,
      "Ġporter": 2717,
      "tures": 2718,
      "ĠdÃ©livrÃ©e": 2719,
      "Ġtenant": 2720,
      "ĠrÃ©glementation": 2721,
      "ĠrÃ©si": 2722,
      "Ġformations": 2723,
      "ulle": 2724,
      "Ġexception": 2725,
      "Ġcondamn": 2726,
      "leur": 2727,
      "Ġgouver": 2728,
      "Ġ198": 2729,
      "ĠvÃ©t": 2730,
      "Ġdistin": 2731,
      "Ġlic": 2732,
      "ciens": 2733,
      "ane": 2734,
      "audi": 2735,
      "ide": 2736,
      "pect": 2737,
      "Ġtype": 2738,
      "atici": 2739,
      "achat": 2740,
      "Ġprovision": 2741,
      "ande": 2742,
      "ariat": 2743,
      "Ġcoordonn": 2744,
      "ologiques": 2745,
      "ĠaffectÃ©s": 2746,
      "mique": 2747,
      "Ġattributions": 2748,
      "Ġapport": 2749,
      "Ġbureau": 2750,
      "ĠvÃ©tÃ©r": 2751,
      "Ġjuin": 2752,
      "ĠprivÃ©": 2753,
      "Ġpop": 2754,
      "Ġoccup": 2755,
      "ĠcapacitÃ©": 2756,
      "ĠclÃ´": 2757,
      "ĠindÃ©p": 2758,
      "Ġimp": 2759,
      "Ġtarif": 2760,
      "Ġlab": 2761,
      "Ġpouvant": 2762,
      "Ġpratici": 2763,
      "Ġcontraire": 2764,
      "Ġsociaux": 2765,
      "Ġchoix": 2766,
      "agit": 2767,
      "ĠprÃ©alablement": 2768,
      "Ġapprouv": 2769,
      "Ġparagraph": 2770,
      "ĠimmÃ©diatement": 2771,
      "Ġ50": 2772,
      "Ġsuit": 2773,
      "ĠnuclÃ©": 2774,
      "ĠmÃ©c": 2775,
      "identitÃ©": 2776,
      "Ġgrat": 2777,
      "Ġenti": 2778,
      "enfant": 2779,
      "exercer": 2780,
      "erti": 2781,
      "option": 2782,
      "Ġlocation": 2783,
      "ĠpÃ©nitentiaire": 2784,
      "ĠprÃ©vis": 2785,
      "atis": 2786,
      "usage": 2787,
      "Ġtour": 2788,
      "Ã¨tres": 2789,
      "Ġtrouv": 2790,
      "assurÃ©": 2791,
      "ov": 2792,
      "ro": 2793,
      "Ġbesoin": 2794,
      "ĠderniÃ¨re": 2795,
      "Ġacquis": 2796,
      "Ġcontenu": 2797,
      "Ġunion": 2798,
      "mettre": 2799,
      "Ġcollectif": 2800,
      "Ġpatrimoine": 2801,
      "Ġetats": 2802,
      "aisses": 2803,
      "rier": 2804,
      "Ġinscrits": 2805,
      "Ġ25": 2806,
      "Ġhum": 2807,
      "ĠrelÃ¨ve": 2808,
      "ĠmÃ©dicaments": 2809,
      "Ġindique": 2810,
      "interdiction": 2811,
      "ĠsolidaritÃ©": 2812,
      "ĠrÃ©glementaire": 2813,
      "Ġexigences": 2814,
      "ĠdÃ©pl": 2815,
      "actu": 2816,
      "Ġfabr": 2817,
      "engagement": 2818,
      "annexe": 2819,
      "Ġchiff": 2820,
      "Ġcaisses": 2821,
      "igne": 2822,
      "puis": 2823,
      "Ġgl": 2824,
      "icie": 2825,
      "emprisonnement": 2826,
      "Ġ18": 2827,
      "ĠschÃ©ma": 2828,
      "ĠdÃ»": 2829,
      "Ġscr": 2830,
      "Ġsecret": 2831,
      "Ġmaximum": 2832,
      "ĠrÃ©gulation": 2833,
      "mÃª": 2834,
      "Ġauquel": 2835,
      "agers": 2836,
      "Ġreti": 2837,
      "orientation": 2838,
      "ĠpÃ©riodes": 2839,
      "Ġjuri": 2840,
      "Ġsatisf": 2841,
      "Ġmaximale": 2842,
      "Ġhospital": 2843,
      "simil": 2844,
      "ĠdÃ©r": 2845,
      "ĠcinÃ©mat": 2846,
      "ĠcinÃ©matograph": 2847,
      "Ġdepuis": 2848,
      "Ġrespectivement": 2849,
      "Ġimport": 2850,
      "ĠmatÃ©riels": 2851,
      "Ġaucune": 2852,
      "Ġfamille": 2853,
      "Ġvice": 2854,
      "attach": 2855,
      "ĠversÃ©es": 2856,
      "Ġtient": 2857,
      "Ġpoints": 2858,
      "Ġscientifique": 2859,
      "Ġtotale": 2860,
      "Ġjo": 2861,
      "avant": 2862,
      "Ġchangement": 2863,
      "Ġrural": 2864,
      "ĠeffectuÃ©e": 2865,
      "Ġtrente": 2866,
      "Ġappliqu": 2867,
      "ĠautorisÃ©": 2868,
      "Ġdispon": 2869,
      "ĠdonnÃ©": 2870,
      "10": 2871,
      "Ġsollic": 2872,
      "Ġprovisoire": 2873,
      "inaires": 2874,
      "ĠeffectuÃ©": 2875,
      "entrÃ©e": 2876,
      "Ġdistribu": 2877,
      "Ã¨mes": 2878,
      "Ġbois": 2879,
      "porteur": 2880,
      "ĠcomplÃ©mentaires": 2881,
      "ĠconnaÃ®tre": 2882,
      "Ġfraction": 2883,
      "ĠindemnitÃ©s": 2884,
      "ĠmÃ©tropole": 2885,
      "ĠrÃ©alisÃ©e": 2886,
      "duc": 2887,
      "ĠrÃ©put": 2888,
      "Ġcertaines": 2889,
      "aque": 2890,
      "mation": 2891,
      "ĠrÃ©glementaires": 2892,
      "insertion": 2893,
      "Ġhabit": 2894,
      "Ġprofit": 2895,
      "ĠrÃ©alisÃ©es": 2896,
      "Ġconsign": 2897,
      "Ġsoient": 2898,
      "pare": 2899,
      "ĠcontrÃ´les": 2900,
      "itiÃ©": 2901,
      "Ġvaleurs": 2902,
      "berg": 2903,
      "nelle": 2904,
      "ĠmoitiÃ©": 2905,
      "Ġglob": 2906,
      "ionn": 2907,
      "app": 2908,
      "Ã©rieurement": 2909,
      "Ġsaisi": 2910,
      "hÃ©rap": 2911,
      "iÃ©s": 2912,
      "utin": 2913,
      "Ġbilan": 2914,
      "Ġscrutin": 2915,
      "Ġnavig": 2916,
      "âĢ": 2917,
      "ĠvisÃ©s": 2918,
      "ĠutilisÃ©s": 2919,
      "Ġcontraventions": 2920,
      "Ġcorse": 2921,
      "ĠdÃ©clarations": 2922,
      "exclusion": 2923,
      "Ã©re": 2924,
      "Ã©gard": 2925,
      "ĠclÃ´ture": 2926,
      "Ġassimil": 2927,
      "once": 2928,
      "ulletin": 2929,
      "14": 2930,
      "Ġsport": 2931,
      "ĠrÃ©seaux": 2932,
      "Ã©diaire": 2933,
      "iser": 2934,
      "Ġguerre": 2935,
      "Ġpoint": 2936,
      "Ġsignif": 2937,
      "cidents": 2938,
      "Ġdues": 2939,
      "Ġbulletin": 2940,
      "ay": 2941,
      "Ġauxquelles": 2942,
      "ĠapprÃ©ci": 2943,
      "Ġimpl": 2944,
      "ĠdÃ©signe": 2945,
      "ĠfaÃ§on": 2946,
      "Ġassis": 2947,
      "Ġhuit": 2948,
      "ĠÃ©lectroniques": 2949,
      "ĠÃ©tudes": 2950,
      "yane": 2951,
      "ĠÃ©lector": 2952,
      "Ġquanti": 2953,
      "Ġindic": 2954,
      "Ġaur": 2955,
      "ress": 2956,
      "uration": 2957,
      "Ġappropri": 2958,
      "Ġnov": 2959,
      "Ġpoursuiv": 2960,
      "Ġpu": 2961,
      "Ã©tique": 2962,
      "enne": 2963,
      "ĠprÃ©ven": 2964,
      "Ġmix": 2965,
      "Ġfl": 2966,
      "obation": 2967,
      "aboration": 2968,
      "Ġcommissions": 2969,
      "Ġguyane": 2970,
      "ĠeffectuÃ©es": 2971,
      "Ġouvrages": 2972,
      "ĠdÃ©tail": 2973,
      "Ġstage": 2974,
      "Ġattest": 2975,
      "ĠnotifiÃ©e": 2976,
      "Ġrattach": 2977,
      "Ã¢ge": 2978,
      "Ġcirculation": 2979,
      "Ġcontinu": 2980,
      "ĠdÃ©finit": 2981,
      "Ġmen": 2982,
      "ĠnumÃ©ri": 2983,
      "Ġcommunications": 2984,
      "ĠrÃ¨glements": 2985,
      "ĠrÃ©aliser": 2986,
      "intervention": 2987,
      "rÃ©g": 2988,
      "iciaires": 2989,
      "Ġinv": 2990,
      "Ġinterm": 2991,
      "Ġtenus": 2992,
      "Ġrenseignements": 2993,
      "lir": 2994,
      "Ġassurances": 2995,
      "Ġenvisag": 2996,
      "oupe": 2997,
      "Ġcentres": 2998,
      "Ġgouvernement": 2999
    },
    "merges": [
      [
        "Ġ",
        "d"
      ],
      [
        "Ã",
        "©"
      ],
      [
        "e",
        "s"
      ],
      [
        "Ġ",
        "l"
      ],
      [
        "o",
        "n"
      ],
      [
        "t",
        "i"
      ],
      [
        "e",
        "n"
      ],
      [
        "Ġ",
        "p"
      ],
      [
        "Ġd",
        "e"
      ],
      [
        "Ġ",
        "c"
      ],
      [
        "Ġ",
        "a"
      ],
      [
        "ti",
        "on"
      ],
      [
        "r",
        "e"
      ],
      [
        "Ġ",
        "s"
      ],
      [
        "a",
        "n"
      ],
      [
        "i",
        "s"
      ],
      [
        "en",
        "t"
      ],
      [
        "a",
        "r"
      ],
      [
        "l",
        "e"
      ],
      [
        "o",
        "u"
      ],
      [
        "e",
        "r"
      ],
      [
        "i",
        "n"
      ],
      [
        "e",
        "t"
      ],
      [
        "Ġ",
        "m"
      ],
      [
        "i",
        "t"
      ],
      [
        "r",
        "Ã©"
      ],
      [
        "Ġl",
        "a"
      ],
      [
        "q",
        "u"
      ],
      [
        "a",
        "tion"
      ],
      [
        "Ġ",
        "Ã"
      ],
      [
        "o",
        "r"
      ],
      [
        "Ġd",
        "es"
      ],
      [
        "ĠÃ",
        "ł"
      ],
      [
        "u",
        "r"
      ],
      [
        "u",
        "n"
      ],
      [
        "Ġd",
        "u"
      ],
      [
        "Ġa",
        "u"
      ],
      [
        "m",
        "ent"
      ],
      [
        "Ġ",
        "et"
      ],
      [
        "Ġl",
        "e"
      ],
      [
        "Ġl",
        "es"
      ],
      [
        "Ġc",
        "on"
      ],
      [
        "i",
        "c"
      ],
      [
        "t",
        "e"
      ],
      [
        "t",
        "r"
      ],
      [
        "a",
        "l"
      ],
      [
        "o",
        "m"
      ],
      [
        "s",
        "i"
      ],
      [
        "an",
        "t"
      ],
      [
        "Ġd",
        "Ã©"
      ],
      [
        "Ġ",
        "f"
      ],
      [
        "Ġp",
        "ar"
      ],
      [
        "Ġ",
        "ou"
      ],
      [
        "Ġ",
        "n"
      ],
      [
        "i",
        "l"
      ],
      [
        "Ġp",
        "r"
      ],
      [
        "ti",
        "c"
      ],
      [
        "qu",
        "e"
      ],
      [
        "Ġp",
        "rÃ©"
      ],
      [
        "Ġ",
        "en"
      ],
      [
        "a",
        "i"
      ],
      [
        "s",
        "e"
      ],
      [
        "Ã©",
        "s"
      ],
      [
        "ou",
        "r"
      ],
      [
        "Ã",
        "¨"
      ],
      [
        "l",
        "es"
      ],
      [
        "an",
        "s"
      ],
      [
        "e",
        "l"
      ],
      [
        "Ġc",
        "om"
      ],
      [
        "Ã©",
        "r"
      ],
      [
        "a",
        "t"
      ],
      [
        "c",
        "e"
      ],
      [
        "Ġ",
        "re"
      ],
      [
        "Ġ",
        "un"
      ],
      [
        "Ġ",
        "rÃ©"
      ],
      [
        "Ġ",
        "Ã©"
      ],
      [
        "tic",
        "le"
      ],
      [
        "es",
        "t"
      ],
      [
        "on",
        "t"
      ],
      [
        "r",
        "es"
      ],
      [
        "a",
        "u"
      ],
      [
        "t",
        "re"
      ],
      [
        "ar",
        "ticle"
      ],
      [
        "Â",
        "°"
      ],
      [
        "a",
        "b"
      ],
      [
        "it",
        "Ã©"
      ],
      [
        "Ġ",
        "in"
      ],
      [
        "Ġpr",
        "o"
      ],
      [
        "a",
        "s"
      ],
      [
        "d",
        "e"
      ],
      [
        "p",
        "l"
      ],
      [
        "e",
        "u"
      ],
      [
        "c",
        "i"
      ],
      [
        "Ġ",
        "t"
      ],
      [
        "on",
        "n"
      ],
      [
        "Ġ",
        "est"
      ],
      [
        "Ã©",
        "e"
      ],
      [
        "tion",
        "s"
      ],
      [
        "Ġd",
        "ans"
      ],
      [
        "e",
        "x"
      ],
      [
        "Ġ",
        "qu"
      ],
      [
        "Ġ",
        "v"
      ],
      [
        "a",
        "c"
      ],
      [
        "Ã©",
        "es"
      ],
      [
        "d",
        "i"
      ],
      [
        "Ġ",
        ";"
      ],
      [
        "m",
        "e"
      ],
      [
        "a",
        "le"
      ],
      [
        "Ġau",
        "x"
      ],
      [
        "ai",
        "re"
      ],
      [
        "Ġp",
        "our"
      ],
      [
        "Ġm",
        "o"
      ],
      [
        "en",
        "tion"
      ],
      [
        "Ġc",
        "h"
      ],
      [
        "a",
        "g"
      ],
      [
        "Ġ",
        "g"
      ],
      [
        "e",
        "ment"
      ],
      [
        "Ġ",
        "tr"
      ],
      [
        "Ġ",
        "b"
      ],
      [
        "Ġc",
        "o"
      ],
      [
        "p",
        "r"
      ],
      [
        "er",
        "s"
      ],
      [
        "l",
        "i"
      ],
      [
        "p",
        "o"
      ],
      [
        "u",
        "s"
      ],
      [
        "Ġs",
        "ont"
      ],
      [
        "e",
        "c"
      ],
      [
        "ti",
        "v"
      ],
      [
        "ation",
        "s"
      ],
      [
        "Ġ",
        "1"
      ],
      [
        "Ġ",
        "r"
      ],
      [
        "i",
        "m"
      ],
      [
        "a",
        "p"
      ],
      [
        "c",
        "h"
      ],
      [
        "Ã©",
        "t"
      ],
      [
        "o",
        "i"
      ],
      [
        "s",
        "ent"
      ],
      [
        "Ġs",
        "ur"
      ],
      [
        "Ã",
        "ª"
      ],
      [
        "Ġ",
        "j"
      ],
      [
        "Ġ",
        "2"
      ],
      [
        "Ġm",
        "ention"
      ],
      [
        "ĠprÃ©",
        "v"
      ],
      [
        "ti",
        "f"
      ],
      [
        "t",
        "u"
      ],
      [
        "Ġcom",
        "p"
      ],
      [
        "e",
        "ur"
      ],
      [
        "Ġmention",
        "n"
      ],
      [
        "Ġa",
        "r"
      ],
      [
        "Ġs",
        "o"
      ],
      [
        "f",
        "f"
      ],
      [
        "i",
        "v"
      ],
      [
        "Ġp",
        "eu"
      ],
      [
        "Ġd",
        "is"
      ],
      [
        "t",
        "er"
      ],
      [
        "Ġun",
        "e"
      ],
      [
        "si",
        "on"
      ],
      [
        "l",
        "a"
      ],
      [
        "d",
        "u"
      ],
      [
        "ic",
        "ation"
      ],
      [
        "Ã©",
        "n"
      ],
      [
        "Ġ",
        "o"
      ],
      [
        "Ġcom",
        "m"
      ],
      [
        "un",
        "e"
      ],
      [
        "el",
        "le"
      ],
      [
        "or",
        "m"
      ],
      [
        "an",
        "ce"
      ],
      [
        "in",
        "is"
      ],
      [
        "c",
        "es"
      ],
      [
        "Ġ",
        "que"
      ],
      [
        "u",
        "b"
      ],
      [
        "Ġ",
        "ex"
      ],
      [
        "Ġa",
        "c"
      ],
      [
        "Ġa",
        "p"
      ],
      [
        "te",
        "ur"
      ],
      [
        "Ġqu",
        "i"
      ],
      [
        "t",
        "Ã©"
      ],
      [
        "u",
        "l"
      ],
      [
        "se",
        "ment"
      ],
      [
        "er",
        "v"
      ],
      [
        "po",
        "si"
      ],
      [
        "Ġ",
        ":"
      ],
      [
        "ĠdÃ©",
        "c"
      ],
      [
        "m",
        "b"
      ],
      [
        "is",
        "e"
      ],
      [
        "ĠprÃ©v",
        "u"
      ],
      [
        "i",
        "on"
      ],
      [
        "Ġp",
        "ers"
      ],
      [
        "Ġpers",
        "onn"
      ],
      [
        "l",
        "is"
      ],
      [
        "or",
        "s"
      ],
      [
        "Ġ",
        "ti"
      ],
      [
        "o",
        "it"
      ],
      [
        "a",
        "v"
      ],
      [
        "Ã©r",
        "i"
      ],
      [
        "i",
        "er"
      ],
      [
        "c",
        "tion"
      ],
      [
        "Ġa",
        "v"
      ],
      [
        "Ġs",
        "u"
      ],
      [
        "ai",
        "res"
      ],
      [
        "in",
        "s"
      ],
      [
        "or",
        "t"
      ],
      [
        "i",
        "e"
      ],
      [
        "it",
        "Ã©s"
      ],
      [
        "a",
        "is"
      ],
      [
        "ic",
        "e"
      ],
      [
        "Ġpeu",
        "t"
      ],
      [
        "au",
        "x"
      ],
      [
        "a",
        "m"
      ],
      [
        "t",
        "or"
      ],
      [
        "Ġle",
        "ur"
      ],
      [
        "Ġcon",
        "tr"
      ],
      [
        "Ġcon",
        "di"
      ],
      [
        "ĠprÃ©",
        "sent"
      ],
      [
        "Ġp",
        "ub"
      ],
      [
        "Ġcon",
        "s"
      ],
      [
        "Ġ",
        ","
      ],
      [
        "Ġdis",
        "posi"
      ],
      [
        "Ġd",
        "i"
      ],
      [
        "Ã©",
        "d"
      ],
      [
        "Ġc",
        "as"
      ],
      [
        "Ġco",
        "de"
      ],
      [
        "Ġa",
        "n"
      ],
      [
        "i",
        "Ã¨"
      ],
      [
        "Ġ",
        "i"
      ],
      [
        "m",
        "an"
      ],
      [
        "a",
        "it"
      ],
      [
        "o",
        "c"
      ],
      [
        "ar",
        "g"
      ],
      [
        "i",
        "g"
      ],
      [
        "en",
        "ce"
      ],
      [
        "Ġcondi",
        "tions"
      ],
      [
        "se",
        "il"
      ],
      [
        "qu",
        "es"
      ],
      [
        "i",
        "b"
      ],
      [
        "Ġn",
        "e"
      ],
      [
        "Ġcon",
        "seil"
      ],
      [
        "i",
        "x"
      ],
      [
        "Ġp",
        "as"
      ],
      [
        "Ġso",
        "ci"
      ],
      [
        "ĠrÃ©",
        "g"
      ],
      [
        "Ġap",
        "pl"
      ],
      [
        "ĠÃ",
        "ª"
      ],
      [
        "ĠÃª",
        "tre"
      ],
      [
        "p",
        "ar"
      ],
      [
        "Ġt",
        "ou"
      ],
      [
        "Ġch",
        "arg"
      ],
      [
        "ab",
        "lis"
      ],
      [
        "Ã¨",
        "s"
      ],
      [
        "t",
        "s"
      ],
      [
        "ou",
        "v"
      ],
      [
        "u",
        "re"
      ],
      [
        "ent",
        "re"
      ],
      [
        "Ã©",
        "c"
      ],
      [
        "Ġp",
        "l"
      ],
      [
        "o",
        "p"
      ],
      [
        "Ġs",
        "ou"
      ],
      [
        "Ã",
        "´"
      ],
      [
        "f",
        "orm"
      ],
      [
        "i",
        "r"
      ],
      [
        "ablis",
        "sement"
      ],
      [
        "i",
        "que"
      ],
      [
        "ĠÃ©",
        "t"
      ],
      [
        "Ġ",
        "h"
      ],
      [
        "in",
        "Ã©"
      ],
      [
        "Ġde",
        "man"
      ],
      [
        "a",
        "d"
      ],
      [
        "or",
        "d"
      ],
      [
        "ĠdÃ©",
        "f"
      ],
      [
        "o",
        "l"
      ],
      [
        "en",
        "d"
      ],
      [
        "t",
        "es"
      ],
      [
        "Ġa",
        "l"
      ],
      [
        "Ġf",
        "on"
      ],
      [
        "r",
        "it"
      ],
      [
        "Ġs",
        "on"
      ],
      [
        "v",
        "ent"
      ],
      [
        "Ġs",
        "erv"
      ],
      [
        "u",
        "e"
      ],
      [
        "or",
        "g"
      ],
      [
        "org",
        "an"
      ],
      [
        "Ġc",
        "es"
      ],
      [
        "Ġ",
        "3"
      ],
      [
        "ab",
        "le"
      ],
      [
        "Ġdisposi",
        "tions"
      ],
      [
        "en",
        "s"
      ],
      [
        "is",
        "sion"
      ],
      [
        "et",
        "te"
      ],
      [
        "Ġa",
        "d"
      ],
      [
        "Ġ",
        "e"
      ],
      [
        "s",
        "s"
      ],
      [
        "Ġcon",
        "c"
      ],
      [
        "ant",
        "s"
      ],
      [
        "ĠdÃ©",
        "l"
      ],
      [
        "o",
        "g"
      ],
      [
        "m",
        "es"
      ],
      [
        "i",
        "p"
      ],
      [
        "p",
        "rÃ©"
      ],
      [
        "o",
        "is"
      ],
      [
        "organ",
        "is"
      ],
      [
        "p",
        "ort"
      ],
      [
        "Ġtr",
        "ans"
      ],
      [
        "Ġt",
        "er"
      ],
      [
        "inis",
        "tr"
      ],
      [
        "Ã©",
        "g"
      ],
      [
        "Ġf",
        "ix"
      ],
      [
        "Ġpub",
        "l"
      ],
      [
        "Ġ",
        "â"
      ],
      [
        "Ġf",
        "r"
      ],
      [
        "tic",
        "les"
      ],
      [
        "le",
        "c"
      ],
      [
        "ag",
        "e"
      ],
      [
        "Ġar",
        "ticles"
      ],
      [
        "si",
        "d"
      ],
      [
        "al",
        "es"
      ],
      [
        "m",
        "pl"
      ],
      [
        "te",
        "ment"
      ],
      [
        "our",
        "s"
      ],
      [
        "ĠprÃ©vu",
        "es"
      ],
      [
        "o",
        "t"
      ],
      [
        "Ġm",
        "a"
      ],
      [
        "Ġal",
        "inÃ©"
      ],
      [
        "Ġl",
        "ors"
      ],
      [
        "Ġti",
        "tre"
      ],
      [
        "j",
        "et"
      ],
      [
        "el",
        "les"
      ],
      [
        "Ġc",
        "e"
      ],
      [
        "Ġdeman",
        "de"
      ],
      [
        "Ġ",
        "res"
      ],
      [
        "Ġpubl",
        "ic"
      ],
      [
        "Ġm",
        "Ãª"
      ],
      [
        "Ġpro",
        "c"
      ],
      [
        "Ã¨",
        "re"
      ],
      [
        "o",
        "b"
      ],
      [
        "ic",
        "i"
      ],
      [
        "Ġa",
        "ss"
      ],
      [
        "Ġâ",
        "Ģ"
      ],
      [
        "Ġs",
        "a"
      ],
      [
        "Ġre",
        "c"
      ],
      [
        "Ġdi",
        "re"
      ],
      [
        "que",
        "l"
      ],
      [
        "rÃ©",
        "e"
      ],
      [
        "Ġd",
        "r"
      ],
      [
        "Ġm",
        "inis"
      ],
      [
        "e",
        "mb"
      ],
      [
        "Ġo",
        "b"
      ],
      [
        "as",
        "s"
      ],
      [
        "m",
        "inistr"
      ],
      [
        "Ġdr",
        "oit"
      ],
      [
        "au",
        "tor"
      ],
      [
        "tiv",
        "e"
      ],
      [
        "Ġpro",
        "f"
      ],
      [
        "Ġl",
        "i"
      ],
      [
        "Ġtr",
        "av"
      ],
      [
        "Ġf",
        "in"
      ],
      [
        "Ġn",
        "ation"
      ],
      [
        "prÃ©",
        "sent"
      ],
      [
        "ĠalinÃ©",
        "a"
      ],
      [
        "Ã©",
        "ment"
      ],
      [
        "Ġre",
        "prÃ©sent"
      ],
      [
        "Ġg",
        "Ã©n"
      ],
      [
        "in",
        "e"
      ],
      [
        "in",
        "si"
      ],
      [
        "Ġa",
        "insi"
      ],
      [
        "ĠrÃ©",
        "s"
      ],
      [
        "is",
        "ation"
      ],
      [
        "is",
        "ion"
      ],
      [
        "a",
        "il"
      ],
      [
        "in",
        "t"
      ],
      [
        "n",
        "e"
      ],
      [
        "Ġ",
        "il"
      ],
      [
        "Ġc",
        "ette"
      ],
      [
        "o",
        "s"
      ],
      [
        "Ġ",
        "im"
      ],
      [
        "Ġin",
        "ter"
      ],
      [
        "Ġ2",
        "0"
      ],
      [
        "si",
        "onn"
      ],
      [
        "Ġj",
        "u"
      ],
      [
        "Ġ",
        "te"
      ],
      [
        "Ġsou",
        "s"
      ],
      [
        "ĠgÃ©n",
        "Ã©r"
      ],
      [
        "Ġs",
        "e"
      ],
      [
        "le",
        "ment"
      ],
      [
        "Ġa",
        "g"
      ],
      [
        "Ã",
        "§"
      ],
      [
        "Ġm",
        "emb"
      ],
      [
        "Ġp",
        "re"
      ],
      [
        "i",
        "d"
      ],
      [
        "et",
        "at"
      ],
      [
        "Ġprof",
        "es"
      ],
      [
        "Ã¨",
        "g"
      ],
      [
        "pr",
        "Ã¨s"
      ],
      [
        "er",
        "c"
      ],
      [
        "Ġ",
        "entre"
      ],
      [
        "Ġdire",
        "c"
      ],
      [
        "is",
        "es"
      ],
      [
        "Ġco",
        "l"
      ],
      [
        "Ġpro",
        "du"
      ],
      [
        "u",
        "x"
      ],
      [
        "Ġin",
        "s"
      ],
      [
        "ĠdÃ©l",
        "ai"
      ],
      [
        "ch",
        "Ã©"
      ],
      [
        "tr",
        "es"
      ],
      [
        "Ġp",
        "er"
      ],
      [
        "u",
        "i"
      ],
      [
        "ti",
        "tu"
      ],
      [
        "Ġ",
        "\""
      ],
      [
        "Ġpre",
        "m"
      ],
      [
        "Ġi",
        "i"
      ],
      [
        "Ġminis",
        "tre"
      ],
      [
        "t",
        "en"
      ],
      [
        "ab",
        "les"
      ],
      [
        "Ġf",
        "ait"
      ],
      [
        "Ġd",
        "ont"
      ],
      [
        "ti",
        "s"
      ],
      [
        "u",
        "tion"
      ],
      [
        "ce",
        "p"
      ],
      [
        "p",
        "on"
      ],
      [
        "Ġappl",
        "ication"
      ],
      [
        "Ġf",
        "orm"
      ],
      [
        "Ġpersonn",
        "es"
      ],
      [
        "ĠmÃª",
        "me"
      ],
      [
        "Ġcomm",
        "un"
      ],
      [
        "Ġpeu",
        "vent"
      ],
      [
        "Ġm",
        "ar"
      ],
      [
        "Ġpar",
        "ti"
      ],
      [
        "Ġpersonn",
        "e"
      ],
      [
        "Ġsu",
        "iv"
      ],
      [
        "ap",
        "pl"
      ],
      [
        "ĠprÃ©",
        "c"
      ],
      [
        "Ġsu",
        "p"
      ],
      [
        "sid",
        "ent"
      ],
      [
        "Ġde",
        "ux"
      ],
      [
        "Ã©r",
        "ation"
      ],
      [
        "ff",
        "ec"
      ],
      [
        "Ġ",
        "4"
      ],
      [
        "Ġs",
        "ec"
      ],
      [
        "Ġter",
        "rit"
      ],
      [
        "Ġmentionn",
        "Ã©s"
      ],
      [
        "Ġn",
        "om"
      ],
      [
        "al",
        "itÃ©s"
      ],
      [
        "en",
        "se"
      ],
      [
        "Ġmo",
        "d"
      ],
      [
        "r",
        "Ãª"
      ],
      [
        "tiv",
        "es"
      ],
      [
        "ĠdÃ©c",
        "ision"
      ],
      [
        "Ġprofes",
        "sionn"
      ],
      [
        "Ġav",
        "ec"
      ],
      [
        "Ġre",
        "la"
      ],
      [
        "ti",
        "n"
      ],
      [
        "ant",
        "Ã©"
      ],
      [
        "Ġcharg",
        "Ã©"
      ],
      [
        "Ġch",
        "a"
      ],
      [
        "Ġmentionn",
        "Ã©es"
      ],
      [
        "ĠÃ©t",
        "ablissement"
      ],
      [
        "Ġg",
        "r"
      ],
      [
        "n",
        "ement"
      ],
      [
        "Ġac",
        "c"
      ],
      [
        "Ġs",
        "antÃ©"
      ],
      [
        "a",
        "te"
      ],
      [
        "po",
        "s"
      ],
      [
        "t",
        "at"
      ],
      [
        "i",
        "es"
      ],
      [
        "tiv",
        "itÃ©"
      ],
      [
        "ĠdÃ©",
        "par"
      ],
      [
        "Ġr",
        "Ã¨g"
      ],
      [
        "ĠdÃ©f",
        "in"
      ],
      [
        "Ġ",
        "organis"
      ],
      [
        "ac",
        "c"
      ],
      [
        "ĠprÃ©",
        "sident"
      ],
      [
        "ic",
        "es"
      ],
      [
        "Ġs",
        "es"
      ],
      [
        "ent",
        "s"
      ],
      [
        "Ġtrav",
        "ail"
      ],
      [
        "oi",
        "re"
      ],
      [
        "Ġcomp",
        "Ã©t"
      ],
      [
        "ĠrÃ©g",
        "ion"
      ],
      [
        "it",
        "e"
      ],
      [
        "Ġso",
        "it"
      ],
      [
        "ĠdÃ©par",
        "tement"
      ],
      [
        "Ġconc",
        "er"
      ],
      [
        "a",
        "teur"
      ],
      [
        "l",
        "ors"
      ],
      [
        "Ġm",
        "ont"
      ],
      [
        "ĠdÃ©",
        "li"
      ],
      [
        "i",
        "ques"
      ],
      [
        "re",
        "t"
      ],
      [
        "an",
        "d"
      ],
      [
        "n",
        "Ã©e"
      ],
      [
        "Ġau",
        "tor"
      ],
      [
        "al",
        "itÃ©"
      ],
      [
        "tif",
        "s"
      ],
      [
        "Ġsoci",
        "Ã©t"
      ],
      [
        "autor",
        "itÃ©"
      ],
      [
        "Ã©c",
        "ur"
      ],
      [
        "Ġs",
        "Ã©cur"
      ],
      [
        "iÃ¨",
        "me"
      ],
      [
        "Ġcomm",
        "ission"
      ],
      [
        "si",
        "g"
      ],
      [
        "Ġ",
        "5"
      ],
      [
        "Ġappl",
        "ic"
      ],
      [
        "tr",
        "u"
      ],
      [
        "ĠÃ©",
        "g"
      ],
      [
        "tu",
        "re"
      ],
      [
        "Ã©t",
        "ablissement"
      ],
      [
        "Ġcon",
        "v"
      ],
      [
        "Ġserv",
        "ice"
      ],
      [
        "ent",
        "e"
      ],
      [
        "Ġo",
        "p"
      ],
      [
        "ĠsÃ©cur",
        "itÃ©"
      ],
      [
        "Ġcontr",
        "at"
      ],
      [
        "m",
        "et"
      ],
      [
        "Ġmod",
        "alitÃ©s"
      ],
      [
        "u",
        "ti"
      ],
      [
        "ĠgÃ©nÃ©r",
        "al"
      ],
      [
        "Ã©",
        "f"
      ],
      [
        "eur",
        "s"
      ],
      [
        "Ġprem",
        "ier"
      ],
      [
        "u",
        "t"
      ],
      [
        "g",
        "e"
      ],
      [
        "Ġd",
        "onn"
      ],
      [
        "Ġmo",
        "is"
      ],
      [
        "Ġdu",
        "rÃ©e"
      ],
      [
        "Ġcol",
        "lec"
      ],
      [
        "ar",
        "i"
      ],
      [
        "c",
        "r"
      ],
      [
        "Ġb",
        "Ã©n"
      ],
      [
        "ale",
        "ment"
      ],
      [
        "Ġar",
        "ticle"
      ],
      [
        "ĠÃ©",
        "tÃ©"
      ],
      [
        "Ġj",
        "us"
      ],
      [
        "Ġmont",
        "ant"
      ],
      [
        "Ġcontr",
        "Ã´"
      ],
      [
        "Ġcomp",
        "te"
      ],
      [
        "oi",
        "r"
      ],
      [
        "ĠbÃ©n",
        "Ã©f"
      ],
      [
        "Ġd",
        "ate"
      ],
      [
        "Ġar",
        "rÃª"
      ],
      [
        "or",
        "i"
      ],
      [
        "ur",
        "es"
      ],
      [
        "u",
        "m"
      ],
      [
        "ĠprÃ©vu",
        "e"
      ],
      [
        "Ġmemb",
        "res"
      ],
      [
        "Ġpub",
        "li"
      ],
      [
        "p",
        "ec"
      ],
      [
        "el",
        "s"
      ],
      [
        "al",
        "is"
      ],
      [
        "appl",
        "ication"
      ],
      [
        "ement",
        "s"
      ],
      [
        "Ġc",
        "rÃ©"
      ],
      [
        "li",
        "g"
      ],
      [
        "Ġlors",
        "que"
      ],
      [
        "is",
        "s"
      ],
      [
        "Ġleur",
        "s"
      ],
      [
        "Ġpar",
        "tic"
      ],
      [
        "Ġ",
        "eur"
      ],
      [
        "Ġin",
        "form"
      ],
      [
        "Ġmentionn",
        "Ã©"
      ],
      [
        "o",
        "ci"
      ],
      [
        "Ġtou",
        "t"
      ],
      [
        "Ġin",
        "f"
      ],
      [
        "Ġli",
        "eu"
      ],
      [
        "Ġdirec",
        "teur"
      ],
      [
        "Ġserv",
        "ices"
      ],
      [
        "Ġfon",
        "ction"
      ],
      [
        "Ġpl",
        "us"
      ],
      [
        "o",
        "y"
      ],
      [
        "il",
        "itÃ©"
      ],
      [
        "0",
        "0"
      ],
      [
        "Ã©ri",
        "eur"
      ],
      [
        "u",
        "d"
      ],
      [
        "an",
        "ces"
      ],
      [
        "ĠdÃ©",
        "p"
      ],
      [
        "ĠdÃ©c",
        "ret"
      ],
      [
        "ĠdÃ©c",
        "l"
      ],
      [
        "Ġl",
        "oc"
      ],
      [
        "it",
        "s"
      ],
      [
        "es",
        "tion"
      ],
      [
        "Ġm",
        "ise"
      ],
      [
        "Ġ",
        "("
      ],
      [
        "Ġa",
        "t"
      ],
      [
        "Ġs",
        "p"
      ],
      [
        "sig",
        "n"
      ],
      [
        "en",
        "ti"
      ],
      [
        "Ġs",
        "i"
      ],
      [
        "an",
        "ci"
      ],
      [
        "u",
        "v"
      ],
      [
        "t",
        "ant"
      ],
      [
        "ap",
        "it"
      ],
      [
        "ment",
        "s"
      ],
      [
        "at",
        "ure"
      ],
      [
        "ĠdÃ©cl",
        "ar"
      ],
      [
        "m",
        "is"
      ],
      [
        "cep",
        "tion"
      ],
      [
        "Ġm",
        "es"
      ],
      [
        "Ġmentionn",
        "Ã©e"
      ],
      [
        "ĠÃ©",
        "chÃ©"
      ],
      [
        "Ġa",
        "prÃ¨s"
      ],
      [
        "Ġmo",
        "ins"
      ],
      [
        "Ġg",
        "estion"
      ],
      [
        "om",
        "m"
      ],
      [
        "Ġn",
        "on"
      ],
      [
        "Ġtr",
        "ois"
      ],
      [
        "ou",
        "p"
      ],
      [
        "ĠÃ©",
        "c"
      ],
      [
        "Ġsoci",
        "ale"
      ],
      [
        "ter",
        "m"
      ],
      [
        "tr",
        "ib"
      ],
      [
        "an",
        "g"
      ],
      [
        "Ã©d",
        "ic"
      ],
      [
        "ĠÃ©chÃ©",
        "ant"
      ],
      [
        "v",
        "en"
      ],
      [
        "en",
        "ces"
      ],
      [
        "Ġn",
        "ot"
      ],
      [
        "d",
        "es"
      ],
      [
        "Ġad",
        "ministr"
      ],
      [
        "ĠcontrÃ´",
        "le"
      ],
      [
        "tiv",
        "itÃ©s"
      ],
      [
        "r",
        "ic"
      ],
      [
        "ad",
        "ministr"
      ],
      [
        "Ġc",
        "ar"
      ],
      [
        "Ġtou",
        "te"
      ],
      [
        "a",
        "tive"
      ],
      [
        "am",
        "ment"
      ],
      [
        "Ġm",
        "Ã©dic"
      ],
      [
        "Ġf",
        "or"
      ],
      [
        "ĠÃ©",
        "l"
      ],
      [
        "ĠÃ©tablissement",
        "s"
      ],
      [
        "Ġcha",
        "que"
      ],
      [
        "pr",
        "ise"
      ],
      [
        "p",
        "our"
      ],
      [
        "ex",
        "erc"
      ],
      [
        "Ġan",
        "n"
      ],
      [
        "Ã©",
        "du"
      ],
      [
        "ĠarrÃª",
        "tÃ©"
      ],
      [
        "eu",
        "re"
      ],
      [
        "Ġre",
        "mpl"
      ],
      [
        "Ġn",
        "o"
      ],
      [
        "pr",
        "i"
      ],
      [
        "ces",
        "s"
      ],
      [
        "au",
        "t"
      ],
      [
        "Ã©r",
        "ations"
      ],
      [
        "ĠreprÃ©sent",
        "ant"
      ],
      [
        "iÃ¨",
        "re"
      ],
      [
        "on",
        "om"
      ],
      [
        "Ġs",
        "ans"
      ],
      [
        "Ġterrit",
        "ori"
      ],
      [
        "Ġc",
        "or"
      ],
      [
        "lors",
        "que"
      ],
      [
        "el",
        "on"
      ],
      [
        "Ġcon",
        "form"
      ],
      [
        "Ġapplic",
        "ables"
      ],
      [
        "ĠdÃ©",
        "term"
      ],
      [
        "Ġin",
        "di"
      ],
      [
        "ch",
        "e"
      ],
      [
        "op",
        "Ã©"
      ],
      [
        "pl",
        "oit"
      ],
      [
        "Ġnot",
        "amment"
      ],
      [
        "Ġ",
        "6"
      ],
      [
        "il",
        "s"
      ],
      [
        "Ġb",
        "i"
      ],
      [
        "m",
        "p"
      ],
      [
        "Ġs",
        "al"
      ],
      [
        "ĠdÃ©",
        "sign"
      ],
      [
        "is",
        "te"
      ],
      [
        "Ġeur",
        "opÃ©"
      ],
      [
        "Ġform",
        "ation"
      ],
      [
        "cr",
        "ip"
      ],
      [
        "administr",
        "ation"
      ],
      [
        "ac",
        "tion"
      ],
      [
        "an",
        "ti"
      ],
      [
        "l",
        "u"
      ],
      [
        "Ġan",
        "s"
      ],
      [
        "er",
        "t"
      ],
      [
        "ob",
        "jet"
      ],
      [
        "Ġt",
        "en"
      ],
      [
        "uti",
        "lis"
      ],
      [
        "Ġin",
        "t"
      ],
      [
        "Ġsuiv",
        "ant"
      ],
      [
        "Ġs",
        "elon"
      ],
      [
        "Ġp",
        "h"
      ],
      [
        "al",
        "l"
      ],
      [
        "Ġn",
        "Ã©"
      ],
      [
        "ĠeuropÃ©",
        "en"
      ],
      [
        "Ġm",
        "Ã©"
      ],
      [
        "Ġcom",
        "pr"
      ],
      [
        "Ġnation",
        "al"
      ],
      [
        "a",
        "ti"
      ],
      [
        "Ġconcer",
        "n"
      ],
      [
        "Ġe",
        "ffec"
      ],
      [
        "Ġc",
        "l"
      ],
      [
        "Ġfin",
        "anci"
      ],
      [
        "Ġ",
        "7"
      ],
      [
        "ĠâĢ",
        "Ķ"
      ],
      [
        "Ġfr",
        "an"
      ],
      [
        "it",
        "u"
      ],
      [
        "Ġr",
        "ap"
      ],
      [
        "Ã¨",
        "res"
      ],
      [
        "Ġr",
        "en"
      ],
      [
        "Ġsp",
        "Ã©"
      ],
      [
        "eu",
        "x"
      ],
      [
        "Ġp",
        "ort"
      ],
      [
        "Ġa",
        "y"
      ],
      [
        "ĠspÃ©",
        "ci"
      ],
      [
        "Ġg",
        "ar"
      ],
      [
        "ici",
        "aire"
      ],
      [
        "ĠprÃ©",
        "f"
      ],
      [
        "ĠrÃ¨g",
        "lement"
      ],
      [
        "Ġparti",
        "e"
      ],
      [
        "ĠnÃ©",
        "cess"
      ],
      [
        "Ġnation",
        "ale"
      ],
      [
        "ĠrÃ©",
        "f"
      ],
      [
        "Ġd",
        "oit"
      ],
      [
        "Ġl",
        "iv"
      ],
      [
        "Ġn",
        "ature"
      ],
      [
        "Ġd",
        "oc"
      ],
      [
        "c",
        "tions"
      ],
      [
        "ac",
        "t"
      ],
      [
        "Å",
        "ĵ"
      ],
      [
        "Ġ20",
        "1"
      ],
      [
        "v",
        "al"
      ],
      [
        "exerc",
        "ice"
      ],
      [
        "Ġav",
        "is"
      ],
      [
        "Ġcon",
        "f"
      ],
      [
        "ĠsociÃ©t",
        "Ã©"
      ],
      [
        "Ġfix",
        "Ã©es"
      ],
      [
        "Ġau",
        "tres"
      ],
      [
        "ĠrÃ©s",
        "erv"
      ],
      [
        "e",
        "mpl"
      ],
      [
        "Ġs",
        "us"
      ],
      [
        "Ġl",
        "ui"
      ],
      [
        "Ġmo",
        "y"
      ],
      [
        "Ã©",
        "rÃ©"
      ],
      [
        "Ġdoc",
        "u"
      ],
      [
        "Ġfran",
        "Ã§"
      ],
      [
        "Ġ",
        "ont"
      ],
      [
        "Ġres",
        "pec"
      ],
      [
        "Ġob",
        "lig"
      ],
      [
        "Ġfon",
        "d"
      ],
      [
        "our",
        "n"
      ],
      [
        "mb",
        "re"
      ],
      [
        "Åĵ",
        "uv"
      ],
      [
        "ĠÃ©",
        "lec"
      ],
      [
        "i",
        "ti"
      ],
      [
        "v",
        "e"
      ],
      [
        "at",
        "s"
      ],
      [
        "Ġex",
        "erc"
      ],
      [
        "es",
        "s"
      ],
      [
        "Ġau",
        "tre"
      ],
      [
        "Ġcomp",
        "ter"
      ],
      [
        "Ġay",
        "ant"
      ],
      [
        "il",
        "le"
      ],
      [
        "ig",
        "n"
      ],
      [
        "m",
        "a"
      ],
      [
        "ord",
        "onn"
      ],
      [
        "Ã",
        "®"
      ],
      [
        "posi",
        "tion"
      ],
      [
        "Ġde",
        "r"
      ],
      [
        "Ġdroit",
        "s"
      ],
      [
        "Ġder",
        "n"
      ],
      [
        "Ġgr",
        "oup"
      ],
      [
        "om",
        "p"
      ],
      [
        "ĠrÃ©s",
        "ul"
      ],
      [
        "d",
        "ans"
      ],
      [
        "ch",
        "n"
      ],
      [
        "Ġ1",
        "9"
      ],
      [
        "pon",
        "d"
      ],
      [
        "onn",
        "ement"
      ],
      [
        "Ġav",
        "ant"
      ],
      [
        "Ġcomm",
        "er"
      ],
      [
        "Ġtrans",
        "port"
      ],
      [
        "s",
        "t"
      ],
      [
        "Ġs",
        "itu"
      ],
      [
        "ĠÃ©g",
        "alement"
      ],
      [
        "tif",
        "ication"
      ],
      [
        "Ġc",
        "iv"
      ],
      [
        "pri",
        "Ã©t"
      ],
      [
        "Ġ",
        "y"
      ],
      [
        "Ġconv",
        "ention"
      ],
      [
        "ĠdÃ©li",
        "v"
      ],
      [
        "Ġp",
        "la"
      ],
      [
        "Ġc",
        "ours"
      ],
      [
        "Ġs",
        "y"
      ],
      [
        "v",
        "ant"
      ],
      [
        "i",
        "qu"
      ],
      [
        "ĠprÃ©f",
        "et"
      ],
      [
        "g",
        "r"
      ],
      [
        "ag",
        "es"
      ],
      [
        "ab",
        "ilitÃ©"
      ],
      [
        "i",
        "f"
      ],
      [
        "end",
        "ant"
      ],
      [
        "Ġn",
        "ouv"
      ],
      [
        "Ġs",
        "ub"
      ],
      [
        "Ġprodu",
        "its"
      ],
      [
        "Ġp",
        "Ã©ri"
      ],
      [
        "ur",
        "s"
      ],
      [
        "Ġte",
        "chn"
      ],
      [
        "ĠrÃ©f",
        "Ã©r"
      ],
      [
        "ass",
        "ur"
      ],
      [
        "d",
        "ic"
      ],
      [
        "as",
        "se"
      ],
      [
        "tu",
        "l"
      ],
      [
        "ĠpÃ©ri",
        "o"
      ],
      [
        "Ġpubli",
        "que"
      ],
      [
        "Ġcons",
        "titu"
      ],
      [
        "Ġinform",
        "ations"
      ],
      [
        "il",
        "i"
      ],
      [
        "Ġc",
        "el"
      ],
      [
        "d",
        "it"
      ],
      [
        "ais",
        "s"
      ],
      [
        "Ġti",
        "tul"
      ],
      [
        "Ġpr",
        "est"
      ],
      [
        "Ġv",
        "is"
      ],
      [
        "ĠrÃ©",
        "p"
      ],
      [
        "Ġpro",
        "jet"
      ],
      [
        "di",
        "f"
      ],
      [
        "Ġl",
        "im"
      ],
      [
        "e",
        "au"
      ],
      [
        "t",
        "ou"
      ],
      [
        "Ġju",
        "d"
      ],
      [
        "un",
        "ion"
      ],
      [
        "tif",
        "i"
      ],
      [
        "Ġsal",
        "ari"
      ],
      [
        "Ġmo",
        "ts"
      ],
      [
        "Ã",
        "ł"
      ],
      [
        "in",
        "es"
      ],
      [
        "Ġproc",
        "Ã©d"
      ],
      [
        "Ã©du",
        "re"
      ],
      [
        "Ġl",
        "iste"
      ],
      [
        "b",
        "les"
      ],
      [
        "ĠdÃ©clar",
        "ation"
      ],
      [
        "ar",
        "d"
      ],
      [
        "u",
        "es"
      ],
      [
        "Ġproc",
        "Ã©dure"
      ],
      [
        "ac",
        "h"
      ],
      [
        "ol",
        "og"
      ],
      [
        "Ġpro",
        "priÃ©t"
      ],
      [
        "assur",
        "ance"
      ],
      [
        "Ġmo",
        "dif"
      ],
      [
        "ul",
        "t"
      ],
      [
        "b",
        "le"
      ],
      [
        "Ġd",
        "om"
      ],
      [
        "Ġrap",
        "port"
      ],
      [
        "Ġp",
        "o"
      ],
      [
        "Ġpartic",
        "ip"
      ],
      [
        "Ã©ri",
        "eure"
      ],
      [
        "Ġ",
        "Åĵuv"
      ],
      [
        "tru",
        "ction"
      ],
      [
        "Ġj",
        "ours"
      ],
      [
        "ĠÃ©t",
        "ab"
      ],
      [
        "Ġrela",
        "tives"
      ],
      [
        "Ġch",
        "apit"
      ],
      [
        "Ġv",
        "oi"
      ],
      [
        "Ġc",
        "ad"
      ],
      [
        "Ġconform",
        "Ã©ment"
      ],
      [
        "b",
        "re"
      ],
      [
        "al",
        "isation"
      ],
      [
        "Ġm",
        "ission"
      ],
      [
        "a",
        "ce"
      ],
      [
        "Ġf",
        "aire"
      ],
      [
        "Ġm",
        "in"
      ],
      [
        "Ġp",
        "ol"
      ],
      [
        "teur",
        "s"
      ],
      [
        "v",
        "i"
      ],
      [
        "u",
        "li"
      ],
      [
        "Ġs",
        "tat"
      ],
      [
        "Ġper",
        "met"
      ],
      [
        "Ġorganis",
        "mes"
      ],
      [
        "Ã",
        "»"
      ],
      [
        "Ġim",
        "m"
      ],
      [
        "pon",
        "s"
      ],
      [
        "Ġliv",
        "re"
      ],
      [
        "Ġnom",
        "bre"
      ],
      [
        "os",
        "si"
      ],
      [
        "a",
        "di"
      ],
      [
        "ti",
        "Ã¨re"
      ],
      [
        "Ġm",
        "an"
      ],
      [
        "Ã",
        "¹"
      ],
      [
        "Ġo",
        "Ã¹"
      ],
      [
        "Ġass",
        "oci"
      ],
      [
        "Ġacc",
        "ord"
      ],
      [
        "ĠrÃ©",
        "alis"
      ],
      [
        "Ġcel",
        "ui"
      ],
      [
        "Ġcharg",
        "e"
      ],
      [
        "pr",
        "ises"
      ],
      [
        "Ġm",
        "and"
      ],
      [
        "ex",
        "ploit"
      ],
      [
        "p",
        "Ã´"
      ],
      [
        "Ġeffec",
        "tu"
      ],
      [
        "Ġmemb",
        "re"
      ],
      [
        "ĠrÃ©serv",
        "e"
      ],
      [
        "u",
        "si"
      ],
      [
        "j",
        "o"
      ],
      [
        "ch",
        "er"
      ],
      [
        "Ġ",
        "elle"
      ],
      [
        "Ġp",
        "Ã©n"
      ],
      [
        "v",
        "is"
      ],
      [
        "ag",
        "ence"
      ],
      [
        "t",
        "all"
      ],
      [
        "pr",
        "o"
      ],
      [
        "Ġres",
        "pons"
      ],
      [
        "Ġc",
        "et"
      ],
      [
        "Ġchapit",
        "re"
      ],
      [
        "Ã©r",
        "ess"
      ],
      [
        "an",
        "te"
      ],
      [
        "quel",
        "le"
      ],
      [
        "Ġlors",
        "qu"
      ],
      [
        "autor",
        "isation"
      ],
      [
        "v",
        "es"
      ],
      [
        "c",
        "rit"
      ],
      [
        "Ġmes",
        "ures"
      ],
      [
        "Ġp",
        "or"
      ],
      [
        "ig",
        "nement"
      ],
      [
        "Ġs",
        "t"
      ],
      [
        "Ġla",
        "quelle"
      ],
      [
        "Ġii",
        "i"
      ],
      [
        "am",
        "en"
      ],
      [
        "c",
        "ul"
      ],
      [
        "ais",
        "on"
      ],
      [
        "Ġcad",
        "re"
      ],
      [
        "g",
        "is"
      ],
      [
        "Ġ",
        "%"
      ],
      [
        "Ġsec",
        "tion"
      ],
      [
        "usi",
        "eurs"
      ],
      [
        "ac",
        "tivitÃ©"
      ],
      [
        "Ġgar",
        "anti"
      ],
      [
        "Ġcar",
        "act"
      ],
      [
        "r",
        "a"
      ],
      [
        "Ġfond",
        "s"
      ],
      [
        "it",
        "aire"
      ],
      [
        "Ġpl",
        "usieurs"
      ],
      [
        "Ġop",
        "Ã©rations"
      ],
      [
        "elle",
        "ment"
      ],
      [
        "Ġc",
        "elle"
      ],
      [
        "Ġs",
        "ign"
      ],
      [
        "ĠprÃ©c",
        "Ã©d"
      ],
      [
        "Ġl",
        "Ã©g"
      ],
      [
        "Ġtr",
        "ib"
      ],
      [
        "Ġfr",
        "ance"
      ],
      [
        "crip",
        "tion"
      ],
      [
        "Ġpublic",
        "s"
      ],
      [
        "Ġpar",
        "t"
      ],
      [
        "on",
        "c"
      ],
      [
        "Ġcomp",
        "tes"
      ],
      [
        "Ġprofessionn",
        "elle"
      ],
      [
        "Ġv",
        "er"
      ],
      [
        "or",
        "me"
      ],
      [
        "Ġautor",
        "is"
      ],
      [
        "Ġtrib",
        "un"
      ],
      [
        "Ġl",
        "og"
      ],
      [
        "Ġc",
        "an"
      ],
      [
        "Ġl",
        "oi"
      ],
      [
        "Ġjud",
        "iciaire"
      ],
      [
        "Ġs",
        "Ã©"
      ],
      [
        "Ġ",
        "8"
      ],
      [
        "Ġv",
        "ale"
      ],
      [
        "Ġc",
        "er"
      ],
      [
        "Ġdi",
        "ff"
      ],
      [
        "Ġcom",
        "itÃ©"
      ],
      [
        "Ġcom",
        "pl"
      ],
      [
        "entre",
        "prise"
      ],
      [
        "te",
        "ction"
      ],
      [
        "Ġad",
        "res"
      ],
      [
        "Ġte",
        "mp"
      ],
      [
        "Ġc",
        "elles"
      ],
      [
        "qu",
        "is"
      ],
      [
        "Ġcon",
        "n"
      ],
      [
        "er",
        "g"
      ],
      [
        "ĠdÃ©l",
        "Ã©g"
      ],
      [
        "Ġr",
        "is"
      ],
      [
        "ff",
        "et"
      ],
      [
        "ĠÅĵuv",
        "re"
      ],
      [
        "Ġtrav",
        "aux"
      ],
      [
        "ul",
        "ture"
      ],
      [
        "ĠdÃ©li",
        "b"
      ],
      [
        "Ġs",
        "ais"
      ],
      [
        "tif",
        "ic"
      ],
      [
        "ĠrÃ©",
        "ception"
      ],
      [
        "ĠdÃ©fin",
        "ies"
      ],
      [
        "g",
        "ag"
      ],
      [
        "Ġrempl",
        "ac"
      ],
      [
        "ĠdÃ©term",
        "in"
      ],
      [
        "Ġc",
        "our"
      ],
      [
        "l",
        "Ã¨"
      ],
      [
        "de",
        "m"
      ],
      [
        "r",
        "og"
      ],
      [
        "Ġp",
        "a"
      ],
      [
        "Ġag",
        "ric"
      ],
      [
        "Ġdeux",
        "iÃ¨me"
      ],
      [
        "at",
        "Ã©g"
      ],
      [
        "p",
        "or"
      ],
      [
        "tr",
        "ait"
      ],
      [
        "trib",
        "u"
      ],
      [
        "ĠÃ©tab",
        "li"
      ],
      [
        "oi",
        "vent"
      ],
      [
        "v",
        "ir"
      ],
      [
        "Ġpl",
        "an"
      ],
      [
        "quel",
        "les"
      ],
      [
        "p",
        "el"
      ],
      [
        "re",
        "r"
      ],
      [
        "Ġex",
        "c"
      ],
      [
        "ĠÃ©",
        "qu"
      ],
      [
        "Ġp",
        "ai"
      ],
      [
        "Ġentre",
        "prises"
      ],
      [
        "Ġs",
        "an"
      ],
      [
        "Ã©r",
        "Ãª"
      ],
      [
        "ense",
        "ignement"
      ],
      [
        "Ġf",
        "ourn"
      ],
      [
        "ex",
        "p"
      ],
      [
        "ĠÃ©c",
        "onom"
      ],
      [
        "vir",
        "onnement"
      ],
      [
        "Ġin",
        "d"
      ],
      [
        "Ġmand",
        "at"
      ],
      [
        "o",
        "le"
      ],
      [
        "m",
        "ission"
      ],
      [
        "organis",
        "me"
      ],
      [
        "Ġterrit",
        "oire"
      ],
      [
        "Ġou",
        "v"
      ],
      [
        "Ġdes",
        "tin"
      ],
      [
        "Ġc",
        "in"
      ],
      [
        "Ġj",
        "ur"
      ],
      [
        "o",
        "ff"
      ],
      [
        "et",
        "tre"
      ],
      [
        "Ġdonn",
        "Ã©es"
      ],
      [
        "ord",
        "re"
      ],
      [
        "ĠdÃ©fin",
        "i"
      ],
      [
        "ci",
        "d"
      ],
      [
        "Ã©c",
        "ution"
      ],
      [
        "Ġpr",
        "es"
      ],
      [
        "Ġ",
        "utilis"
      ],
      [
        "a",
        "ine"
      ],
      [
        "ĠsociÃ©t",
        "Ã©s"
      ],
      [
        "Ġpro",
        "tection"
      ],
      [
        "op",
        "Ã©ration"
      ],
      [
        "ue",
        "il"
      ],
      [
        "ti",
        "ques"
      ],
      [
        "Ġres",
        "s"
      ],
      [
        "Ġag",
        "ents"
      ],
      [
        "dem",
        "n"
      ],
      [
        "ouv",
        "er"
      ],
      [
        "en",
        "sion"
      ],
      [
        "ĠrÃ¨g",
        "les"
      ],
      [
        "end",
        "re"
      ],
      [
        "ateur",
        "s"
      ],
      [
        "ĠprÃ©v",
        "us"
      ],
      [
        "Ġp",
        "e"
      ],
      [
        "Ġcon",
        "tre"
      ],
      [
        "ĠprÃ©sent",
        "e"
      ],
      [
        "i",
        "me"
      ],
      [
        "mb",
        "le"
      ],
      [
        "Ġma",
        "tiÃ¨re"
      ],
      [
        "Ġre",
        "cher"
      ],
      [
        "val",
        "u"
      ],
      [
        "Ġpr",
        "on"
      ],
      [
        "ĠÃ©lec",
        "tr"
      ],
      [
        "Ġtribun",
        "al"
      ],
      [
        "Ġac",
        "tivitÃ©s"
      ],
      [
        "Ġmoy",
        "en"
      ],
      [
        "Ġj",
        "our"
      ],
      [
        "ĠdÃ©",
        "t"
      ],
      [
        "ĠreprÃ©sent",
        "ants"
      ],
      [
        "Ġre",
        "le"
      ],
      [
        "tou",
        "te"
      ],
      [
        "Ġfr",
        "ais"
      ],
      [
        "Ã",
        "¢"
      ],
      [
        "Ġpr",
        "ise"
      ],
      [
        "ĠÃ©l",
        "Ã©ment"
      ],
      [
        "ent",
        "es"
      ],
      [
        "Ġcor",
        "res"
      ],
      [
        "Ġdisposi",
        "tion"
      ],
      [
        "ĠrÃ©g",
        "lement"
      ],
      [
        "Ġcorres",
        "pond"
      ],
      [
        "c",
        "ette"
      ],
      [
        "ĠpÃ©rio",
        "de"
      ],
      [
        "Ġc",
        "al"
      ],
      [
        "di",
        "d"
      ],
      [
        "in",
        "form"
      ],
      [
        "Ġcan",
        "did"
      ],
      [
        "Ġa",
        "ff"
      ],
      [
        "Ġp",
        "endant"
      ],
      [
        "Ġd",
        "oivent"
      ],
      [
        "Ġcontr",
        "ib"
      ],
      [
        "Ġs",
        "eu"
      ],
      [
        "Ġpai",
        "ement"
      ],
      [
        "t",
        "Ã©s"
      ],
      [
        "ab",
        "it"
      ],
      [
        "Ġ",
        "9"
      ],
      [
        "Ġtou",
        "s"
      ],
      [
        "Ã©",
        "p"
      ],
      [
        "Ġ20",
        "0"
      ],
      [
        "ĠâĢ",
        "ľ"
      ],
      [
        "Ġfon",
        "ctions"
      ],
      [
        "ap",
        "h"
      ],
      [
        "ĠmÃª",
        "mes"
      ],
      [
        "Ġju",
        "ge"
      ],
      [
        "Ġ",
        "ent"
      ],
      [
        "ti",
        "que"
      ],
      [
        "Ġdern",
        "ier"
      ],
      [
        "Ġpartic",
        "uli"
      ],
      [
        "l",
        "Ã©e"
      ],
      [
        "ud",
        "g"
      ],
      [
        "Ġb",
        "udg"
      ],
      [
        "ĠeuropÃ©en",
        "ne"
      ],
      [
        "Ġqu",
        "alitÃ©"
      ],
      [
        "ĠnÃ©cess",
        "aires"
      ],
      [
        "i",
        "le"
      ],
      [
        "Ã©",
        "di"
      ],
      [
        "Ġe",
        "ffet"
      ],
      [
        "on",
        "d"
      ],
      [
        "it",
        "es"
      ],
      [
        "Ġl",
        "ib"
      ],
      [
        "il",
        "l"
      ],
      [
        "tis",
        "sement"
      ],
      [
        "Ġcommun",
        "es"
      ],
      [
        "c",
        "on"
      ],
      [
        "a",
        "tives"
      ],
      [
        "rÃ©",
        "s"
      ],
      [
        "Ġcom",
        "me"
      ],
      [
        "Ġt",
        "ot"
      ],
      [
        "gis",
        "tre"
      ],
      [
        "Ġadministr",
        "ative"
      ],
      [
        "Ġe",
        "mpl"
      ],
      [
        "Ġsup",
        "Ã©rieur"
      ],
      [
        "i",
        "ers"
      ],
      [
        "Ġs",
        "ens"
      ],
      [
        "en",
        "n"
      ],
      [
        "tr",
        "ang"
      ],
      [
        "de",
        "c"
      ],
      [
        "atÃ©g",
        "or"
      ],
      [
        "i",
        "re"
      ],
      [
        "acc",
        "ord"
      ],
      [
        "Ġpr",
        "is"
      ],
      [
        "Ġf",
        "am"
      ],
      [
        "an",
        "nÃ©e"
      ],
      [
        "Ã©",
        "qu"
      ],
      [
        "Ġte",
        "l"
      ],
      [
        "par",
        "ti"
      ],
      [
        "Ġdocu",
        "ments"
      ],
      [
        "ĠdÃ©",
        "b"
      ],
      [
        "Ġcomp",
        "t"
      ],
      [
        "s",
        "ence"
      ],
      [
        "Ġac",
        "tivitÃ©"
      ],
      [
        "Ġvale",
        "ur"
      ],
      [
        "aiss",
        "ance"
      ],
      [
        "n",
        "Ã©"
      ],
      [
        "al",
        "able"
      ],
      [
        "ex",
        "Ã©cution"
      ],
      [
        "u",
        "p"
      ],
      [
        "Ġd",
        "ossi"
      ],
      [
        "ense",
        "mble"
      ],
      [
        "trib",
        "ution"
      ],
      [
        "in",
        "ter"
      ],
      [
        "av",
        "is"
      ],
      [
        "ĠÃ©lÃ©ment",
        "s"
      ],
      [
        "Ġs",
        "iÃ¨"
      ],
      [
        "Ġann",
        "u"
      ],
      [
        "Ġc",
        "atÃ©gor"
      ],
      [
        "Ġs",
        "om"
      ],
      [
        "Ġsuivant",
        "es"
      ],
      [
        "a",
        "x"
      ],
      [
        "Ġm",
        "or"
      ],
      [
        "is",
        "t"
      ],
      [
        "r",
        "aph"
      ],
      [
        "Ġv",
        "ers"
      ],
      [
        "ol",
        "ution"
      ],
      [
        "Ġcons",
        "tat"
      ],
      [
        "t",
        "est"
      ],
      [
        "h",
        "Ã©"
      ],
      [
        "Ġo",
        "ff"
      ],
      [
        "ul",
        "ation"
      ],
      [
        "ĠdÃ©f",
        "aut"
      ],
      [
        "Ġs",
        "au"
      ],
      [
        "Ġm",
        "al"
      ],
      [
        "f",
        "ois"
      ],
      [
        "s",
        "erv"
      ],
      [
        "Ġcollec",
        "tivitÃ©s"
      ],
      [
        "Ġt",
        "aux"
      ],
      [
        "ĠâĢ",
        "Ŀ"
      ],
      [
        "Ġoblig",
        "ations"
      ],
      [
        "Ġ",
        "z"
      ],
      [
        "Ġph",
        "y"
      ],
      [
        "Ġt",
        "ax"
      ],
      [
        "qu",
        "Ãª"
      ],
      [
        "ĠÃ©lectr",
        "on"
      ],
      [
        "Ġv",
        "i"
      ],
      [
        "ĠmÃ©",
        "dec"
      ],
      [
        "m",
        "ise"
      ],
      [
        "Ġin",
        "c"
      ],
      [
        "Ġfix",
        "Ã©"
      ],
      [
        "omp",
        "ag"
      ],
      [
        "Ġmes",
        "ure"
      ],
      [
        "ĠdÃ©f",
        "ense"
      ],
      [
        "Ġc",
        "eux"
      ],
      [
        "Ġag",
        "rÃ©"
      ],
      [
        "ci",
        "p"
      ],
      [
        "Ġ1",
        "0"
      ],
      [
        "Ġd",
        "ou"
      ],
      [
        "Ġtrans",
        "f"
      ],
      [
        "ĠÃ©conom",
        "ique"
      ],
      [
        "Ġpr",
        "iv"
      ],
      [
        "Ġa",
        "ffec"
      ],
      [
        "Ġch",
        "e"
      ],
      [
        "ĠrÃ©fÃ©r",
        "ence"
      ],
      [
        "Ġpla",
        "ce"
      ],
      [
        "Ġcal",
        "cul"
      ],
      [
        "Ã©",
        "l"
      ],
      [
        "Ġre",
        "trait"
      ],
      [
        "Ġcons",
        "ult"
      ],
      [
        "oi",
        "res"
      ],
      [
        "Ġcons",
        "erv"
      ],
      [
        "Ġau",
        "prÃ¨s"
      ],
      [
        "Ġex",
        "p"
      ],
      [
        "Ġat",
        "tribu"
      ],
      [
        "z",
        "e"
      ],
      [
        "Ġa",
        "m"
      ],
      [
        "x",
        "im"
      ],
      [
        "Ġsou",
        "mis"
      ],
      [
        "Ġparti",
        "es"
      ],
      [
        "a",
        "ise"
      ],
      [
        "ens",
        "es"
      ],
      [
        "Ġins",
        "tall"
      ],
      [
        "ĠrÃ©g",
        "ime"
      ],
      [
        "Ġp",
        "ouv"
      ],
      [
        "m",
        "un"
      ],
      [
        "ais",
        "se"
      ],
      [
        "Ġbi",
        "ens"
      ],
      [
        "Ġdeman",
        "d"
      ],
      [
        "Ġtitul",
        "aire"
      ],
      [
        "Ġm",
        "at"
      ],
      [
        "ic",
        "ations"
      ],
      [
        "Ġmar",
        "ch"
      ],
      [
        "Ġma",
        "j"
      ],
      [
        "Ġdossi",
        "er"
      ],
      [
        "Ġac",
        "tions"
      ],
      [
        "Ġcomm",
        "une"
      ],
      [
        "Ġz",
        "on"
      ],
      [
        "le",
        "r"
      ],
      [
        "Ġtr",
        "ait"
      ],
      [
        "c",
        "omm"
      ],
      [
        "Ġc",
        "au"
      ],
      [
        "ic",
        "u"
      ],
      [
        "Ġprofessionn",
        "el"
      ],
      [
        "Ġm",
        "il"
      ],
      [
        "a",
        "tif"
      ],
      [
        "Ã©n",
        "ag"
      ],
      [
        "Ġav",
        "oir"
      ],
      [
        "Ġcon",
        "jo"
      ],
      [
        "Ġrespec",
        "t"
      ],
      [
        "Ġpersonn",
        "el"
      ],
      [
        "ĠcompÃ©t",
        "ente"
      ],
      [
        "Ġrele",
        "vant"
      ],
      [
        "Ġv",
        "ue"
      ],
      [
        "Ġc",
        "ir"
      ],
      [
        "Ġport",
        "ant"
      ],
      [
        "in",
        "d"
      ],
      [
        "Ã©",
        "h"
      ],
      [
        "ĠbÃ©nÃ©f",
        "ici"
      ],
      [
        "ĠrÃ©",
        "mun"
      ],
      [
        "ĠdÃ©p",
        "enses"
      ],
      [
        "Ã©h",
        "icu"
      ],
      [
        "ĠfranÃ§",
        "aise"
      ],
      [
        "pr",
        "im"
      ],
      [
        "en",
        "tions"
      ],
      [
        "in",
        "cip"
      ],
      [
        "ure",
        "r"
      ],
      [
        "Ġch",
        "ac"
      ],
      [
        "Ġphy",
        "si"
      ],
      [
        "tr",
        "ic"
      ],
      [
        "Ġpr",
        "incip"
      ],
      [
        "ĠrÃ©gion",
        "al"
      ],
      [
        "u",
        "it"
      ],
      [
        "Ġv",
        "Ã©hicu"
      ],
      [
        "Ġrecher",
        "che"
      ],
      [
        "Ġc",
        "apit"
      ],
      [
        "Ġfix",
        "e"
      ],
      [
        "ĠfranÃ§",
        "ais"
      ],
      [
        "Ġren",
        "ouv"
      ],
      [
        "Ġ",
        "us"
      ],
      [
        "oc",
        "ation"
      ],
      [
        "en",
        "vironnement"
      ],
      [
        "is",
        "c"
      ],
      [
        "Ġcommer",
        "ce"
      ],
      [
        "Ġil",
        "s"
      ],
      [
        "Ġc",
        "aisse"
      ],
      [
        "lors",
        "qu"
      ],
      [
        "Ġpron",
        "onc"
      ],
      [
        "Ġfonction",
        "nement"
      ],
      [
        "es",
        "p"
      ],
      [
        "exploit",
        "ation"
      ],
      [
        "Ġcon",
        "du"
      ],
      [
        "Ġp",
        "os"
      ],
      [
        "Ġcol",
        "l"
      ],
      [
        "Ġsalari",
        "Ã©s"
      ],
      [
        "Ġa",
        "s"
      ],
      [
        "Ġsitu",
        "ation"
      ],
      [
        "Ġm",
        "is"
      ],
      [
        "Ġapplic",
        "able"
      ],
      [
        "Ġcharg",
        "Ã©s"
      ],
      [
        "valu",
        "ation"
      ],
      [
        "Ġprest",
        "ations"
      ],
      [
        "Ġcompl",
        "Ã©ment"
      ],
      [
        "Ġti",
        "tres"
      ],
      [
        "Ġvoi",
        "e"
      ],
      [
        "Ġbudg",
        "et"
      ],
      [
        "po",
        "se"
      ],
      [
        "ĠrÃ©",
        "se"
      ],
      [
        "at",
        "oire"
      ],
      [
        "Ġnouv",
        "elle"
      ],
      [
        "Ġsoci",
        "al"
      ],
      [
        "Ġco",
        "tis"
      ],
      [
        "t",
        "ation"
      ],
      [
        "Ġti",
        "ers"
      ],
      [
        "Ġsup",
        "pl"
      ],
      [
        "Ġn",
        "um"
      ],
      [
        "Ġprodu",
        "it"
      ],
      [
        "li",
        "que"
      ],
      [
        "Ġan",
        "nÃ©e"
      ],
      [
        "Ġ1",
        "3"
      ],
      [
        "v",
        "er"
      ],
      [
        "Ġex",
        "er"
      ],
      [
        "Ġmar",
        "chÃ©"
      ],
      [
        "Ġet",
        "at"
      ],
      [
        "Ġcin",
        "q"
      ],
      [
        "Ġsus",
        "p"
      ],
      [
        "Ġmal",
        "adi"
      ],
      [
        "mb",
        "lÃ©e"
      ],
      [
        "Ġg",
        "u"
      ],
      [
        "Ġs",
        "ix"
      ],
      [
        "e",
        "m"
      ],
      [
        "Ġcollec",
        "tivitÃ©"
      ],
      [
        "Ġpol",
        "ice"
      ],
      [
        "a",
        "tr"
      ],
      [
        "Ġles",
        "quelles"
      ],
      [
        "Ġcer",
        "tific"
      ],
      [
        "Ġpro",
        "gr"
      ],
      [
        "Ġciv",
        "ile"
      ],
      [
        "Ġcha",
        "mbre"
      ],
      [
        "h",
        "abit"
      ],
      [
        "Ã¨",
        "me"
      ],
      [
        "Ġtou",
        "tes"
      ],
      [
        "00",
        "0"
      ],
      [
        "ĠdÃ©",
        "rog"
      ],
      [
        "Ġass",
        "u"
      ],
      [
        "a",
        "se"
      ],
      [
        "ĠrÃ©sul",
        "tat"
      ],
      [
        "Ġcons",
        "omm"
      ],
      [
        "ve",
        "ill"
      ],
      [
        "at",
        "aire"
      ],
      [
        "n",
        "aire"
      ],
      [
        "Ġprogr",
        "am"
      ],
      [
        "du",
        "ction"
      ],
      [
        "g",
        "Ã©"
      ],
      [
        "Ġc",
        "ent"
      ],
      [
        "ĠsiÃ¨",
        "ge"
      ],
      [
        "Ġrela",
        "tive"
      ],
      [
        "Ġmission",
        "s"
      ],
      [
        "Ġma",
        "xim"
      ],
      [
        "Ġqu",
        "at"
      ],
      [
        "Ġpro",
        "p"
      ],
      [
        "ĠdÃ©",
        "v"
      ],
      [
        "Ġen",
        "gag"
      ],
      [
        "Ġco",
        "opÃ©ration"
      ],
      [
        "Ġprodu",
        "ction"
      ],
      [
        "Ġpa",
        "y"
      ],
      [
        "Ġo",
        "c"
      ],
      [
        "Ġpermet",
        "tant"
      ],
      [
        "ĠgÃ©nÃ©r",
        "ale"
      ],
      [
        "Ġp",
        "iÃ¨"
      ],
      [
        "Ġadres",
        "s"
      ],
      [
        "Ġso",
        "l"
      ],
      [
        "f",
        "r"
      ],
      [
        "Ġ",
        "000"
      ],
      [
        "Ġterritori",
        "ales"
      ],
      [
        "Ġint",
        "Ã©ress"
      ],
      [
        "Ġsy",
        "n"
      ],
      [
        "ĠprÃ©c",
        "ise"
      ],
      [
        "ĠprÃ©",
        "alable"
      ],
      [
        "pÃ´",
        "ts"
      ],
      [
        "Ġv",
        "al"
      ],
      [
        "inform",
        "ation"
      ],
      [
        "Ġex",
        "ig"
      ],
      [
        "u",
        "is"
      ],
      [
        "ĠdÃ©lÃ©g",
        "u"
      ],
      [
        "ĠrÃ©p",
        "ub"
      ],
      [
        "un",
        "i"
      ],
      [
        "veill",
        "ance"
      ],
      [
        "Ġcon",
        "ten"
      ],
      [
        "empl",
        "oy"
      ],
      [
        "in",
        "ation"
      ],
      [
        "ĠrÃ©",
        "c"
      ],
      [
        "Ġn",
        "iv"
      ],
      [
        "ĠdÃ©p",
        "Ã´"
      ],
      [
        "Ġrec",
        "ours"
      ],
      [
        "ĠdÃ©partement",
        "al"
      ],
      [
        "cep",
        "ti"
      ],
      [
        "Ġse",
        "in"
      ],
      [
        "Ġsa",
        "int"
      ],
      [
        "Ġsy",
        "st"
      ],
      [
        "Ġn",
        "av"
      ],
      [
        "Ġcommer",
        "ci"
      ],
      [
        "Ġdocu",
        "ment"
      ],
      [
        "ĠrÃ©pub",
        "lique"
      ],
      [
        "Ġob",
        "jet"
      ],
      [
        "Ġinter",
        "n"
      ],
      [
        "Ġr",
        "aison"
      ],
      [
        "Ġtrois",
        "iÃ¨me"
      ],
      [
        "Ġre",
        "ven"
      ],
      [
        "inistr",
        "es"
      ],
      [
        "vi",
        "du"
      ],
      [
        "m",
        "ises"
      ],
      [
        "ur",
        "ant"
      ],
      [
        "Ġsus",
        "cepti"
      ],
      [
        "quis",
        "i"
      ],
      [
        "Ġc",
        "i"
      ],
      [
        "ab",
        "il"
      ],
      [
        "Ġten",
        "u"
      ],
      [
        "id",
        "ic"
      ],
      [
        "Ġjur",
        "idic"
      ],
      [
        "it",
        "aires"
      ],
      [
        "Ġstat",
        "u"
      ],
      [
        "ance",
        "ment"
      ],
      [
        "Ġpr",
        "ix"
      ],
      [
        "ac",
        "tions"
      ],
      [
        "ai",
        "de"
      ],
      [
        "Ã©rÃª",
        "t"
      ],
      [
        "Ġim",
        "pÃ´ts"
      ],
      [
        "Â°",
        ","
      ],
      [
        "op",
        "p"
      ],
      [
        "Ã®",
        "tre"
      ],
      [
        "j",
        "ud"
      ],
      [
        "Ġris",
        "ques"
      ],
      [
        "ĠprÃ©c",
        "is"
      ],
      [
        "Ġcon",
        "sid"
      ],
      [
        "el",
        "opp"
      ],
      [
        "Ġindi",
        "vidu"
      ],
      [
        "Ġcaract",
        "Ã¨re"
      ],
      [
        "j",
        "ec"
      ],
      [
        "Ġno",
        "tification"
      ],
      [
        "Ġprem",
        "iÃ¨re"
      ],
      [
        "quÃª",
        "te"
      ],
      [
        "enn",
        "ent"
      ],
      [
        "Ġsur",
        "veillance"
      ],
      [
        "Ġins",
        "crit"
      ],
      [
        "Ġ",
        "iv"
      ],
      [
        "Ġcomp",
        "or"
      ],
      [
        "v",
        "ier"
      ],
      [
        "Ġv",
        "ol"
      ],
      [
        "Ġcompr",
        "is"
      ],
      [
        "in",
        "te"
      ],
      [
        "Ġlim",
        "ite"
      ],
      [
        "Ġqu",
        "al"
      ],
      [
        "onom",
        "ie"
      ],
      [
        "Ġsau",
        "f"
      ],
      [
        "Ġtemp",
        "s"
      ],
      [
        "Ġf",
        "isc"
      ],
      [
        "toute",
        "fois"
      ],
      [
        "Ġconc",
        "lu"
      ],
      [
        "Ġche",
        "f"
      ],
      [
        "Ã©",
        "m"
      ],
      [
        "Ġou",
        "tre"
      ],
      [
        "Ġj",
        "an"
      ],
      [
        "Ġjan",
        "vier"
      ],
      [
        "o",
        "les"
      ],
      [
        "ti",
        "en"
      ],
      [
        "Ġb",
        "ase"
      ],
      [
        "ĠcrÃ©",
        "dit"
      ],
      [
        "ĠrÃ©gion",
        "ale"
      ],
      [
        "Ġm",
        "inistres"
      ],
      [
        "tru",
        "c"
      ],
      [
        "ves",
        "tissement"
      ],
      [
        "Ġ1",
        "5"
      ],
      [
        "ĠdÃ©sign",
        "Ã©"
      ],
      [
        "quel",
        "s"
      ],
      [
        "ĠrÃ©",
        "alisation"
      ],
      [
        "erg",
        "ie"
      ],
      [
        "ĠdÃ©",
        "ce"
      ],
      [
        "h",
        "Ã©r"
      ],
      [
        "es",
        "ti"
      ],
      [
        "ar",
        "rÃª"
      ],
      [
        "Ġins",
        "titu"
      ],
      [
        "ure",
        "ur"
      ],
      [
        "Ġmin",
        "im"
      ],
      [
        "empl",
        "oi"
      ],
      [
        "Ġagric",
        "ole"
      ],
      [
        "asse",
        "mblÃ©e"
      ],
      [
        "ĠdÃ©cision",
        "s"
      ],
      [
        "ĠdÃ©ce",
        "mbre"
      ],
      [
        "Ġfor",
        "me"
      ],
      [
        "ag",
        "ric"
      ],
      [
        "ĠmÃ©dic",
        "a"
      ],
      [
        "Ġso",
        "ins"
      ],
      [
        "Ġqual",
        "if"
      ],
      [
        "o",
        "te"
      ],
      [
        "Ġac",
        "tes"
      ],
      [
        "Ġn",
        "i"
      ],
      [
        "Ġv",
        "ie"
      ],
      [
        "Ġtechn",
        "iques"
      ],
      [
        "or",
        "ation"
      ],
      [
        "Ġdiff",
        "Ã©r"
      ],
      [
        "organis",
        "ation"
      ],
      [
        "Ġinf",
        "r"
      ],
      [
        "Ġjus",
        "qu"
      ],
      [
        "Ġ",
        "ier"
      ],
      [
        "Ġcontrat",
        "s"
      ],
      [
        "ĠdÃ©",
        "ten"
      ],
      [
        "off",
        "ice"
      ],
      [
        "v",
        "ement"
      ],
      [
        "Ġcontrib",
        "u"
      ],
      [
        "ĠÃ©qu",
        "ip"
      ],
      [
        "agric",
        "ulture"
      ],
      [
        "Ġju",
        "g"
      ],
      [
        "Ġmat",
        "Ã©ri"
      ],
      [
        "Ġminis",
        "t"
      ],
      [
        "Ġv",
        "ente"
      ],
      [
        "ĠÃ©lectron",
        "ique"
      ],
      [
        "Ġb",
        "es"
      ],
      [
        "Ġre",
        "f"
      ],
      [
        "ag",
        "rÃ©"
      ],
      [
        "Ġbes",
        "o"
      ],
      [
        "Ġre",
        "mb"
      ],
      [
        "ĠÃ©",
        "n"
      ],
      [
        "Ġniv",
        "eau"
      ],
      [
        "Ġa",
        "b"
      ],
      [
        "Ġ20",
        "2"
      ],
      [
        "Ã©n",
        "ergie"
      ],
      [
        "Ġlog",
        "ement"
      ],
      [
        "us",
        "tr"
      ],
      [
        "Ġli",
        "qu"
      ],
      [
        "a",
        "prÃ¨s"
      ],
      [
        "Ġf",
        "ig"
      ],
      [
        "Ġver",
        "sement"
      ],
      [
        "comm",
        "un"
      ],
      [
        "sion",
        "s"
      ],
      [
        "Ġpr",
        "ises"
      ],
      [
        "m",
        "er"
      ],
      [
        "Ġloc",
        "aux"
      ],
      [
        "Ġcons",
        "truction"
      ],
      [
        "agrÃ©",
        "ment"
      ],
      [
        "b",
        "ilitÃ©"
      ],
      [
        "ĠÃ©c",
        "rit"
      ],
      [
        "Ġc",
        "entre"
      ],
      [
        "Ġciv",
        "il"
      ],
      [
        "ĠpiÃ¨",
        "ces"
      ],
      [
        "Ġex",
        "ploit"
      ],
      [
        "Ġex",
        "Ã©c"
      ],
      [
        "Ġmaladi",
        "e"
      ],
      [
        "Ġcomm",
        "iss"
      ],
      [
        "Ã©d",
        "er"
      ],
      [
        "Ġcoll",
        "Ã¨g"
      ],
      [
        "tic",
        "e"
      ],
      [
        "Ġg",
        "re"
      ],
      [
        "Ġinf",
        "orme"
      ],
      [
        "Ġinter",
        "commun"
      ],
      [
        "ĠcompÃ©t",
        "ences"
      ],
      [
        "tr",
        "o"
      ],
      [
        "Ġs",
        "er"
      ],
      [
        "Ġc",
        "ert"
      ],
      [
        "ap",
        "pel"
      ],
      [
        "Ġmar",
        "iti"
      ],
      [
        "Ġsuiv",
        "ants"
      ],
      [
        "Ġco",
        "p"
      ],
      [
        "Ġterritori",
        "ale"
      ],
      [
        "Ġt",
        "able"
      ],
      [
        "Ġsyn",
        "dic"
      ],
      [
        "Ġde",
        "vant"
      ],
      [
        "an",
        "n"
      ],
      [
        "Ġmoy",
        "ens"
      ],
      [
        "Ã©",
        "v"
      ],
      [
        "Ġcapit",
        "al"
      ],
      [
        "Ġm",
        "u"
      ],
      [
        "og",
        "raph"
      ],
      [
        "Ġtitul",
        "aires"
      ],
      [
        "Ġap",
        "par"
      ],
      [
        "tion",
        "n"
      ],
      [
        "om",
        "pl"
      ],
      [
        "Ġb",
        "is"
      ],
      [
        "Ã¨",
        "de"
      ],
      [
        "employ",
        "eur"
      ],
      [
        "or",
        "ig"
      ],
      [
        "Ġdi",
        "x"
      ],
      [
        "on",
        "s"
      ],
      [
        "Ġob",
        "ten"
      ],
      [
        "rÃ©",
        "es"
      ],
      [
        "tiv",
        "ement"
      ],
      [
        "Ġcorrespond",
        "ant"
      ],
      [
        "Ġmu",
        "tu"
      ],
      [
        "Ã©ri",
        "f"
      ],
      [
        "Ġdemande",
        "ur"
      ],
      [
        "Ġacc",
        "ompag"
      ],
      [
        "eur",
        "es"
      ],
      [
        "Ġv",
        "Ã©rif"
      ],
      [
        "in",
        "aire"
      ],
      [
        "ic",
        "ier"
      ],
      [
        "Ġque",
        "l"
      ],
      [
        "Ġin",
        "demn"
      ],
      [
        "ur",
        "b"
      ],
      [
        "in",
        "g"
      ],
      [
        "Ġcompr",
        "end"
      ],
      [
        "Ġpubli",
        "ques"
      ],
      [
        "Ġre",
        "Ã§"
      ],
      [
        "ci",
        "pl"
      ],
      [
        "Ġp",
        "ension"
      ],
      [
        "ic",
        "h"
      ],
      [
        "Ġfin",
        "ancement"
      ],
      [
        "Ã©",
        "valuation"
      ],
      [
        "ar",
        "ma"
      ],
      [
        "ĠdÃ©v",
        "elopp"
      ],
      [
        "Ġautor",
        "itÃ©s"
      ],
      [
        "ap",
        "ac"
      ],
      [
        "utilis",
        "ation"
      ],
      [
        "ati",
        "que"
      ],
      [
        "Ã©du",
        "c"
      ],
      [
        "ab",
        "sence"
      ],
      [
        "ĠrÃ©sul",
        "tant"
      ],
      [
        "ĠpropriÃ©t",
        "aire"
      ],
      [
        "is",
        "me"
      ],
      [
        "ur",
        "g"
      ],
      [
        "Ġcharg",
        "es"
      ],
      [
        "Ġsom",
        "mes"
      ],
      [
        "Ġ",
        "ordonn"
      ],
      [
        "a",
        "ines"
      ],
      [
        "amen",
        "de"
      ],
      [
        "Ġliqu",
        "id"
      ],
      [
        "Ġqu",
        "in"
      ],
      [
        "ĠdÃ©sign",
        "Ã©s"
      ],
      [
        "Ã©r",
        "o"
      ],
      [
        "Ġtrans",
        "met"
      ],
      [
        "ir",
        "ation"
      ],
      [
        "ĠrÃ©mun",
        "Ã©ration"
      ],
      [
        "Ġtax",
        "e"
      ],
      [
        "Ġprofessionn",
        "els"
      ],
      [
        "pÃ´",
        "t"
      ],
      [
        "ex",
        "e"
      ],
      [
        "Ġgre",
        "ff"
      ],
      [
        "ĠrÃ©s",
        "olution"
      ],
      [
        "Ã©nag",
        "ement"
      ],
      [
        "Ġfix",
        "Ã©e"
      ],
      [
        "li",
        "d"
      ],
      [
        "Ġouv",
        "r"
      ],
      [
        "Ġtrait",
        "ement"
      ],
      [
        "Ã©t",
        "at"
      ],
      [
        "ex",
        "ception"
      ],
      [
        "Ġrela",
        "tif"
      ],
      [
        "Ġ",
        "elles"
      ],
      [
        "Ã§",
        "ant"
      ],
      [
        "oc",
        "c"
      ],
      [
        "Ġcau",
        "se"
      ],
      [
        "ins",
        "truction"
      ],
      [
        "Ã©rÃ©",
        "s"
      ],
      [
        "at",
        "t"
      ],
      [
        "Ġtechn",
        "ique"
      ],
      [
        "Ġcommun",
        "iqu"
      ],
      [
        "ĠprÃ©cÃ©d",
        "ent"
      ],
      [
        "ĠdÃ©rog",
        "ation"
      ],
      [
        "f",
        "in"
      ],
      [
        "acc",
        "Ã¨s"
      ],
      [
        "Ġgroup",
        "e"
      ],
      [
        "Ġf",
        "ois"
      ],
      [
        "ĠÃ©g",
        "al"
      ],
      [
        "trang",
        "er"
      ],
      [
        "ci",
        "en"
      ],
      [
        "our",
        "ces"
      ],
      [
        "Ġconcern",
        "ant"
      ],
      [
        "Ġinter",
        "ven"
      ],
      [
        "s",
        "u"
      ],
      [
        "int",
        "Ã©rÃªt"
      ],
      [
        "t",
        "ent"
      ],
      [
        "Ġautor",
        "isation"
      ],
      [
        "Ġtable",
        "au"
      ],
      [
        "Ġdom",
        "aine"
      ],
      [
        "Ġremplac",
        "Ã©s"
      ],
      [
        "Ã©duc",
        "ation"
      ],
      [
        "Ġcop",
        "ie"
      ],
      [
        "il",
        "les"
      ],
      [
        "exp",
        "iration"
      ],
      [
        "Ġconcer",
        "ne"
      ],
      [
        "Ġinstall",
        "ations"
      ],
      [
        "ĠalinÃ©",
        "as"
      ],
      [
        "oci",
        "ation"
      ],
      [
        "Ġb",
        "Ã¢"
      ],
      [
        "ĠprocÃ©d",
        "er"
      ],
      [
        "l",
        "Ã©"
      ],
      [
        "Ġmodif",
        "ication"
      ],
      [
        "Ġob",
        "serv"
      ],
      [
        "quisi",
        "tion"
      ],
      [
        "Ġrec",
        "onn"
      ],
      [
        "f",
        "ait"
      ],
      [
        "a",
        "ff"
      ],
      [
        "or",
        "ti"
      ],
      [
        "Ġph",
        "arma"
      ],
      [
        "Ġpas",
        "s"
      ],
      [
        "Ġpro",
        "position"
      ],
      [
        "ĠdÃ©",
        "pos"
      ],
      [
        "Ġpersonn",
        "els"
      ],
      [
        "man",
        "d"
      ],
      [
        "Ġre",
        "de"
      ],
      [
        "Ġproc",
        "ureur"
      ],
      [
        "Ġr",
        "ou"
      ],
      [
        "Ġcondi",
        "tion"
      ],
      [
        "Ġpe",
        "ine"
      ],
      [
        "Ġmo",
        "tiv"
      ],
      [
        "ĠmÃ©dec",
        "in"
      ],
      [
        "ĠprÃ©",
        "jud"
      ],
      [
        "int",
        "Ã©ress"
      ],
      [
        "Ġjus",
        "tice"
      ],
      [
        "Ġconjo",
        "int"
      ],
      [
        "ĠcompÃ©t",
        "ence"
      ],
      [
        "a",
        "tifs"
      ],
      [
        "Ġintercommun",
        "ale"
      ],
      [
        "ĠbÃ©nÃ©f",
        "iciaire"
      ],
      [
        "Ġrede",
        "v"
      ],
      [
        "Ġrec",
        "om"
      ],
      [
        "Ġpouv",
        "oir"
      ],
      [
        "Ġref",
        "us"
      ],
      [
        "ĠspÃ©ci",
        "f"
      ],
      [
        "Ġad",
        "ap"
      ],
      [
        "Ġgaranti",
        "e"
      ],
      [
        "vent",
        "u"
      ],
      [
        "Ġpl",
        "ac"
      ],
      [
        "Ġfinanci",
        "ers"
      ],
      [
        "ĠÃ©",
        "tu"
      ],
      [
        "ou",
        "s"
      ],
      [
        "Ġrecom",
        "mand"
      ],
      [
        "Ġ1",
        "1"
      ],
      [
        "ĠrÃ©se",
        "au"
      ],
      [
        "Ã©r",
        "is"
      ],
      [
        "t",
        "Ã©e"
      ],
      [
        "ĠdÃ©f",
        "inis"
      ],
      [
        "Ġrec",
        "ouv"
      ],
      [
        "Ġcon",
        "d"
      ],
      [
        "m",
        "i"
      ],
      [
        "v",
        "ision"
      ],
      [
        "Ġf",
        "ont"
      ],
      [
        "Ġdire",
        "ction"
      ],
      [
        "Ġat",
        "te"
      ],
      [
        "intÃ©ress",
        "Ã©"
      ],
      [
        "Ġquat",
        "re"
      ],
      [
        "ĠrÃ©",
        "union"
      ],
      [
        "iÃ¨",
        "res"
      ],
      [
        "Ġrespons",
        "able"
      ],
      [
        "la",
        "is"
      ],
      [
        "in",
        "ts"
      ],
      [
        "Ġcond",
        "am"
      ],
      [
        "im",
        "pÃ´t"
      ],
      [
        "Ġminist",
        "Ã¨re"
      ],
      [
        "Ġfinanci",
        "er"
      ],
      [
        "ĠdÃ©velopp",
        "ement"
      ],
      [
        "Ġre",
        "lÃ¨"
      ],
      [
        "Ġpr",
        "Ãª"
      ],
      [
        "ac",
        "te"
      ],
      [
        "iv",
        "ers"
      ],
      [
        "Ġpor",
        "te"
      ],
      [
        "l",
        "on"
      ],
      [
        "Ġdi",
        "pl"
      ],
      [
        "Ġb",
        "r"
      ],
      [
        "Ġs",
        "c"
      ],
      [
        "Ġgroup",
        "ement"
      ],
      [
        "Ġindi",
        "qu"
      ],
      [
        "am",
        "Ã©nagement"
      ],
      [
        "Ġcon",
        "tin"
      ],
      [
        "f",
        "s"
      ],
      [
        "ex",
        "c"
      ],
      [
        "Ġd",
        "Ã¨s"
      ],
      [
        "p",
        "it"
      ],
      [
        "Ġno",
        "tifi"
      ],
      [
        "re",
        "ment"
      ],
      [
        "Ġau",
        "c"
      ],
      [
        "Ġentre",
        "prise"
      ],
      [
        "Ġjuridic",
        "tion"
      ],
      [
        "eu",
        "bles"
      ],
      [
        "op",
        "Ã©r"
      ],
      [
        "Ġf",
        "ac"
      ],
      [
        "ĠdÃ©pÃ´",
        "t"
      ],
      [
        "Ġcotis",
        "ations"
      ],
      [
        "Ġorganis",
        "me"
      ],
      [
        "enti",
        "tÃ©"
      ],
      [
        "Ġparticip",
        "ation"
      ],
      [
        "ĠÃ©t",
        "at"
      ],
      [
        "Ġzon",
        "e"
      ],
      [
        "enti",
        "el"
      ],
      [
        "ch",
        "es"
      ],
      [
        "ĠdÃ©",
        "lais"
      ],
      [
        "Ġ1",
        "2"
      ],
      [
        "Ġl",
        "ettre"
      ],
      [
        "ins",
        "titu"
      ],
      [
        "in",
        "vestissement"
      ],
      [
        "Ġsalari",
        "Ã©"
      ],
      [
        "ĠprÃ©v",
        "ention"
      ],
      [
        "prÃ©",
        "ci"
      ],
      [
        "Ġeur",
        "os"
      ],
      [
        "appl",
        "iqu"
      ],
      [
        "in",
        "demn"
      ],
      [
        "v",
        "ention"
      ],
      [
        "ouver",
        "ture"
      ],
      [
        "Ġdis",
        "cipl"
      ],
      [
        "Ġcommun",
        "ication"
      ],
      [
        "or",
        "aire"
      ],
      [
        "t",
        "ance"
      ],
      [
        "ĠcompÃ©t",
        "ent"
      ],
      [
        "Ġp",
        "Ãª"
      ],
      [
        "Ġempl",
        "oy"
      ],
      [
        "ĠrÃ©",
        "sid"
      ],
      [
        "ĠprÃ©jud",
        "ice"
      ],
      [
        "Ġcaract",
        "Ã©ris"
      ],
      [
        "ĠÃ©",
        "ventu"
      ],
      [
        "Ġr",
        "est"
      ],
      [
        "Ġrespons",
        "abilitÃ©"
      ],
      [
        "ĠcollÃ¨g",
        "e"
      ],
      [
        "Ġdirec",
        "tement"
      ],
      [
        "Ġcertific",
        "at"
      ],
      [
        "Ġmor",
        "ale"
      ],
      [
        "Ġre",
        "gistre"
      ],
      [
        "u",
        "eur"
      ],
      [
        "Ġcompt",
        "able"
      ],
      [
        "Ġ2",
        "2"
      ],
      [
        "Ġsyst",
        "Ã¨me"
      ],
      [
        "Ġress",
        "ources"
      ],
      [
        "Ġau",
        "t"
      ],
      [
        "ori",
        "ent"
      ],
      [
        "Ġtransport",
        "s"
      ],
      [
        "Ġan",
        "im"
      ],
      [
        "re",
        "c"
      ],
      [
        "Ġre",
        "ten"
      ],
      [
        "id",
        "es"
      ],
      [
        "Ġv",
        "ig"
      ],
      [
        "Ġdis",
        "tribution"
      ],
      [
        "Ġr",
        "adi"
      ],
      [
        "Ġpar",
        "lement"
      ],
      [
        "Ġnom",
        "m"
      ],
      [
        "Ġdipl",
        "Ã´"
      ],
      [
        "Ġcom",
        "pos"
      ],
      [
        "Ġle",
        "quel"
      ],
      [
        "res",
        "se"
      ],
      [
        "Ġprofessionn",
        "elles"
      ],
      [
        "Ġconn",
        "aissance"
      ],
      [
        "Ġproc",
        "Ã¨s"
      ],
      [
        "test",
        "ation"
      ],
      [
        "Ġen",
        "c"
      ],
      [
        "Ġh",
        "eures"
      ],
      [
        "Ġt",
        "ard"
      ],
      [
        "Ġc",
        "r"
      ],
      [
        "ĠdÃ©partement",
        "s"
      ],
      [
        "re",
        "gistre"
      ],
      [
        "ĠbÃ¢",
        "ti"
      ],
      [
        "ver",
        "b"
      ],
      [
        "Ġre",
        "qu"
      ],
      [
        "Ġimm",
        "ob"
      ],
      [
        "tif",
        "ie"
      ],
      [
        "ĠcatÃ©gor",
        "ie"
      ],
      [
        "Ġces",
        "sion"
      ],
      [
        "Ġchac",
        "un"
      ],
      [
        "Ġm",
        "ettre"
      ],
      [
        "r",
        "ance"
      ],
      [
        "Ġmo",
        "ment"
      ],
      [
        "Ġpr",
        "endre"
      ],
      [
        "Ġobserv",
        "ations"
      ],
      [
        "Ġm",
        "et"
      ],
      [
        "en",
        "du"
      ],
      [
        "au",
        "tres"
      ],
      [
        "n",
        "aires"
      ],
      [
        "ais",
        "ant"
      ],
      [
        "Ġpour",
        "su"
      ],
      [
        "ĠpropriÃ©t",
        "Ã©"
      ],
      [
        "Ġt",
        "ari"
      ],
      [
        "orig",
        "ine"
      ],
      [
        "Ġp",
        "uni"
      ],
      [
        "Ġin",
        "iti"
      ],
      [
        "id",
        "en"
      ],
      [
        "iss",
        "ant"
      ],
      [
        "Ġcompor",
        "te"
      ],
      [
        "Ġ1",
        "6"
      ],
      [
        "ĠmÃ©dic",
        "ale"
      ],
      [
        "ce",
        "v"
      ],
      [
        "Ġf",
        "av"
      ],
      [
        "Ġgestion",
        "naire"
      ],
      [
        "im",
        "es"
      ],
      [
        "Ġap",
        "pel"
      ],
      [
        "Ġjus",
        "tifi"
      ],
      [
        "Ĥ",
        "¬"
      ],
      [
        "Ġpr",
        "end"
      ],
      [
        "Ġac",
        "qu"
      ],
      [
        "Ãª",
        "tre"
      ],
      [
        "ĠdÃ©",
        "ch"
      ],
      [
        "Ġf",
        "ab"
      ],
      [
        "Ġm",
        "un"
      ],
      [
        "Ġâ",
        "Ĥ¬"
      ],
      [
        "Ġi",
        "d"
      ],
      [
        "al",
        "inÃ©"
      ],
      [
        "ĠdÃ©",
        "m"
      ],
      [
        "Ġdemand",
        "er"
      ],
      [
        "Ġus",
        "age"
      ],
      [
        "ĠrÃ©",
        "parti"
      ],
      [
        "ar",
        "t"
      ],
      [
        "Ġbi",
        "en"
      ],
      [
        "it",
        "er"
      ],
      [
        "a",
        "Ã®tre"
      ],
      [
        "y",
        "p"
      ],
      [
        "Ġlog",
        "ements"
      ],
      [
        "Ġdisposi",
        "tif"
      ],
      [
        "ĠdÃ©term",
        "ine"
      ],
      [
        "Ġper",
        "man"
      ],
      [
        "Ġtravail",
        "le"
      ],
      [
        "Ġris",
        "que"
      ],
      [
        "n",
        "om"
      ],
      [
        "acc",
        "ueil"
      ],
      [
        "Ġv",
        "ote"
      ],
      [
        "alinÃ©",
        "a"
      ],
      [
        "Ġconcern",
        "Ã©s"
      ],
      [
        "et",
        "s"
      ],
      [
        "et",
        "tes"
      ],
      [
        "Ġv",
        "ic"
      ],
      [
        "Ġdeman",
        "des"
      ],
      [
        "Ã©qu",
        "ip"
      ],
      [
        "i",
        "Ã©"
      ],
      [
        "Ġdis",
        "pose"
      ],
      [
        "Ġen",
        "f"
      ],
      [
        "Ġremb",
        "our"
      ],
      [
        "ille",
        "t"
      ],
      [
        "Ġvic",
        "ti"
      ],
      [
        "Ġquin",
        "ze"
      ],
      [
        "Ġpar",
        "ts"
      ],
      [
        "ĠbÃ©nÃ©f",
        "ice"
      ],
      [
        "s",
        "ont"
      ],
      [
        "pos",
        "er"
      ],
      [
        "Ġsp",
        "or"
      ],
      [
        "ouv",
        "r"
      ],
      [
        "Ġob",
        "jec"
      ],
      [
        "Ġ3",
        "1"
      ],
      [
        "Ġter",
        "me"
      ],
      [
        "Ġh",
        "ors"
      ],
      [
        "ĠdÃ©b",
        "it"
      ],
      [
        "ici",
        "le"
      ],
      [
        "des",
        "s"
      ],
      [
        "Ġ3",
        "0"
      ],
      [
        "ĠÃ©g",
        "ale"
      ],
      [
        "Ġmarch",
        "Ã©s"
      ],
      [
        "Ã©c",
        "onomie"
      ],
      [
        "crip",
        "tions"
      ],
      [
        "Ġtot",
        "al"
      ],
      [
        "si",
        "e"
      ],
      [
        "Ġfam",
        "ili"
      ],
      [
        "Ġcir",
        "con"
      ],
      [
        "Ġren",
        "du"
      ],
      [
        "arrÃª",
        "tÃ©"
      ],
      [
        "it",
        "ation"
      ],
      [
        "im",
        "m"
      ],
      [
        "Ġs",
        "im"
      ],
      [
        "ĠcatÃ©gor",
        "ies"
      ],
      [
        "ĠnÃ©cess",
        "aire"
      ],
      [
        "Ġdom",
        "icile"
      ],
      [
        "ĠrÃ©",
        "pond"
      ],
      [
        "Ġvig",
        "ueur"
      ],
      [
        "Ã©",
        "lec"
      ],
      [
        "Ġap",
        "pr"
      ],
      [
        "Ġcandid",
        "ats"
      ],
      [
        "Ġen",
        "se"
      ],
      [
        "Ġf",
        "ins"
      ],
      [
        "Ġfon",
        "ci"
      ],
      [
        "Ġm",
        "ag"
      ],
      [
        "ob",
        "lig"
      ],
      [
        "Ġcandid",
        "at"
      ],
      [
        "Ġt",
        "ant"
      ],
      [
        "Ġcommiss",
        "aire"
      ],
      [
        "ĠdÃ©liv",
        "rance"
      ],
      [
        "ĠrÃ©fÃ©r",
        "ences"
      ],
      [
        "ĠrÃ©sultat",
        "s"
      ],
      [
        "Ġexc",
        "Ã©der"
      ],
      [
        "apac",
        "itÃ©"
      ],
      [
        "Ġn",
        "Ã©g"
      ],
      [
        "Ã©rÃª",
        "ts"
      ],
      [
        "Ġrembour",
        "sement"
      ],
      [
        "Ġan",
        "t"
      ],
      [
        "Ġtrans",
        "mission"
      ],
      [
        "id",
        "itÃ©"
      ],
      [
        "in",
        "c"
      ],
      [
        "l",
        "ation"
      ],
      [
        "Ġa",
        "fin"
      ],
      [
        "Ġfinanci",
        "Ã¨re"
      ],
      [
        "Ġpol",
        "y"
      ],
      [
        "Ġtransf",
        "ert"
      ],
      [
        "Ġnature",
        "l"
      ],
      [
        "Ġm",
        "aire"
      ],
      [
        "Ġsoci",
        "ales"
      ],
      [
        "Ġman",
        "iÃ¨re"
      ],
      [
        "appliqu",
        "ent"
      ],
      [
        "en",
        "c"
      ],
      [
        "ĠprocÃ©d",
        "ures"
      ],
      [
        "Ġpe",
        "ines"
      ],
      [
        "Ġju",
        "illet"
      ],
      [
        "habit",
        "ation"
      ],
      [
        "Ġsup",
        "Ã©rieure"
      ],
      [
        "Ġsa",
        "tis"
      ],
      [
        "on",
        "ie"
      ],
      [
        "Ġco",
        "Ã»"
      ],
      [
        "Ġsup",
        "prim"
      ],
      [
        "Ġsuiv",
        "i"
      ],
      [
        "Ġoc",
        "c"
      ],
      [
        "ĠprÃ©sent",
        "er"
      ],
      [
        "Ġoff",
        "ici"
      ],
      [
        "c",
        "al"
      ],
      [
        "Ġpar",
        "is"
      ],
      [
        "Ġdis",
        "p"
      ],
      [
        "Ġcomp",
        "ort"
      ],
      [
        "Ġb",
        "ail"
      ],
      [
        "st",
        "ances"
      ],
      [
        "in",
        "fr"
      ],
      [
        "Ġh",
        "and"
      ],
      [
        "ĠcaractÃ©ris",
        "tiques"
      ],
      [
        "Ġpar",
        "c"
      ],
      [
        "ic",
        "ap"
      ],
      [
        "Ġintern",
        "ation"
      ],
      [
        "p",
        "s"
      ],
      [
        "l",
        "it"
      ],
      [
        "iv",
        "al"
      ],
      [
        "Ġconseil",
        "ler"
      ],
      [
        "Ġass",
        "ur"
      ],
      [
        "Ġhand",
        "icap"
      ],
      [
        "Ġretrait",
        "e"
      ],
      [
        "t",
        "Ã©es"
      ],
      [
        "os",
        "pit"
      ],
      [
        "Ġsec",
        "ond"
      ],
      [
        "ib",
        "les"
      ],
      [
        "tÃ©",
        "gr"
      ],
      [
        "ic",
        "ip"
      ],
      [
        "onn",
        "e"
      ],
      [
        "Ġmun",
        "icip"
      ],
      [
        "Ġmariti",
        "me"
      ],
      [
        "Ġf",
        "aisant"
      ],
      [
        "olog",
        "ie"
      ],
      [
        "Ġprogram",
        "me"
      ],
      [
        "Ġorganis",
        "ations"
      ],
      [
        "Ġp",
        "Ã©r"
      ],
      [
        "ins",
        "tall"
      ],
      [
        "Ġdou",
        "an"
      ],
      [
        "ins",
        "cription"
      ],
      [
        "Ġagric",
        "oles"
      ],
      [
        "a",
        "z"
      ],
      [
        "ra",
        "Ã®"
      ],
      [
        "Ġmaj",
        "or"
      ],
      [
        "ar",
        "itÃ©"
      ],
      [
        "em",
        "pr"
      ],
      [
        "ĠÃ©",
        "ch"
      ],
      [
        "Ġtr",
        "a"
      ],
      [
        "Ã©",
        "rÃ©e"
      ],
      [
        "au",
        "tre"
      ],
      [
        "exploit",
        "ant"
      ],
      [
        "Ġun",
        "ique"
      ],
      [
        "Ġconsomm",
        "ation"
      ],
      [
        "ing",
        "t"
      ],
      [
        "oi",
        "x"
      ],
      [
        "ĠlÃ©g",
        "is"
      ],
      [
        "ĠvÃ©hicu",
        "le"
      ],
      [
        "Ġphysi",
        "que"
      ],
      [
        "Ġs",
        "Ã»"
      ],
      [
        "Ġrenouv",
        "el"
      ],
      [
        "Ġcent",
        "r"
      ],
      [
        "ĠcrÃ©",
        "ation"
      ],
      [
        "Ġse",
        "p"
      ],
      [
        "Ġassoci",
        "Ã©s"
      ],
      [
        "Ġpr",
        "ud"
      ],
      [
        "Ġadres",
        "se"
      ],
      [
        "Ġsuppl",
        "Ã©"
      ],
      [
        "Ġstat",
        "ut"
      ],
      [
        "tro",
        "po"
      ],
      [
        "Ġs",
        "ite"
      ],
      [
        "Ġautor",
        "itÃ©"
      ],
      [
        "Ġper",
        "Ã§"
      ],
      [
        "is",
        "sement"
      ],
      [
        "pro",
        "pri"
      ],
      [
        "Ġind",
        "ustr"
      ],
      [
        "Ġt",
        "yp"
      ],
      [
        "al",
        "y"
      ],
      [
        "Ġpo",
        "li"
      ],
      [
        "Ġmo",
        "b"
      ],
      [
        "Ġconsult",
        "ation"
      ],
      [
        "iss",
        "ue"
      ],
      [
        "ace",
        "ment"
      ],
      [
        "2",
        "0"
      ],
      [
        "ĠpÃª",
        "che"
      ],
      [
        "en",
        "f"
      ],
      [
        "Ġdu",
        "quel"
      ],
      [
        "Ã©d",
        "onie"
      ],
      [
        "Ġexerc",
        "er"
      ],
      [
        "le",
        "ction"
      ],
      [
        "ĠvÃ©hicu",
        "les"
      ],
      [
        "oblig",
        "ation"
      ],
      [
        "ĠâĢ",
        "ĵ"
      ],
      [
        "ĠmÃ©",
        "tropo"
      ],
      [
        "nÃ©",
        "sie"
      ],
      [
        "Ġc",
        "ulture"
      ],
      [
        "Ġann",
        "Ã©es"
      ],
      [
        "Ġc",
        "inÃ©"
      ],
      [
        "Ġso",
        "lid"
      ],
      [
        "Ġn",
        "orm"
      ],
      [
        "Ġpoly",
        "nÃ©sie"
      ],
      [
        "Ġj",
        "ourn"
      ],
      [
        "cal",
        "Ã©donie"
      ],
      [
        "Ġop",
        "Ã©ration"
      ],
      [
        "ĠdÃ©",
        "sig"
      ],
      [
        "Ġtemp",
        "oraire"
      ],
      [
        "Ġf",
        "er"
      ],
      [
        "Ġphysi",
        "ques"
      ],
      [
        "Ã©r",
        "ant"
      ],
      [
        "Ġfix",
        "Ã©s"
      ],
      [
        "Ġinf",
        "Ã©rieur"
      ],
      [
        "Ġexc",
        "lu"
      ],
      [
        "Ġloc",
        "al"
      ],
      [
        "Ġpr",
        "ati"
      ],
      [
        "Ġimm",
        "Ã©di"
      ],
      [
        "Ġrec",
        "ueil"
      ],
      [
        "Ġstatu",
        "ts"
      ],
      [
        "Ġfait",
        "e"
      ],
      [
        "Ġjug",
        "ement"
      ],
      [
        "ot",
        "te"
      ],
      [
        "Ġre",
        "mise"
      ],
      [
        "Ġrela",
        "tifs"
      ],
      [
        "Ġconv",
        "entions"
      ],
      [
        "ĠmÃ©dic",
        "al"
      ],
      [
        "ai",
        "ent"
      ],
      [
        "Ġde",
        "m"
      ],
      [
        "Ġsusp",
        "ension"
      ],
      [
        "Ã©",
        "tranger"
      ],
      [
        "an",
        "c"
      ],
      [
        "ĠprÃ©",
        "par"
      ],
      [
        "ex",
        "amen"
      ],
      [
        "esp",
        "ace"
      ],
      [
        "registre",
        "ment"
      ],
      [
        "Ġ",
        "uti"
      ],
      [
        "ad",
        "Ã©m"
      ],
      [
        "r",
        "ig"
      ],
      [
        "Ġterritori",
        "al"
      ],
      [
        "Ġpa",
        "tr"
      ],
      [
        "Ġprofes",
        "sion"
      ],
      [
        "Ġper",
        "mis"
      ],
      [
        "Ġr",
        "end"
      ],
      [
        "ĠÃ©",
        "trang"
      ],
      [
        "an",
        "isme"
      ],
      [
        "Ġp",
        "ossi"
      ],
      [
        "is",
        "tr"
      ],
      [
        "Ġress",
        "ort"
      ],
      [
        "en",
        "gag"
      ],
      [
        "Ġmag",
        "istr"
      ],
      [
        "Ġconcern",
        "Ã©"
      ],
      [
        "Ġsuscepti",
        "bles"
      ],
      [
        "Ã¨",
        "tre"
      ],
      [
        "u",
        "sion"
      ],
      [
        "ĠdÃ©fin",
        "ie"
      ],
      [
        "ĠÃ©qu",
        "ival"
      ],
      [
        "Ġexer",
        "Ã§ant"
      ],
      [
        "ĠsÃ©",
        "j"
      ],
      [
        "ĠdÃ©",
        "cid"
      ],
      [
        "at",
        "tribution"
      ],
      [
        "le",
        "v"
      ],
      [
        "Ã©rÃ©",
        "es"
      ],
      [
        "ĠmÃ©dica",
        "ment"
      ],
      [
        "Ġrec",
        "ettes"
      ],
      [
        "Ġfin",
        "ances"
      ],
      [
        "Ġassoci",
        "ations"
      ],
      [
        "Ġmil",
        "itaire"
      ],
      [
        "Ġma",
        "in"
      ],
      [
        "Ġm",
        "on"
      ],
      [
        "Ġver",
        "tu"
      ],
      [
        "de",
        "ment"
      ],
      [
        "y",
        "otte"
      ],
      [
        "ĠÃ©",
        "p"
      ],
      [
        "Ġnum",
        "Ã©ro"
      ],
      [
        "Ġconc",
        "l"
      ],
      [
        "Ġpubl",
        "ication"
      ],
      [
        "Ġass",
        "urer"
      ],
      [
        "ur",
        "r"
      ],
      [
        "Ġinfr",
        "actions"
      ],
      [
        "Ġp",
        "le"
      ],
      [
        "tif",
        "ier"
      ],
      [
        "Ġd",
        "ot"
      ],
      [
        "Ġ1",
        "4"
      ],
      [
        "ĠbÃ©nÃ©f",
        "icier"
      ],
      [
        "Ġma",
        "yotte"
      ],
      [
        "dic",
        "tion"
      ],
      [
        "ff",
        "is"
      ],
      [
        "Ġal",
        "l"
      ],
      [
        "at",
        "oires"
      ],
      [
        "am",
        "p"
      ],
      [
        "Ġcl",
        "ass"
      ],
      [
        "er",
        "ts"
      ],
      [
        "at",
        "aires"
      ],
      [
        "ĠdÃ©lib",
        "Ã©ration"
      ],
      [
        "ant",
        "es"
      ],
      [
        "Ġmarch",
        "and"
      ],
      [
        "g",
        "ard"
      ],
      [
        "d",
        "its"
      ],
      [
        "ac",
        "quisition"
      ],
      [
        "Ġimmob",
        "il"
      ],
      [
        "Ġpar",
        "mi"
      ],
      [
        "Ġcon",
        "ces"
      ],
      [
        "Ġv",
        "ingt"
      ],
      [
        "Ġfait",
        "s"
      ],
      [
        "Ġs",
        "truc"
      ],
      [
        "s",
        "es"
      ],
      [
        "Ġt",
        "Ã©l"
      ],
      [
        "a",
        "sion"
      ],
      [
        "Ġannu",
        "el"
      ],
      [
        "ĠrÃ©",
        "d"
      ],
      [
        "oy",
        "er"
      ],
      [
        "Ġs",
        "cien"
      ],
      [
        "ĠprocÃ©d",
        "Ã©"
      ],
      [
        "Ġscien",
        "tif"
      ],
      [
        "re",
        "tÃ©"
      ],
      [
        "u",
        "te"
      ],
      [
        "Ġconseil",
        "s"
      ],
      [
        "en",
        "de"
      ],
      [
        "ces",
        "si"
      ],
      [
        "int",
        "Ã©rieur"
      ],
      [
        "Ġparti",
        "r"
      ],
      [
        "Ġre",
        "gard"
      ],
      [
        "Ġ",
        "w"
      ],
      [
        "ĠÃ©",
        "v"
      ],
      [
        "Ġexer",
        "ce"
      ],
      [
        "oi",
        "ent"
      ],
      [
        "ĠprÃ©",
        "lÃ¨"
      ],
      [
        "y",
        "c"
      ],
      [
        "Ġles",
        "quels"
      ],
      [
        "Ġobjec",
        "tifs"
      ],
      [
        "itÃ©",
        "e"
      ],
      [
        "Ġlieu",
        "x"
      ],
      [
        "Ġdem",
        "eure"
      ],
      [
        "Ġvoi",
        "x"
      ],
      [
        "appl",
        "ique"
      ],
      [
        "Ġvol",
        "ont"
      ],
      [
        "verb",
        "al"
      ],
      [
        "ĠÃ©quip",
        "ements"
      ],
      [
        "Ġsup",
        "port"
      ],
      [
        "atr",
        "iÃ¨me"
      ],
      [
        "ĠÃ©t",
        "ablis"
      ],
      [
        "ass",
        "ociation"
      ],
      [
        "Ã©",
        "rer"
      ],
      [
        "vi",
        "ent"
      ],
      [
        "ĠrÃ©",
        "du"
      ],
      [
        "dess",
        "us"
      ],
      [
        "ĠrÃ©d",
        "action"
      ],
      [
        "Ġgroup",
        "ements"
      ],
      [
        "ag",
        "ent"
      ],
      [
        "Ġar",
        "m"
      ],
      [
        "abil",
        "itÃ©s"
      ],
      [
        "en",
        "ant"
      ],
      [
        "Ġsan",
        "ction"
      ],
      [
        "Ġqu",
        "atriÃ¨me"
      ],
      [
        "l",
        "itÃ©"
      ],
      [
        "Ġrenouv",
        "ellement"
      ],
      [
        "1",
        "3"
      ],
      [
        "c",
        "teur"
      ],
      [
        "iden",
        "tification"
      ],
      [
        "Ġconc",
        "urr"
      ],
      [
        "Ġbeso",
        "ins"
      ],
      [
        "Ġ1",
        "7"
      ],
      [
        "Ġh",
        "aut"
      ],
      [
        "Ġter",
        "ra"
      ],
      [
        "a",
        "ins"
      ],
      [
        "ap",
        "pr"
      ],
      [
        "ir",
        "m"
      ],
      [
        "Ġsuppl",
        "Ã©ment"
      ],
      [
        "Ġau",
        "di"
      ],
      [
        "Ġim",
        "pos"
      ],
      [
        "Ġcar",
        "te"
      ],
      [
        "Ġaff",
        "Ã©r"
      ],
      [
        "an",
        "ge"
      ],
      [
        "Ġf",
        "a"
      ],
      [
        "olog",
        "ique"
      ],
      [
        "Ġ19",
        "9"
      ],
      [
        "Ġnouv",
        "eau"
      ],
      [
        "p",
        "a"
      ],
      [
        "on",
        "g"
      ],
      [
        "Ġfor",
        "fait"
      ],
      [
        "Ġparticuli",
        "er"
      ],
      [
        "l",
        "ic"
      ],
      [
        "Ġpatr",
        "im"
      ],
      [
        "Ġgaranti",
        "es"
      ],
      [
        "ĠdÃ©t",
        "ention"
      ],
      [
        "ĠpÃ©r",
        "im"
      ],
      [
        "Ġc",
        "li"
      ],
      [
        "Ġseu",
        "l"
      ],
      [
        "install",
        "ation"
      ],
      [
        "Ġindustr",
        "i"
      ],
      [
        "Ġass",
        "ure"
      ],
      [
        "Ġf",
        "Ã©d"
      ],
      [
        "Ġchac",
        "une"
      ],
      [
        "Ġfig",
        "urant"
      ],
      [
        "Ġrecouv",
        "rement"
      ],
      [
        "ĠsÃ»",
        "retÃ©"
      ],
      [
        "Ġmor",
        "ales"
      ],
      [
        "ĠexÃ©c",
        "ut"
      ],
      [
        "ĠcomplÃ©ment",
        "aire"
      ],
      [
        "lu",
        "sion"
      ],
      [
        "Ġg",
        "az"
      ],
      [
        "er",
        "n"
      ],
      [
        "Ġfourn",
        "is"
      ],
      [
        "ĠsÃ©j",
        "our"
      ],
      [
        "ordonn",
        "ance"
      ],
      [
        "Ġch",
        "ang"
      ],
      [
        "a",
        "de"
      ],
      [
        "urb",
        "anisme"
      ],
      [
        "ou",
        "tre"
      ],
      [
        "i",
        "Ã©e"
      ],
      [
        "Ġadministr",
        "atif"
      ],
      [
        "Ġindi",
        "rec"
      ],
      [
        "Ġoblig",
        "atoire"
      ],
      [
        "ass",
        "u"
      ],
      [
        "Ġprop",
        "re"
      ],
      [
        "ĠdÃ©lÃ©gu",
        "Ã©"
      ],
      [
        "s",
        "ation"
      ],
      [
        "i",
        "Ã©es"
      ],
      [
        "Ġcin",
        "qu"
      ],
      [
        "Ġc",
        "rit"
      ],
      [
        "as",
        "sement"
      ],
      [
        "uv",
        "e"
      ],
      [
        "v",
        "oi"
      ],
      [
        "Ġconcer",
        "nÃ©e"
      ],
      [
        "Ġint",
        "Ã©rieur"
      ],
      [
        "Ġprojet",
        "s"
      ],
      [
        "ĠdÃ©liv",
        "rÃ©"
      ],
      [
        "e",
        "mp"
      ],
      [
        "m",
        "at"
      ],
      [
        "Ġple",
        "in"
      ],
      [
        "ĠbÃ©nÃ©fici",
        "aires"
      ],
      [
        "o",
        "qu"
      ],
      [
        "Ġappar",
        "ten"
      ],
      [
        "Ġadress",
        "Ã©e"
      ],
      [
        "rÃ©",
        "t"
      ],
      [
        "ass",
        "urer"
      ],
      [
        "Ġsan",
        "itaire"
      ],
      [
        "Ġmil",
        "itaires"
      ],
      [
        "Ġprest",
        "ation"
      ],
      [
        "Ġfourn",
        "it"
      ],
      [
        "Ġann",
        "ex"
      ],
      [
        "Ġr",
        "ur"
      ],
      [
        "Ġrecommand",
        "Ã©e"
      ],
      [
        "ĠdÃ©c",
        "Ã¨s"
      ],
      [
        "Ġen",
        "vis"
      ],
      [
        "Ġconform",
        "itÃ©"
      ],
      [
        "Ġcom",
        "b"
      ],
      [
        "Ġb",
        "ure"
      ],
      [
        "ĠdiplÃ´",
        "me"
      ],
      [
        "it",
        "enti"
      ],
      [
        "si",
        "f"
      ],
      [
        "ĠpÃ©n",
        "itenti"
      ],
      [
        "Ġtrans",
        "mis"
      ],
      [
        "Ã©t",
        "aire"
      ],
      [
        "ĠÃ©tabli",
        "e"
      ],
      [
        "Ġc",
        "a"
      ],
      [
        "ment",
        "ation"
      ],
      [
        "ĠrÃ©",
        "duction"
      ],
      [
        "ĠspÃ©ci",
        "alis"
      ],
      [
        "Ġmandat",
        "aire"
      ],
      [
        "ĠÃ©l",
        "us"
      ],
      [
        "Ġpro",
        "por"
      ],
      [
        "Ġsec",
        "rÃ©t"
      ],
      [
        "1",
        "2"
      ],
      [
        "Ġconcurr",
        "ence"
      ],
      [
        "Ġcl",
        "asse"
      ],
      [
        "Ġfinanci",
        "Ã¨res"
      ],
      [
        "ĠpÃ©n",
        "al"
      ],
      [
        "is",
        "tes"
      ],
      [
        "u",
        "c"
      ],
      [
        "ĠprÃ©sent",
        "ation"
      ],
      [
        "Ġpla",
        "f"
      ],
      [
        "ĠdÃ©bit",
        "eur"
      ],
      [
        "Ã©",
        "li"
      ],
      [
        "Ġdisposi",
        "tifs"
      ],
      [
        "Ã©",
        "ch"
      ],
      [
        "Ġop",
        "Ã©r"
      ],
      [
        "e",
        "ff"
      ],
      [
        "ĠrÃ©sid",
        "ence"
      ],
      [
        "Ġcomp",
        "ens"
      ],
      [
        "urg",
        "ence"
      ],
      [
        "Ġzon",
        "es"
      ],
      [
        "Ġs",
        "chÃ©"
      ],
      [
        "Ġacc",
        "ompl"
      ],
      [
        "Ġint",
        "Ã©rÃªts"
      ],
      [
        "Ġins",
        "tru"
      ],
      [
        "Ġpos",
        "t"
      ],
      [
        "Ġgr",
        "av"
      ],
      [
        "Ġsom",
        "me"
      ],
      [
        "au",
        "teur"
      ],
      [
        "ist",
        "ance"
      ],
      [
        "ĠdÃ©lÃ©g",
        "ation"
      ],
      [
        "eu",
        "v"
      ],
      [
        "Ġa",
        "ides"
      ],
      [
        "Ġh",
        "ospit"
      ],
      [
        "Ġreven",
        "us"
      ],
      [
        "Ġpay",
        "s"
      ],
      [
        "Ġsc",
        "ol"
      ],
      [
        "Ġpro",
        "vis"
      ],
      [
        "Ġexerc",
        "ice"
      ],
      [
        "Ġfav",
        "or"
      ],
      [
        "e",
        "ffec"
      ],
      [
        "ĠdÃ©sign",
        "ation"
      ],
      [
        "en",
        "registrement"
      ],
      [
        "Ġcrit",
        "Ã¨res"
      ],
      [
        "Ġjourn",
        "al"
      ],
      [
        "posi",
        "tions"
      ],
      [
        "Ġsou",
        "mises"
      ],
      [
        "Ġ",
        "esti"
      ],
      [
        "Ġcontr",
        "av"
      ],
      [
        "Ġman",
        "que"
      ],
      [
        "Ġf",
        "ich"
      ],
      [
        "Ã¨",
        "le"
      ],
      [
        "Ġinform",
        "ation"
      ],
      [
        "ĠrÃ©parti",
        "tion"
      ],
      [
        "Ġcharg",
        "Ã©e"
      ],
      [
        "ĠdÃ©ch",
        "ets"
      ],
      [
        "tric",
        "itÃ©"
      ],
      [
        "l",
        "le"
      ],
      [
        "Ġr",
        "enseignement"
      ],
      [
        "ĠrÃ©",
        "di"
      ],
      [
        "Ġcor",
        "ps"
      ],
      [
        "Ġjus",
        "tific"
      ],
      [
        "a",
        "in"
      ],
      [
        "tou",
        "t"
      ],
      [
        "Ġdisp",
        "ens"
      ],
      [
        "Ġch",
        "i"
      ],
      [
        "Ġpr",
        "om"
      ],
      [
        "Ġsu",
        "c"
      ],
      [
        "Ġsais",
        "ie"
      ],
      [
        "cid",
        "ent"
      ],
      [
        "di",
        "que"
      ],
      [
        "Ġal",
        "ors"
      ],
      [
        "Ġm",
        "er"
      ],
      [
        "Ġ",
        "organ"
      ],
      [
        "Ġparticuli",
        "Ã¨res"
      ],
      [
        "Ġch",
        "ois"
      ],
      [
        "ag",
        "n"
      ],
      [
        "is",
        "onnement"
      ],
      [
        "si",
        "m"
      ],
      [
        "Ġ",
        "esp"
      ],
      [
        "al",
        "i"
      ],
      [
        "ad",
        "resse"
      ],
      [
        "Ġinf",
        "Ã©rieure"
      ],
      [
        "ma",
        "tric"
      ],
      [
        "Ġcons",
        "ul"
      ],
      [
        "Ġcir",
        "cul"
      ],
      [
        "Ġenf",
        "ants"
      ],
      [
        "ĠdÃ©lib",
        "Ã©rations"
      ],
      [
        "Ġplace",
        "ment"
      ],
      [
        "Ġ",
        "Â"
      ],
      [
        "Ġex",
        "am"
      ],
      [
        "Ġdi",
        "rig"
      ],
      [
        "er",
        "tion"
      ],
      [
        "Ġsuscepti",
        "ble"
      ],
      [
        "occ",
        "asion"
      ],
      [
        "Ġd",
        "omm"
      ],
      [
        "ĠintÃ©ress",
        "Ã©s"
      ],
      [
        "Ġgreff",
        "e"
      ],
      [
        "Ġcom",
        "position"
      ],
      [
        "tic",
        "i"
      ],
      [
        "er",
        "re"
      ],
      [
        "institu",
        "t"
      ],
      [
        "Ġen",
        "vironnement"
      ],
      [
        "en",
        "quÃªte"
      ],
      [
        "all",
        "ocation"
      ],
      [
        "ib",
        "le"
      ],
      [
        "Ġid",
        "en"
      ],
      [
        "ĠdÃ©term",
        "inÃ©"
      ],
      [
        "Ġpres",
        "criptions"
      ],
      [
        "Ġl",
        "ong"
      ],
      [
        "Ġre",
        "cev"
      ],
      [
        "Ġcontrib",
        "ution"
      ],
      [
        "Ġmotiv",
        "Ã©e"
      ],
      [
        "e",
        "ille"
      ],
      [
        "ĠrÃ©g",
        "uli"
      ],
      [
        "Ġprop",
        "res"
      ],
      [
        "mb",
        "res"
      ],
      [
        "se",
        "ction"
      ],
      [
        "tÃ©",
        "g"
      ],
      [
        "ĠÃ",
        "¢"
      ],
      [
        "Ġreven",
        "u"
      ],
      [
        "Ġconf",
        "orme"
      ],
      [
        "Ġpermet",
        "tre"
      ],
      [
        "Ġaff",
        "aires"
      ],
      [
        "Ġdonn",
        "er"
      ],
      [
        "Ġp",
        "ati"
      ],
      [
        "Ġtel",
        "le"
      ],
      [
        "Ġconserv",
        "ation"
      ],
      [
        "ĠpÃ©n",
        "ale"
      ],
      [
        "Ġsign",
        "ature"
      ],
      [
        "Ġpublic",
        "itÃ©"
      ],
      [
        "Ġfonction",
        "naires"
      ],
      [
        "Ġconc",
        "ours"
      ],
      [
        "1",
        "1"
      ],
      [
        "s",
        "ous"
      ],
      [
        "d",
        "r"
      ],
      [
        "Ġent",
        "raÃ®"
      ],
      [
        "Ġsan",
        "ctions"
      ],
      [
        "Ġm",
        "ises"
      ],
      [
        "ag",
        "raph"
      ],
      [
        "Ġb",
        "il"
      ],
      [
        "Ġtravaille",
        "urs"
      ],
      [
        "t",
        "h"
      ],
      [
        "im",
        "in"
      ],
      [
        "ti",
        "ent"
      ],
      [
        "Ġa",
        "li"
      ],
      [
        "Ġm",
        "Ã©t"
      ],
      [
        "ti",
        "ers"
      ],
      [
        "Ġproc",
        "Ã¨de"
      ],
      [
        "ĠprÃ©",
        "sence"
      ],
      [
        "Ã§",
        "on"
      ],
      [
        "m",
        "ar"
      ],
      [
        "es",
        "se"
      ],
      [
        "Ġj",
        "e"
      ],
      [
        "Ġd",
        "iv"
      ],
      [
        "Ġimm",
        "eubles"
      ],
      [
        "Ġcomport",
        "ant"
      ],
      [
        "Ġsec",
        "teur"
      ],
      [
        "Ġpro",
        "pos"
      ],
      [
        "eu",
        "ble"
      ],
      [
        "Ġprud",
        "entiel"
      ],
      [
        "u",
        "tÃ©"
      ],
      [
        "Ġliquid",
        "ation"
      ],
      [
        "Ġlim",
        "ites"
      ],
      [
        "Ġdouan",
        "es"
      ],
      [
        "Ġm",
        "ai"
      ],
      [
        "Ġac",
        "te"
      ],
      [
        "s",
        "titu"
      ],
      [
        "oc",
        "k"
      ],
      [
        "Ã©lec",
        "tricitÃ©"
      ],
      [
        "ĠpÃ©rim",
        "Ã¨tre"
      ],
      [
        "Ġpatrim",
        "o"
      ],
      [
        "Ġpl",
        "ur"
      ],
      [
        "a",
        "tement"
      ],
      [
        "Ġmarchand",
        "ises"
      ],
      [
        "Ġpres",
        "crit"
      ],
      [
        "Ġprononc",
        "Ã©e"
      ],
      [
        "ac",
        "es"
      ],
      [
        "ĠrÃ©",
        "un"
      ],
      [
        "Ġengag",
        "ements"
      ],
      [
        "ti",
        "Ã¨res"
      ],
      [
        "a",
        "ffec"
      ],
      [
        "Ġdestin",
        "Ã©s"
      ],
      [
        "au",
        "te"
      ],
      [
        "Ġconcern",
        "Ã©es"
      ],
      [
        "ĠdÃ©partement",
        "ale"
      ],
      [
        "indemn",
        "itÃ©"
      ],
      [
        "uc",
        "lÃ©"
      ],
      [
        "Ġplaf",
        "ond"
      ],
      [
        "Ġst",
        "ock"
      ],
      [
        "un",
        "a"
      ],
      [
        "al",
        "lis"
      ],
      [
        "ĠrÃ©",
        "par"
      ],
      [
        "Ġdonn",
        "e"
      ],
      [
        "po",
        "sent"
      ],
      [
        "acc",
        "ompag"
      ],
      [
        "infr",
        "action"
      ],
      [
        "Ġw",
        "allis"
      ],
      [
        "ut",
        "una"
      ],
      [
        "j",
        "ou"
      ],
      [
        "Ġh",
        "abilitÃ©"
      ],
      [
        "ins",
        "pec"
      ],
      [
        "u",
        "elle"
      ],
      [
        "Ġcha",
        "mbres"
      ],
      [
        "Ġsou",
        "mise"
      ],
      [
        "ĠcrÃ©",
        "anci"
      ],
      [
        "ĠdÃ©termin",
        "Ã©es"
      ],
      [
        "Ġpoli",
        "tique"
      ],
      [
        "Ġ2",
        "3"
      ],
      [
        "Ġminim",
        "um"
      ],
      [
        "ĠdÃ©termin",
        "Ã©e"
      ],
      [
        "Ġsub",
        "ordonn"
      ],
      [
        ")",
        "."
      ],
      [
        "Ġman",
        "if"
      ],
      [
        "is",
        "tant"
      ],
      [
        "Ġcon",
        "gÃ©"
      ],
      [
        "Ġapparten",
        "ant"
      ],
      [
        "Ġsu",
        "ite"
      ],
      [
        "Ġmob",
        "il"
      ],
      [
        "Ġarm",
        "Ã©es"
      ],
      [
        "Ġfor",
        "Ãª"
      ],
      [
        "im",
        "port"
      ],
      [
        "Ġsur",
        "f"
      ],
      [
        "titu",
        "de"
      ],
      [
        "Ġmajor",
        "itÃ©"
      ],
      [
        "on",
        "e"
      ],
      [
        "Ġh",
        "abilitÃ©s"
      ],
      [
        "Ġpor",
        "ter"
      ],
      [
        "t",
        "ures"
      ],
      [
        "ĠdÃ©liv",
        "rÃ©e"
      ],
      [
        "Ġten",
        "ant"
      ],
      [
        "ĠrÃ©glement",
        "ation"
      ],
      [
        "ĠrÃ©",
        "si"
      ],
      [
        "Ġform",
        "ations"
      ],
      [
        "ul",
        "le"
      ],
      [
        "Ġex",
        "ception"
      ],
      [
        "Ġcondam",
        "n"
      ],
      [
        "le",
        "ur"
      ],
      [
        "Ġg",
        "ouver"
      ],
      [
        "Ġ19",
        "8"
      ],
      [
        "Ġv",
        "Ã©t"
      ],
      [
        "Ġdis",
        "tin"
      ],
      [
        "Ġl",
        "ic"
      ],
      [
        "ci",
        "ens"
      ],
      [
        "an",
        "e"
      ],
      [
        "au",
        "di"
      ],
      [
        "i",
        "de"
      ],
      [
        "pec",
        "t"
      ],
      [
        "Ġtyp",
        "e"
      ],
      [
        "a",
        "tici"
      ],
      [
        "ach",
        "at"
      ],
      [
        "Ġpro",
        "vision"
      ],
      [
        "an",
        "de"
      ],
      [
        "ari",
        "at"
      ],
      [
        "Ġco",
        "ordonn"
      ],
      [
        "olog",
        "iques"
      ],
      [
        "Ġaffec",
        "tÃ©s"
      ],
      [
        "m",
        "ique"
      ],
      [
        "Ġattribu",
        "tions"
      ],
      [
        "Ġap",
        "port"
      ],
      [
        "Ġbure",
        "au"
      ],
      [
        "ĠvÃ©t",
        "Ã©r"
      ],
      [
        "Ġju",
        "in"
      ],
      [
        "Ġpriv",
        "Ã©"
      ],
      [
        "Ġp",
        "op"
      ],
      [
        "Ġocc",
        "up"
      ],
      [
        "Ġc",
        "apacitÃ©"
      ],
      [
        "Ġcl",
        "Ã´"
      ],
      [
        "Ġind",
        "Ã©p"
      ],
      [
        "Ġim",
        "p"
      ],
      [
        "Ġtari",
        "f"
      ],
      [
        "Ġla",
        "b"
      ],
      [
        "Ġpouv",
        "ant"
      ],
      [
        "Ġpr",
        "atici"
      ],
      [
        "Ġcontr",
        "aire"
      ],
      [
        "Ġsoci",
        "aux"
      ],
      [
        "Ġch",
        "oix"
      ],
      [
        "ag",
        "it"
      ],
      [
        "ĠprÃ©alable",
        "ment"
      ],
      [
        "Ġappr",
        "ouv"
      ],
      [
        "Ġpar",
        "agraph"
      ],
      [
        "ĠimmÃ©di",
        "atement"
      ],
      [
        "Ġ5",
        "0"
      ],
      [
        "Ġsu",
        "it"
      ],
      [
        "Ġn",
        "uclÃ©"
      ],
      [
        "Ġm",
        "Ã©c"
      ],
      [
        "id",
        "entitÃ©"
      ],
      [
        "Ġgr",
        "at"
      ],
      [
        "Ġen",
        "ti"
      ],
      [
        "enf",
        "ant"
      ],
      [
        "exerc",
        "er"
      ],
      [
        "er",
        "ti"
      ],
      [
        "op",
        "tion"
      ],
      [
        "Ġloc",
        "ation"
      ],
      [
        "ĠpÃ©nitenti",
        "aire"
      ],
      [
        "ĠprÃ©v",
        "is"
      ],
      [
        "a",
        "tis"
      ],
      [
        "us",
        "age"
      ],
      [
        "Ġt",
        "our"
      ],
      [
        "Ã¨",
        "tres"
      ],
      [
        "Ġtr",
        "ouv"
      ],
      [
        "assu",
        "rÃ©"
      ],
      [
        "o",
        "v"
      ],
      [
        "r",
        "o"
      ],
      [
        "Ġbeso",
        "in"
      ],
      [
        "Ġdern",
        "iÃ¨re"
      ],
      [
        "Ġac",
        "quis"
      ],
      [
        "Ġconten",
        "u"
      ],
      [
        "Ġun",
        "ion"
      ],
      [
        "met",
        "tre"
      ],
      [
        "Ġcollec",
        "tif"
      ],
      [
        "Ġpatrimo",
        "ine"
      ],
      [
        "Ġet",
        "ats"
      ],
      [
        "aiss",
        "es"
      ],
      [
        "r",
        "ier"
      ],
      [
        "Ġinscrit",
        "s"
      ],
      [
        "Ġ2",
        "5"
      ],
      [
        "Ġh",
        "um"
      ],
      [
        "ĠrelÃ¨",
        "ve"
      ],
      [
        "ĠmÃ©dica",
        "ments"
      ],
      [
        "Ġindi",
        "que"
      ],
      [
        "inter",
        "diction"
      ],
      [
        "Ġsolid",
        "aritÃ©"
      ],
      [
        "ĠrÃ©glement",
        "aire"
      ],
      [
        "Ġexig",
        "ences"
      ],
      [
        "ĠdÃ©",
        "pl"
      ],
      [
        "ac",
        "tu"
      ],
      [
        "Ġfab",
        "r"
      ],
      [
        "engag",
        "ement"
      ],
      [
        "ann",
        "exe"
      ],
      [
        "Ġchi",
        "ff"
      ],
      [
        "Ġc",
        "aisses"
      ],
      [
        "ig",
        "ne"
      ],
      [
        "p",
        "uis"
      ],
      [
        "Ġg",
        "l"
      ],
      [
        "ic",
        "ie"
      ],
      [
        "empr",
        "isonnement"
      ],
      [
        "Ġ1",
        "8"
      ],
      [
        "ĠschÃ©",
        "ma"
      ],
      [
        "Ġd",
        "Ã»"
      ],
      [
        "Ġs",
        "cr"
      ],
      [
        "Ġsec",
        "ret"
      ],
      [
        "Ġmaxim",
        "um"
      ],
      [
        "ĠrÃ©g",
        "ulation"
      ],
      [
        "m",
        "Ãª"
      ],
      [
        "Ġau",
        "quel"
      ],
      [
        "ag",
        "ers"
      ],
      [
        "Ġre",
        "ti"
      ],
      [
        "orient",
        "ation"
      ],
      [
        "ĠpÃ©rio",
        "des"
      ],
      [
        "Ġjur",
        "i"
      ],
      [
        "Ġsatis",
        "f"
      ],
      [
        "Ġmaxim",
        "ale"
      ],
      [
        "Ġhospit",
        "al"
      ],
      [
        "sim",
        "il"
      ],
      [
        "ĠdÃ©",
        "r"
      ],
      [
        "ĠcinÃ©",
        "mat"
      ],
      [
        "ĠcinÃ©mat",
        "ograph"
      ],
      [
        "Ġde",
        "puis"
      ],
      [
        "Ġrespec",
        "tivement"
      ],
      [
        "Ġim",
        "port"
      ],
      [
        "ĠmatÃ©ri",
        "els"
      ],
      [
        "Ġauc",
        "une"
      ],
      [
        "Ġfam",
        "ille"
      ],
      [
        "Ġv",
        "ice"
      ],
      [
        "att",
        "ach"
      ],
      [
        "Ġvers",
        "Ã©es"
      ],
      [
        "Ġti",
        "ent"
      ],
      [
        "Ġpo",
        "ints"
      ],
      [
        "Ġscientif",
        "ique"
      ],
      [
        "Ġtot",
        "ale"
      ],
      [
        "Ġj",
        "o"
      ],
      [
        "av",
        "ant"
      ],
      [
        "Ġchang",
        "ement"
      ],
      [
        "Ġrur",
        "al"
      ],
      [
        "Ġeffectu",
        "Ã©e"
      ],
      [
        "Ġtr",
        "ente"
      ],
      [
        "Ġappl",
        "iqu"
      ],
      [
        "Ġautoris",
        "Ã©"
      ],
      [
        "Ġdis",
        "pon"
      ],
      [
        "Ġdonn",
        "Ã©"
      ],
      [
        "1",
        "0"
      ],
      [
        "Ġsol",
        "lic"
      ],
      [
        "Ġprovis",
        "oire"
      ],
      [
        "in",
        "aires"
      ],
      [
        "Ġeffectu",
        "Ã©"
      ],
      [
        "ent",
        "rÃ©e"
      ],
      [
        "Ġdis",
        "tribu"
      ],
      [
        "Ã¨",
        "mes"
      ],
      [
        "Ġb",
        "ois"
      ],
      [
        "por",
        "teur"
      ],
      [
        "ĠcomplÃ©ment",
        "aires"
      ],
      [
        "Ġconn",
        "aÃ®tre"
      ],
      [
        "Ġfr",
        "action"
      ],
      [
        "Ġindemn",
        "itÃ©s"
      ],
      [
        "ĠmÃ©tropo",
        "le"
      ],
      [
        "ĠrÃ©alis",
        "Ã©e"
      ],
      [
        "du",
        "c"
      ],
      [
        "ĠrÃ©p",
        "ut"
      ],
      [
        "Ġcert",
        "aines"
      ],
      [
        "a",
        "que"
      ],
      [
        "m",
        "ation"
      ],
      [
        "ĠrÃ©glement",
        "aires"
      ],
      [
        "ins",
        "ertion"
      ],
      [
        "Ġh",
        "abit"
      ],
      [
        "Ġprof",
        "it"
      ],
      [
        "ĠrÃ©alis",
        "Ã©es"
      ],
      [
        "Ġcon",
        "sign"
      ],
      [
        "Ġs",
        "oient"
      ],
      [
        "pa",
        "re"
      ],
      [
        "ĠcontrÃ´",
        "les"
      ],
      [
        "iti",
        "Ã©"
      ],
      [
        "Ġvale",
        "urs"
      ],
      [
        "b",
        "erg"
      ],
      [
        "n",
        "elle"
      ],
      [
        "Ġmo",
        "itiÃ©"
      ],
      [
        "Ġgl",
        "ob"
      ],
      [
        "i",
        "onn"
      ],
      [
        "ap",
        "p"
      ],
      [
        "Ã©rieure",
        "ment"
      ],
      [
        "Ġsais",
        "i"
      ],
      [
        "hÃ©r",
        "ap"
      ],
      [
        "i",
        "Ã©s"
      ],
      [
        "u",
        "tin"
      ],
      [
        "Ġbil",
        "an"
      ],
      [
        "Ġscr",
        "utin"
      ],
      [
        "Ġnav",
        "ig"
      ],
      [
        "â",
        "Ģ"
      ],
      [
        "Ġvis",
        "Ã©s"
      ],
      [
        "Ġutilis",
        "Ã©s"
      ],
      [
        "Ġcontrav",
        "entions"
      ],
      [
        "Ġcor",
        "se"
      ],
      [
        "ĠdÃ©clar",
        "ations"
      ],
      [
        "exc",
        "lusion"
      ],
      [
        "Ã©",
        "re"
      ],
      [
        "Ã©g",
        "ard"
      ],
      [
        "ĠclÃ´",
        "ture"
      ],
      [
        "Ġas",
        "simil"
      ],
      [
        "on",
        "ce"
      ],
      [
        "ulle",
        "tin"
      ],
      [
        "1",
        "4"
      ],
      [
        "Ġs",
        "port"
      ],
      [
        "ĠrÃ©se",
        "aux"
      ],
      [
        "Ã©di",
        "aire"
      ],
      [
        "is",
        "er"
      ],
      [
        "Ġgu",
        "erre"
      ],
      [
        "Ġpo",
        "int"
      ],
      [
        "Ġsign",
        "if"
      ],
      [
        "cid",
        "ents"
      ],
      [
        "Ġdu",
        "es"
      ],
      [
        "Ġb",
        "ulletin"
      ],
      [
        "a",
        "y"
      ],
      [
        "Ġaux",
        "quelles"
      ],
      [
        "Ġap",
        "prÃ©ci"
      ],
      [
        "Ġim",
        "pl"
      ],
      [
        "ĠdÃ©sig",
        "ne"
      ],
      [
        "Ġfa",
        "Ã§on"
      ],
      [
        "Ġass",
        "is"
      ],
      [
        "Ġh",
        "uit"
      ],
      [
        "ĠÃ©lectron",
        "iques"
      ],
      [
        "ĠÃ©tu",
        "des"
      ],
      [
        "y",
        "ane"
      ],
      [
        "ĠÃ©lec",
        "tor"
      ],
      [
        "Ġqu",
        "anti"
      ],
      [
        "Ġin",
        "dic"
      ],
      [
        "Ġa",
        "ur"
      ],
      [
        "res",
        "s"
      ],
      [
        "ur",
        "ation"
      ],
      [
        "Ġap",
        "propri"
      ],
      [
        "Ġno",
        "v"
      ],
      [
        "Ġpoursu",
        "iv"
      ],
      [
        "Ġp",
        "u"
      ],
      [
        "Ã©",
        "tique"
      ],
      [
        "en",
        "ne"
      ],
      [
        "ĠprÃ©v",
        "en"
      ],
      [
        "Ġm",
        "ix"
      ],
      [
        "Ġf",
        "l"
      ],
      [
        "ob",
        "ation"
      ],
      [
        "ab",
        "oration"
      ],
      [
        "Ġcommission",
        "s"
      ],
      [
        "Ġgu",
        "yane"
      ],
      [
        "Ġeffectu",
        "Ã©es"
      ],
      [
        "Ġouvr",
        "ages"
      ],
      [
        "ĠdÃ©t",
        "ail"
      ],
      [
        "Ġst",
        "age"
      ],
      [
        "Ġat",
        "test"
      ],
      [
        "Ġnotifi",
        "Ã©e"
      ],
      [
        "Ġr",
        "attach"
      ],
      [
        "Ã¢",
        "ge"
      ],
      [
        "Ġcircul",
        "ation"
      ],
      [
        "Ġcontin",
        "u"
      ],
      [
        "ĠdÃ©fin",
        "it"
      ],
      [
        "Ġm",
        "en"
      ],
      [
        "Ġnum",
        "Ã©ri"
      ],
      [
        "Ġcommun",
        "ications"
      ],
      [
        "ĠrÃ¨glement",
        "s"
      ],
      [
        "ĠrÃ©alis",
        "er"
      ],
      [
        "inter",
        "vention"
      ],
      [
        "rÃ©",
        "g"
      ],
      [
        "ici",
        "aires"
      ],
      [
        "Ġin",
        "v"
      ],
      [
        "Ġinter",
        "m"
      ],
      [
        "Ġten",
        "us"
      ],
      [
        "Ġrenseignement",
        "s"
      ],
      [
        "li",
        "r"
      ],
      [
        "Ġassur",
        "ances"
      ],
      [
        "Ġenvis",
        "ag"
      ],
      [
        "oup",
        "e"
      ],
      [
        "Ġcent",
        "res"
      ],
      [
        "Ġgouver",
        "nement"
      ]
    ]
  }
}