{
  "version": "1.0",
  "truncation": null,
  "padding": null,
  "added_tokens": [
    {
      "id": 0,
      "content": "[PAD]",
      "single_word": false,
      "lstrip": false,
      "rstrip": false,
      "normalized": false,
      "special": true
    },
    {
      "id": 1,
      "content": "[UNK]",
      "single_word": false,
      "lstrip": false,
      "rstrip": false,
      "normalized": false,
      "special": true
    },
    {
      "id": 2,
      "content": "[EOS]",
      "single_word": false,
      "lstrip": false,
      "rstrip": false,
      "normalized": false,
      "special": true
    }
  ],
  "normalizer": {
    "type": "Sequence",
    "normalizers": [
      {
        "type": "Lowercase"
      },
      {
        "type": "StripAccents"
      }
    ]
  },
  "pre_tokenizer": {
    "type": "Whitespace"
  },
  "post_processor": null,
  "decoder": null,
  "model": {
    "type": "BPE",
    "dropout": null,
    "unk_token": "[UNK]",
    "continuing_subword_prefix": null,
    "end_of_word_suffix": null,
    "fuse_unk": false,
    "byte_fallback": false,
    "ignore_merges": false,
    "vocab": {
      "[PAD]": 0,
      "[UNK]": 1,
      "[EOS]": 2,
      "!": 3,
      "\"": 4,
      "#": 5,
      "%": 6,
      "&": 7,
      "'": 8,
      "(": 9,
      ")": 10,
      "*": 11,
      "+": 12,
      ",": 13,
      "-": 14,
      ".": 15,
      "/": 16,
      "0": 17,
      "1": 18,
      "2": 19,
      "3": 20,
      "4": 21,
      "5": 22,
      "6": 23,
      "7": 24,
      "8": 25,
      "9": 26,
      ":": 27,
      ";": 28,
      "<": 29,
      "=": 30,
      ">": 31,
      "?": 32,
      "@": 33,
      "[": 34,
      "]": 35,
      "^": 36,
      "_": 37,
      "a": 38,
      "b": 39,
      "c": 40,
      "d": 41,
      "e": 42,
      "f": 43,
      "g": 44,
      "h": 45,
      "i": 46,
      "j": 47,
      "k": 48,
      "l": 49,
      "m": 50,
      "n": 51,
      "o": 52,
      "p": 53,
      "q": 54,
      "r": 55,
      "s": 56,
      "t": 57,
      "u": 58,
      "v": 59,
      "w": 60,
      "x": 61,
      "y": 62,
      "z": 63,
      "{": 64,
      "|": 65,
      "}": 66,
      "¤": 67,
      "§": 68,
      "¨": 69,
      "«": 70,
      "­": 71,
      "°": 72,
      "²": 73,
      "³": 74,
      "µ": 75,
      "¸": 76,
      "¹": 77,
      "º": 78,
      "»": 79,
      "¼": 80,
      "×": 81,
      "à": 82,
      "á": 83,
      "â": 84,
      "ä": 85,
      "ç": 86,
      "è": 87,
      "é": 88,
      "ê": 89,
      "ë": 90,
      "í": 91,
      "î": 92,
      "ï": 93,
      "ó": 94,
      "ô": 95,
      "ö": 96,
      "ù": 97,
      "û": 98,
      "ü": 99,
      "ý": 100,
      "ÿ": 101,
      "ă": 102,
      "œ": 103,
      "š": 104,
      "ţ": 105,
      "ʹ": 106,
      "˂": 107,
      "ˮ": 108,
      "ά": 109,
      "έ": 110,
      "ή": 111,
      "ί": 112,
      "α": 113,
      "β": 114,
      "γ": 115,
      "δ": 116,
      "ε": 117,
      "η": 118,
      "θ": 119,
      "ι": 120,
      "κ": 121,
      "λ": 122,
      "μ": 123,
      "ν": 124,
      "ο": 125,
      "π": 126,
      "ρ": 127,
      "ς": 128,
      "σ": 129,
      "τ": 130,
      "υ": 131,
      "χ": 132,
      "ω": 133,
      "ό": 134,
      "ύ": 135,
      "ώ": 136,
      "а": 137,
      "в": 138,
      "г": 139,
      "д": 140,
      "е": 141,
      "ж": 142,
      "и": 143,
      "к": 144,
      "м": 145,
      "н": 146,
      "о": 147,
      "р": 148,
      "с": 149,
      "т": 150,
      "у": 151,
      "ц": 152,
      "ч": 153,
      "ᵉ": 154,
      "‒": 155,
      "–": 156,
      "—": 157,
      "―": 158,
      "‘": 159,
      "’": 160,
      "“": 161,
      "”": 162,
      "‟": 163,
      "•": 164,
      "…": 165,
      "‰": 166,
      "⁶": 167,
      "⁹": 168,
      "€": 169,
      "∑": 170,
      "−": 171,
      "∫": 172,
      "≤": 173,
      "≥": 174,
      "■": 175,
      "□": 176,
      "●": 177,
      "☐": 178,
      "ﬀ": 179,
      "ﬁ": 180,
      "ﬂ": 181,
      "es": 182,
      "on": 183,
      "ti": 184,
      "en": 185,
      "de": 186,
      "le": 187,
      "tion": 188,
      "re": 189,
      "an": 190,
      "is": 191,
      "ent": 192,
      "ar": 193,
      "la": 194,
      "er": 195,
      "ou": 196,
      "in": 197,
      "pr": 198,
      "les": 199,
      "et": 200,
      "au": 201,
      "it": 202,
      "qu": 203,
      "du": 204,
      "or": 205,
      "ation": 206,
      "des": 207,
      "li": 208,
      "ur": 209,
      "un": 210,
      "tr": 211,
      "és": 212,
      "ment": 213,
      "con": 214,
      "co": 215,
      "te": 216,
      "par": 217,
      "ce": 218,
      "dé": 219,
      "ant": 220,
      "si": 221,
      "><": 222,
      "al": 223,
      "se": 224,
      "ci": 225,
      "di": 226,
      "que": 227,
      "il": 228,
      "ré": 229,
      "tic": 230,
      "com": 231,
      "ch": 232,
      "ans": 233,
      "artic": 234,
      "at": 235,
      "td": 236,
      "our": 237,
      "son": 238,
      "ér": 239,
      "ne": 240,
      "as": 241,
      "est": 242,
      "ai": 243,
      "article": 244,
      "ac": 245,
      "res": 246,
      "aux": 247,
      "pro": 248,
      "tre": 249,
      "ap": 250,
      "ab": 251,
      "fi": 252,
      "me": 253,
      "ité": 254,
      "ét": 255,
      "dans": 256,
      "né": 257,
      "une": 258,
      "tions": 259,
      "pré": 260,
      "pe": 261,
      "ag": 262,
      "po": 263,
      "ex": 264,
      "ces": 265,
      "=\"": 266,
      "gn": 267,
      "ali": 268,
      "pour": 269,
      "mo": 270,
      "ve": 271,
      "su": 272,
      "ale": 273,
      "so": 274,
      "ter": 275,
      "sur": 276,
      "ention": 277,
      "prés": 278,
      "lle": 279,
      "align": 280,
      "vi": 281,
      "aire": 282,
      "lic": 283,
      "lo": 284,
      "comp": 285,
      "sion": 286,
      "min": 287,
      "sont": 288,
      "us": 289,
      "per": 290,
      "ée": 291,
      "mis": 292,
      "></": 293,
      "ie": 294,
      "for": 295,
      "</": 296,
      "ations": 297,
      "app": 298,
      "av": 299,
      "ut": 300,
      "mention": 301,
      "ées": 302,
      "qui": 303,
      "prév": 304,
      "dis": 305,
      "ins": 306,
      "ue": 307,
      "présent": 308,
      "ction": 309,
      "mb": 310,
      "lis": 311,
      "im": 312,
      "ance": 313,
      "ad": 314,
      "man": 315,
      "ma": 316,
      "ont": 317,
      "ure": 318,
      "aut": 319,
      "déc": 320,
      "\">": 321,
      "ments": 322,
      "pu": 323,
      "ion": 324,
      "posi": 325,
      "tif": 326,
      "teur": 327,
      "ser": 328,
      "form": 329,
      "minis": 330,
      "gé": 331,
      "tiv": 332,
      "op": 333,
      "oi": 334,
      "applic": 335,
      "20": 336,
      "person": 337,
      "no": 338,
      "leur": 339,
      "ff": 340,
      "soci": 341,
      "ort": 342,
      "mi": 343,
      "ors": 344,
      "cu": 345,
      "ais": 346,
      "lu": 347,
      "fin": 348,
      "pub": 349,
      "ég": 350,
      "ités": 351,
      "tou": 352,
      "eur": 353,
      "mentionné": 354,
      "am": 355,
      "ge": 356,
      "contr": 357,
      "peut": 358,
      "mes": 359,
      "étab": 360,
      "ob": 361,
      "lors": 362,
      "int": 363,
      "condi": 364,
      "ri": 365,
      "rés": 366,
      "disposi": 367,
      "ques": 368,
      "aires": 369,
      "code": 370,
      "cas": 371,
      "ait": 372,
      "rec": 373,
      "pris": 374,
      "mp": 375,
      "cent": 376,
      "ence": 377,
      "pas": 378,
      "do": 379,
      "autor": 380,
      "être": 381,
      "sé": 382,
      "tu": 383,
      "ro": 384,
      "conditions": 385,
      "comm": 386,
      "rég": 387,
      "vent": 388,
      "seil": 389,
      "conseil": 390,
      "char": 391,
      "sou": 392,
      "pl": 393,
      "lai": 394,
      "sement": 395,
      "prévu": 396,
      "ère": 397,
      "cé": 398,
      "cet": 399,
      "fr": 400,
      "ès": 401,
      "id": 402,
      "fon": 403,
      "st": 404,
      "établis": 405,
      "age": 406,
      "lles": 407,
      "mé": 408,
      "parti": 409,
      "cer": 410,
      "application": 411,
      "tri": 412,
      "ux": 413,
      "ers": 414,
      "deman": 415,
      "cation": 416,
      "rit": 417,
      "ten": 418,
      "té": 419,
      "ord": 420,
      "entre": 421,
      "able": 422,
      "iné": 423,
      "tifi": 424,
      "jus": 425,
      "org": 426,
      "organ": 427,
      "ni": 428,
      "dispositions": 429,
      "mission": 430,
      "port": 431,
      "servi": 432,
      "ain": 433,
      "ts": 434,
      "lt": 435,
      "end": 436,
      "ii": 437,
      "lef": 438,
      "left": 439,
      "ants": 440,
      "ju": 441,
      "érie": 442,
      "aliné": 443,
      "mbre": 444,
      "ens": 445,
      "inter": 446,
      "tes": 447,
      "gr": 448,
      "organis": 449,
      "iv": 450,
      "center": 451,
      "nation": 452,
      "trans": 453,
      "personne": 454,
      "demande": 455,
      "sa": 456,
      "cette": 457,
      "été": 458,
      "articles": 459,
      "nés": 460,
      "ministr": 461,
      "etat": 462,
      "tive": 463,
      "public": 464,
      "fix": 465,
      "titre": 466,
      "mê": 467,
      "ours": 468,
      "prévues": 469,
      "ales": 470,
      "jet": 471,
      "ouv": 472,
      "alinéa": 473,
      "dro": 474,
      "exer": 475,
      "ec": 476,
      "ois": 477,
      "pre": 478,
      "nement": 479,
      "ls": 480,
      "titu": 481,
      "acc": 482,
      "lorsque": 483,
      "sant": 484,
      "bu": 485,
      "ession": 486,
      "ision": 487,
      "mar": 488,
      "sous": 489,
      "prof": 490,
      "rée": 491,
      "trav": 492,
      "droit": 493,
      "administr": 494,
      "vo": 495,
      "tement": 496,
      "commun": 497,
      "direc": 498,
      "gén": 499,
      "représent": 500,
      "ail": 501,
      "pé": 502,
      "elle": 503,
      "nes": 504,
      "fait": 505,
      "ainsi": 506,
      "isation": 507,
      "lement": 508,
      "ig": 509,
      "201": 510,
      "sup": 511,
      "produ": 512,
      "ret": 513,
      "génér": 514,
      "près": 515,
      "profession": 516,
      "\"><": 517,
      "dic": 518,
      "ses": 519,
      "ption": 520,
      "ché": 521,
      "tres": 522,
      "met": 523,
      "der": 524,
      "ense": 525,
      "opér": 526,
      "ave": 527,
      "tis": 528,
      "che": 529,
      "établissement": 530,
      "même": 531,
      "délai": 532,
      "éri": 533,
      "premi": 534,
      "pon": 535,
      "ges": 536,
      "ème": 537,
      "rela": 538,
      "th": 539,
      "ministre": 540,
      "dont": 541,
      "peu": 542,
      "défin": 543,
      "ables": 544,
      "activ": 545,
      "peuvent": 546,
      "lé": 547,
      "arr": 548,
      "personnes": 549,
      "cur": 550,
      "cons": 551,
      "eff": 552,
      "don": 553,
      "deux": 554,
      "cha": 555,
      "liv": 556,
      "mise": 557,
      "lon": 558,
      "née": 559,
      "ident": 560,
      "avec": 561,
      "territ": 562,
      "mentionnés": 563,
      "professionne": 564,
      "eu": 565,
      "publi": 566,
      "non": 567,
      "alités": 568,
      "ine": 569,
      "emp": 570,
      "ir": 571,
      "ori": 572,
      "inform": 573,
      "décret": 574,
      "arrê": 575,
      "tives": 576,
      "autorité": 577,
      "président": 578,
      "décision": 579,
      "dépar": 580,
      "exp": 581,
      "ite": 582,
      "mentionnées": 583,
      "ate": 584,
      "chargé": 585,
      "toute": 586,
      "prise": 587,
      "lui": 588,
      "santé": 589,
      "èg": 590,
      "pri": 591,
      "mont": 592,
      "région": 593,
      "dés": 594,
      "règ": 595,
      "mod": 596,
      "\"></": 597,
      "tru": 598,
      "00": 599,
      "fici": 600,
      "bi": 601,
      "ven": 602,
      "leurs": 603,
      "travail": 604,
      "uti": 605,
      "vis": 606,
      "ay": 607,
      "cré": 608,
      "soit": 609,
      "assur": 610,
      "ents": 611,
      "procé": 612,
      "pos": 613,
      "compét": 614,
      "concer": 615,
      "suiv": 616,
      "alité": 617,
      "tifs": 618,
      "après": 619,
      "ult": 620,
      "commission": 621,
      "mbres": 622,
      "éle": 623,
      "ct": 624,
      "lar": 625,
      "sécur": 626,
      "lig": 627,
      "oire": 628,
      "bé": 629,
      "service": 630,
      "tout": 631,
      "tify": 632,
      "justify": 633,
      "ils": 634,
      "ouve": 635,
      "contrat": 636,
      "sécurité": 637,
      "érieur": 638,
      "avis": 639,
      "compte": 640,
      "sements": 641,
      "nu": 642,
      "modalités": 643,
      "général": 644,
      "premier": 645,
      "teurs": 646,
      "mois": 647,
      "ver": 648,
      "ari": 649,
      "dép": 650,
      "nées": 651,
      "colle": 652,
      "durée": 653,
      "loi": 654,
      "alis": 655,
      "montant": 656,
      "béné": 657,
      "date": 658,
      "alement": 659,
      "oir": 660,
      "ique": 661,
      "lég": 662,
      "objet": 663,
      "ble": 664,
      "contrô": 665,
      "car": 666,
      "anci": 667,
      "table": 668,
      "prévue": 669,
      "collec": 670,
      "membres": 671,
      "plus": 672,
      "département": 673,
      "cri": 674,
      "br": 675,
      "dat": 676,
      "intér": 677,
      "fonction": 678,
      "arrêté": 679,
      "produit": 680,
      "services": 681,
      "résult": 682,
      "ilité": 683,
      "enti": 684,
      "loc": 685,
      "ères": 686,
      "moins": 687,
      "cip": 688,
      "action": 689,
      "éché": 690,
      "ances": 691,
      "sus": 692,
      "ception": 693,
      "respon": 694,
      "gar": 695,
      "eurs": 696,
      "déclar": 697,
      "lation": 698,
      "ph": 699,
      "apit": 700,
      "aff": 701,
      "défini": 702,
      "cla": 703,
      "por": 704,
      "cours": 705,
      "crit": 706,
      "ente": 707,
      "stat": 708,
      "chaque": 709,
      "mentionnée": 710,
      "lè": 711,
      "trois": 712,
      "bles": 713,
      "judi": 714,
      "act": 715,
      "lieu": 716,
      "directeur": 717,
      "gestion": 718,
      "publique": 719,
      "autres": 720,
      "pla": 721,
      "sociale": 722,
      "activité": 723,
      "partie": 724,
      "sans": 725,
      "exerci": 726,
      "déf": 727,
      "lib": 728,
      "effec": 729,
      "cor": 730,
      "établissements": 731,
      "ième": 732,
      "val": 733,
      "not": 734,
      "indi": 735,
      "ative": 736,
      "échéant": 737,
      "ences": 738,
      "ctions": 739,
      "ature": 740,
      "hab": 741,
      "termin": 742,
      "conform": 743,
      "tribu": 744,
      "applicables": 745,
      "amment": 746,
      "oblig": 747,
      "lorsqu": 748,
      "anti": 749,
      "formation": 750,
      "autre": 751,
      "explo": 752,
      "ra": 753,
      "opé": 754,
      "cat": 755,
      "dit": 756,
      "vention": 757,
      "ures": 758,
      "ément": 759,
      "trait": 760,
      "exercice": 761,
      "remp": 762,
      "cess": 763,
      "prises": 764,
      "ren": 765,
      "19": 766,
      "détermin": 767,
      "ordon": 768,
      "préc": 769,
      "contrôle": 770,
      "jour": 771,
      "propri": 772,
      "mati": 773,
      "représentant": 774,
      "national": 775,
      "bénéfici": 776,
      "territori": 777,
      "10": 778,
      "nom": 779,
      "notamment": 780,
      "administration": 781,
      "utilis": 782,
      "europé": 783,
      "suivant": 784,
      "nationale": 785,
      "procédu": 786,
      "sy": 787,
      "fér": 788,
      "ta": 789,
      "associ": 790,
      "selon": 791,
      "tal": 792,
      "tant": 793,
      "rer": 794,
      "médic": 795,
      "ress": 796,
      "exploit": 797,
      "tenu": 798,
      "avant": 799,
      "uv": 800,
      "ement": 801,
      "fran": 802,
      "forme": 803,
      "spé": 804,
      "européen": 805,
      "spéci": 806,
      "imp": 807,
      "agri": 808,
      "vant": 809,
      "cin": 810,
      "ner": 811,
      "financi": 812,
      "autorisation": 813,
      "ffi": 814,
      "fond": 815,
      "sit": 816,
      "exé": 817,
      "apport": 818,
      "ille": 819,
      "gement": 820,
      "laire": 821,
      "iti": 822,
      "respe": 823,
      "ayant": 824,
      "elles": 825,
      "som": 826,
      "oupe": 827,
      "nécess": 828,
      "div": 829,
      "position": 830,
      "doit": 831,
      "nature": 832,
      "union": 833,
      "équi": 834,
      "cour": 835,
      "préf": 836,
      "ang": 837,
      "année": 838,
      "élec": 839,
      "entreprise": 840,
      "derni": 841,
      "moy": 842,
      "prend": 843,
      "réser": 844,
      "société": 845,
      "franç": 846,
      "français": 847,
      "clas": 848,
      "sal": 849,
      "lim": 850,
      "docu": 851,
      "fixées": 852,
      "accord": 853,
      "judici": 854,
      "collectiv": 855,
      "200": 856,
      "uation": 857,
      "œuv": 858,
      "écon": 859,
      "cal": 860,
      "écono": 861,
      "ati": 862,
      "ca": 863,
      "déliv": 864,
      "organisme": 865,
      "cad": 866,
      "pres": 867,
      "compter": 868,
      "informations": 869,
      "oc": 870,
      "résultant": 871,
      "quis": 872,
      "log": 873,
      "transport": 874,
      "ouver": 875,
      "lusi": 876,
      "commer": 877,
      "tech": 878,
      "quel": 879,
      "droits": 880,
      "conn": 881,
      "érieure": 882,
      "produits": 883,
      "assu": 884,
      "loy": 885,
      "to": 886,
      "tification": 887,
      "hi": 888,
      "section": 889,
      "valign": 890,
      "amen": 891,
      "actions": 892,
      "également": 893,
      "convention": 894,
      "règlement": 895,
      "nouve": 896,
      "faire": 897,
      "préfet": 898,
      "péri": 899,
      "dant": 900,
      "groupe": 901,
      "ateur": 902,
      "référ": 903,
      "jours": 904,
      "sub": 905,
      "prest": 906,
      "pério": 907,
      "opération": 908,
      "salari": 909,
      "onnement": 910,
      "ign": 911,
      "ages": 912,
      "fois": 913,
      "mun": 914,
      "agré": 915,
      "difi": 916,
      "projet": 917,
      "serv": 918,
      "lée": 919,
      "conformément": 920,
      "liste": 921,
      "assurance": 922,
      "accomp": 923,
      "déclaration": 924,
      "tin": 925,
      "organismes": 926,
      "ôt": 927,
      "dent": 928,
      "eng": 929,
      "inv": 930,
      "trib": 931,
      "procédure": 932,
      "france": 933,
      "mots": 934,
      "sign": 935,
      "précis": 936,
      "mique": 937,
      "proc": 938,
      "nombre": 939,
      "ération": 940,
      "modifi": 941,
      "exécu": 942,
      "charge": 943,
      "rapport": 944,
      "jo": 945,
      "techni": 946,
      "cadre": 947,
      "13": 948,
      "rempla": 949,
      "vé": 950,
      "relatives": 951,
      "chapit": 952,
      "truction": 953,
      "endant": 954,
      "celui": 955,
      "can": 956,
      "communi": 957,
      "pen": 958,
      "alisation": 959,
      "réalis": 960,
      "quelle": 961,
      "judiciaire": 962,
      "uli": 963,
      "permet": 964,
      "tribun": 965,
      "constitu": 966,
      "sais": 967,
      "cher": 968,
      "opérations": 969,
      "appe": 970,
      "effectu": 971,
      "instal": 972,
      "cult": 973,
      "livre": 974,
      "mat": 975,
      "œuvre": 976,
      "fonds": 977,
      "où": 978,
      "autoris": 979,
      "202": 980,
      "celle": 981,
      "cription": 982,
      "ass": 983,
      "iii": 984,
      "agence": 985,
      "intéres": 986,
      "enseig": 987,
      "membre": 988,
      "attribu": 989,
      "aleur": 990,
      "fa": 991,
      "part": 992,
      "cep": 993,
      "ier": 994,
      "ante": 995,
      "os": 996,
      "asse": 997,
      "précé": 998,
      "réserve": 999,
      "celles": 1000,
      "ris": 1001,
      "justifi": 1002,
      "respons": 1003,
      "contre": 1004,
      "entreprises": 1005,
      "chapitre": 1006,
      "gis": 1007,
      "15": 1008,
      "étés": 1009,
      "professionnelle": 1010,
      "caract": 1011,
      "comptes": 1012,
      "établi": 1013,
      "temp": 1014,
      "travaux": 1015,
      "mesures": 1016,
      "pén": 1017,
      "valeur": 1018,
      "charg": 1019,
      "regis": 1020,
      "laquelle": 1021,
      "plusi": 1022,
      "plusieurs": 1023,
      "uelle": 1024,
      "el": 1025,
      "top": 1026,
      "lab": 1027,
      "uri": 1028,
      "itaire": 1029,
      "mandat": 1030,
      "four": 1031,
      "activités": 1032,
      "sance": 1033,
      "abilité": 1034,
      "clu": 1035,
      "xe": 1036,
      "habit": 1037,
      "tés": 1038,
      "publics": 1039,
      "médi": 1040,
      "employ": 1041,
      "cession": 1042,
      "état": 1043,
      "consu": 1044,
      "poli": 1045,
      "tection": 1046,
      "tribunal": 1047,
      "dem": 1048,
      "comité": 1049,
      "vir": 1050,
      "désig": 1051,
      "quelles": 1052,
      "eux": 1053,
      "délég": 1054,
      "effet": 1055,
      "deuxième": 1056,
      "seu": 1057,
      "aison": 1058,
      "protection": 1059,
      "tiers": 1060,
      "réception": 1061,
      "définies": 1062,
      "ordonn": 1063,
      "pai": 1064,
      "san": 1065,
      "garanti": 1066,
      "oivent": 1067,
      "soumis": 1068,
      "envir": 1069,
      "cais": 1070,
      "élé": 1071,
      "appli": 1072,
      "affec": 1073,
      "wid": 1074,
      "width": 1075,
      "plan": 1076,
      "lit": 1077,
      "sau": 1078,
      "tiques": 1079,
      "12": 1080,
      "désign": 1081,
      "environnement": 1082,
      "données": 1083,
      "intérê": 1084,
      "exécution": 1085,
      "mil": 1086,
      "éval": 1087,
      "territoire": 1088,
      "culture": 1089,
      "eau": 1090,
      "agents": 1091,
      "/>": 1092,
      "régi": 1093,
      "cl": 1094,
      "ordre": 1095,
      "indem": 1096,
      "amé": 1097,
      "prim": 1098,
      "indemn": 1099,
      "ueil": 1100,
      "pendant": 1101,
      "ensemb": 1102,
      "appel": 1103,
      "sociétés": 1104,
      "agrico": 1105,
      "inf": 1106,
      "règles": 1107,
      "dernier": 1108,
      "test": 1109,
      "infr": 1110,
      "prévus": 1111,
      "présente": 1112,
      "tous": 1113,
      "ssi": 1114,
      "moyen": 1115,
      "dée": 1116,
      "gu": 1117,
      "matière": 1118,
      "mêmes": 1119,
      "recher": 1120,
      "supérieur": 1121,
      "avoir": 1122,
      "rele": 1123,
      "ensemble": 1124,
      "frais": 1125,
      "pron": 1126,
      "tique": 1127,
      "maj": 1128,
      "réglement": 1129,
      "juge": 1130,
      "diff": 1131,
      "correspon": 1132,
      "délib": 1133,
      "ann": 1134,
      "mer": 1135,
      "lution": 1136,
      "information": 1137,
      "pronon": 1138,
      "représentants": 1139,
      "nent": 1140,
      "paiement": 1141,
      "partic": 1142,
      "ines": 1143,
      "pension": 1144,
      "dus": 1145,
      "période": 1146,
      "disposition": 1147,
      "ard": 1148,
      "doivent": 1149,
      "chan": 1150,
      "particip": 1151,
      "tation": 1152,
      "nant": 1153,
      "cations": 1154,
      "laires": 1155,
      "ist": 1156,
      "contri": 1157,
      "mor": 1158,
      "outre": 1159,
      "joint": 1160,
      "respect": 1161,
      "candi": 1162,
      "particuli": 1163,
      "commis": 1164,
      "pa": 1165,
      "fonctions": 1166,
      "civi": 1167,
      "adres": 1168,
      "taux": 1169,
      "comme": 1170,
      "candidat": 1171,
      "européenne": 1172,
      "pren": 1173,
      "catég": 1174,
      "pi": 1175,
      "certifi": 1176,
      "agement": 1177,
      "raison": 1178,
      "dg": 1179,
      "qualité": 1180,
      "budg": 1181,
      "sens": 1182,
      "étr": 1183,
      "éléments": 1184,
      "nécessaires": 1185,
      "communes": 1186,
      "na": 1187,
      "registre": 1188,
      "tron": 1189,
      "num": 1190,
      "connais": 1191,
      "naire": 1192,
      "déce": 1193,
      "em": 1194,
      "iques": 1195,
      "administrative": 1196,
      "11": 1197,
      "décembre": 1198,
      "juri": 1199,
      "gation": 1200,
      "étrang": 1201,
      "cond": 1202,
      "fer": 1203,
      "hu": 1204,
      "remplac": 1205,
      "portant": 1206,
      "méde": 1207,
      "dou": 1208,
      "contribu": 1209,
      "enseignement": 1210,
      "documents": 1211,
      ".</": 1212,
      "voi": 1213,
      "exception": 1214,
      "diction": 1215,
      "mie": 1216,
      "exploitation": 1217,
      "acquis": 1218,
      "30": 1219,
      "étaire": 1220,
      "fé": 1221,
      "ôts": 1222,
      "000": 1223,
      "phy": 1224,
      "déb": 1225,
      "missions": 1226,
      "dossi": 1227,
      "1er": 1228,
      "mettre": 1229,
      "défaut": 1230,
      "suivantes": 1231,
      "cir": 1232,
      "ats": 1233,
      "obligations": 1234,
      "ceux": 1235,
      "xim": 1236,
      "parties": 1237,
      "crédit": 1238,
      "desti": 1239,
      "constat": 1240,
      "mala": 1241,
      "étu": 1242,
      "équipe": 1243,
      "professionnel": 1244,
      "emploi": 1245,
      "ture": 1246,
      "siè": 1247,
      "saint": 1248,
      "inves": 1249,
      "calcu": 1250,
      "régional": 1251,
      "quê": 1252,
      "entes": 1253,
      "accompag": 1254,
      "vers": 1255,
      "22": 1256,
      "comman": 1257,
      "collectivités": 1258,
      "quat": 1259,
      "toutefois": 1260,
      "tien": 1261,
      "assemb": 1262,
      "électron": 1263,
      "col": 1264,
      "class": 1265,
      "ordonnance": 1266,
      "condu": 1267,
      "meu": 1268,
      "olog": 1269,
      "capit": 1270,
      "anne": 1271,
      "priv": 1272,
      "économique": 1273,
      "prati": 1274,
      "zon": 1275,
      "éner": 1276,
      "retrait": 1277,
      "ze": 1278,
      "fixé": 1279,
      "administra": 1280,
      "défense": 1281,
      "mesure": 1282,
      "place": 1283,
      "sauf": 1284,
      "dét": 1285,
      "17": 1286,
      "consult": 1287,
      "référence": 1288,
      "ul": 1289,
      "enf": 1290,
      "aide": 1291,
      "bilité": 1292,
      "16": 1293,
      "cinq": 1294,
      "die": 1295,
      "auprès": 1296,
      "prin": 1297,
      "chac": 1298,
      "commune": 1299,
      "cau": 1300,
      "régime": 1301,
      "ffici": 1302,
      "physi": 1303,
      "mani": 1304,
      "vue": 1305,
      "biens": 1306,
      "titulaire": 1307,
      "enses": 1308,
      "organisation": 1309,
      "gram": 1310,
      "lations": 1311,
      "production": 1312,
      "ill": 1313,
      "française": 1314,
      "personnel": 1315,
      "dossier": 1316,
      "acte": 1317,
      "ouvr": 1318,
      "relevant": 1319,
      "lève": 1320,
      "rémun": 1321,
      "hicu": 1322,
      "véhicu": 1323,
      "pouv": 1324,
      "commerce": 1325,
      "renouve": 1326,
      "vie": 1327,
      "salariés": 1328,
      "compétente": 1329,
      "dépenses": 1330,
      "social": 1331,
      "ire": 1332,
      "dér": 1333,
      "voie": 1334,
      "èces": 1335,
      "fixe": 1336,
      "recherche": 1337,
      "nouvelle": 1338,
      "cteur": 1339,
      "pose": 1340,
      "ler": 1341,
      "applicable": 1342,
      "accès": 1343,
      "fonctionnement": 1344,
      "six": 1345,
      "fis": 1346,
      "notifi": 1347,
      "um": 1348,
      "statut": 1349,
      "caisse": 1350,
      "let": 1351,
      "préa": 1352,
      "atoire": 1353,
      "situation": 1354,
      "sui": 1355,
      "ban": 1356,
      "toutes": 1357,
      "prestations": 1358,
      "commiss": 1359,
      "titres": 1360,
      "major": 1361,
      "complé": 1362,
      "évaluation": 1363,
      "gie": 1364,
      "chargés": 1365,
      "veill": 1366,
      "chambre": 1367,
      "14": 1368,
      "consi": 1369,
      "institu": 1370,
      "vier": 1371,
      "tenant": 1372,
      "offi": 1373,
      "suppl": 1374,
      "amén": 1375,
      "budget": 1376,
      "mation": 1377,
      "amende": 1378,
      "uni": 1379,
      "syst": 1380,
      "princip": 1381,
      "relative": 1382,
      "iden": 1383,
      "cap": 1384,
      "ites": 1385,
      "rig": 1386,
      "ly": 1387,
      "fication": 1388,
      "ba": 1389,
      "agrément": 1390,
      "anim": 1391,
      "complément": 1392,
      "ataire": 1393,
      "jan": 1394,
      "tro": 1395,
      "cotis": 1396,
      "rées": 1397,
      "tissement": 1398,
      "maine": 1399,
      "consom": 1400,
      "janvier": 1401,
      "situ": 1402,
      "connaissance": 1403,
      "syn": 1404,
      "abs": 1405,
      "édu": 1406,
      "marché": 1407,
      "appliqu": 1408,
      "program": 1409,
      "civile": 1410,
      "cien": 1411,
      "lable": 1412,
      "collectivité": 1413,
      "exig": 1414,
      "men": 1415,
      "distribu": 1416,
      "assemblée": 1417,
      "police": 1418,
      "urs": 1419,
      "fourn": 1420,
      "pay": 1421,
      "lesquelles": 1422,
      "oires": 1423,
      "auc": 1424,
      "respec": 1425,
      "cepti": 1426,
      "maxim": 1427,
      "suscepti": 1428,
      "siège": 1429,
      "actes": 1430,
      "vision": 1431,
      "usage": 1432,
      "nive": 1433,
      "déro": 1434,
      "permettant": 1435,
      "adap": 1436,
      "reven": 1437,
      "jusqu": 1438,
      "mon": 1439,
      "aph": 1440,
      "générale": 1441,
      "confi": 1442,
      "minist": 1443,
      "adresse": 1444,
      "intérieur": 1445,
      "départemental": 1446,
      "coopération": 1447,
      "veillance": 1448,
      "territoriales": 1449,
      "mobi": 1450,
      "sol": 1451,
      "précise": 1452,
      "trie": 1453,
      "république": 1454,
      "délégu": 1455,
      "indivi": 1456,
      "impôts": 1457,
      "immeu": 1458,
      "utilisation": 1459,
      "agis": 1460,
      "assurer": 1461,
      "ateurs": 1462,
      "gue": 1463,
      "employeur": 1464,
      "ho": 1465,
      "compris": 1466,
      "accor": 1467,
      "troisième": 1468,
      "temps": 1469,
      "document": 1470,
      "recours": 1471,
      "bil": 1472,
      "commerci": 1473,
      "limite": 1474,
      "hors": 1475,
      "inte": 1476,
      "individu": 1477,
      "rédu": 1478,
      "sein": 1479,
      "éro": 1480,
      "répon": 1481,
      "uel": 1482,
      "cle": 1483,
      "attest": 1484,
      "lop": 1485,
      "inscrit": 1486,
      "ître": 1487,
      "techniques": 1488,
      "première": 1489,
      "mut": 1490,
      "chef": 1491,
      "prix": 1492,
      "velop": 1493,
      "surveillance": 1494,
      "bes": 1495,
      "navi": 1496,
      "risques": 1497,
      "clusion": 1498,
      "°,": 1499,
      "notification": 1500,
      "appar": 1501,
      "quête": 1502,
      "itaires": 1503,
      "caractère": 1504,
      "certificat": 1505,
      "location": 1506,
      "intérêt": 1507,
      "mises": 1508,
      "quels": 1509,
      "accueil": 1510,
      "régionale": 1511,
      "tra": 1512,
      "logement": 1513,
      "base": 1514,
      "vente": 1515,
      "ancement": 1516,
      "agriculture": 1517,
      "exercer": 1518,
      "dev": 1519,
      "compor": 1520,
      "esti": 1521,
      "illet": 1522,
      "tit": 1523,
      "quali": 1524,
      "tenir": 1525,
      "atri": 1526,
      "différ": 1527,
      "pie": 1528,
      "office": 1529,
      "arma": 1530,
      "observ": 1531,
      "crip": 1532,
      "contrats": 1533,
      "entité": 1534,
      "réalisation": 1535,
      "atte": 1536,
      "cée": 1537,
      "naires": 1538,
      "ing": 1539,
      "ministres": 1540,
      "énergie": 1541,
      "ref": 1542,
      "soins": 1543,
      "net": 1544,
      "agricole": 1545,
      "écrit": 1546,
      "construction": 1547,
      "médica": 1548,
      "pan": 1549,
      "jec": 1550,
      "désigné": 1551,
      "comprend": 1552,
      "chet": 1553,
      "chés": 1554,
      "lais": 1555,
      "décisions": 1556,
      "offici": 1557,
      "audi": 1558,
      "niveau": 1559,
      "conserv": 1560,
      "juillet": 1561,
      "puis": 1562,
      "minim": 1563,
      "initi": 1564,
      "mariti": 1565,
      "rection": 1566,
      "pièces": 1567,
      "indus": 1568,
      "ventions": 1569,
      "directement": 1570,
      "informe": 1571,
      "labor": 1572,
      "maladie": 1573,
      "dix": 1574,
      "remb": 1575,
      "quatre": 1576,
      "nelle": 1577,
      "absence": 1578,
      "tari": 1579,
      "gre": 1580,
      "fig": 1581,
      "alid": 1582,
      "électronique": 1583,
      "beso": 1584,
      "excé": 1585,
      "centre": 1586,
      "locaux": 1587,
      "installations": 1588,
      "tice": 1589,
      "50": 1590,
      "examen": 1591,
      "liqui": 1592,
      "intéressé": 1593,
      "copie": 1594,
      "relatif": 1595,
      "conjoint": 1596,
      "communale": 1597,
      "orig": 1598,
      "instruction": 1599,
      "suivants": 1600,
      "rou": 1601,
      "tent": 1602,
      "collè": 1603,
      "devant": 1604,
      "précédent": 1605,
      "moyens": 1606,
      "territoriale": 1607,
      "ht": 1608,
      "compétences": 1609,
      "cipl": 1610,
      "discipl": 1611,
      "commissaire": 1612,
      "truct": 1613,
      "bis": 1614,
      "civ": 1615,
      "font": 1616,
      "ition": 1617,
      "syndic": 1618,
      "condition": 1619,
      "technique": 1620,
      "ches": 1621,
      "capac": 1622,
      "euros": 1623,
      "capital": 1624,
      "financement": 1625,
      "eures": 1626,
      "quin": 1627,
      "correspondant": 1628,
      "objec": 1629,
      "tableau": 1630,
      "ût": 1631,
      "assure": 1632,
      "bénéfi": 1633,
      "obligation": 1634,
      "titulaires": 1635,
      "dès": 1636,
      "dévelop": 1637,
      "exper": 1638,
      "autorités": 1639,
      "réso": 1640,
      "dy": 1641,
      "tenus": 1642,
      "isme": 1643,
      "2019": 1644,
      "demandeur": 1645,
      "charges": 1646,
      "chi": 1647,
      "propriétaire": 1648,
      "ède": 1649,
      "bo": 1650,
      "traitement": 1651,
      "taxe": 1652,
      "inscription": 1653,
      "ressort": 1654,
      "publiques": 1655,
      "égal": 1656,
      "véri": 1657,
      "industrie": 1658,
      "professionnels": 1659,
      "soli": 1660,
      "31": 1661,
      "reç": 1662,
      "bon": 1663,
      "pharma": 1664,
      "sommes": 1665,
      "2013": 1666,
      "right": 1667,
      "exc": 1668,
      "off": 1669,
      "installation": 1670,
      "tenue": 1671,
      "25": 1672,
      "rémunération": 1673,
      "expir": 1674,
      "alinéas": 1675,
      "ues": 1676,
      "désignés": 1677,
      "procure": 1678,
      "éris": 1679,
      "muni": 1680,
      "considé": 1681,
      "résolution": 1682,
      "concernant": 1683,
      "éducation": 1684,
      "tient": 1685,
      "cause": 1686,
      "çant": 1687,
      "expiration": 1688,
      "inaire": 1689,
      "fixée": 1690,
      "délibér": 1691,
      "mobili": 1692,
      "orie": 1693,
      "hy": 1694,
      "êche": 1695,
      "ources": 1696,
      "étranger": 1697,
      "habil": 1698,
      "heures": 1699,
      "juridiction": 1700,
      "cées": 1701,
      "ga": 1702,
      "intég": 1703,
      "domaine": 1704,
      "communiqu": 1705,
      "dérogation": 1706,
      "illes": 1707,
      "porte": 1708,
      "tot": 1709,
      "groupement": 1710,
      "point": 1711,
      "post": 1712,
      "réd": 1713,
      "tée": 1714,
      "bâ": 1715,
      "intéress": 1716,
      "justice": 1717,
      "nomin": 1718,
      "18": 1719,
      "bal": 1720,
      "modification": 1721,
      "direction": 1722,
      "tements": 1723,
      "aménagement": 1724,
      "remplacés": 1725,
      "mici": 1726,
      "agent": 1727,
      "concerne": 1728,
      "possi": 1729,
      "rest": 1730,
      "compétence": 1731,
      "vol": 1732,
      "impôt": 1733,
      "ministère": 1734,
      "domici": 1735,
      "procéder": 1736,
      "personnels": 1737,
      "spécifi": 1738,
      "calcul": 1739,
      "médecin": 1740,
      "déci": 1741,
      "proposition": 1742,
      "poser": 1743,
      "bénéficiaire": 1744,
      "procureur": 1745,
      "indiqu": 1746,
      "voir": 1747,
      "développe": 1748,
      "gements": 1749,
      "propriété": 1750,
      "motiv": 1751,
      "prê": 1752,
      "peine": 1753,
      "supérieure": 1754,
      "catégorie": 1755,
      "tivement": 1756,
      "électri": 1757,
      "2014": 1758,
      "pouvoir": 1759,
      "adress": 1760,
      "garantie": 1761,
      "redev": 1762,
      "intercommunale": 1763,
      "matérie": 1764,
      "exploitant": 1765,
      "pit": 1766,
      "communication": 1767,
      "association": 1768,
      "radi": 1769,
      "23": 1770,
      "refus": 1771,
      "recomman": 1772,
      "définis": 1773,
      "suff": 1774,
      "évent": 1775,
      "prendre": 1776,
      "financiers": 1777,
      "eaux": 1778,
      "spor": 1779,
      "ot": 1780,
      "versement": 1781,
      "ouverture": 1782,
      "développement": 1783,
      "réseau": 1784,
      "occu": 1785,
      "assis": 1786,
      "sent": 1787,
      "réunion": 1788,
      "fs": 1789,
      "préci": 1790,
      "égale": 1791,
      "issu": 1792,
      "responsable": 1793,
      "fisc": 1794,
      "hé": 1795,
      "tbo": 1796,
      "tbody": 1797,
      "comb": 1798,
      "24": 1799,
      "fais": 1800,
      "due": 1801,
      "zone": 1802,
      "nements": 1803,
      "caractéris": 1804,
      "recouv": 1805,
      "nor": 1806,
      "financier": 1807,
      "condam": 1808,
      "cotisations": 1809,
      "rembour": 1810,
      "régu": 1811,
      "dépôt": 1812,
      "afin": 1813,
      "fam": 1814,
      "ru": 1815,
      "assi": 1816,
      "investissement": 1817,
      "préjudi": 1818,
      "cti": 1819,
      "orient": 1820,
      "urg": 1821,
      "comptable": 1822,
      "suivi": 1823,
      "abri": 1824,
      "clear": 1825,
      "sep": 1826,
      "none": 1827,
      "tance": 1828,
      "dipl": 1829,
      "transfer": 1830,
      "participation": 1831,
      "diplô": 1832,
      "délais": 1833,
      "import": 1834,
      "mili": 1835,
      "prévention": 1836,
      "indemnité": 1837,
      "professionnelles": 1838,
      "salarié": 1839,
      "ves": 1840,
      "responsabilité": 1841,
      "lettre": 1842,
      "affaires": 1843,
      "posé": 1844,
      "gueur": 1845,
      "système": 1846,
      "han": 1847,
      "interven": 1848,
      "transports": 1849,
      "rép": 1850,
      "rédaction": 1851,
      "oraire": 1852,
      "ressources": 1853,
      "ogr": 1854,
      "compétent": 1855,
      "civil": 1856,
      "fabri": 1857,
      "acqu": 1858,
      "nel": 1859,
      "2016": 1860,
      "ade": 1861,
      "observations": 1862,
      "chacun": 1863,
      "collège": 1864,
      "ple": 1865,
      "départements": 1866,
      "llement": 1867,
      "morale": 1868,
      "denti": 1869,
      "distribution": 1870,
      "préjudice": 1871,
      "procès": 1872,
      "débit": 1873,
      "hér": 1874,
      "origine": 1875,
      "soi": 1876,
      "puni": 1877,
      "atives": 1878,
      "poly": 1879,
      "moment": 1880,
      "engage": 1881,
      "appréci": 1882,
      "amp": 1883,
      "délivr": 1884,
      "annexe": 1885,
      "bâti": 1886,
      "convo": 1887,
      "risque": 1888,
      "réparti": 1889,
      "alidité": 1890,
      "lequel": 1891,
      "parlement": 1892,
      "adé": 1893,
      "affi": 1894,
      "total": 1895,
      "2021": 1896,
      "telle": 1897,
      "tenues": 1898,
      "culation": 1899,
      "centr": 1900,
      "cr": 1901,
      "enregistre": 1902,
      "bail": 1903,
      "juin": 1904,
      "main": 1905,
      "bien": 1906,
      "tard": 1907,
      "26": 1908,
      "cité": 1909,
      "figur": 1910,
      "faisant": 1911,
      "médicale": 1912,
      "suite": 1913,
      "donne": 1914,
      "perman": 1915,
      "const": 1916,
      "rement": 1917,
      "logements": 1918,
      "liquid": 1919,
      "inférieur": 1920,
      "comporte": 1921,
      "acci": 1922,
      "transmet": 1923,
      "économie": 1924,
      "lés": 1925,
      "mai": 1926,
      "jou": 1927,
      "demandes": 1928,
      "gestionnaire": 1929,
      "quinze": 1930,
      "ories": 1931,
      "endre": 1932,
      "parts": 1933,
      "cteurs": 1934,
      "catégories": 1935,
      "résid": 1936,
      "dispositif": 1937,
      "famili": 1938,
      "domicile": 1939,
      "solid": 1940,
      "détermine": 1941,
      "bénéfice": 1942,
      "concernés": 1943,
      "casion": 1944,
      "occasion": 1945,
      "procédures": 1946,
      "exerce": 1947,
      "maire": 1948,
      "vote": 1949,
      "pér": 1950,
      "ty": 1951,
      "dispose": 1952,
      "habitation": 1953,
      "demander": 1954,
      "capacité": 1955,
      "numéro": 1956,
      "victi": 1957,
      "dents": 1958,
      "maritime": 1959,
      "entra": 1960,
      "réput": 1961,
      "création": 1962,
      "assuré": 1963,
      "terme": 1964,
      "entraî": 1965,
      "xes": 1966,
      "délivrance": 1967,
      "instru": 1968,
      "paris": 1969,
      "équipements": 1970,
      "vigueur": 1971,
      "cement": 1972,
      "marchés": 1973,
      "criptions": 1974,
      "rece": 1975,
      "aître": 1976,
      "organisations": 1977,
      "compt": 1978,
      "qualifi": 1979,
      "supprim": 1980,
      "aient": 1981,
      "fins": 1982,
      "inspe": 1983,
      "appliquent": 1984,
      "objectifs": 1985,
      "comport": 1986,
      "aly": 1987,
      "sociales": 1988,
      "itation": 1989,
      "29": 1990,
      "annuel": 1991,
      "enquête": 1992,
      "nécessaire": 1993,
      "site": 1994,
      "fonci": 1995,
      "usion": 1996,
      "deme": 1997,
      "préalable": 1998,
      "résultats": 1999,
      "hos": 2000,
      "infraction": 2001,
      "retraite": 2002,
      "transmission": 2003,
      "références": 2004,
      "28": 2005,
      "pes": 2006,
      "associations": 2007,
      "bor": 2008,
      "requis": 2009,
      "prob": 2010,
      "transfert": 2011,
      "candidats": 2012,
      "excéder": 2013,
      "intégr": 2014,
      "intérêts": 2015,
      "aine": 2016,
      "unique": 2017,
      "uellement": 2018,
      "haut": 2019,
      "second": 2020,
      "financière": 2021,
      "équival": 2022,
      "manière": 2023,
      "caractéristiques": 2024,
      "ving": 2025,
      "attestation": 2026,
      "carte": 2027,
      "séjour": 2028,
      "satis": 2029,
      "légis": 2030,
      "atta": 2031,
      "peines": 2032,
      "attribution": 2033,
      "dicap": 2034,
      "programme": 2035,
      "handicap": 2036,
      "consommation": 2037,
      "bar": 2038,
      "aliment": 2039,
      "présenter": 2040,
      "2017": 2041,
      "conseiller": 2042,
      "dre": 2043,
      "hospit": 2044,
      "lablement": 2045,
      "pass": 2046,
      "municip": 2047,
      "cut": 2048,
      "associés": 2049,
      "dues": 2050,
      "recet": 2051,
      "années": 2052,
      "agricoles": 2053,
      "cou": 2054,
      "personn": 2055,
      "vient": 2056,
      "véhicule": 2057,
      "douan": 2058,
      "cert": 2059,
      "acquisition": 2060,
      "ps": 2061,
      "pêche": 2062,
      "supplé": 2063,
      "immeubles": 2064,
      "pru": 2065,
      "27": 2066,
      "physiques": 2067,
      "faite": 2068,
      "physique": 2069,
      "occup": 2070,
      "perç": 2071,
      "huit": 2072,
      "gaz": 2073,
      "susceptibles": 2074,
      "adop": 2075,
      "dom": 2076,
      "trat": 2077,
      "oit": 2078,
      "sû": 2079,
      "provision": 2080,
      "médec": 2081,
      "tées": 2082,
      "esp": 2083,
      "paration": 2084,
      "vingt": 2085,
      "véhicules": 2086,
      "arm": 2087,
      "uelles": 2088,
      "nésie": 2089,
      "calé": 2090,
      "ibles": 2091,
      "mais": 2092,
      "calédon": 2093,
      "consé": 2094,
      "oy": 2095,
      "calédonie": 2096,
      "polynésie": 2097,
      "identification": 2098,
      "je": 2099,
      "and": 2100,
      "lois": 2101,
      "métro": 2102,
      "21": 2103,
      "aven": 2104,
      "remise": 2105,
      "métropo": 2106,
      "consultation": 2107,
      "issue": 2108,
      "dur": 2109,
      "enfant": 2110,
      "remboursement": 2111,
      "suffis": 2112,
      "may": 2113,
      "partir": 2114,
      "jugement": 2115,
      "temporaire": 2116,
      "espa": 2117,
      "dération": 2118,
      "duquel": 2119,
      "infractions": 2120,
      "aucune": 2121,
      "espace": 2122,
      "relatifs": 2123,
      "ciné": 2124,
      "posée": 2125,
      "local": 2126,
      "fixés": 2127,
      "nég": 2128,
      "immédi": 2129,
      "auteur": 2130,
      "otte": 2131,
      "médical": 2132,
      "mayotte": 2133,
      "recueil": 2134,
      "ach": 2135,
      "exerçant": 2136,
      "marchan": 2137,
      "statuts": 2138,
      "199": 2139,
      "études": 2140,
      "conventions": 2141,
      "aides": 2142,
      "enregistrement": 2143,
      "suspension": 2144,
      "faits": 2145,
      "journ": 2146,
      "ètre": 2147,
      "sig": 2148,
      "engagement": 2149,
      "immobili": 2150,
      "ber": 2151,
      "univ": 2152,
      "définie": 2153,
      "dépend": 2154,
      "acces": 2155,
      "éco": 2156,
      "concerné": 2157,
      "2020": 2158,
      "territorial": 2159,
      "avor": 2160,
      "fourni": 2161,
      "acadé": 2162,
      "mars": 2163,
      "parmi": 2164,
      "dement": 2165,
      "dessus": 2166,
      "exécut": 2167,
      "magis": 2168,
      "volont": 2169,
      "finances": 2170,
      "applique": 2171,
      "militaire": 2172,
      "porter": 2173,
      "ataires": 2174,
      "médicament": 2175,
      "vérifi": 2176,
      "disp": 2177,
      "conseils": 2178,
      "conclu": 2179,
      "uels": 2180,
      "recettes": 2181,
      "fut": 2182,
      "formu": 2183,
      "identité": 2184,
      "contract": 2185,
      "ons": 2186,
      "permis": 2187,
      "urban": 2188,
      "rier": 2189,
      "volu": 2190,
      "vertu": 2191,
      "atoires": 2192,
      "publication": 2193,
      "aines": 2194,
      "délivré": 2195,
      "curr": 2196,
      "art": 2197,
      "conformité": 2198,
      "concl": 2199,
      "constru": 2200,
      "allocation": 2201,
      "iste": 2202,
      "bénéficier": 2203,
      "correspond": 2204,
      "fournis": 2205,
      "renouvellement": 2206,
      "mid": 2207,
      "partici": 2208,
      "70": 2209,
      "struct": 2210,
      "instit": 2211,
      "matique": 2212,
      "ies": 2213,
      "verbal": 2214,
      "délibération": 2215,
      "lieux": 2216,
      "interdiction": 2217,
      "concession": 2218,
      "intermédi": 2219,
      "classe": 2220,
      "inférieure": 2221,
      "assist": 2222,
      "60": 2223,
      "communaut": 2224,
      "procédé": 2225,
      "support": 2226,
      "glo": 2227,
      "propre": 2228,
      "liation": 2229,
      "enfants": 2230,
      "lité": 2231,
      "institut": 2232,
      "dle": 2233,
      "appor": 2234,
      "regar": 2235,
      "identifi": 2236,
      "prélève": 2237,
      "chacune": 2238,
      "cientifi": 2239,
      "scientifi": 2240,
      "accep": 2241,
      "oci": 2242,
      "groupements": 2243,
      "middle": 2244,
      "lesquels": 2245,
      "voix": 2246,
      "marchandis": 2247,
      "él": 2248,
      "chets": 2249,
      "100": 2250,
      "quatri": 2251,
      "particulier": 2252,
      "demeure": 2253,
      "quatrième": 2254,
      "étaires": 2255,
      "itée": 2256,
      "garde": 2257,
      "agr": 2258,
      "analy": 2259,
      "concurr": 2260,
      "reté": 2261,
      "dées": 2262,
      "désignation": 2263,
      "subst": 2264,
      "liber": 2265,
      "portion": 2266,
      "orti": 2267,
      "besoins": 2268,
      "çon": 2269,
      "sanction": 2270,
      "uve": 2271,
      "imes": 2272,
      "lir": 2273,
      "ono": 2274,
      "affér": 2275,
      "périm": 2276,
      "engag": 2277,
      "réguli": 2278,
      "toire": 2279,
      "75": 2280,
      "nomination": 2281,
      "nouveau": 2282,
      "règle": 2283,
      "pati": 2284,
      "prestation": 2285,
      "garanties": 2286,
      "supplément": 2287,
      "cols": 2288,
      "élus": 2289,
      "colspan": 2290,
      "complémentaire": 2291,
      "détention": 2292,
      "figurant": 2293,
      "rur": 2294,
      "décès": 2295,
      "ao": 2296,
      "éch": 2297,
      "déterminée": 2298,
      "recouvrement": 2299,
      "sanitaire": 2300,
      "greff": 2301,
      "més": 2302,
      "morales": 2303,
      "diplôme": 2304,
      "sûreté": 2305,
      "obligatoire": 2306,
      "urbanisme": 2307,
      "cli": 2308,
      "aucun": 2309,
      "administratif": 2310,
      "vement": 2311,
      "fac": 2312,
      "déchets": 2313,
      "plein": 2314,
      "bénéficiaires": 2315,
      "use": 2316,
      "oct": 2317,
      "négoci": 2318,
      "mét": 2319,
      "pays": 2320,
      "iter": 2321,
      "saisie": 2322,
      "projets": 2323,
      "délégué": 2324,
      "débiteur": 2325,
      "nove": 2326,
      "novembre": 2327,
      "itenti": 2328,
      "sco": 2329,
      "envis": 2330,
      "pénitenti": 2331,
      "militaires": 2332,
      "concernée": 2333,
      "2018": 2334,
      "cés": 2335,
      "obre": 2336,
      "août": 2337,
      "2023": 2338,
      "octobre": 2339,
      "proportion": 2340,
      "bure": 2341,
      "preuve": 2342,
      "posées": 2343,
      "spécialis": 2344,
      "forfait": 2345,
      "fournit": 2346,
      "matri": 2347,
      "positions": 2348,
      "2022": 2349,
      "établie": 2350,
      "rev": 2351,
      "sociaux": 2352,
      "intervention": 2353,
      "réduction": 2354,
      "secré": 2355,
      "adressée": 2356,
      "engagements": 2357,
      "cy": 2358,
      "transmis": 2359,
      "ologie": 2360,
      "rési": 2361,
      "40": 2362,
      "aur": 2363,
      "uses": 2364,
      "présentation": 2365,
      "mandataire": 2366,
      "somme": 2367,
      "recommandée": 2368,
      "pénal": 2369,
      "cant": 2370,
      "concurrence": 2371,
      "tour": 2372,
      "départementale": 2373,
      "antes": 2374,
      "compren": 2375,
      "dispositifs": 2376,
      "critères": 2377,
      "financières": 2378,
      "corps": 2379,
      "télé": 2380,
      "résidence": 2381,
      "cel": 2382,
      "appr": 2383,
      "exist": 2384,
      "unité": 2385,
      "zones": 2386,
      "susceptible": 2387,
      "rédi": 2388,
      "exclusi": 2389,
      "actifs": 2390,
      "univers": 2391,
      "exon": 2392,
      "auto": 2393,
      "domm": 2394,
      "égard": 2395,
      "délégation": 2396,
      "regard": 2397,
      "border": 2398,
      "lissement": 2399,
      "revenus": 2400,
      "maines": 2401,
      "sché": 2402,
      "dépas": 2403,
      "immatri": 2404,
      "urgence": 2405,
      "entend": 2406,
      "favor": 2407,
      "liés": 2408,
      "répartition": 2409,
      "instance": 2410,
      "entrée": 2411,
      "opérateur": 2412,
      "aute": 2413,
      "chargée": 2414,
      "suc": 2415,
      "hiques": 2416,
      "alors": 2417,
      "sec": 2418,
      "soumises": 2419,
      "enseignements": 2420,
      "mutu": 2421,
      "greffe": 2422,
      "posés": 2423,
      "erre": 2424,
      "manque": 2425,
      ").": 2426,
      "élabor": 2427,
      "composition": 2428,
      "dq": 2429,
      "tel": 2430,
      "dqtable": 2431,
      "électricité": 2432,
      "enne": 2433,
      "dique": 2434,
      "offre": 2435,
      "propres": 2436,
      "entretien": 2437,
      "2015": 2438,
      "donner": 2439,
      "appartenant": 2440,
      "comportant": 2441,
      "arch": 2442,
      "chois": 2443,
      "autono": 2444,
      "signature": 2445,
      "particulières": 2446,
      "clé": 2447,
      "dentiel": 2448,
      "emb": 2449,
      "miques": 2450,
      "va": 2451,
      "placement": 2452,
      "dû": 2453,
      "agit": 2454,
      "ock": 2455,
      "exclusion": 2456,
      "secteur": 2457,
      "intéressés": 2458,
      "suit": 2459,
      "probation": 2460,
      "empris": 2461,
      "emprisonnement": 2462,
      "présence": 2463,
      "délibérations": 2464,
      "résultat": 2465,
      "ertion": 2466,
      "face": 2467,
      "infi": 2468,
      "âge": 2469,
      "type": 2470,
      "justifica": 2471,
      "contribution": 2472,
      "manif": 2473,
      "préalablement": 2474,
      "infir": 2475,
      "stock": 2476,
      "198": 2477,
      "conservation": 2478,
      "revenu": 2479,
      "déterminé": 2480,
      "armées": 2481,
      "artis": 2482,
      "publicité": 2483,
      "pénale": 2484,
      "patri": 2485,
      "prescriptions": 2486,
      "conforme": 2487,
      "ètres": 2488,
      "paragr": 2489,
      "animaux": 2490,
      "paragraph": 2491,
      "motivée": 2492,
      "expéri": 2493,
      "délivrée": 2494,
      "connaître": 2495,
      "travailleurs": 2496,
      "compens": 2497,
      "insertion": 2498,
      "permettre": 2499,
      "lou": 2500,
      "fonctionnaires": 2501,
      "liquidation": 2502,
      "posant": 2503,
      "oix": 2504,
      "concours": 2505,
      "mobil": 2506,
      "sanctions": 2507,
      "78": 2508,
      "voy": 2509,
      "limites": 2510,
      "terr": 2511,
      "dispon": 2512,
      "ciens": 2513,
      "formations": 2514,
      "chambres": 2515,
      "procède": 2516,
      "marchandises": 2517,
      "wal": 2518,
      "una": 2519,
      "destinés": 2520,
      "douanes": 2521,
      "wallis": 2522,
      "prun": 2523,
      "futuna": 2524,
      "patrimo": 2525,
      "périmètre": 2526,
      "prudentiel": 2527,
      "immeuble": 2528,
      "mul": 2529,
      "héber": 2530,
      "gouver": 2531,
      "indic": 2532,
      "vice": 2533,
      "uit": 2534,
      "créanci": 2535,
      "dédu": 2536,
      "provis": 2537,
      "agers": 2538,
      "prononcée": 2539,
      "inc": 2540,
      "minimum": 2541,
      "dispens": 2542,
      "hon": 2543,
      "emprun": 2544,
      "tations": 2545,
      "dernière": 2546,
      "prescrit": 2547,
      "titude": 2548,
      "quanti": 2549,
      "forê": 2550,
      "réglementaire": 2551,
      "èle": 2552,
      "statu": 2553,
      "habilité": 2554,
      "congé": 2555,
      "concernées": 2556,
      "posent": 2557,
      "totale": 2558,
      "infor": 2559,
      "distin": 2560,
      "atement": 2561,
      "bois": 2562,
      "vée": 2563,
      "déterminées": 2564,
      "avo": 2565,
      "ctor": 2566,
      "façon": 2567,
      "soumise": 2568,
      "politique": 2569,
      "aphiques": 2570,
      "solidar": 2571,
      "ordin": 2572,
      "ible": 2573,
      "nul": 2574,
      "ajou": 2575,
      "etats": 2576,
      "réglementation": 2577,
      "assurances": 2578,
      "conclusion": 2579,
      "compati": 2580,
      "unités": 2581,
      "vét": 2582,
      "habilités": 2583,
      "majorité": 2584,
      "subordon": 2585,
      "indemnités": 2586,
      "érés": 2587,
      "points": 2588,
      "améli": 2589,
      "opposition": 2590,
      "popu": 2591,
      "disciplinaire": 2592,
      "èmes": 2593,
      "visés": 2594,
      "constitution": 2595,
      "affectés": 2596,
      "pouvant": 2597,
      "atif": 2598,
      "formes": 2599,
      "tier": 2600,
      "indication": 2601,
      "orientation": 2602,
      "clôt": 2603,
      "ouvrages": 2604,
      "relève": 2605,
      "aphique": 2606,
      "mu": 2607,
      "attributions": 2608,
      "ouvrage": 2609,
      "vétér": 2610,
      "exigences": 2611,
      "chiff": 2612,
      "œuvres": 2613,
      "communications": 2614,
      "famille": 2615,
      "bureau": 2616,
      ")</": 2617,
      "plant": 2618,
      "privé": 2619,
      "exemp": 2620,
      "circonst": 2621,
      "champ": 2622,
      "pénitentiaire": 2623,
      "oeu": 2624,
      "avr": 2625,
      "contraire": 2626,
      "nuclé": 2627,
      "aér": 2628,
      "bio": 2629,
      "immédiatement": 2630,
      "pression": 2631,
      "évalu": 2632,
      "choix": 2633,
      "avocat": 2634,
      "contenu": 2635,
      "tenti": 2636,
      "fédération": 2637,
      "he": 2638,
      "avril": 2639,
      "xte": 2640,
      "grat": 2641,
      "rural": 2642,
      "profit": 2643,
      "propriétaires": 2644,
      "équipement": 2645,
      "els": 2646,
      "prévision": 2647,
      "atteint": 2648,
      "oeuv": 2649,
      "indique": 2650,
      "versées": 2651,
      "subs": 2652,
      "conti": 2653,
      "affectation": 2654,
      "besoin": 2655,
      "accompagnement": 2656,
      "trou": 2657,
      "médicaments": 2658,
      "att": 2659,
      "patrimoine": 2660,
      "matériels": 2661,
      "collectif": 2662,
      "depuis": 2663,
      "valeurs": 2664,
      "vu": 2665,
      "maximum": 2666,
      "inscrits": 2667,
      "sport": 2668,
      "liées": 2669,
      "65": 2670,
      "donné": 2671,
      "fraction": 2672,
      "solidarité": 2673,
      "ane": 2674,
      "certaines": 2675,
      "hospitali": 2676,
      "èrement": 2677,
      "2010": 2678,
      "employeurs": 2679,
      "étudi": 2680,
      "libre": 2681,
      "maximale": 2682,
      "lant": 2683,
      "inten": 2684,
      "corse": 2685,
      "tiss": 2686,
      "caisses": 2687,
      "secret": 2688,
      "dite": 2689,
      "schéma": 2690,
      "gne": 2691,
      "auquel": 2692,
      "seur": 2693,
      "changement": 2694,
      "saisi": 2695,
      "respectivement": 2696,
      "périodes": 2697,
      "atteinte": 2698,
      "contin": 2699,
      "annuelle": 2700,
      "régulation": 2701,
      "matogr": 2702,
      "signi": 2703,
      "inci": 2704,
      "scr": 2705,
      "numéri": 2706,
      "cinématogr": 2707,
      "effectuée": 2708,
      "complémentaires": 2709,
      "invalidité": 2710,
      "trente": 2711,
      "ext": 2712,
      "utilisés": 2713,
      "scientifique": 2714,
      "reti": 2715,
      "sollic": 2716,
      "autorisé": 2717,
      "organe": 2718,
      "simp": 2719,
      "pluri": 2720,
      "provisoire": 2721,
      "exprim": 2722,
      "hés": 2723,
      "réalisées": 2724,
      "bilan": 2725,
      "contrôles": 2726,
      "effectué": 2727,
      "métropole": 2728,
      "associé": 2729,
      "judiciaires": 2730,
      "rendu": 2731,
      "paragraphe": 2732,
      "soient": 2733,
      "réalisée": 2734,
      "réglementaires": 2735,
      "nommé": 2736,
      "itié": 2737,
      "divers": 2738,
      "moitié": 2739,
      "lies": 2740,
      "continu": 2741,
      "39": 2742,
      "pier": 2743,
      "consomma": 2744,
      "),": 2745,
      "clôture": 2746,
      "2009": 2747,
      "guy": 2748,
      "contraven": 2749,
      "contraventions": 2750,
      "lées": 2751,
      "appropri": 2752,
      "my": 2753,
      "obtenir": 2754,
      "érieurement": 2755,
      "seul": 2756,
      "déclarations": 2757,
      "élector": 2758,
      "élection": 2759,
      "abro": 2760,
      "utin": 2761,
      "individuelle": 2762,
      "scrutin": 2763,
      "colon": 2764,
      "bulle": 2765,
      "76": 2766,
      "bulletin": 2767,
      "vac": 2768,
      "nommés": 2769,
      "réseaux": 2770,
      "autorisations": 2771,
      "loyer": 2772,
      "volution": 2773,
      "45": 2774,
      "effets": 2775,
      "sera": 2776,
      "guyane": 2777,
      "cinqui": 2778,
      "exercent": 2779,
      "obst": 2780,
      "intermédiaire": 2781,
      "rejet": 2782,
      "possibilité": 2783,
      "guerre": 2784,
      "rh": 2785,
      "\",": 2786,
      "fact": 2787,
      "fusion": 2788,
      "agissant": 2789,
      "pierre": 2790,
      "auxquelles": 2791,
      "renseignements": 2792,
      "spe": 2793,
      "désigne": 2794,
      "électroniques": 2795,
      "thè": 2796,
      "commissions": 2797,
      "détail": 2798,
      "visées": 2799,
      "chement": 2800,
      "cinquième": 2801,
      "35": 2802,
      "ws": 2803,
      "élè": 2804,
      "radio": 2805,
      "assimil": 2806,
      "préven": 2807,
      "principal": 2808,
      "fem": 2809,
      "gouvernement": 2810,
      "circulation": 2811,
      "ise": 2812,
      "coût": 2813,
      "centres": 2814,
      "encour": 2815,
      "effectuées": 2816,
      "indépend": 2817,
      "administrateur": 2818,
      "mineur": 2819,
      "stage": 2820,
      "matières": 2821,
      "ouvert": 2822,
      "bénéficient": 2823,
      "vari": 2824,
      "requête": 2825,
      "2012": 2826,
      "inspection": 2827,
      "dépla": 2828,
      "approbation": 2829,
      "envisag": 2830,
      "règlements": 2831,
      "accordée": 2832,
      "experti": 2833,
      "élèves": 2834,
      "ratta": 2835,
      "maintien": 2836,
      "lut": 2837,
      "psy": 2838,
      "entr": 2839,
      "mainten": 2840,
      "rows": 2841,
      "réaliser": 2842,
      "rowspan": 2843,
      "contest": 2844,
      "définit": 2845,
      "notifiée": 2846,
      "vrier": 2847,
      "seurs": 2848,
      "février": 2849,
      "gés": 2850,
      "imposition": 2851,
      "nationaux": 2852,
      "nationales": 2853,
      "accident": 2854,
      "élig": 2855,
      "déj": 2856,
      "établit": 2857,
      "rédigé": 2858,
      "titue": 2859,
      "acquit": 2860,
      "circonstances": 2861,
      "greffi": 2862,
      "join": 2863,
      "neu": 2864,
      "nelles": 2865,
      "déjà": 2866,
      "légal": 2867,
      "évolution": 2868,
      "créances": 2869,
      "arrêt": 2870,
      "nique": 2871,
      "foresti": 2872,
      "forfaitaire": 2873,
      "dres": 2874,
      "secours": 2875,
      "noms": 2876,
      "ére": 2877,
      "connu": 2878,
      "rend": 2879,
      "tembre": 2880,
      "lèvent": 2881,
      "septembre": 2882,
      "actif": 2883,
      "accompagnée": 2884,
      "ements": 2885,
      "colonne": 2886,
      "émission": 2887,
      "effectif": 2888,
      "convocation": 2889,
      "approuv": 2890,
      "38": 2891,
      "définitive": 2892,
      "grand": 2893,
      "échan": 2894,
      "circons": 2895,
      "prélèvement": 2896,
      "navire": 2897,
      "feu": 2898,
      "unes": 2899,
      "opérateurs": 2900,
      "statue": 2901,
      "taxes": 2902,
      "législa": 2903,
      "ologique": 2904,
      "relèvent": 2905,
      "oration": 2906,
      "douze": 2907,
      "rains": 2908,
      "131": 2909,
      "audio": 2910,
      "oeuvre": 2911,
      "victime": 2912,
      "participer": 2913,
      "parten": 2914,
      "500": 2915,
      "suspen": 2916,
      "effectuer": 2917,
      "accessi": 2918,
      "ess": 2919,
      "terrains": 2920,
      "matéri": 2921,
      "hébergement": 2922,
      "maî": 2923,
      "listes": 2924,
      "vio": 2925,
      "qualification": 2926,
      "cotisation": 2927,
      "aus": 2928,
      "îles": 2929,
      "économiques": 2930,
      "régimes": 2931,
      "mutualité": 2932,
      "aptitude": 2933,
      "miquelon": 2934,
      "\".": 2935,
      "dotation": 2936,
      "certification": 2937,
      "admis": 2938,
      "audience": 2939,
      "compétentes": 2940,
      "familles": 2941,
      "supprimés": 2942,
      "jeunes": 2943,
      "fournir": 2944,
      "vés": 2945,
      "réun": 2946,
      "consign": 2947,
      "présidents": 2948,
      "systèmes": 2949,
      "contributions": 2950,
      "fili": 2951,
      "prior": 2952,
      "municipal": 2953,
      "autonomie": 2954,
      "ordination": 2955,
      "crédits": 2956,
      "long": 2957,
      "gi": 2958,
      "bate": 2959,
      "conser": 2960,
      "2004": 2961,
      "renouvelable": 2962,
      "conséqu": 2963,
      "49": 2964,
      "ibilité": 2965,
      "tor": 2966,
      "effectués": 2967,
      "surface": 2968,
      "générales": 2969,
      "lié": 2970,
      "vation": 2971,
      "adhér": 2972,
      "sections": 2973,
      "implant": 2974,
      "prestataire": 2975,
      "immatriculation": 2976,
      "marti": 2977,
      "informé": 2978,
      "seule": 2979,
      "mètres": 2980,
      "mensu": 2981,
      "modèle": 2982,
      "diri": 2983,
      "tention": 2984,
      "maître": 2985,
      "seuil": 2986,
      "objets": 2987,
      "inaires": 2988,
      "habilitation": 2989,
      "assistance": 2990,
      "hésion": 2991,
      "gré": 2992,
      "structure": 2993,
      "dition": 2994,
      "modifications": 2995,
      "autorisés": 2996,
      "estime": 2997,
      "régular": 2998,
      "destin": 2999,
      "motifs": 3000,
      "voies": 3001,
      "veille": 3002,
      "bas": 3003,
      "grou": 3004,
      "alisée": 3005,
      "justifier": 3006,
      "conduite": 3007,
      "46": 3008,
      "agréé": 3009,
      "directive": 3010,
      "pis": 3011,
      "compensation": 3012,
      "martin": 3013,
      "réalisés": 3014,
      "are": 3015,
      "gment": 3016,
      "indemnisation": 3017,
      "martinique": 3018,
      "coordination": 3019,
      "notifie": 3020,
      "iser": 3021,
      "institution": 3022,
      "précédant": 3023,
      "médicaux": 3024,
      "grav": 3025,
      "consul": 3026,
      "quar": 3027,
      "confér": 3028,
      "régionaux": 3029,
      "presse": 3030,
      "étude": 3031,
      "emplois": 3032,
      "fabrication": 3033,
      "one": 3034,
      "annu": 3035,
      "alloc": 3036,
      "métho": 3037,
      "quer": 3038,
      "érations": 3039,
      "possible": 3040,
      "porté": 3041,
      "initiative": 3042,
      "spécifiques": 3043,
      "norm": 3044,
      "dies": 3045,
      "prévoit": 3046,
      "tissements": 3047,
      "cole": 3048,
      "compl": 3049,
      "dommages": 3050,
      "2006": 3051,
      "précisées": 3052,
      "familiales": 3053,
      "plafond": 3054,
      "victimes": 3055,
      "amin": 3056,
      "appare": 3057,
      "situés": 3058,
      "appu": 3059,
      "audiovis": 3060,
      "décider": 3061,
      "validité": 3062,
      "récla": 3063,
      "tels": 3064,
      "augment": 3065,
      "den": 3066,
      "versée": 3067,
      "quo": 3068,
      "présents": 3069,
      "certa": 3070,
      "situé": 3071,
      "certains": 3072,
      "obtenu": 3073,
      "79": 3074,
      "aces": 3075,
      "libertés": 3076,
      "dehors": 3077,
      "magistrat": 3078,
      "analyse": 3079,
      "vaut": 3080,
      "mentionne": 3081,
      "portée": 3082,
      "élaboration": 3083,
      "oraires": 3084,
      "moyenne": 3085,
      "pouvoirs": 3086,
      "option": 3087,
      "représentation": 3088,
      "porteur": 3089,
      "istant": 3090,
      "souscrit": 3091,
      "respecter": 3092,
      "telles": 3093,
      "établir": 3094,
      "gend": 3095,
      "remplacées": 3096,
      "expertise": 3097,
      "permanente": 3098,
      "extérieur": 3099,
      "gendar": 3100,
      "préparation": 3101,
      "barth": 3102,
      "détent": 3103,
      "détermination": 3104,
      "élemy": 3105,
      "barthélemy": 3106,
      "ennent": 3107,
      "représentatives": 3108,
      "juridique": 3109,
      "astruct": 3110,
      "infrastruct": 3111,
      "coopér": 3112,
      "fic": 3113,
      "cies": 3114,
      "visée": 3115,
      "dépôts": 3116,
      "interdit": 3117,
      "derniers": 3118,
      "imput": 3119,
      "appren": 3120,
      "promo": 3121,
      "examin": 3122,
      "énon": 3123,
      "étant": 3124,
      "prot": 3125,
      "ous": 3126,
      "alimentation": 3127,
      "90": 3128,
      "réponse": 3129,
      "enseign": 3130,
      "précité": 3131,
      "lan": 3132,
      "uves": 3133,
      "médecine": 3134,
      "ologiques": 3135,
      "officiel": 3136,
      "existence": 3137,
      "audit": 3138,
      "spécifique": 3139,
      "éventuellement": 3140,
      "accidents": 3141,
      "administratives": 3142,
      "redevance": 3143,
      "80": 3144,
      "territoires": 3145,
      ":</": 3146,
      "achet": 3147,
      "aéri": 3148,
      "salaire": 3149,
      "postes": 3150,
      "ortie": 3151,
      "atifs": 3152,
      "hypo": 3153,
      "délit": 3154,
      "dictions": 3155,
      "médecins": 3156,
      "dirige": 3157,
      "coû": 3158,
      "compar": 3159,
      "revet": 3160,
      "bord": 3161,
      "lutte": 3162,
      "nais": 3163,
      "vérification": 3164,
      "adaptation": 3165,
      "plans": 3166,
      "commerciale": 3167,
      "recevoir": 3168,
      "brevet": 3169,
      "ligne": 3170,
      "its": 3171,
      "conseillers": 3172,
      "dente": 3173,
      "considérée": 3174,
      "44": 3175,
      "arrêtés": 3176,
      "cahi": 3177,
      "merie": 3178,
      "annex": 3179,
      "là": 3180,
      "armes": 3181,
      "officier": 3182,
      "résul": 3183,
      "acle": 3184,
      "recteur": 3185,
      "prononcer": 3186,
      "manifest": 3187,
      "spécialité": 3188,
      "chiffre": 3189,
      "accomplissement": 3190,
      "qués": 3191,
      "internet": 3192,
      "greffier": 3193,
      "nucléaire": 3194,
      "titution": 3195,
      "érant": 3196,
      "gendarmerie": 3197,
      "existe": 3198,
      "début": 3199,
      "multi": 3200,
      "parent": 3201,
      "livraison": 3202,
      "cro": 3203,
      "ette": 3204,
      "complè": 3205,
      "continue": 3206,
      "og": 3207,
      "partielle": 3208,
      "thér": 3209,
      "vabilité": 3210,
      "grade": 3211,
      "institutions": 3212,
      "thérap": 3213,
      "libér": 3214,
      "hom": 3215,
      "domaines": 3216,
      "cul": 3217,
      "circonscription": 3218,
      "strat": 3219,
      "qué": 3220,
      "nels": 3221,
      "ancien": 3222,
      "adjoint": 3223,
      "prêts": 3224,
      "stratég": 3225,
      "tension": 3226,
      "médico": 3227,
      "réalisé": 3228,
      "%</": 3229,
      "tue": 3230,
      "population": 3231,
      "saisine": 3232,
      "maritimes": 3233,
      "terres": 3234,
      "infirmi": 3235,
      "préfec": 3236,
      "incen": 3237,
      "enregis": 3238,
      "séance": 3239,
      "assujet": 3240,
      "volontaire": 3241,
      "enregistr": 3242,
      "coûts": 3243,
      "supplémentaire": 3244,
      "responsables": 3245,
      "intervenir": 3246,
      "naturel": 3247,
      "numérique": 3248,
      "agno": 3249,
      "adaptations": 3250,
      "bénéficie": 3251,
      "justifie": 3252,
      "substances": 3253,
      "cessation": 3254,
      "bâtiment": 3255,
      "dénomination": 3256,
      "perte": 3257,
      "manquement": 3258,
      "spéciale": 3259,
      "pror": 3260,
      "auxquels": 3261,
      "individuel": 3262,
      "visé": 3263,
      "remplacée": 3264,
      "pratiques": 3265,
      "réquis": 3266,
      "régies": 3267,
      "épar": 3268,
      "réputé": 3269,
      "lang": 3270,
      "prescription": 3271,
      "preuves": 3272,
      "navires": 3273,
      "constitue": 3274,
      "sti": 3275,
      "exercées": 3276,
      "prononce": 3277,
      "€</": 3278,
      "prépar": 3279,
      "totalité": 3280,
      "det": 3281,
      "intervient": 3282,
      "exploitants": 3283,
      "discipline": 3284,
      "expérience": 3285,
      "allocations": 3286,
      "maladies": 3287,
      "diagno": 3288,
      "bran": 3289,
      "différents": 3290,
      "contra": 3291,
      "régis": 3292,
      "tarifs": 3293,
      "condamnation": 3294,
      "académique": 3295,
      "chir": 3296,
      "communique": 3297,
      "classement": 3298,
      "tiennent": 3299,
      "vieilles": 3300,
      "station": 3301,
      "unions": 3302,
      "court": 3303,
      "communauté": 3304,
      "lage": 3305,
      "indirec": 3306,
      "2005": 3307,
      "directeurs": 3308,
      "pratique": 3309,
      "vieillesse": 3310,
      "relations": 3311,
      "faci": 3312,
      "diffusion": 3313,
      "utilité": 3314,
      "syndicales": 3315,
      "ène": 3316,
      "reprise": 3317,
      "protég": 3318,
      "officiers": 3319,
      "tarif": 3320,
      "proven": 3321,
      "foncière": 3322,
      "rappor": 3323,
      "montants": 3324,
      "48": 3325,
      "initiale": 3326,
      "baux": 3327,
      "apparti": 3328,
      "version": 3329,
      "journal": 3330,
      "2008": 3331,
      "partage": 3332,
      "épargne": 3333,
      "incl": 3334,
      "monétaire": 3335,
      "ceuti": 3336,
      "poste": 3337,
      "secrét": 3338,
      "diagnos": 3339,
      "èce": 3340,
      "prévoy": 3341,
      "destinées": 3342,
      "aî": 3343,
      "loupe": 3344,
      "assurés": 3345,
      "dang": 3346,
      "décla": 3347,
      "guade": 3348,
      "dérou": 3349,
      "guadeloupe": 3350,
      "foncier": 3351,
      "avi": 3352,
      "molog": 3353,
      "matériel": 3354,
      "comptables": 3355,
      "èdent": 3356,
      "programmes": 3357,
      "ordonner": 3358,
      "crimin": 3359,
      "précisant": 3360,
      "sances": 3361,
      "issance": 3362,
      "parents": 3363,
      "reconn": 3364,
      "reçu": 3365,
      "révision": 3366,
      "géogr": 3367,
      "conducteur": 3368,
      "justifiant": 3369,
      "orientations": 3370,
      "partiel": 3371,
      "majoration": 3372,
      "ouvri": 3373,
      "minimale": 3374,
      "remplis": 3375,
      "reconnaissance": 3376,
      "constitué": 3377,
      "experts": 3378,
      "remis": 3379,
      "nolog": 3380,
      "précédente": 3381,
      "présentant": 3382,
      "utiles": 3383,
      "plate": 3384,
      "preneur": 3385,
      "souh": 3386,
      "58": 3387,
      "consécu": 3388,
      "émet": 3389,
      "conduire": 3390,
      "haute": 3391,
      "françaises": 3392,
      "quater": 3393,
      "neur": 3394,
      "régionales": 3395,
      "bâtiments": 3396,
      "cahier": 3397,
      "questions": 3398,
      "producteurs": 3399,
      "créance": 3400,
      "cinématographiques": 3401,
      "grave": 3402,
      "2000": 3403,
      "stockage": 3404,
      "artisan": 3405,
      "agréés": 3406,
      "localement": 3407,
      "tran": 3408,
      "usagers": 3409,
      "instruments": 3410,
      "technolog": 3411,
      "orer": 3412,
      "avantages": 3413,
      "réqu": 3414,
      "exposition": 3415,
      "visite": 3416,
      "mentions": 3417,
      "centrale": 3418,
      "comprenant": 3419,
      "privés": 3420,
      "suppléants": 3421,
      "exonération": 3422,
      "effici": 3423,
      "ouverts": 3424,
      "excède": 3425,
      "autorisée": 3426,
      "destination": 3427,
      "investi": 3428,
      "naissance": 3429,
      "xtes": 3430,
      "vocation": 3431,
      "forêts": 3432,
      "passi": 3433,
      "agne": 3434,
      "encontre": 3435,
      "législation": 3436,
      "fondement": 3437,
      "professions": 3438,
      "placés": 3439,
      "venir": 3440,
      "espèces": 3441,
      "tab": 3442,
      "déta": 3443,
      "mixte": 3444,
      "éten": 3445,
      "super": 3446,
      "prévoir": 3447,
      "propositions": 3448,
      "éche": 3449,
      "chasse": 3450,
      "requ": 3451,
      "immobil": 3452,
      "négociation": 3453,
      "fourniture": 3454,
      "ayants": 3455,
      "insuffis": 3456,
      "accords": 3457,
      "trim": 3458,
      "élu": 3459,
      "incendie": 3460,
      "effectue": 3461,
      "achat": 3462,
      "aéro": 3463,
      "frau": 3464,
      "session": 3465,
      "34": 3466,
      "spécial": 3467,
      "mater": 3468,
      "lables": 3469,
      "amor": 3470,
      "locales": 3471,
      "ordonnateur": 3472,
      "magistr": 3473,
      "étrangers": 3474,
      "ôle": 3475,
      "utile": 3476,
      "certificats": 3477,
      "étudiants": 3478,
      "praticien": 3479,
      "garantir": 3480,
      "jur": 3481,
      "fonctionnaire": 3482,
      "civiles": 3483,
      "vii": 3484,
      "administratifs": 3485,
      "cho": 3486,
      "pourcent": 3487,
      "delà": 3488,
      "épreuves": 3489,
      "dûment": 3490,
      "jeux": 3491,
      "diffi": 3492,
      "assurée": 3493,
      "stipu": 3494,
      "amélioration": 3495,
      "envoi": 3496,
      "ilo": 3497,
      "suppléant": 3498,
      "occupation": 3499,
      "industrielle": 3500,
      "lot": 3501,
      "affecté": 3502,
      "bailleur": 3503,
      "habitat": 3504,
      "33": 3505,
      "importance": 3506,
      "handicapées": 3507,
      "rhin": 3508,
      "55": 3509,
      "ami": 3510,
      "motif": 3511,
      "connaissances": 3512,
      "diagnostic": 3513,
      "patient": 3514,
      "nationalité": 3515,
      "durable": 3516,
      "banque": 3517,
      "prêt": 3518,
      "secrétaire": 3519,
      "compétents": 3520,
      "principes": 3521,
      "souhait": 3522,
      "séances": 3523,
      "alisé": 3524,
      "péd": 3525,
      "minu": 3526,
      "régions": 3527,
      "aît": 3528,
      "présentée": 3529,
      "expert": 3530,
      "proxim": 3531,
      "lie": 3532,
      "prési": 3533,
      "tribunaux": 3534,
      "quelque": 3535,
      "constaté": 3536,
      "urb": 3537,
      "auche": 3538,
      "intes": 3539,
      "régulièrement": 3540,
      "conséquences": 3541,
      "calculé": 3542,
      "exclusivement": 3543,
      "retenue": 3544,
      "exam": 3545,
      "appui": 3546,
      "mée": 3547,
      "limitée": 3548,
      "échelon": 3549,
      "examens": 3550,
      "transmises": 3551,
      "modifié": 3552,
      "tutelle": 3553,
      "échéance": 3554,
      "délégués": 3555,
      "principale": 3556,
      "valor": 3557,
      "assister": 3558,
      "durant": 3559,
      "fiscale": 3560,
      "parc": 3561,
      "émis": 3562,
      "mobilité": 3563,
      "surven": 3564,
      "terrain": 3565,
      "mode": 3566,
      "suivre": 3567,
      "déduction": 3568,
      "rent": 3569,
      "contribuable": 3570,
      "assiette": 3571,
      "enquê": 3572,
      "immobilier": 3573,
      "cumu": 3574,
      "homolog": 3575,
      "scolaire": 3576,
      "deur": 3577,
      "decies": 3578,
      "gratuit": 3579,
      "récé": 3580,
      "chage": 3581,
      "récépis": 3582,
      "ection": 3583,
      "placé": 3584,
      "figure": 3585,
      "gées": 3586,
      "versements": 3587,
      "informatique": 3588,
      "enten": 3589,
      "2007": 3590,
      "différentes": 3591,
      "crire": 3592,
      "remplacement": 3593,
      "incomb": 3594,
      "créancier": 3595,
      "47": 3596,
      "description": 3597,
      "habitants": 3598,
      "trouve": 3599,
      "premiers": 3600,
      "réparation": 3601,
      "complet": 3602,
      "quantité": 3603,
      "détenues": 3604,
      "distinc": 3605,
      "proximité": 3606,
      "hô": 3607,
      "admission": 3608,
      "interne": 3609,
      "particuliers": 3610,
      "fiscal": 3611,
      "restant": 3612,
      "affaire": 3613,
      "coeffici": 3614,
      "géné": 3615,
      "disposent": 3616,
      "150": 3617,
      "sept": 3618,
      "év": 3619,
      "itu": 3620,
      "délivrer": 3621,
      "comptabilité": 3622,
      "personnalités": 3623,
      "quant": 3624,
      "rapports": 3625,
      "définitif": 3626,
      "établies": 3627,
      "99": 3628,
      "producteur": 3629,
      "prononcé": 3630,
      "thé": 3631,
      "signé": 3632,
      "finan": 3633,
      "ressor": 3634,
      "adhésion": 3635,
      "ouverte": 3636,
      "équivalent": 3637,
      "troubles": 3638,
      "magistrats": 3639,
      "visant": 3640,
      "évé": 3641,
      "locataire": 3642,
      "provisions": 3643,
      "aérone": 3644,
      "actu": 3645,
      "consente": 3646,
      "commissaires": 3647,
      "flu": 3648,
      "écrite": 3649,
      "pou": 3650,
      "espaces": 3651,
      "lien": 3652,
      "composé": 3653,
      "cass": 3654,
      "pédag": 3655,
      "force": 3656,
      "bénéficiant": 3657,
      "administrateurs": 3658,
      "résiliation": 3659,
      "aviation": 3660,
      "cie": 3661,
      "mineurs": 3662,
      "sportif": 3663,
      "incapacité": 3664,
      "imparti": 3665,
      "communiquer": 3666,
      "nullité": 3667,
      "existant": 3668,
      "anciens": 3669,
      "sites": 3670,
      "degré": 3671,
      "récépissé": 3672,
      "érir": 3673,
      "lat": 3674,
      "distance": 3675,
      "ville": 3676,
      "spect": 3677,
      "trés": 3678,
      "rase": 3679,
      "ministérie": 3680,
      "indirectement": 3681,
      "gée": 3682,
      "sièges": 3683,
      "dan": 3684,
      "départementaux": 3685,
      "éti": 3686,
      "généraux": 3687,
      "matiques": 3688,
      "vétérinaire": 3689,
      "consentement": 3690,
      "sis": 3691,
      "suivante": 3692,
      "phrase": 3693,
      "annuels": 3694,
      "entraîne": 3695,
      "reconnu": 3696,
      "cessi": 3697,
      "exercée": 3698,
      "calculée": 3699,
      "adoption": 3700,
      "académie": 3701,
      "masse": 3702,
      "consultative": 3703,
      "indications": 3704,
      "36": 3705,
      "libé": 3706,
      "sportive": 3707,
      "investissements": 3708,
      "cycle": 3709,
      "courir": 3710,
      "aérodro": 3711,
      "conjoin": 3712,
      "conjointement": 3713,
      "rémunérations": 3714,
      "extrait": 3715,
      "transformation": 3716,
      "exercé": 3717,
      "consommateur": 3718,
      "cohér": 3719,
      "suites": 3720,
      "normes": 3721,
      "pourcentage": 3722,
      "obligatoires": 3723,
      "comprennent": 3724,
      "ager": 3725,
      "avance": 3726,
      "syndicat": 3727,
      "considéré": 3728,
      "éligibles": 3729,
      "pédagog": 3730,
      "invent": 3731,
      "dépendant": 3732,
      "bonne": 3733,
      "fréqu": 3734,
      "régie": 3735,
      "budgétaire": 3736,
      "gestionnaires": 3737,
      "indiquant": 3738,
      "expropri": 3739,
      "céder": 3740,
      "sports": 3741,
      "abrogé": 3742,
      "estre": 3743,
      "pol": 3744,
      "navigation": 3745,
      "déplacement": 3746,
      "maximal": 3747,
      "quée": 3748,
      "itions": 3749,
      "séle": 3750,
      "élément": 3751,
      "antis": 3752,
      "contenti": 3753,
      "dudit": 3754,
      "pensions": 3755,
      "obstacle": 3756,
      "rendus": 3757,
      "secrétari": 3758,
      "condamné": 3759,
      "sang": 3760,
      "arme": 3761,
      "annexes": 3762,
      "coordon": 3763,
      "nouvelles": 3764,
      "commercial": 3765,
      "collective": 3766,
      "promotion": 3767,
      "53": 3768,
      "participant": 3769,
      "portées": 3770,
      "suivent": 3771,
      "complète": 3772,
      "énergé": 3773,
      "ajoutée": 3774,
      "cassation": 3775,
      "radiation": 3776,
      "nat": 3777,
      "faites": 3778,
      "perform": 3779,
      "constate": 3780,
      "client": 3781,
      "serment": 3782,
      "asi": 3783,
      "remplacé": 3784,
      "heure": 3785,
      "résident": 3786,
      "déléguer": 3787,
      "exercices": 3788,
      "métiers": 3789,
      "attribuées": 3790,
      "ton": 3791,
      "constatée": 3792,
      "iers": 3793,
      "astre": 3794,
      "conformes": 3795,
      "désignée": 3796,
      "secrétariat": 3797,
      "travailleur": 3798,
      "appréciation": 3799,
      "mén": 3800,
      "garantis": 3801,
      "renon": 3802,
      "pharmaceuti": 3803,
      "fiscalité": 3804,
      "extension": 3805,
      "viennent": 3806,
      "volume": 3807,
      "706": 3808,
      "transfé": 3809,
      "donnant": 3810,
      "informer": 3811,
      "effective": 3812,
      "sta": 3813,
      "saisir": 3814,
      "ile": 3815,
      "sépar": 3816,
      "empêche": 3817,
      "transporteur": 3818,
      "indiquée": 3819,
      "95": 3820,
      "intro": 3821,
      "souscription": 3822,
      "introdu": 3823,
      "inst": 3824,
      "utiliser": 3825,
      "législatives": 3826,
      "diminu": 3827,
      "glob": 3828,
      "répondant": 3829,
      "femmes": 3830,
      "apprentiss": 3831,
      "bou": 3832,
      "inscrites": 3833,
      "liberté": 3834,
      "feuille": 3835,
      "chargement": 3836,
      "alidation": 3837,
      "journali": 3838,
      "air": 3839,
      "subventions": 3840,
      "acheteur": 3841,
      "égét": 3842,
      "réper": 3843,
      "but": 3844,
      "route": 3845,
      "capacités": 3846,
      "donneur": 3847,
      "rages": 3848,
      "obtention": 3849,
      "végét": 3850,
      "acceptation": 3851,
      "était": 3852,
      "accordé": 3853,
      "conne": 3854,
      "spécialement": 3855,
      "faute": 3856,
      "fabricant": 3857,
      "intérieure": 3858,
      "constituer": 3859,
      "modé": 3860,
      "41": 3861,
      "fave": 3862,
      "précédents": 3863,
      "fiscales": 3864,
      "constituée": 3865,
      "animation": 3866,
      "afférentes": 3867,
      "destinataire": 3868,
      "abil": 3869,
      "validation": 3870,
      "iso": 3871,
      "sex": 3872,
      "électeurs": 3873,
      "faveur": 3874,
      "77": 3875,
      "assurent": 3876,
      "laboratoire": 3877,
      "portent": 3878,
      "résulte": 3879,
      "fournisseur": 3880,
      "agi": 3881,
      "traitements": 3882,
      "servitu": 3883,
      "diplômes": 3884,
      "ros": 3885,
      "donnent": 3886,
      "locale": 3887,
      "agréées": 3888,
      "dérog": 3889,
      "atrice": 3890,
      "enci": 3891,
      "fixant": 3892,
      "bénéfices": 3893,
      "maîtr": 3894,
      "arron": 3895,
      "mère": 3896,
      "détenteur": 3897,
      "jon": 3898,
      "émissions": 3899,
      "dilig": 3900,
      "consenti": 3901,
      "collecte": 3902,
      "usé": 3903,
      "répondre": 3904,
      "thérapeu": 3905,
      "rach": 3906,
      "humaine": 3907,
      "rup": 3908,
      "rage": 3909,
      "sier": 3910,
      "propriétés": 3911,
      "itées": 3912,
      "représenter": 3913,
      "déterminer": 3914,
      "sauve": 3915,
      "2011": 3916,
      "publié": 3917,
      "réserves": 3918,
      "chier": 3919,
      "fichier": 3920,
      "acquére": 3921,
      "dange": 3922,
      "itec": 3923,
      "architec": 3924,
      "apprentissage": 3925,
      "sin": 3926,
      "épreuve": 3927,
      "environnementale": 3928,
      "raisons": 3929,
      "llon": 3930,
      "décide": 3931,
      "ariat": 3932,
      "allou": 3933,
      "86": 3934,
      "seuls": 3935,
      "éré": 3936,
      "proposer": 3937,
      "produire": 3938,
      "donnée": 3939,
      "autorisées": 3940,
      "requises": 3941,
      "offres": 3942,
      "langue": 3943,
      "contentieux": 3944,
      "performance": 3945,
      "ource": 3946,
      "formalités": 3947,
      "utilisé": 3948,
      "international": 3949,
      "entités": 3950,
      "vali": 3951,
      "préser": 3952,
      "mécan": 3953,
      "hommes": 3954,
      "pomp": 3955,
      "réputée": 3956,
      "constructions": 3957,
      "signifi": 3958,
      "expé": 3959,
      "recherches": 3960,
      "assurant": 3961,
      "déterminés": 3962,
      "autoriser": 3963,
      "prévoyance": 3964,
      "internationale": 3965,
      "indice": 3966,
      "constituent": 3967,
      "réunit": 3968,
      "maires": 3969,
      "transmise": 3970,
      "empêchement": 3971,
      "solution": 3972,
      "créanciers": 3973,
      "dangere": 3974,
      "clo": 3975,
      "lier": 3976,
      "sportives": 3977,
      "incid": 3978,
      "géographique": 3979,
      "recour": 3980,
      "antérieur": 3981,
      "prénoms": 3982,
      "statis": 3983,
      "rets": 3984,
      "démar": 3985,
      "export": 3986,
      "milieu": 3987,
      "naturels": 3988,
      "notifié": 3989,
      "mettent": 3990,
      "exécutif": 3991,
      "achè": 3992,
      "jury": 3993,
      "organes": 3994,
      "comporter": 3995,
      "favorable": 3996,
      "stationnement": 3997,
      "32": 3998,
      "coo": 3999,
      "neté": 4000,
      "pharmacien": 4001,
      "redevable": 4002,
      "moteur": 4003,
      "proto": 4004,
      "circu": 4005,
      "bri": 4006,
      "réunions": 4007,
      "bass": 4008,
      "sanitaires": 4009,
      "recommand": 4010,
      "vous": 4011,
      "termes": 4012,
      "image": 4013,
      "constatation": 4014,
      "situations": 4015,
      "puisse": 4016,
      "rendre": 4017,
      "parcours": 4018,
      "alcoo": 4019,
      "territorialement": 4020,
      "réci": 4021,
      "conférence": 4022,
      "aqu": 4023,
      "levée": 4024,
      "propose": 4025,
      "subordonnée": 4026,
      "danger": 4027,
      "réassurance": 4028,
      "coefficient": 4029,
      "pharmaciens": 4030,
      "simple": 4031,
      "courant": 4032,
      "exécutoire": 4033,
      "gran": 4034,
      "adressé": 4035,
      "mari": 4036,
      "37": 4037,
      "présenté": 4038,
      "mutuelle": 4039,
      "issement": 4040,
      "comités": 4041,
      "juridictions": 4042,
      "justification": 4043,
      "motivé": 4044,
      "personnalité": 4045,
      "métropolit": 4046,
      "vétérinaires": 4047,
      "cohérence": 4048,
      "cative": 4049,
      "déposée": 4050,
      "affichage": 4051,
      "sauvegarde": 4052,
      "%.": 4053,
      "lence": 4054,
      "liée": 4055,
      "rière": 4056,
      "intention": 4057,
      "importation": 4058,
      "nité": 4059,
      "quet": 4060,
      "attribuée": 4061,
      "fort": 4062,
      "prime": 4063,
      "clin": 4064,
      "ulté": 4065,
      "faculté": 4066,
      "thèse": 4067,
      "échange": 4068,
      "secteurs": 4069,
      "stagi": 4070,
      "départ": 4071,
      "cinéma": 4072,
      "différence": 4073,
      "gent": 4074,
      "posable": 4075,
      "école": 4076,
      "directoire": 4077,
      "destiné": 4078,
      "conci": 4079,
      "sim": 4080,
      "attribué": 4081,
      "substitu": 4082,
      "question": 4083,
      "isant": 4084,
      "pourr": 4085,
      "asc": 4086,
      "seront": 4087,
      "anément": 4088,
      "effectivement": 4089,
      "intéressées": 4090,
      "structures": 4091,
      "sixième": 4092,
      "branche": 4093,
      "potenti": 4094,
      "”.": 4095,
      "auteurs": 4096,
      "assimilés": 4097,
      "antillon": 4098,
      "accompagné": 4099,
      "patients": 4100,
      "détenus": 4101,
      "forces": 4102,
      "échantillon": 4103,
      "chefs": 4104,
      "groupes": 4105,
      "étrangères": 4106,
      "suivie": 4107,
      "attestant": 4108,
      "remplit": 4109,
      "central": 4110,
      "acquéreur": 4111,
      "candidature": 4112,
      "conclusions": 4113,
      "gros": 4114,
      "désigner": 4115,
      "prélèvements": 4116,
      "simult": 4117,
      "redevances": 4118,
      "85": 4119,
      "gauche": 4120,
      "contenant": 4121,
      "tendant": 4122,
      "limitation": 4123,
      "aver": 4124,
      "mouve": 4125,
      "directe": 4126,
      "comportent": 4127,
      "exemplaire": 4128,
      "énergétique": 4129,
      "ladite": 4130,
      "actionnaires": 4131,
      "définition": 4132,
      "66": 4133,
      "cements": 4134,
      "cesse": 4135,
      "mach": 4136,
      "rap": 4137,
      "élève": 4138,
      "types": 4139,
      "certaine": 4140,
      "facilit": 4141,
      "vage": 4142,
      "isé": 4143,
      "présentées": 4144,
      "construire": 4145,
      "ensi": 4146,
      "éduca": 4147,
      "tière": 4148,
      "effi": 4149,
      "mas": 4150,
      "prolon": 4151,
      "désignées": 4152,
      "institué": 4153,
      "textes": 4154,
      "dates": 4155,
      "restre": 4156,
      "lin": 4157,
      "aussi": 4158,
      "ciation": 4159,
      "exi": 4160,
      "deven": 4161,
      "inventaire": 4162,
      "lent": 4163,
      "écar": 4164,
      "liti": 4165,
      "lyon": 4166,
      "intégration": 4167,
      "maîtrise": 4168,
      "59": 4169,
      "droite": 4170,
      "justifient": 4171,
      "pap": 4172,
      "foy": 4173,
      "ouvrir": 4174,
      "qualifiées": 4175,
      "afférents": 4176,
      "licence": 4177,
      "agements": 4178,
      "réquisition": 4179,
      "recru": 4180,
      "confir": 4181,
      "mus": 4182,
      "72": 4183,
      "rembours": 4184,
      "satisfaire": 4185,
      "fixer": 4186,
      "chapitres": 4187,
      "implantation": 4188,
      "assujetti": 4189,
      "énu": 4190,
      "habitations": 4191,
      "cessions": 4192,
      "énumé": 4193,
      "quit": 4194,
      "aie": 4195,
      "demandé": 4196,
      "subvention": 4197,
      "prennent": 4198,
      "soutien": 4199,
      "uration": 4200,
      "couverture": 4201,
      "délivrés": 4202,
      "confidenti": 4203,
      "ports": 4204,
      "vérifier": 4205,
      "disponibles": 4206,
      "hist": 4207,
      "interro": 4208,
      "considérés": 4209,
      ";<": 4210,
      "hauteur": 4211,
      "supplémentaires": 4212,
      "pertin": 4213,
      "clause": 4214,
      "remplir": 4215,
      "isés": 4216,
      "susp": 4217,
      "rachat": 4218,
      "sage": 4219,
      "utes": 4220,
      "collectifs": 4221,
      "collèges": 4222,
      "42": 4223,
      "élections": 4224,
      "assureur": 4225,
      "instances": 4226,
      "pharmacie": 4227,
      "forêt": 4228,
      "détenue": 4229,
      "demandée": 4230,
      "retour": 4231,
      "reçoit": 4232,
      "permettent": 4233,
      "particulière": 4234,
      "numér": 4235,
      "destruction": 4236,
      "troi": 4237,
      "concertation": 4238,
      "octroi": 4239,
      "/</": 4240,
      "\">/</": 4241,
      "ferro": 4242,
      "essenti": 4243,
      "sortie": 4244,
      "appartient": 4245,
      "aurait": 4246,
      "hospitalier": 4247,
      "licenci": 4248,
      "asile": 4249,
      "énumérées": 4250,
      "itant": 4251,
      "réf": 4252,
      "solde": 4253,
      "hospitalisation": 4254,
      "ferrovi": 4255,
      "siég": 4256,
      "relation": 4257,
      "départementales": 4258,
      "intervenant": 4259,
      "fédér": 4260,
      "satisfait": 4261,
      "quarante": 4262,
      "achèvement": 4263,
      "rie": 4264,
      "pat": 4265,
      "antérieurement": 4266,
      "administrations": 4267,
      "ouvrant": 4268,
      "destinée": 4269,
      "latér": 4270,
      "écoles": 4271,
      "enseignants": 4272,
      "consignations": 4273,
      "conf": 4274,
      "participations": 4275,
      "camp": 4276,
      "ron": 4277,
      "dépos": 4278,
      "impli": 4279,
      "vit": 4280,
      "psych": 4281,
      "indre": 4282,
      "orte": 4283,
      "individuelles": 4284,
      "global": 4285,
      "èrent": 4286,
      "utilisées": 4287,
      "modifier": 4288,
      "manquements": 4289,
      "multip": 4290,
      "sélection": 4291,
      "confis": 4292,
      "accordées": 4293,
      "constituées": 4294,
      "confiées": 4295,
      "provenant": 4296,
      "limin": 4297,
      "bateau": 4298,
      "cultés": 4299,
      "légale": 4300,
      "seules": 4301,
      "conclus": 4302,
      "bin": 4303,
      "précitée": 4304,
      "double": 4305,
      "conclue": 4306,
      "valablement": 4307,
      "gratu": 4308,
      "73": 4309,
      "répertoire": 4310,
      "encadre": 4311,
      "composée": 4312,
      "écrites": 4313,
      "électriques": 4314,
      "formule": 4315,
      "appareils": 4316,
      "chée": 4317,
      "légales": 4318,
      "monn": 4319,
      "signée": 4320,
      "bour": 4321,
      "pun": 4322,
      "chées": 4323,
      "perception": 4324,
      "prét": 4325,
      "délibé": 4326,
      "méthodes": 4327,
      "difficultés": 4328,
      "objectif": 4329,
      "pacte": 4330,
      "trop": 4331,
      "contient": 4332,
      "soix": 4333,
      "rente": 4334,
      "rupture": 4335,
      "alié": 4336,
      "pièce": 4337,
      "ouvre": 4338,
      "participent": 4339,
      "eure": 4340,
      "familial": 4341,
      "-</": 4342,
      "audition": 4343,
      "ony": 4344,
      "direct": 4345,
      "impact": 4346,
      "équip": 4347,
      "requise": 4348,
      "infrastructures": 4349,
      "chè": 4350,
      "novation": 4351,
      "aménagements": 4352,
      "violation": 4353,
      "longue": 4354,
      "praticiens": 4355,
      "justificatives": 4356,
      "continuité": 4357,
      "issus": 4358,
      "itement": 4359,
      "dernières": 4360,
      "réduit": 4361,
      "éc": 4362,
      "incor": 4363,
      "chez": 4364,
      "vois": 4365,
      "2003": 4366,
      "forestier": 4367,
      "servant": 4368,
      "solvabilité": 4369,
      "favoriser": 4370,
      "vivant": 4371,
      "déclarant": 4372,
      "nécessité": 4373,
      "privil": 4374,
      "portefeuille": 4375,
      "acquérir": 4376,
      "honneur": 4377,
      "souscrip": 4378,
      "démission": 4379,
      "prononcées": 4380,
      "om": 4381,
      "poursuite": 4382,
      "portés": 4383,
      "agréée": 4384,
      "132": 4385,
      "cellu": 4386,
      "encadrement": 4387,
      "énum": 4388,
      "prestataires": 4389,
      "politiques": 4390,
      "complét": 4391,
      "consoli": 4392,
      "sons": 4393,
      "modu": 4394,
      "entrant": 4395,
      "neuf": 4396,
      "antérieure": 4397,
      "chau": 4398,
      "dits": 4399,
      "privée": 4400,
      "délibérant": 4401,
      "enco": 4402,
      "banc": 4403,
      "prévisionnel": 4404,
      "tourisme": 4405,
      "série": 4406,
      "combatt": 4407,
      "modéré": 4408,
      "émo": 4409,
      "primes": 4410,
      "transmettre": 4411,
      "utilisateur": 4412,
      "passé": 4413,
      "localisation": 4414,
      "déclaré": 4415,
      "commerciales": 4416,
      "encore": 4417,
      "ding": 4418,
      "attribués": 4419,
      "collabor": 4420,
      "reste": 4421,
      "décrets": 4422,
      "rapporteur": 4423,
      "soixante": 4424,
      "sce": 4425,
      "jointe": 4426,
      "coup": 4427,
      "dirigeants": 4428,
      "retard": 4429,
      "ore": 4430,
      "classées": 4431,
      "programmation": 4432,
      "cantons": 4433,
      "cs": 4434,
      "détenir": 4435,
      "poursuites": 4436,
      "téléph": 4437,
      "annulation": 4438,
      "exprimés": 4439,
      "anony": 4440,
      "conque": 4441,
      "expres": 4442,
      "initial": 4443,
      "bateaux": 4444,
      "utilisateurs": 4445,
      "manifes": 4446,
      "valorisation": 4447,
      "arb": 4448,
      "priorité": 4449,
      "faciliter": 4450,
      "dévolu": 4451,
      "chirurg": 4452,
      "values": 4453,
      "chirurgi": 4454,
      "°.": 4455,
      "équilibre": 4456,
      "suffrages": 4457,
      "consommateurs": 4458,
      "échanges": 4459,
      "disposer": 4460,
      "routier": 4461,
      "alisés": 4462,
      "remplies": 4463,
      "caution": 4464,
      "barème": 4465,
      "formé": 4466,
      "volontaires": 4467,
      "adhérents": 4468,
      "toral": 4469,
      "qualifications": 4470,
      "amiable": 4471,
      "alter": 4472,
      "marque": 4473,
      "diverses": 4474,
      "approuvé": 4475,
      "permanent": 4476,
      "municipaux": 4477,
      "sap": 4478,
      "acles": 4479,
      "huis": 4480,
      "istance": 4481,
      "communiquées": 4482,
      "mations": 4483,
      "égalité": 4484,
      "annuellement": 4485,
      "96": 4486,
      "°)": 4487,
      "commise": 4488,
      "clients": 4489,
      "ruption": 4490,
      "requérant": 4491,
      "alo": 4492,
      "expresse": 4493,
      "ouvertes": 4494,
      "apporter": 4495,
      "incompati": 4496,
      "réel": 4497,
      "civils": 4498,
      "emprunts": 4499,
      "arrête": 4500,
      "hen": 4501,
      "monnaie": 4502,
      "organisée": 4503,
      "restitution": 4504,
      "avances": 4505,
      "entiel": 4506,
      "mensuelle": 4507,
      "sés": 4508,
      "proche": 4509,
      "privées": 4510,
      "congés": 4511,
      "geant": 4512,
      "intéressée": 4513,
      "fixation": 4514,
      "ventes": 4515,
      "mandats": 4516,
      "quoti": 4517,
      "globale": 4518,
      "émolu": 4519,
      "apparaître": 4520,
      "83": 4521,
      "desquelles": 4522,
      "déroulement": 4523,
      "arri": 4524,
      "desquels": 4525,
      "classés": 4526,
      "femme": 4527,
      "oto": 4528,
      "asses": 4529,
      "restaur": 4530,
      "proportionnelle": 4531,
      "nouveaux": 4532,
      "commande": 4533,
      "archiv": 4534,
      "audiovisuelle": 4535,
      "présentent": 4536,
      "avantage": 4537,
      "pourra": 4538,
      "jeunesse": 4539,
      "dissement": 4540,
      "considération": 4541,
      "expropriation": 4542,
      "selle": 4543,
      "prépa": 4544,
      "figurent": 4545,
      "immobiliers": 4546,
      "accusé": 4547,
      "verbaux": 4548,
      "sceaux": 4549,
      "dématéri": 4550,
      "université": 4551,
      "statuer": 4552,
      "artisanat": 4553,
      "cit": 4554,
      "note": 4555,
      "chargées": 4556,
      "justificatifs": 4557,
      "payer": 4558,
      "expériment": 4559,
      "texte": 4560,
      "puissance": 4561,
      "prévenir": 4562,
      "éman": 4563,
      "”,": 4564,
      "méconnaissance": 4565,
      "recommandations": 4566,
      "commet": 4567,
      "représente": 4568,
      "sensi": 4569,
      "relevé": 4570,
      "biologie": 4571,
      "milli": 4572,
      "occupant": 4573,
      "coopératives": 4574,
      "dessous": 4575,
      "paritaire": 4576,
      "délibère": 4577,
      "clauses": 4578,
      "septi": 4579,
      "dévolues": 4580,
      "démo": 4581,
      "mémo": 4582,
      "situées": 4583,
      "statuant": 4584,
      "ancienneté": 4585,
      "pôle": 4586,
      "interventions": 4587,
      "déclarées": 4588,
      "candidatures": 4589,
      "xion": 4590,
      "repos": 4591,
      "ordinaire": 4592,
      "versé": 4593,
      "appareil": 4594,
      "ressortiss": 4595,
      "52": 4596,
      "cô": 4597,
      "uré": 4598,
      "scientifiques": 4599,
      "rendue": 4600,
      "équivalentes": 4601,
      "immatricu": 4602,
      "diques": 4603,
      "participe": 4604,
      "prescrites": 4605,
      "ili": 4606,
      "outi": 4607,
      "tric": 4608,
      "éventuelles": 4609,
      "protocole": 4610,
      "combattants": 4611,
      "impossibilité": 4612,
      "quand": 4613,
      "très": 4614,
      "matériaux": 4615,
      "indirects": 4616,
      "87": 4617,
      "âgées": 4618,
      "active": 4619,
      "délivre": 4620,
      "adresser": 4621,
      "revê": 4622,
      "disponibilité": 4623,
      "67": 4624,
      "établissant": 4625,
      "nouvel": 4626,
      "munitions": 4627,
      "superfici": 4628,
      "kilo": 4629,
      "infirm": 4630,
      "arc": 4631,
      "conclure": 4632,
      "sinis": 4633,
      "génie": 4634,
      "alimentaires": 4635,
      "souhaite": 4636,
      "gér": 4637,
      "concernent": 4638,
      "assisté": 4639,
      "chose": 4640,
      "57": 4641,
      "compag": 4642,
      "consulté": 4643,
      "annexé": 4644,
      "redres": 4645,
      "quante": 4646,
      "saisit": 4647,
      "constater": 4648,
      "simultanément": 4649,
      "ressortissants": 4650,
      "envelop": 4651,
      "source": 4652,
      "liaison": 4653,
      "chemin": 4654,
      "électrique": 4655,
      "embar": 4656,
      "marins": 4657,
      "seuils": 4658,
      "soires": 4659,
      "clos": 4660,
      "indépendant": 4661,
      "cédant": 4662,
      "médicales": 4663,
      "infrastructure": 4664,
      "effectifs": 4665,
      "vérifications": 4666,
      "énoncées": 4667,
      "marine": 4668,
      "écou": 4669,
      "portu": 4670,
      "2002": 4671,
      "constituant": 4672,
      "envisagée": 4673,
      "trimestre": 4674,
      "223": 4675,
      "pédagogique": 4676,
      "commercialisation": 4677,
      "/></": 4678,
      "essais": 4679,
      "accessoires": 4680,
      "vées": 4681,
      "remettre": 4682,
      "conception": 4683,
      "auxili": 4684,
      "conversion": 4685,
      "mot": 4686,
      "déclarée": 4687,
      "exportation": 4688,
      "ray": 4689,
      "liquidateur": 4690,
      "histori": 4691,
      "détient": 4692,
      "fichi": 4693,
      "avait": 4694,
      "fichiers": 4695,
      "limit": 4696,
      "cont": 4697,
      "associées": 4698,
      "diversité": 4699,
      "confidentialité": 4700,
      "énumérés": 4701,
      "mettant": 4702,
      "universitaire": 4703,
      "silence": 4704,
      "simpli": 4705,
      "cus": 4706,
      "correction": 4707,
      "justificatif": 4708,
      "subordonné": 4709,
      "inés": 4710,
      "provo": 4711,
      "redressement": 4712,
      "analyses": 4713,
      "conserver": 4714,
      "contradic": 4715,
      "conç": 4716,
      "personnelle": 4717,
      "exécuter": 4718,
      "identifier": 4719,
      "dommage": 4720,
      "dég": 4721,
      "filiales": 4722,
      "confiscation": 4723,
      "fai": 4724,
      "onére": 4725,
      "annon": 4726,
      "assign": 4727,
      "traité": 4728,
      "ids": 4729,
      "dites": 4730,
      "respecte": 4731,
      "hydro": 4732,
      "obligatoirement": 4733,
      "fraude": 4734,
      "cinquante": 4735,
      "viii": 4736,
      "employés": 4737,
      "papier": 4738,
      "autant": 4739,
      "isations": 4740,
      "pore": 4741,
      "pertes": 4742,
      "carb": 4743,
      "accomplir": 4744,
      "supprimé": 4745,
      "poids": 4746,
      "soumettre": 4747,
      "pénalité": 4748,
      "constatées": 4749,
      "quantités": 4750,
      "jonction": 4751,
      "56": 4752,
      "préle": 4753,
      "explic": 4754,
      "défail": 4755,
      "passage": 4756,
      "ry": 4757,
      "interruption": 4758,
      "matisé": 4759,
      "substanti": 4760,
      "maîtres": 4761,
      "pul": 4762,
      "emprunteur": 4763,
      "étrangère": 4764,
      "commandant": 4765,
      "délits": 4766,
      "publiée": 4767,
      "prud": 4768,
      "proro": 4769,
      "choisis": 4770,
      "mées": 4771,
      "préfecture": 4772,
      "fédérations": 4773,
      "réuni": 4774,
      "contribuer": 4775,
      "ministériel": 4776,
      "appliquer": 4777,
      "manifestation": 4778,
      "bassin": 4779,
      "onéreux": 4780,
      "mains": 4781,
      "retenues": 4782,
      "mutuelles": 4783,
      "uniquement": 4784,
      "maternité": 4785,
      "recrutement": 4786,
      "84": 4787,
      "secon": 4788,
      "pondér": 4789,
      "dépasser": 4790,
      "ône": 4791,
      "ench": 4792,
      "créer": 4793,
      "photo": 4794,
      "astreinte": 4795,
      "épou": 4796,
      "dissolution": 4797,
      "jouissance": 4798,
      "choisi": 4799,
      "accessibilité": 4800,
      "nie": 4801,
      "extra": 4802,
      "sément": 4803,
      "communal": 4804,
      "exceptionnel": 4805,
      "chim": 4806,
      "engins": 4807,
      "217": 4808,
      "accéder": 4809,
      "communiqué": 4810,
      "expressément": 4811,
      "raccor": 4812,
      "forestière": 4813,
      "comprise": 4814,
      "gnes": 4815,
      "empla": 4816,
      "perçues": 4817,
      "terror": 4818,
      "insuffisance": 4819,
      "opposer": 4820,
      "animée": 4821,
      "partenaire": 4822,
      "aérien": 4823,
      "adjoints": 4824,
      "prévis": 4825,
      "fixent": 4826,
      "meubles": 4827,
      "engagées": 4828,
      "enquêtes": 4829,
      "spectacles": 4830,
      "mort": 4831,
      "quées": 4832,
      "trimes": 4833,
      "décé": 4834,
      "navig": 4835,
      "équivalente": 4836,
      "individuellement": 4837,
      "infirmier": 4838,
      "dispen": 4839,
      "dette": 4840,
      "passagers": 4841,
      "rétab": 4842,
      "syndicats": 4843,
      "mandataires": 4844,
      "versés": 4845,
      "effic": 4846,
      "pê": 4847,
      "scolar": 4848,
      "visa": 4849,
      "brut": 4850,
      "culturel": 4851,
      "intégrité": 4852,
      "organiser": 4853,
      "territoriaux": 4854,
      "prenant": 4855,
      "solidaire": 4856,
      "inspecteur": 4857,
      "reconnue": 4858,
      "gra": 4859,
      "dons": 4860,
      "excédant": 4861,
      "passe": 4862,
      "adressées": 4863,
      "apprécier": 4864,
      "dive": 4865,
      "composant": 4866,
      "décrit": 4867,
      "endants": 4868,
      "stratégie": 4869,
      "gérer": 4870,
      "contraires": 4871,
      "calend": 4872,
      "correspondants": 4873,
      "hôpit": 4874,
      "éviter": 4875,
      "préemp": 4876,
      "2001": 4877,
      "réduire": 4878,
      "fournies": 4879,
      "faces": 4880,
      "amortissement": 4881,
      "hygi": 4882,
      "postérieurement": 4883,
      "restitu": 4884,
      "contestation": 4885,
      "trales": 4886,
      "modifiant": 4887,
      "contradictoire": 4888,
      "intéressant": 4889,
      "syndicale": 4890,
      "bulletins": 4891,
      "coordonnateur": 4892,
      "prépondér": 4893,
      "porteurs": 4894,
      "engager": 4895,
      "inclus": 4896,
      "fermet": 4897,
      "vérifie": 4898,
      "croissance": 4899,
      "foyer": 4900,
      "dire": 4901,
      "assemblées": 4902,
      "observation": 4903,
      "formulaire": 4904,
      "honoraires": 4905,
      "suspendu": 4906,
      "aille": 4907,
      "servitudes": 4908,
      "archives": 4909,
      "gens": 4910,
      "ert": 4911,
      "indicateurs": 4912,
      "conciliation": 4913,
      "époux": 4914,
      "préemption": 4915,
      "renfor": 4916,
      "joindre": 4917,
      "proposé": 4918,
      "222": 4919,
      "coopérative": 4920,
      "citoy": 4921,
      "113": 4922,
      "entraîner": 4923,
      "conven": 4924,
      "moselle": 4925,
      "vendeur": 4926,
      "accomplis": 4927,
      "ecole": 4928,
      "rédit": 4929,
      "légalement": 4930,
      "recevabilité": 4931,
      "1978": 4932,
      "modifiée": 4933,
      "inscrite": 4934,
      "voyag": 4935,
      "blan": 4936,
      "dirig": 4937,
      "verser": 4938,
      "fermeture": 4939,
      "disposant": 4940,
      "tax": 4941,
      "psychi": 4942,
      "coordonnées": 4943,
      "pompiers": 4944,
      "licenciement": 4945,
      "63": 4946,
      "routière": 4947,
      "envisage": 4948,
      "isées": 4949,
      "capitaux": 4950,
      "mobile": 4951,
      "qualifiée": 4952,
      "compro": 4953,
      "criminelle": 4954,
      "significa": 4955,
      "dr": 4956,
      "mal": 4957,
      "nord": 4958,
      "refuser": 4959,
      "étendue": 4960,
      "héri": 4961,
      "obtenus": 4962,
      "premières": 4963,
      "affectées": 4964,
      "entendu": 4965,
      "transfér": 4966,
      "suppression": 4967,
      "instructions": 4968,
      "cadres": 4969,
      "recueilli": 4970,
      "glom": 4971,
      "69": 4972,
      "ox": 4973,
      "détenu": 4974,
      "gardé": 4975,
      "accorder": 4976,
      ").</": 4977,
      "54": 4978,
      "élab": 4979,
      "périodique": 4980,
      "appelé": 4981,
      "tradu": 4982,
      "intermédiaires": 4983,
      "dispensés": 4984,
      "vacance": 4985,
      "augmentation": 4986,
      "aler": 4987,
      "ther": 4988,
      "légaux": 4989,
      "correc": 4990,
      "contrepartie": 4991,
      "majeur": 4992,
      "hygiène": 4993,
      "reçues": 4994,
      "sursis": 4995,
      "successi": 4996,
      "voyage": 4997,
      "approvision": 4998,
      "vidé": 4999,
      "adaptée": 5000,
      "maison": 5001,
      "négociations": 5002,
      "cinématographique": 5003,
      "figurer": 5004,
      "répond": 5005,
      "110": 5006,
      "carbon": 5007,
      "rendues": 5008,
      "animal": 5009,
      "niveaux": 5010,
      "interrégional": 5011,
      "plateforme": 5012,
      "grande": 5013,
      "cf": 5014,
      "entique": 5015,
      "libération": 5016,
      "traitant": 5017,
      "aphie": 5018,
      "combus": 5019,
      "ata": 5020,
      "salaires": 5021,
      "contrôlée": 5022,
      "quelconque": 5023,
      "assorti": 5024,
      "majeurs": 5025,
      "mairie": 5026,
      "électorales": 5027,
      "régularisation": 5028,
      "parentale": 5029,
      "aérodrome": 5030,
      "semaines": 5031,
      "électorale": 5032,
      "cipe": 5033,
      "ix": 5034,
      "sexe": 5035,
      "acteurs": 5036,
      "vig": 5037,
      "transmettent": 5038,
      "ize": 5039,
      "empê": 5040,
      "encourent": 5041,
      "punie": 5042,
      "rang": 5043,
      "déri": 5044,
      "ltes": 5045,
      "classes": 5046,
      "assortie": 5047,
      "génétique": 5048,
      "argent": 5049,
      "etab": 5050,
      "créé": 5051,
      "préfets": 5052,
      "engagée": 5053,
      "remplissent": 5054,
      "dépositaire": 5055,
      "restauration": 5056,
      "seconde": 5057,
      "aéronefs": 5058,
      "déposé": 5059,
      "entrepreneur": 5060,
      ";</": 5061,
      "répartis": 5062,
      "hospitaliers": 5063,
      "rant": 5064,
      "estiers": 5065,
      "devient": 5066,
      "forestiers": 5067,
      "préciser": 5068,
      "partag": 5069,
      "tivité": 5070,
      "reconnues": 5071,
      "ingénie": 5072,
      "asserment": 5073,
      "ordres": 5074,
      "saisis": 5075,
      "rattachement": 5076,
      "accrédit": 5077,
      "automatisé": 5078,
      "statué": 5079,
      "remet": 5080,
      "dénon": 5081,
      "impositions": 5082,
      "raccordement": 5083,
      "43": 5084,
      "89": 5085,
      "sci": 5086,
      "usu": 5087,
      "final": 5088,
      "apports": 5089,
      "raisonn": 5090,
      "retirer": 5091,
      "group": 5092,
      "mariage": 5093,
      "pont": 5094,
      "déont": 5095,
      "acité": 5096,
      "principe": 5097,
      "éventuelle": 5098,
      "embal": 5099,
      "garantissant": 5100,
      "suspendre": 5101,
      "meil": 5102,
      "constatés": 5103,
      "améliorer": 5104,
      "vigil": 5105,
      "sols": 5106,
      "limiter": 5107,
      "160": 5108,
      "sportifs": 5109,
      "conserve": 5110,
      "pollution": 5111,
      "adju": 5112,
      "demandeurs": 5113,
      "plafonds": 5114,
      "minimal": 5115,
      "recev": 5116,
      "incorpor": 5117,
      "considérées": 5118,
      "événement": 5119,
      "ger": 5120,
      "tarification": 5121,
      "disciplinaires": 5122,
      "succur": 5123,
      "pourvoir": 5124,
      "lique": 5125,
      "représentés": 5126,
      "appelés": 5127,
      "familiale": 5128,
      "modes": 5129,
      "internationaux": 5130,
      "correspondantes": 5131,
      "assistant": 5132,
      "anom": 5133,
      "contrôleur": 5134,
      "graves": 5135,
      "anomali": 5136,
      "retenu": 5137,
      "acquises": 5138,
      "dépasse": 5139,
      "dépassement": 5140,
      "abat": 5141,
      "stes": 5142,
      "possession": 5143,
      "exploitations": 5144,
      "dossiers": 5145,
      "bdom": 5146,
      "foi": 5147,
      "isent": 5148,
      "aura": 5149,
      "chanti": 5150,
      "primaire": 5151,
      "hebdom": 5152,
      "hebdomad": 5153,
      "ute": 5154,
      "communs": 5155,
      "74": 5156,
      "gérant": 5157,
      "industriel": 5158,
      "rubri": 5159,
      "acquisitions": 5160,
      "spec": 5161,
      "efficacité": 5162,
      "parcelles": 5163,
      "surfaces": 5164,
      "édit": 5165,
      "accréditation": 5166,
      "agences": 5167,
      "imposées": 5168,
      "origin": 5169,
      "armée": 5170,
      "utilisant": 5171,
      "perçus": 5172,
      "émettre": 5173,
      "sif": 5174,
      "débat": 5175,
      "communiqués": 5176,
      "ferroviaire": 5177,
      "renseignement": 5178,
      "gravité": 5179,
      "excl": 5180,
      "concessionnaire": 5181,
      "communautaire": 5182,
      "prénom": 5183,
      "marqu": 5184,
      "gui": 5185,
      "normale": 5186,
      "hypothè": 5187,
      "déclarer": 5188,
      "bénéficié": 5189,
      "exploiter": 5190,
      "facture": 5191,
      "sud": 5192,
      "instituée": 5193,
      "reconnus": 5194,
      "récu": 5195,
      "extr": 5196,
      "définitivement": 5197,
      "réglementé": 5198,
      "sification": 5199,
      "statutaires": 5200,
      "fournisseurs": 5201,
      "essai": 5202,
      "récidive": 5203,
      "€.": 5204,
      "cessionnaire": 5205,
      "détachement": 5206,
      "superficie": 5207,
      "carbone": 5208,
      "encla": 5209,
      "organise": 5210,
      "permanence": 5211,
      "perçue": 5212,
      "recourir": 5213,
      ">-": 5214,
      "consac": 5215,
      "locataires": 5216,
      "située": 5217,
      "immobilière": 5218,
      "usages": 5219,
      "contractuels": 5220,
      "correspondance": 5221,
      "mentionnant": 5222,
      "électeur": 5223,
      "réduite": 5224,
      "remplissant": 5225,
      "acquise": 5226,
      "aménag": 5227,
      "commettre": 5228,
      "vidéo": 5229,
      "reçus": 5230,
      "bonnes": 5231,
      "ament": 5232,
      "oni": 5233,
      "antarc": 5234,
      "mutation": 5235,
      "apprécie": 5236,
      "exclusif": 5237,
      "entendre": 5238,
      "ueille": 5239,
      "serait": 5240,
      "finalité": 5241,
      "élevé": 5242,
      "signal": 5243,
      "spécialisée": 5244,
      "architecture": 5245,
      "peti": 5246,
      "value": 5247,
      "distributeur": 5248,
      "bâties": 5249,
      "réputés": 5250,
      "sions": 5251,
      "spécialisé": 5252,
      "nucléaires": 5253,
      "indépendants": 5254,
      "démon": 5255,
      "manifestations": 5256,
      "cra": 5257,
      "internationales": 5258,
      "tabac": 5259,
      "vigilance": 5260,
      "simi": 5261,
      "éclai": 5262,
      "arrivée": 5263,
      "présentés": 5264,
      "formée": 5265,
      "condamnée": 5266,
      "régulière": 5267,
      "division": 5268,
      "ulture": 5269,
      "indiquer": 5270,
      "isée": 5271,
      "posables": 5272,
      "méthode": 5273,
      "délibérer": 5274,
      "événements": 5275,
      "exter": 5276,
      "justifié": 5277,
      "sujet": 5278,
      "états": 5279,
      "issues": 5280,
      "simplifi": 5281,
      "/><": 5282,
      "retenus": 5283,
      "poursuivre": 5284,
      "alisées": 5285,
      "constitués": 5286,
      "adhérent": 5287,
      "trésor": 5288,
      "incidence": 5289,
      "transférés": 5290,
      "arché": 5291,
      "chron": 5292,
      "agglom": 5293,
      "débats": 5294,
      "51": 5295,
      "flot": 5296,
      "nér": 5297,
      "fia": 5298,
      "entendent": 5299,
      "infirmiers": 5300,
      "fluvi": 5301,
      "cuni": 5302,
      "commerciaux": 5303,
      "consulter": 5304,
      "chauff": 5305,
      "huissier": 5306,
      "adu": 5307,
      "lages": 5308,
      "avancement": 5309,
      "majorations": 5310,
      "spécialisés": 5311,
      "stipulations": 5312,
      "gs": 5313,
      "horaire": 5314,
      "subi": 5315,
      "exécutoires": 5316,
      "australes": 5317,
      "nale": 5318,
      "addition": 5319,
      "oient": 5320,
      "majoré": 5321,
      "scolaires": 5322,
      "aéronef": 5323,
      "marin": 5324,
      "informée": 5325,
      "registres": 5326,
      "pharmaceutique": 5327,
      "mélan": 5328,
      "anticip": 5329,
      "conduit": 5330,
      "assises": 5331,
      "utés": 5332,
      "notice": 5333,
      "pécuni": 5334,
      "signe": 5335,
      "sapeurs": 5336,
      "lignes": 5337,
      "urgie": 5338,
      "érarch": 5339,
      "hiérarch": 5340,
      "dispense": 5341,
      "consultatif": 5342,
      "confier": 5343,
      "atteindre": 5344,
      "défic": 5345,
      "transactions": 5346,
      "reçoivent": 5347,
      "demeur": 5348,
      "prévoient": 5349,
      "format": 5350,
      "excédent": 5351,
      "proposées": 5352,
      "euro": 5353,
      "étudiant": 5354,
      "solliciter": 5355,
      "appropriées": 5356,
      "rhône": 5357,
      "érée": 5358,
      "report": 5359,
      "atten": 5360,
      "front": 5361,
      "avise": 5362,
      "notaire": 5363,
      "comprendre": 5364,
      "thérapeutique": 5365,
      "stric": 5366,
      "matis": 5367,
      "individuels": 5368,
      "déposer": 5369,
      "interdite": 5370,
      "admises": 5371,
      "exigées": 5372,
      "alimentaire": 5373,
      "immobilisation": 5374,
      "conjointe": 5375,
      "pourvoi": 5376,
      "seulement": 5377,
      "animale": 5378,
      "bilités": 5379,
      "combat": 5380,
      "écolog": 5381,
      "cine": 5382,
      "rétention": 5383,
      "antarctiques": 5384,
      "recr": 5385,
      "nière": 5386,
      "accessible": 5387,
      "péti": 5388,
      "majeure": 5389,
      "enfance": 5390,
      "lésion": 5391,
      "amb": 5392,
      "tâ": 5393,
      "pluridisciplinaire": 5394,
      "homologation": 5395,
      "mouvements": 5396,
      "be": 5397,
      "inclu": 5398,
      "environnemental": 5399,
      "2e": 5400,
      "sort": 5401,
      "orum": 5402,
      "aérienne": 5403,
      "quorum": 5404,
      "exposés": 5405,
      "désir": 5406,
      "collectives": 5407,
      "atteintes": 5408,
      "93": 5409,
      "transaction": 5410,
      "accordés": 5411,
      "71": 5412,
      "prog": 5413,
      "quies": 5414,
      "adapté": 5415,
      "immédiate": 5416,
      "abattement": 5417,
      "arrondissement": 5418,
      "préservation": 5419,
      "trouv": 5420,
      "sive": 5421,
      "rectifi": 5422,
      "fruit": 5423,
      "déclarés": 5424,
      "industriels": 5425,
      "qualifié": 5426,
      "consultations": 5427,
      "substance": 5428,
      "déposées": 5429,
      "procur": 5430,
      "prêteur": 5431,
      "électoral": 5432,
      "tar": 5433,
      "remises": 5434,
      "interdictions": 5435,
      "accompli": 5436,
      "monu": 5437,
      "conditionnement": 5438,
      "évaluer": 5439,
      "numériques": 5440,
      "nations": 5441,
      "legs": 5442,
      "fiche": 5443,
      "norme": 5444,
      "enregistrées": 5445,
      "contact": 5446,
      "ef": 5447,
      "précisent": 5448,
      "participants": 5449,
      "incident": 5450,
      "dangereux": 5451,
      "mémoire": 5452,
      "ase": 5453,
      "conservés": 5454,
      "déclare": 5455,
      "progres": 5456,
      "92": 5457,
      "denrées": 5458,
      "91": 5459,
      "voit": 5460,
      "dépense": 5461,
      "légiti": 5462,
      "borde": 5463,
      "homologu": 5464,
      "dégr": 5465,
      "avocats": 5466,
      "tac": 5467,
      "imposable": 5468,
      "mètre": 5469,
      "collect": 5470,
      "substitution": 5471,
      "64": 5472,
      "succession": 5473,
      "dettes": 5474,
      "pharmaceutiques": 5475,
      "échantillons": 5476,
      "pad": 5477,
      "déché": 5478,
      "nonobst": 5479,
      "personnalisée": 5480,
      "investig": 5481,
      "trimoni": 5482,
      "devenue": 5483,
      "nonobstant": 5484,
      "aban": 5485,
      "compéti": 5486,
      "spécialités": 5487,
      "conservées": 5488,
      "maintenir": 5489,
      "spéciaux": 5490,
      "consécutifs": 5491,
      "prétendre": 5492,
      "bancaire": 5493,
      "adaptées": 5494,
      "handicapés": 5495,
      "canton": 5496,
      "compagnie": 5497,
      "restri": 5498,
      "organisé": 5499,
      "biologique": 5500,
      "chirurgie": 5501,
      "path": 5502,
      "imposer": 5503,
      "ification": 5504,
      "répondent": 5505,
      "affiliation": 5506,
      "habilitées": 5507,
      "réclamation": 5508,
      "ace": 5509,
      "directes": 5510,
      "refuse": 5511,
      "transferts": 5512,
      "privilè": 5513,
      "souscripteur": 5514,
      "rôle": 5515,
      "vin": 5516,
      "biologiques": 5517,
      "paiements": 5518,
      "documentation": 5519,
      "61": 5520,
      "placements": 5521,
      "éventuels": 5522,
      "informent": 5523,
      "âgé": 5524,
      "dimen": 5525,
      "préavis": 5526,
      "comportement": 5527,
      "intégralité": 5528,
      "espèce": 5529,
      "signification": 5530,
      "sangu": 5531,
      "calendrier": 5532,
      "nan": 5533,
      "dotations": 5534,
      "transpar": 5535,
      "attente": 5536,
      "défaill": 5537,
      "lots": 5538,
      "cultures": 5539,
      "demment": 5540,
      "indépendance": 5541,
      "partenaires": 5542,
      "écart": 5543,
      "ici": 5544,
      "organisées": 5545,
      "utilisée": 5546,
      "soumet": 5547,
      "nomencla": 5548,
      "oxy": 5549,
      "sources": 5550,
      "plé": 5551,
      "transit": 5552,
      "conservatoire": 5553,
      "photogr": 5554,
      "ènes": 5555,
      "concourant": 5556,
      "délivrées": 5557,
      "adjudic": 5558,
      "sem": 5559,
      "dicité": 5560,
      "estimation": 5561,
      "abilités": 5562,
      "statistiques": 5563,
      "millions": 5564,
      "62": 5565,
      "finance": 5566,
      "trice": 5567,
      "principales": 5568,
      "hérap": 5569,
      "spécialisées": 5570,
      "aérodromes": 5571,
      "potentiel": 5572,
      "seine": 5573,
      "variable": 5574,
      "voyageurs": 5575,
      "réels": 5576,
      "%,": 5577,
      "redevables": 5578,
      "boissons": 5579,
      "388": 5580,
      "cédés": 5581,
      "otage": 5582,
      "accessibles": 5583,
      "complété": 5584,
      "discrimin": 5585,
      "pluriannuel": 5586,
      "prorata": 5587,
      "immobilisations": 5588,
      "internes": 5589,
      "226": 5590,
      "conjoints": 5591,
      "gen": 5592,
      "laboratoires": 5593,
      "mag": 5594,
      "ssement": 5595,
      "évolu": 5596,
      "exiger": 5597,
      "mobiles": 5598,
      "échelle": 5599,
      "mensuel": 5600,
      "portuaire": 5601,
      "cles": 5602,
      "zième": 5603,
      "montagne": 5604,
      "renvoi": 5605,
      "constatant": 5606,
      "recueillir": 5607,
      "autonome": 5608,
      "cheurs": 5609,
      "terre": 5610,
      "conflit": 5611,
      "formalité": 5612,
      "locatifs": 5613,
      "attachés": 5614,
      "consécutives": 5615,
      "spéciales": 5616,
      "respectives": 5617,
      "cell": 5618,
      "81": 5619,
      "érer": 5620,
      "révo": 5621,
      "municipale": 5622,
      "prépondérante": 5623,
      "édic": 5624,
      "annuelles": 5625,
      "compatibles": 5626,
      "contrôler": 5627,
      "siéger": 5628,
      "précédemment": 5629,
      "médiateur": 5630,
      "automatique": 5631,
      "cab": 5632,
      "indivis": 5633,
      "disponible": 5634,
      "bue": 5635,
      "desc": 5636,
      "contribue": 5637,
      "commandement": 5638,
      "sages": 5639,
      "trac": 5640,
      "concu": 5641,
      "résistance": 5642,
      "apportées": 5643,
      "effectuent": 5644,
      "éducative": 5645,
      "mobilières": 5646,
      "bases": 5647,
      "quotidi": 5648,
      "élimin": 5649,
      "injonction": 5650,
      "librement": 5651,
      "assesseurs": 5652,
      "reproduction": 5653,
      "padding": 5654,
      "cellpadding": 5655,
      "kinés": 5656,
      "migr": 5657,
      "crime": 5658,
      "diffus": 5659,
      "inspecteurs": 5660,
      "inscriptions": 5661,
      "informés": 5662,
      "conformer": 5663,
      "habituelle": 5664,
      "habituellement": 5665,
      "exigence": 5666,
      "biodiversité": 5667,
      "stagiaire": 5668,
      "encais": 5669,
      "important": 5670,
      "confiée": 5671,
      "pac": 5672,
      "érées": 5673,
      "etc": 5674,
      "verse": 5675,
      "déplacements": 5676,
      "hebdomadaire": 5677,
      "300": 5678,
      "sc": 5679,
      "limité": 5680,
      "maisons": 5681,
      "dérogations": 5682,
      "82": 5683,
      "viv": 5684,
      "mines": 5685,
      "tissant": 5686,
      "alisations": 5687,
      "renonciation": 5688,
      "prolongation": 5689,
      "ithérap": 5690,
      "personnelles": 5691,
      "prévisions": 5692,
      "urbaine": 5693,
      "journalière": 5694,
      "litige": 5695,
      "terrorisme": 5696,
      "kinésithérap": 5697,
      "fondée": 5698,
      "emporte": 5699,
      "adopté": 5700,
      "auraient": 5701,
      "habilitée": 5702,
      "arbit": 5703,
      "approprié": 5704,
      "décou": 5705,
      "exceptionnelles": 5706,
      "sifs": 5707,
      "perce": 5708,
      "tuteur": 5709,
      "jugée": 5710,
      "livret": 5711,
      "arrêtée": 5712,
      "marchandise": 5713,
      "compos": 5714,
      "rayon": 5715,
      "réunies": 5716,
      "5e": 5717,
      "750": 5718,
      "périodicité": 5719,
      "perçu": 5720,
      "destinataires": 5721,
      "salariée": 5722,
      "septième": 5723,
      "approvisionnement": 5724,
      "cohésion": 5725,
      "comprises": 5726,
      "servir": 5727,
      "référentiel": 5728,
      "payeur": 5729,
      "contractant": 5730,
      "grands": 5731,
      "comple": 5732,
      "perfor": 5733,
      "rectification": 5734,
      "instrument": 5735,
      "appartiennent": 5736,
      "couvrir": 5737,
      "proces": 5738,
      "licite": 5739,
      "avenant": 5740,
      "cliniques": 5741,
      "chèque": 5742,
      "gies": 5743,
      "profes": 5744,
      "engagés": 5745,
      "universitaires": 5746,
      "envisagées": 5747,
      "provenance": 5748,
      "avention": 5749,
      "contravention": 5750,
      "constitutive": 5751,
      "monuments": 5752,
      "soire": 5753,
      "organisatrice": 5754,
      "renouvelables": 5755,
      "aliénation": 5756,
      "processus": 5757,
      "réclamations": 5758,
      "statistique": 5759,
      "émises": 5760,
      "vise": 5761,
      "examine": 5762,
      "manifestement": 5763,
      "substantielle": 5764,
      "âgés": 5765,
      "régularité": 5766,
      "grosses": 5767,
      "nage": 5768,
      "recueille": 5769,
      "définir": 5770,
      "confié": 5771,
      "réquisitions": 5772,
      "connexion": 5773,
      "tâches": 5774,
      "invo": 5775,
      "copi": 5776,
      "quiert": 5777,
      "mies": 5778,
      "ouvrables": 5779,
      "prévenu": 5780,
      "gam": 5781,
      "temporaires": 5782,
      "assignation": 5783,
      "raisonnable": 5784,
      "pilo": 5785,
      "naturelle": 5786,
      "signataire": 5787,
      "payés": 5788,
      "apporte": 5789,
      "universités": 5790,
      "coles": 5791,
      "réprim": 5792,
      "déterminent": 5793,
      "affections": 5794,
      "quinquies": 5795,
      "préfectoral": 5796,
      "contraintes": 5797,
      "affectée": 5798,
      "voirie": 5799,
      "signific": 5800,
      "filiale": 5801,
      "essentielles": 5802,
      "significative": 5803,
      "atrie": 5804,
      "attrib": 5805,
      "venti": 5806,
      "passation": 5807,
      "existants": 5808,
      "veiller": 5809,
      "apprentis": 5810,
      "nomenclature": 5811,
      "couverts": 5812,
      "semaine": 5813,
      "livres": 5814,
      "recueillies": 5815,
      "défavor": 5816,
      "amendes": 5817,
      "synthèse": 5818,
      "trafic": 5819,
      "entraînant": 5820,
      "enchères": 5821,
      "combusti": 5822,
      "pétition": 5823,
      "1986": 5824,
      "survivant": 5825,
      "juges": 5826,
      "pénalités": 5827,
      "stagiaires": 5828,
      "mage": 5829,
      "fonctionnelle": 5830,
      "logici": 5831,
      "horaires": 5832,
      "dénommé": 5833,
      "réhabilitation": 5834,
      "absol": 5835,
      "agricul": 5836,
      "absolue": 5837,
      "dop": 5838,
      "commen": 5839,
      "respectent": 5840,
      "communiquent": 5841,
      "théori": 5842,
      "déchéance": 5843,
      "recen": 5844,
      "commence": 5845,
      "corpore": 5846,
      "machine": 5847,
      "hôpitaux": 5848,
      "ête": 5849,
      "indiqué": 5850,
      "affiliés": 5851,
      "supports": 5852,
      "scel": 5853,
      "concentr": 5854,
      "irrecevabilité": 5855,
      "formulée": 5856,
      "protégée": 5857,
      "faible": 5858,
      "fidu": 5859,
      "capitaine": 5860,
      "adaptés": 5861,
      "articu": 5862,
      "130": 5863,
      "valable": 5864,
      ":<": 5865,
      "descrip": 5866,
      "dédi": 5867,
      "proposés": 5868,
      "toujours": 5869,
      "témo": 5870,
      "titudes": 5871,
      "opérationnelle": 5872,
      "passée": 5873,
      "viol": 5874,
      "120": 5875,
      "nier": 5876,
      "227": 5877,
      "etablissement": 5878,
      "agir": 5879,
      "logie": 5880,
      "principaux": 5881,
      "intervenue": 5882,
      "artifi": 5883,
      "confé": 5884,
      "télés": 5885,
      "désaccord": 5886,
      "saison": 5887,
      "68": 5888,
      "produites": 5889,
      "phase": 5890,
      "nécessités": 5891,
      "modifiés": 5892,
      "factures": 5893,
      "aquac": 5894,
      "numéros": 5895,
      "retra": 5896,
      "journée": 5897,
      "supérieures": 5898,
      "change": 5899,
      "ouil": 5900,
      "marge": 5901,
      "présidée": 5902,
      "jeu": 5903,
      "mant": 5904,
      "oles": 5905,
      "formul": 5906,
      "autorise": 5907,
      "correspondante": 5908,
      "incombe": 5909,
      "campagne": 5910,
      "charte": 5911,
      "exigible": 5912,
      "couple": 5913,
      "jeune": 5914,
      "pluriannuelle": 5915,
      "couvert": 5916,
      "minor": 5917,
      "délégataire": 5918,
      "ouvrent": 5919,
      "confiance": 5920,
      "résidant": 5921,
      "copies": 5922,
      "94": 5923,
      "indispens": 5924,
      "expression": 5925,
      "placée": 5926,
      "exigée": 5927,
      "univer": 5928,
      "appropriée": 5929,
      "dressé": 5930,
      "métropolitain": 5931,
      "historiques": 5932,
      "vages": 5933,
      "remor": 5934,
      "seize": 5935,
      "cesser": 5936,
      "créée": 5937,
      "justifications": 5938,
      "responsabilités": 5939,
      "aquaculture": 5940,
      "produite": 5941,
      "salles": 5942,
      "émetteur": 5943,
      "prolong": 5944,
      "poss": 5945,
      "réalise": 5946,
      "communiquée": 5947,
      "détenteurs": 5948,
      "indu": 5949,
      "présid": 5950,
      "passer": 5951,
      "ainte": 5952,
      "lspac": 5953,
      "communaux": 5954,
      "formuler": 5955,
      "cellspac": 5956,
      "souscrits": 5957,
      "cellules": 5958,
      "cellspacing": 5959,
      "exac": 5960,
      "suffisante": 5961,
      "indépendamment": 5962,
      "exigé": 5963,
      "assermentés": 5964,
      "dopage": 5965,
      "identifiés": 5966,
      "pénitentiaires": 5967,
      "législative": 5968,
      "dirigeant": 5969,
      "publiés": 5970,
      "classé": 5971,
      "pénales": 5972,
      "machines": 5973,
      "auxiliaires": 5974,
      "lauré": 5975,
      "exclu": 5976,
      "trices": 5977,
      "ordonne": 5978,
      "meub": 5979,
      "retiré": 5980,
      "préparations": 5981,
      "téléphon": 5982,
      "chimiques": 5983,
      "organique": 5984,
      "compatibilité": 5985,
      "détiennent": 5986,
      "autorisant": 5987,
      "manipu": 5988,
      "abrogeant": 5989,
      "répar": 5990,
      "abon": 5991,
      "places": 5992,
      "distributeurs": 5993,
      "pil": 5994,
      "ètes": 5995,
      "istes": 5996,
      "serre": 5997,
      "créées": 5998,
      "correspondent": 5999,
      "dématérialisée": 6000,
      "tières": 6001,
      "domes": 6002,
      "signer": 6003,
      "officine": 6004,
      "normal": 6005,
      "strictement": 6006,
      "3e": 6007,
      "py": 6008,
      "pir": 6009,
      "liers": 6010,
      "détru": 6011,
      "dispar": 6012,
      "expédition": 6013,
      "gratuitement": 6014,
      "recevable": 6015,
      "votes": 6016,
      "invali": 6017,
      "contribuables": 6018,
      "lucra": 6019,
      "procédés": 6020,
      "ordonnée": 6021,
      "entraînement": 6022,
      "loisir": 6023,
      "assistants": 6024,
      "clinique": 6025,
      "oport": 6026,
      "lutions": 6027,
      "prescrire": 6028,
      "infec": 6029,
      "accessoire": 6030,
      "préfér": 6031,
      "franch": 6032,
      "médiation": 6033,
      "conséquence": 6034,
      "thérapeutiques": 6035,
      "technicien": 6036,
      "intégralement": 6037,
      "technologique": 6038,
      "vins": 6039,
      "regroup": 6040,
      "teste": 6041,
      "juridiques": 6042,
      "tir": 6043,
      "ensuite": 6044,
      "avan": 6045,
      "actives": 6046,
      "grammes": 6047,
      "communautés": 6048,
      "aéroport": 6049,
      "étiquet": 6050,
      "tur": 6051,
      "notifiées": 6052,
      "exclusive": 6053,
      "extérieures": 6054,
      "chantier": 6055,
      "concubin": 6056,
      "visites": 6057,
      "élevage": 6058,
      "courrier": 6059,
      "compléter": 6060,
      "annonces": 6061,
      "légitime": 6062,
      "len": 6063,
      "imprim": 6064,
      "exceptionnelle": 6065,
      "assiste": 6066,
      "introduction": 6067,
      "incidences": 6068,
      "passeport": 6069,
      "rentes": 6070,
      "concé": 6071,
      "renouvelée": 6072,
      "facult": 6073,
      "retirée": 6074,
      "distincte": 6075,
      "sph": 6076,
      "quement": 6077,
      "sollicite": 6078,
      "enlève": 6079,
      "liques": 6080,
      "pratiquer": 6081,
      "apparaît": 6082,
      "enveloppe": 6083,
      "performan": 6084,
      "paraly": 6085,
      "seraient": 6086,
      "stages": 6087,
      "tissus": 6088,
      "casier": 6089,
      "aquati": 6090,
      "rétablissement": 6091,
      "déposés": 6092,
      "sie": 6093,
      "nette": 6094,
      "mobiliers": 6095,
      "schémas": 6096,
      "compatible": 6097,
      "biomédecine": 6098,
      "stratégique": 6099,
      "har": 6100,
      "innovation": 6101,
      "récapit": 6102,
      "emprunt": 6103,
      "culté": 6104,
      "difficulté": 6105,
      "prépare": 6106,
      "demeurent": 6107,
      "(*": 6108,
      "interprofessionnel": 6109,
      "satisfont": 6110,
      "perçoit": 6111,
      "fréquence": 6112,
      "98": 6113,
      "savoir": 6114,
      "nécessite": 6115,
      "suspendue": 6116,
      "carbur": 6117,
      "investigations": 6118,
      "artifici": 6119,
      "opposable": 6120,
      "appellation": 6121,
      "influ": 6122,
      "307": 6123,
      "minimales": 6124,
      "éventuel": 6125,
      "mainlevée": 6126,
      "recensement": 6127,
      "cents": 6128,
      "donnés": 6129,
      "européens": 6130,
      "quote": 6131,
      "passible": 6132,
      "pal": 6133,
      "umé": 6134,
      "ép": 6135,
      "indéterminée": 6136,
      "rechercher": 6137,
      "occupants": 6138,
      "aéron": 6139,
      "ww": 6140,
      "demi": 6141,
      "assistent": 6142,
      "marquage": 6143,
      "finalités": 6144,
      "personnellement": 6145,
      "assurées": 6146,
      "francs": 6147,
      "affecter": 6148,
      "authen": 6149,
      "réelle": 6150,
      "ceptions": 6151,
      "incombent": 6152,
      "existantes": 6153,
      "alogue": 6154,
      "aéronau": 6155,
      "claire": 6156,
      "parquet": 6157,
      "statutaire": 6158,
      "accueillant": 6159,
      "cumula": 6160,
      "possé": 6161,
      "procèdent": 6162,
      "label": 6163,
      "refusé": 6164,
      "trouvent": 6165,
      "maintenance": 6166,
      "altern": 6167,
      "héritiers": 6168,
      "enlèvement": 6169,
      "ugi": 6170,
      "contenues": 6171,
      "socio": 6172,
      "cumul": 6173,
      "obtenues": 6174,
      "assain": 6175,
      "302": 6176,
      "suffisant": 6177,
      "tonnes": 6178,
      "consolid": 6179,
      "copropriété": 6180,
      "ultérieure": 6181,
      "loyers": 6182,
      "délibérante": 6183,
      "élaboré": 6184,
      "prescrits": 6185,
      "présidé": 6186,
      "ressortissant": 6187,
      "hec": 6188,
      "envoy": 6189,
      "revient": 6190,
      "demandées": 6191,
      "plainte": 6192,
      "évaluations": 6193,
      "réfugi": 6194,
      "autru": 6195,
      "fron": 6196,
      "établissent": 6197,
      "directs": 6198,
      "gues": 6199,
      "attestations": 6200,
      "différend": 6201,
      "aliments": 6202,
      "représentative": 6203,
      "précision": 6204,
      "technologiques": 6205,
      "dérivés": 6206,
      "autrui": 6207,
      "lor": 6208,
      "sel": 6209,
      "étaient": 6210,
      "bruit": 6211,
      "incidents": 6212,
      "résulter": 6213,
      "agglomération": 6214,
      "plénière": 6215,
      "adressés": 6216,
      "conclues": 6217,
      "entrent": 6218,
      "cessé": 6219,
      "poursuivi": 6220,
      "placées": 6221,
      "cadu": 6222,
      "certifica": 6223,
      "contestations": 6224,
      "performances": 6225,
      "défici": 6226,
      "aign": 6227,
      "pédagogiques": 6228,
      "interromp": 6229,
      "assainissement": 6230,
      "vacc": 6231,
      "etre": 6232,
      "durées": 6233,
      "réforme": 6234,
      "créés": 6235,
      "salle": 6236,
      "bureaux": 6237,
      "élabore": 6238,
      "migration": 6239,
      "plo": 6240,
      "supprimée": 6241,
      "appropriés": 6242,
      "défaillance": 6243,
      "présidence": 6244,
      "syndro": 6245,
      "artistique": 6246,
      "assujettis": 6247,
      "vendre": 6248,
      "réfé": 6249,
      "postérieure": 6250,
      "provoquer": 6251,
      "citoyen": 6252,
      "indésir": 6253,
      "poursuivie": 6254,
      "directives": 6255,
      "fourrière": 6256,
      "calculées": 6257,
      "impliquant": 6258,
      "rubrique": 6259,
      "lucratif": 6260,
      "pli": 6261,
      "contenus": 6262,
      "males": 6263,
      "patrimoni": 6264,
      "décidée": 6265,
      "exemplaires": 6266,
      "profon": 6267,
      "instituant": 6268,
      "offer": 6269,
      "envisagé": 6270,
      "prioritaire": 6271,
      "thérapie": 6272,
      "homme": 6273,
      "diligence": 6274,
      "métropolitaine": 6275,
      "couvrant": 6276,
      "fau": 6277,
      "desser": 6278,
      "rénovation": 6279,
      "publications": 6280,
      "euse": 6281,
      "résultent": 6282,
      "courent": 6283,
      "rapportant": 6284,
      "imputable": 6285,
      "dangers": 6286,
      "dants": 6287,
      "chô": 6288,
      "principalement": 6289,
      "déchargement": 6290,
      "oph": 6291,
      "séqu": 6292,
      "tenance": 6293,
      "transfusion": 6294,
      "initialement": 6295,
      "décidé": 6296,
      "fiscaux": 6297,
      "passés": 6298,
      "séparément": 6299,
      "adultes": 6300,
      "exprimé": 6301,
      "infirmités": 6302,
      "cv": 6303,
      "moteurs": 6304,
      "pup": 6305,
      "cris": 6306,
      "proté": 6307,
      "perspec": 6308,
      "cependant": 6309,
      "exécutés": 6310,
      "volonté": 6311,
      "trimestres": 6312,
      "gène": 6313,
      "xité": 6314,
      "élo": 6315,
      "ouest": 6316,
      "parvenir": 6317,
      "aggrav": 6318,
      "pourvu": 6319,
      "publiées": 6320,
      "appréciée": 6321,
      "identifiant": 6322,
      "gérés": 6323,
      "mm": 6324,
      "exposé": 6325,
      "loie": 6326,
      "mixtes": 6327,
      "troy": 6328,
      "adjudi": 6329,
      "affection": 6330,
      "consulaire": 6331,
      "accepter": 6332,
      "acquitter": 6333,
      "adjudication": 6334,
      "cela": 6335,
      "chant": 6336,
      "interdire": 6337,
      "121": 6338,
      "consolidés": 6339,
      "envers": 6340,
      "llect": 6341,
      "budgets": 6342,
      "convoqué": 6343,
      "terrestres": 6344,
      "transi": 6345,
      "avertissement": 6346,
      "déontologie": 6347,
      "cee": 6348,
      "former": 6349,
      "réservis": 6350,
      "hies": 6351,
      "supérieurs": 6352,
      "payé": 6353,
      "branches": 6354,
      "servitude": 6355,
      "émoluments": 6356,
      "gérants": 6357,
      "décon": 6358,
      "abord": 6359,
      "effa": 6360,
      "investis": 6361,
      "sexies": 6362,
      "préval": 6363,
      "ultérieurement": 6364,
      "intellect": 6365,
      "1984": 6366,
      "actualisation": 6367,
      "minutes": 6368,
      "culaire": 6369,
      "retés": 6370,
      "précisés": 6371,
      "accompagnées": 6372,
      "émolument": 6373,
      ".<": 6374,
      "eant": 6375,
      "lour": 6376,
      "accession": 6377,
      "nécessitant": 6378,
      "subro": 6379,
      "signes": 6380,
      "concessions": 6381,
      "régulier": 6382,
      "ouvriers": 6383,
      "touris": 6384,
      "copropriétaires": 6385,
      "souscrire": 6386,
      "renvoy": 6387,
      "hydr": 6388,
      "fournitures": 6389,
      "extérieurs": 6390,
      "exige": 6391,
      "équipage": 6392,
      "sée": 6393,
      "intitu": 6394,
      "asser": 6395,
      "perf": 6396,
      "immigration": 6397,
      "interpr": 6398,
      "longueur": 6399,
      "appliqué": 6400,
      "partiellement": 6401,
      "mouvement": 6402,
      "scis": 6403,
      "pilotage": 6404,
      "cale": 6405,
      "appliquée": 6406,
      "secondaires": 6407,
      "sûretés": 6408,
      "chauffage": 6409,
      "liens": 6410,
      "publie": 6411,
      "dénonciation": 6412,
      "meilleurs": 6413,
      "ula": 6414,
      "aliser": 6415,
      "signalisation": 6416,
      "lésions": 6417,
      "percevoir": 6418,
      "représentent": 6419,
      "151": 6420,
      "comptabil": 6421,
      "partenariat": 6422,
      "consignation": 6423,
      "concentration": 6424,
      "tiste": 6425,
      "attribuer": 6426,
      "adressent": 6427,
      "dangereuses": 6428,
      "bourg": 6429,
      "bordere": 6430,
      "ache": 6431,
      "invite": 6432,
      "budgétaires": 6433,
      "énergies": 6434,
      "embry": 6435,
      "prévoyant": 6436,
      "rayonnements": 6437,
      "rappe": 6438,
      "témoins": 6439,
      "valoir": 6440,
      "244": 6441,
      "financer": 6442,
      "xx": 6443,
      "cessent": 6444,
      "restent": 6445,
      "perfection": 6446,
      "desdits": 6447,
      "révocation": 6448,
      "autrement": 6449,
      "246": 6450,
      "hospitalière": 6451,
      "changements": 6452,
      "précédentes": 6453,
      "prescrite": 6454,
      "facturation": 6455,
      "libérale": 6456,
      "scolarité": 6457,
      "grossesse": 6458,
      "locative": 6459,
      "justifiée": 6460,
      "prononçant": 6461,
      "conduisant": 6462,
      "adéqu": 6463,
      "1999": 6464,
      "anomalies": 6465,
      "stu": 6466,
      "abatt": 6467,
      "tries": 6468,
      "organisateur": 6469,
      "cardi": 6470,
      "emprise": 6471,
      "pêches": 6472,
      "recrutés": 6473,
      "transition": 6474,
      "88": 6475,
      "impose": 6476,
      "divor": 6477,
      "équipes": 6478,
      "dixième": 6479,
      "assimilées": 6480,
      "outils": 6481,
      "ajus": 6482,
      "fil": 6483,
      "èles": 6484,
      "chaleur": 6485,
      "images": 6486,
      "carrés": 6487,
      "adoptées": 6488,
      "passif": 6489,
      "lauréat": 6490,
      "éloig": 6491,
      "couvertes": 6492,
      "nuit": 6493,
      "facteurs": 6494,
      "tox": 6495,
      "conclut": 6496,
      "radioprotection": 6497,
      "audiovisuelles": 6498,
      "siégeant": 6499,
      "unitaire": 6500,
      "décompte": 6501,
      "rév": 6502,
      "vacances": 6503,
      "tête": 6504,
      "vais": 6505,
      "recondu": 6506,
      "quart": 6507,
      "possibilités": 6508,
      "238": 6509,
      "populations": 6510,
      "génétiques": 6511,
      "ingénieurs": 6512,
      "hypothèque": 6513,
      "sn": 6514,
      "regroupement": 6515,
      "canalisations": 6516,
      "secondaire": 6517,
      "moder": 6518,
      "ensité": 6519,
      "consiste": 6520,
      "venant": 6521,
      "disciplines": 6522,
      "orerie": 6523,
      "trésorerie": 6524,
      "ds": 6525,
      "gê": 6526,
      "teneur": 6527,
      "naturelles": 6528,
      "notifiés": 6529,
      "variation": 6530,
      "végétaux": 6531,
      "litiges": 6532,
      "prorogation": 6533,
      "combattant": 6534,
      "tures": 6535,
      "itent": 6536,
      "graphique": 6537,
      "ailleurs": 6538,
      "conservatoires": 6539,
      "tierce": 6540,
      "enseignant": 6541,
      "extraits": 6542,
      "récup": 6543,
      "cture": 6544,
      "225": 6545,
      "devoir": 6546,
      "extérieure": 6547,
      "amortissements": 6548,
      "téléphone": 6549,
      "sinistre": 6550,
      "égales": 6551,
      "accréd": 6552,
      "majorée": 6553,
      "protégés": 6554,
      "géographiques": 6555,
      "mini": 6556,
      "fondament": 6557,
      "divul": 6558,
      "jugements": 6559,
      "capitalisation": 6560,
      "causes": 6561,
      "ascendants": 6562,
      "trau": 6563,
      "représenté": 6564,
      "bande": 6565,
      "menées": 6566,
      "fréquences": 6567,
      "péage": 6568,
      "culturelles": 6569,
      "temporairement": 6570,
      "frontali": 6571,
      "anée": 6572,
      "inno": 6573,
      "cocontractant": 6574,
      "habitant": 6575,
      "payées": 6576,
      "approuvés": 6577,
      "4e": 6578,
      "itième": 6579,
      "affectant": 6580,
      "huitième": 6581,
      "vivants": 6582,
      "scission": 6583,
      "simu": 6584,
      "préhen": 6585,
      "suffisantes": 6586,
      "transférées": 6587,
      "binô": 6588,
      "01": 6589,
      "vet": 6590,
      "procla": 6591,
      "opcv": 6592,
      "ultérieur": 6593,
      "prescrip": 6594,
      "remplacer": 6595,
      "menace": 6596,
      "mobilités": 6597,
      "exprimée": 6598,
      "détaillé": 6599,
      "récupération": 6600,
      "opcvm": 6601,
      "père": 6602,
      "orth": 6603,
      "seille": 6604,
      "fondé": 6605,
      "accomplies": 6606,
      "respectées": 6607,
      "dispensées": 6608,
      "consolidation": 6609,
      "tants": 6610,
      "marques": 6611,
      "pondé": 6612,
      "nuis": 6613,
      "systé": 6614,
      "stocks": 6615,
      "armement": 6616,
      "diminution": 6617,
      "transparence": 6618,
      "étiquetage": 6619,
      "devis": 6620,
      "organisés": 6621,
      "octroy": 6622,
      "caractères": 6623,
      "nominative": 6624,
      "spécifications": 6625,
      "régissant": 6626,
      "émanant": 6627,
      "vites": 6628,
      "châ": 6629,
      "domani": 6630,
      "précèdent": 6631,
      "fondation": 6632,
      "classification": 6633,
      "oxyde": 6634,
      "bacc": 6635,
      "inet": 6636,
      "étend": 6637,
      "préalables": 6638,
      "ennemi": 6639,
      "opat": 6640,
      "actionnaire": 6641,
      "signataires": 6642,
      "consultée": 6643,
      "absor": 6644,
      "pourrait": 6645,
      "bli": 6646,
      "sale": 6647,
      "ution": 6648,
      "marines": 6649,
      "marseille": 6650,
      "carrière": 6651,
      "particulièrement": 6652,
      "libéral": 6653,
      "cités": 6654,
      "orales": 6655,
      "commises": 6656,
      "bains": 6657,
      "conservé": 6658,
      "mobilier": 6659,
      "immobilières": 6660,
      "dispenser": 6661,
      "bat": 6662,
      "conventionnelle": 6663,
      "satisfaisant": 6664,
      "factur": 6665,
      "supervision": 6666,
      "instituées": 6667,
      "industries": 6668,
      "recouvrées": 6669,
      "dresse": 6670,
      "suspensif": 6671,
      "hiérarchique": 6672,
      "couvre": 6673,
      "impossible": 6674,
      "imposables": 6675,
      "lycées": 6676,
      "enquêteur": 6677,
      "coupables": 6678,
      "pulsion": 6679,
      "bacca": 6680,
      "mau": 6681,
      "enjeux": 6682,
      "sibles": 6683,
      "formés": 6684,
      "graphiques": 6685,
      "communales": 6686,
      "bibli": 6687,
      "situe": 6688,
      "contrevenir": 6689,
      "consig": 6690,
      "emplacements": 6691,
      "1983": 6692,
      "maintenu": 6693,
      "hypothèse": 6694,
      "latérale": 6695,
      "infirmité": 6696,
      "perfectionnement": 6697,
      "112": 6698,
      "zo": 6699,
      "ennes": 6700,
      "accé": 6701,
      "proposée": 6702,
      "1996": 6703,
      "exonérés": 6704,
      "distingu": 6705,
      "éligibilité": 6706,
      "augmenté": 6707,
      "uté": 6708,
      "contrac": 6709,
      "nomme": 6710,
      "douane": 6711,
      "afférente": 6712,
      "préparer": 6713,
      "compromettre": 6714,
      "divi": 6715,
      "sures": 6716,
      "présum": 6717,
      "interviennent": 6718,
      "donation": 6719,
      "plas": 6720,
      "confiés": 6721,
      "hol": 6722,
      "personnalisé": 6723,
      "prévisible": 6724,
      "anmoins": 6725,
      "néanmoins": 6726,
      "identique": 6727,
      "notifier": 6728,
      "distinct": 6729,
      "protéger": 6730,
      "déficit": 6731,
      "formulées": 6732,
      "pénalement": 6733,
      "succursale": 6734,
      "chômage": 6735,
      "dividen": 6736,
      "composés": 6737,
      "entiels": 6738,
      "garantit": 6739,
      "délibérative": 6740,
      "assimilé": 6741,
      "éligible": 6742,
      "conservent": 6743,
      "inclut": 6744,
      "gère": 6745,
      "ifi": 6746,
      "réexamen": 6747,
      "arrêtées": 6748,
      "calculés": 6749,
      "recommandé": 6750,
      "modèles": 6751,
      "nommée": 6752,
      "certifiée": 6753,
      "exigibles": 6754,
      "emplacement": 6755,
      "déconcent": 6756,
      "modern": 6757,
      "diver": 6758,
      "rétr": 6759,
      "aptitudes": 6760,
      "nettes": 6761,
      "baccalauréat": 6762,
      "méd": 6763,
      "1246": 6764,
      "humain": 6765,
      "recouvrée": 6766,
      "emballage": 6767,
      "alt": 6768,
      "atteste": 6769,
      "aval": 6770,
      "métri": 6771,
      "observatoire": 6772,
      "fournissent": 6773,
      "survenus": 6774,
      "fou": 6775,
      "faus": 6776,
      "odont": 6777,
      "pétro": 6778,
      "certifications": 6779,
      "afférent": 6780,
      "loisirs": 6781,
      "97": 6782,
      "sées": 6783,
      "taille": 6784,
      "mandant": 6785,
      "traç": 6786,
      "motivées": 6787,
      "occupé": 6788,
      "résidences": 6789,
      "anonyme": 6790,
      "partagé": 6791,
      "incluant": 6792,
      "sorti": 6793,
      "illon": 6794,
      "minér": 6795,
      "rières": 6796,
      "appelée": 6797,
      "installés": 6798,
      "humaines": 6799,
      "recueillis": 6800,
      "restreinte": 6801,
      "manifeste": 6802,
      "extraordinaire": 6803,
      "fluvial": 6804,
      "marche": 6805,
      "constitutifs": 6806,
      "milieux": 6807,
      "conférant": 6808,
      "survenu": 6809,
      "effacement": 6810,
      "chercheurs": 6811,
      "atrices": 6812,
      "excèdent": 6813,
      "réputées": 6814,
      "supportés": 6815,
      "similaires": 6816,
      "mou": 6817,
      "techniciens": 6818,
      "diminué": 6819,
      "exclus": 6820,
      "nantissement": 6821,
      "violences": 6822,
      "harmon": 6823,
      "cants": 6824,
      "ledit": 6825,
      "apatri": 6826,
      "entrepos": 6827,
      "cabinet": 6828,
      "universel": 6829,
      "inscrire": 6830,
      "auth": 6831,
      "plon": 6832,
      "plantes": 6833,
      "interministériel": 6834,
      "défen": 6835,
      "2024": 6836,
      "planification": 6837,
      "désignent": 6838,
      "fabricants": 6839,
      "familiaux": 6840,
      "musi": 6841,
      "prévaloir": 6842,
      "dex": 6843,
      "mentionner": 6844,
      "réservés": 6845,
      "reçue": 6846,
      "perçoivent": 6847,
      "jection": 6848,
      "communautaires": 6849,
      "urbain": 6850,
      "latéral": 6851,
      "dispensé": 6852,
      "traçabilité": 6853,
      ".)": 6854,
      "endo": 6855,
      "paraît": 6856,
      "respir": 6857,
      "trer": 6858,
      "èses": 6859,
      "réelles": 6860,
      "devra": 6861,
      "gérance": 6862,
      "protégé": 6863,
      "hor": 6864,
      "élit": 6865,
      "motor": 6866,
      "mination": 6867,
      "entrer": 6868,
      "évalue": 6869,
      "appliquant": 6870,
      "occupés": 6871,
      "allouées": 6872,
      "pécuniaire": 6873,
      "évac": 6874,
      "respectant": 6875,
      "pleine": 6876,
      "promoteur": 6877,
      "sciences": 6878,
      "privilège": 6879,
      "pilote": 6880,
      "sncf": 6881,
      "geur": 6882,
      "doté": 6883,
      "infection": 6884,
      "contribuent": 6885,
      "occuper": 6886,
      "apprécié": 6887,
      "contractuelles": 6888,
      "échang": 6889,
      "rendent": 6890,
      "tacite": 6891,
      "modernisation": 6892,
      "vul": 6893,
      "réductions": 6894,
      "alerte": 6895,
      "magas": 6896,
      "appels": 6897,
      "causés": 6898,
      "tentative": 6899,
      "détaillée": 6900,
      "encourue": 6901,
      "normalement": 6902,
      "diligences": 6903,
      "prévisibles": 6904,
      "significatives": 6905,
      "rappel": 6906,
      "précède": 6907,
      "anonymes": 6908,
      "biblio": 6909,
      "connue": 6910,
      "exigibilité": 6911,
      "combin": 6912,
      "qualifiés": 6913,
      "télévision": 6914,
      "paragraphes": 6915,
      "sollicité": 6916,
      "encad": 6917,
      "confédération": 6918,
      "108": 6919,
      "constatations": 6920,
      "décédé": 6921,
      "vitesse": 6922,
      "lecture": 6923,
      "retenir": 6924,
      "exécute": 6925,
      "accompagnés": 6926,
      "radioactifs": 6927,
      "proportionnellement": 6928,
      "lte": 6929,
      "ète": 6930,
      "ries": 6931,
      "frapp": 6932,
      "puissent": 6933,
      "cycles": 6934,
      "alcool": 6935,
      "égi": 6936,
      "contrainte": 6937,
      "dolog": 6938,
      "fondations": 6939,
      "cadas": 6940,
      "prévisionnelle": 6941,
      "natur": 6942,
      "ascense": 6943,
      "remboursés": 6944,
      "thermique": 6945,
      "holding": 6946,
      "timbre": 6947,
      "opéré": 6948,
      "conduites": 6949,
      "postérieur": 6950,
      "démarche": 6951,
      "alterna": 6952,
      "conçus": 6953,
      "psychiatri": 6954,
      "théorique": 6955,
      "lition": 6956,
      "proch": 6957,
      "nonies": 6958,
      "brute": 6959,
      "entiques": 6960,
      "littoral": 6961,
      "1990": 6962,
      "chasseurs": 6963,
      "stipulation": 6964,
      "antérieures": 6965,
      "démarches": 6966,
      "concourent": 6967,
      "dépist": 6968,
      "opérée": 6969,
      "majoritaire": 6970,
      "écologique": 6971,
      "hydrau": 6972,
      "yage": 6973,
      "obtenue": 6974,
      "domin": 6975,
      "définitives": 6976,
      "différé": 6977,
      "tranche": 6978,
      "mécanisme": 6979,
      "chèques": 6980,
      "effort": 6981,
      "élimination": 6982,
      ">(": 6983,
      "êtes": 6984,
      "cuse": 6985,
      "employé": 6986,
      "permanents": 6987,
      "ruraux": 6988,
      "climatique": 6989,
      "livraisons": 6990,
      "présentes": 6991,
      "manqu": 6992,
      "servies": 6993,
      "légi": 6994,
      "accompagner": 6995,
      "appliquées": 6996,
      "nets": 6997,
      "contestée": 6998,
      "souscrite": 6999,
      "plateformes": 7000,
      "undecies": 7001,
      "manche": 7002,
      "plais": 7003,
      "libel": 7004,
      "gatives": 7005,
      "requérir": 7006,
      "expédi": 7007,
      "associée": 7008,
      "collégi": 7009,
      "importateur": 7010,
      "durabilité": 7011,
      "volumes": 7012,
      "journalières": 7013,
      "dégrad": 7014,
      "bibliothè": 7015,
      "feux": 7016,
      "émar": 7017,
      "intercommunal": 7018,
      "votre": 7019,
      "identifié": 7020,
      "pollu": 7021,
      "original": 7022,
      "rééducation": 7023,
      "cartes": 7024,
      "effectuant": 7025,
      "recette": 7026,
      "approuve": 7027,
      "dispensée": 7028,
      "référé": 7029,
      "rait": 7030,
      "marne": 7031,
      "passibles": 7032,
      "spectacle": 7033,
      "chirurgien": 7034,
      "édictées": 7035,
      "baign": 7036,
      "èlement": 7037,
      "ond": 7038,
      "indûment": 7039,
      "allè": 7040,
      "moyennes": 7041,
      "bâtis": 7042,
      "contractuel": 7043,
      "biogaz": 7044,
      "psycho": 7045,
      "réunis": 7046,
      "aériens": 7047,
      "volontairement": 7048,
      "descendants": 7049,
      "conc": 7050,
      "réclusion": 7051,
      "prélimin": 7052,
      "thèses": 7053,
      "contrôleurs": 7054,
      "référent": 7055,
      "appartenance": 7056,
      "chiffres": 7057,
      "greffiers": 7058,
      "troph": 7059,
      "restrictions": 7060,
      "chasser": 7061,
      "ordonné": 7062,
      "sauvet": 7063,
      "examiner": 7064,
      "distincts": 7065,
      "antérieurs": 7066,
      "1985": 7067,
      "indépendante": 7068,
      "syndrome": 7069,
      "ramen": 7070,
      "engin": 7071,
      "matérielle": 7072,
      "incombant": 7073,
      "préserver": 7074,
      "pourraient": 7075,
      "ouillement": 7076,
      "conver": 7077,
      "nommées": 7078,
      "trouble": 7079,
      "plaisance": 7080,
      "pav": 7081,
      "desdites": 7082,
      "parcelle": 7083,
      "froi": 7084,
      "empre": 7085,
      "avisé": 7086,
      "débiteurs": 7087,
      "périmètres": 7088,
      "exemple": 7089,
      "enveloppes": 7090,
      "dépistage": 7091,
      "07": 7092,
      "ionis": 7093,
      "ellement": 7094,
      "développer": 7095,
      "280": 7096,
      "intégrale": 7097,
      "procuration": 7098,
      "param": 7099,
      "réco": 7100,
      "recla": 7101,
      "précités": 7102,
      "renouvelé": 7103,
      "mutualis": 7104,
      "honor": 7105,
      "atteints": 7106,
      "ménage": 7107,
      "pourront": 7108,
      "scellés": 7109,
      "invalides": 7110,
      "io": 7111,
      "rétro": 7112,
      "pec": 7113,
      "loire": 7114,
      "remplie": 7115,
      "saisies": 7116,
      "normales": 7117,
      "jeps": 7118,
      "paysages": 7119,
      "éditeur": 7120,
      "kg": 7121,
      "alle": 7122,
      "insérés": 7123,
      "consen": 7124,
      "subis": 7125,
      "guë": 7126,
      "immédiat": 7127,
      "externe": 7128,
      "récapitula": 7129,
      "ionisants": 7130,
      "acomptes": 7131,
      "haus": 7132,
      "tiré": 7133,
      "connaît": 7134,
      "conducteurs": 7135,
      "réguliers": 7136,
      "acquitté": 7137,
      "enregistrés": 7138,
      "numéraire": 7139,
      "descriptif": 7140,
      "bille": 7141,
      "fu": 7142,
      "nau": 7143,
      "tistes": 7144,
      "explosifs": 7145,
      "lettres": 7146,
      "recevant": 7147,
      "étendu": 7148,
      "diriger": 7149,
      "ki": 7150,
      "épi": 7151,
      "reversement": 7152,
      "avaient": 7153,
      "utilise": 7154,
      "juridictionnelle": 7155,
      "participé": 7156,
      "mobilisation": 7157,
      "agriculteurs": 7158,
      "intellectuelle": 7159,
      "712": 7160,
      "achemin": 7161,
      "lants": 7162,
      "inage": 7163,
      "index": 7164,
      "dule": 7165,
      "fixes": 7166,
      "1649": 7167,
      "nominations": 7168,
      "clientèle": 7169,
      "composants": 7170,
      "requê": 7171,
      "dépose": 7172,
      "pédi": 7173,
      "dépouillement": 7174,
      "syndical": 7175,
      "embauche": 7176,
      "approuvée": 7177,
      "expérimentation": 7178,
      "réfugiés": 7179,
      "requêtes": 7180,
      "répression": 7181,
      "fiants": 7182,
      "agro": 7183,
      "céré": 7184,
      "humains": 7185,
      "notifications": 7186,
      "réside": 7187,
      "interdits": 7188,
      "tranches": 7189,
      "fraudule": 7190,
      "pavillon": 7191,
      "couverte": 7192,
      "ino": 7193,
      "décharge": 7194,
      "exposant": 7195,
      "adoles": 7196,
      "remplaçant": 7197,
      "125": 7198,
      "retraites": 7199,
      "dentiste": 7200,
      "enregistrée": 7201,
      "authentique": 7202,
      "mesur": 7203,
      "exercés": 7204,
      "opérationnel": 7205,
      "consulaires": 7206,
      "convoque": 7207,
      "incompatible": 7208,
      "aéronautique": 7209,
      "stupé": 7210,
      "dage": 7211,
      "productions": 7212,
      "/>-": 7213,
      "tests": 7214,
      "accueillie": 7215,
      "armaceuti": 7216,
      "routiers": 7217,
      "importante": 7218,
      "substitue": 7219,
      "annexés": 7220,
      "collaborateurs": 7221,
      "génétiquement": 7222,
      "pétitionnaire": 7223,
      "400": 7224,
      "bloc": 7225,
      "isse": 7226,
      "parallè": 7227,
      "max": 7228,
      "armateur": 7229,
      "gibi": 7230,
      "complétée": 7231,
      "indispensables": 7232,
      "billets": 7233,
      "répartie": 7234,
      "prov": 7235,
      "délégations": 7236,
      "bons": 7237,
      "préhension": 7238,
      "séquelles": 7239,
      "interentreprises": 7240,
      "accise": 7241,
      "blessures": 7242,
      "défun": 7243,
      "économies": 7244,
      "liquides": 7245,
      "côté": 7246,
      "dress": 7247,
      "m2": 7248,
      "ties": 7249,
      "volet": 7250,
      "dépendance": 7251,
      "résidents": 7252,
      "convenu": 7253,
      ".*": 7254,
      "250": 7255,
      "tirage": 7256,
      "tableaux": 7257,
      "totalement": 7258,
      "rattachées": 7259,
      "filière": 7260,
      "photographie": 7261,
      "domestiques": 7262,
      "vaccin": 7263,
      "prescripteur": 7264,
      "gènes": 7265,
      "érité": 7266,
      "abst": 7267,
      "adhé": 7268,
      "géo": 7269,
      "options": 7270,
      "directions": 7271,
      "itinér": 7272,
      "supprimées": 7273,
      "486": 7274,
      "déroule": 7275,
      "flux": 7276,
      "ferroviaires": 7277,
      "anticipée": 7278,
      "dioxyde": 7279,
      "forte": 7280,
      "demandent": 7281,
      "prélevés": 7282,
      "petites": 7283,
      "faune": 7284,
      "identiques": 7285,
      "locatif": 7286,
      "102": 7287,
      "107": 7288,
      "cancer": 7289,
      "respecté": 7290,
      "inférieurs": 7291,
      "foncières": 7292,
      "radioélectriques": 7293,
      "parcs": 7294,
      "transféré": 7295,
      "empêcher": 7296,
      "mélanges": 7297,
      "défunt": 7298,
      "délimitation": 7299,
      "signés": 7300,
      "primi": 7301,
      "phytop": 7302,
      "traités": 7303,
      "industrielles": 7304,
      "dimensions": 7305,
      "influence": 7306,
      "reconduction": 7307,
      "lexion": 7308,
      "atmo": 7309,
      "traiter": 7310,
      "apportée": 7311,
      "équivalents": 7312,
      "ajoutés": 7313,
      "chirurgiens": 7314,
      "auxiliaire": 7315,
      "consentis": 7316,
      "atmosph": 7317,
      "récus": 7318,
      "proches": 7319,
      "terrestre": 7320,
      "vendus": 7321,
      "1945": 7322,
      "accueillir": 7323,
      "écriture": 7324,
      "fabriqués": 7325,
      "consulte": 7326,
      "trimestrie": 7327,
      "médaille": 7328,
      "arie": 7329,
      "inond": 7330,
      "transfrontali": 7331,
      "moyennant": 7332,
      "quartier": 7333,
      "sanguine": 7334,
      "119": 7335,
      "chlor": 7336,
      "agères": 7337,
      "malades": 7338,
      "fournie": 7339,
      "achats": 7340,
      "informatiques": 7341,
      "logiciels": 7342,
      "provence": 7343,
      "sorte": 7344,
      "forma": 7345,
      "demandés": 7346,
      "collections": 7347,
      "aménager": 7348,
      "intervenu": 7349,
      "756": 7350,
      "énoncés": 7351,
      "quitter": 7352,
      "sinistres": 7353,
      "réversion": 7354,
      "pois": 7355,
      "suffisamment": 7356,
      "connexes": 7357,
      "possède": 7358,
      "orthop": 7359,
      "phytoph": 7360,
      "ront": 7361,
      "ande": 7362,
      "erie": 7363,
      "exposées": 7364,
      "recy": 7365,
      "environnementales": 7366,
      "réponses": 7367,
      "dys": 7368,
      "dentistes": 7369,
      "accepte": 7370,
      "déducti": 7371,
      "forestières": 7372,
      "prioritaires": 7373,
      "fraudes": 7374,
      "privilégi": 7375,
      "démolition": 7376,
      "révoc": 7377,
      "professeurs": 7378,
      "resse": 7379,
      "découverte": 7380,
      "séparation": 7381,
      "profil": 7382,
      "intégré": 7383,
      "inférieures": 7384,
      "adopte": 7385,
      "erreur": 7386,
      "souscrites": 7387,
      "comparution": 7388,
      "éducatif": 7389,
      "prolongé": 7390,
      "bancaires": 7391,
      "exactitude": 7392,
      "révisé": 7393,
      "transf": 7394,
      "ouvrés": 7395,
      "ressource": 7396,
      "équilib": 7397,
      "occasionnés": 7398,
      "journaux": 7399,
      "enregistré": 7400,
      "vulnér": 7401,
      "nateur": 7402,
      "interconnexion": 7403,
      "crivent": 7404,
      "définissent": 7405,
      "bassins": 7406,
      "septies": 7407,
      "stupéfiants": 7408,
      "repro": 7409,
      "aller": 7410,
      "ciaire": 7411,
      "prohi": 7412,
      "stand": 7413,
      "modifiées": 7414,
      "preneurs": 7415,
      "170": 7416,
      "condamnations": 7417,
      "enregistrements": 7418,
      "choisies": 7419,
      "suspend": 7420,
      "financements": 7421,
      "éloignement": 7422,
      "mpu": 7423,
      "pin": 7424,
      "sives": 7425,
      "chy": 7426,
      "excessi": 7427,
      "pourv": 7428,
      "enceinte": 7429,
      "dotés": 7430,
      "cédé": 7431,
      "sales": 7432,
      "remboursements": 7433,
      "historique": 7434,
      "réparations": 7435,
      "gibier": 7436,
      "incar": 7437,
      "inexécution": 7438,
      "perd": 7439,
      "pers": 7440,
      "autorou": 7441,
      "suivis": 7442,
      "plafon": 7443,
      "relevés": 7444,
      "affilié": 7445,
      "avenants": 7446,
      "manipulation": 7447,
      "575": 7448,
      "ubr": 7449,
      "réus": 7450,
      "ato": 7451,
      "compli": 7452,
      "mutuel": 7453,
      "métal": 7454,
      "consentir": 7455,
      "pau": 7456,
      "épo": 7457,
      "quent": 7458,
      "procréation": 7459,
      "généralement": 7460,
      "périodiques": 7461,
      "engagent": 7462,
      "centrales": 7463,
      "handicapé": 7464,
      "encourues": 7465,
      "mécanique": 7466,
      "succursales": 7467,
      "attribut": 7468,
      "ubrité": 7469,
      "onze": 7470,
      "remédi": 7471,
      "grie": 7472,
      "modalité": 7473,
      "indiquées": 7474,
      "construits": 7475,
      "artistiques": 7476,
      "consenties": 7477,
      "bordereau": 7478,
      "115": 7479,
      "onne": 7480,
      "reprendre": 7481,
      "malade": 7482,
      "accompagne": 7483,
      "accueillies": 7484,
      "oeuvres": 7485,
      "chronique": 7486,
      "ae": 7487,
      "requiert": 7488,
      "révé": 7489,
      "dérogé": 7490,
      "revendi": 7491,
      "pied": 7492,
      "exécutées": 7493,
      "musées": 7494,
      "côte": 7495,
      "concord": 7496,
      "stron": 7497,
      "fractions": 7498,
      "utilisatrice": 7499,
      "mener": 7500,
      "postal": 7501,
      "242": 7502,
      "exécutée": 7503,
      "forfaitaires": 7504,
      "imputables": 7505,
      "coupable": 7506,
      "600": 7507,
      "artistes": 7508,
      "plur": 7509,
      "rencontr": 7510,
      "offices": 7511,
      "accepté": 7512,
      "encourt": 7513,
      "défavorable": 7514,
      "strong": 7515,
      "chute": 7516,
      "étap": 7517,
      "stabilité": 7518,
      "représentatifs": 7519,
      "consultés": 7520,
      "appliqués": 7521,
      "évalué": 7522,
      "rapi": 7523,
      "fruits": 7524,
      "accuse": 7525,
      "préside": 7526,
      "phytopharmaceuti": 7527,
      "fun": 7528,
      "hique": 7529,
      "abus": 7530,
      "virement": 7531,
      "forcée": 7532,
      "notes": 7533,
      "voter": 7534,
      "largeur": 7535,
      "respectifs": 7536,
      "pharmaco": 7537,
      "favorables": 7538,
      "neuvi": 7539,
      "circonscriptions": 7540,
      "annexée": 7541,
      "déconcentrés": 7542,
      "dante": 7543,
      "ski": 7544,
      "ister": 7545,
      "quot": 7546,
      "trouver": 7547,
      "prop": 7548,
      "exceptions": 7549,
      "compen": 7550,
      "représentées": 7551,
      "échéances": 7552,
      "ativement": 7553,
      "condamnées": 7554,
      "mélange": 7555,
      "desserte": 7556,
      "reclassement": 7557,
      "quotas": 7558,
      "220": 7559,
      "ires": 7560,
      "reproduit": 7561,
      "délin": 7562,
      "exprès": 7563,
      "opin": 7564,
      "aissent": 7565,
      "réalisent": 7566,
      "jointes": 7567,
      "témoin": 7568,
      "chaus": 7569,
      "culturels": 7570,
      "différente": 7571,
      "denis": 7572,
      "végétales": 7573,
      "isolement": 7574,
      "sensibil": 7575,
      "orph": 7576,
      "ases": 7577,
      "connus": 7578,
      "convoquée": 7579,
      "bercu": 7580,
      "allouée": 7581,
      "rappro": 7582,
      "traduction": 7583,
      "corporels": 7584,
      "sauvetage": 7585,
      "deviennent": 7586,
      "tré": 7587,
      "dissimu": 7588,
      "stations": 7589,
      "garant": 7590,
      "corrig": 7591,
      "2025": 7592,
      "débar": 7593,
      "chiment": 7594,
      "technologies": 7595,
      "blanchiment": 7596,
      "neuvième": 7597,
      "1re": 7598,
      "ains": 7599,
      "coti": 7600,
      "imposent": 7601,
      "204": 7602,
      "soumission": 7603,
      "causé": 7604,
      "netto": 7605,
      "intégrée": 7606,
      "choisie": 7607,
      "coordonne": 7608,
      "renoncer": 7609,
      "émargement": 7610,
      "orphel": 7611,
      "grès": 7612,
      "légu": 7613,
      "vénale": 7614,
      "mathé": 7615,
      "privative": 7616,
      "distribués": 7617,
      "identifie": 7618,
      "rattachés": 7619,
      "bouches": 7620,
      "ève": 7621,
      "inaptitude": 7622,
      "contenir": 7623,
      "administre": 7624,
      "carence": 7625,
      "entier": 7626,
      "sitôt": 7627,
      "constitutives": 7628,
      "pratiquée": 7629,
      "veillent": 7630,
      "tradition": 7631,
      "végétale": 7632,
      "grandes": 7633,
      "substituer": 7634,
      "sérieux": 7635,
      "téléser": 7636,
      "cam": 7637,
      "sifi": 7638,
      "extin": 7639,
      "contrôlées": 7640,
      "cipi": 7641,
      "salariées": 7642,
      "invité": 7643,
      "hémo": 7644,
      "inspections": 7645,
      "instituts": 7646,
      "régulariser": 7647,
      "précitées": 7648,
      "acompte": 7649,
      "qualités": 7650,
      "complètes": 7651,
      "musée": 7652,
      "vitro": 7653,
      "mensuellement": 7654,
      "outil": 7655,
      "homologué": 7656,
      "bref": 7657,
      "wat": 7658,
      "ôles": 7659,
      "poursuit": 7660,
      "micro": 7661,
      "rapportent": 7662,
      "habituel": 7663,
      "relever": 7664,
      "joints": 7665,
      "acceptée": 7666,
      "incompatibles": 7667,
      "genre": 7668,
      "intitulé": 7669,
      "rétract": 7670,
      "élar": 7671,
      "sure": 7672,
      "lication": 7673,
      "rir": 7674,
      "carré": 7675,
      "carrières": 7676,
      "arrondi": 7677,
      "ingénieur": 7678,
      "usées": 7679,
      "décri": 7680,
      "entendus": 7681,
      "scé": 7682,
      "tirés": 7683,
      "visible": 7684,
      "européennes": 7685,
      "attester": 7686,
      "douanier": 7687,
      "commencement": 7688,
      "apatrides": 7689,
      "bre": 7690,
      "ières": 7691,
      "page": 7692,
      "dign": 7693,
      "interprét": 7694,
      "signalement": 7695,
      "181": 7696,
      "crimes": 7697,
      "instruit": 7698,
      "brevets": 7699,
      "foyers": 7700,
      "défendeur": 7701,
      "édifi": 7702,
      "entièrement": 7703,
      "symp": 7704,
      "précisé": 7705,
      "intéressement": 7706,
      "exonérées": 7707,
      "confin": 7708,
      "agrég": 7709,
      "tempér": 7710,
      "certifié": 7711,
      "certifiés": 7712,
      "lymp": 7713,
      "intérieures": 7714,
      "audiovisuels": 7715,
      "survenance": 7716,
      "quotité": 7717,
      "navigables": 7718,
      "usufruit": 7719,
      "mauvais": 7720,
      "go": 7721,
      "str": 7722,
      "cote": 7723,
      "pratiqués": 7724,
      "postale": 7725,
      "aussitôt": 7726,
      "artisanale": 7727,
      "urbaines": 7728,
      "financés": 7729,
      "sélec": 7730,
      "collaboration": 7731,
      "carbures": 7732,
      "préliminaire": 7733,
      "scén": 7734,
      "arts": 7735,
      "récol": 7736,
      "nulle": 7737,
      "gardi": 7738,
      "imputation": 7739,
      "évolutions": 7740,
      "divorce": 7741,
      "baignade": 7742,
      "révocable": 7743,
      "431": 7744,
      "omp": 7745,
      "lets": 7746,
      "souterr": 7747,
      "entrep": 7748,
      "excédents": 7749,
      "indiqués": 7750,
      "valables": 7751,
      "ordinaires": 7752,
      "évalués": 7753,
      "expertises": 7754,
      "lutter": 7755,
      "fréquent": 7756,
      "similaire": 7757,
      "(*)": 7758,
      "gêne": 7759,
      "rendant": 7760,
      "âts": 7761,
      "ané": 7762,
      "délim": 7763,
      "réinsertion": 7764,
      "expose": 7765,
      "pédic": 7766,
      "fonciers": 7767,
      "futur": 7768,
      "éducateur": 7769,
      "vitale": 7770,
      "arbres": 7771,
      "rétractation": 7772,
      "préro": 7773,
      "présomp": 7774,
      "ponct": 7775,
      "chaî": 7776,
      "faç": 7777,
      "détéri": 7778,
      "indiquent": 7779,
      "cumulé": 7780,
      "limitr": 7781,
      "absorb": 7782,
      "ja": 7783,
      "ensembles": 7784,
      "adresses": 7785,
      "dépendances": 7786,
      "évaluée": 7787,
      "acquittée": 7788,
      "comparable": 7789,
      "navigant": 7790,
      "collectés": 7791,
      "collectées": 7792,
      "propag": 7793,
      "tc": 7794,
      "133": 7795,
      "civique": 7796,
      "contractées": 7797,
      "continuer": 7798,
      "filières": 7799,
      "ménages": 7800,
      "pertinentes": 7801,
      "simplifiée": 7802,
      "découlant": 7803,
      "récapitulatif": 7804,
      "compenser": 7805,
      "€,": 7806,
      "conta": 7807,
      "paritaires": 7808,
      "solutions": 7809,
      "lose": 7810,
      "journées": 7811,
      "ordonnances": 7812,
      "convoqués": 7813,
      "entraîné": 7814,
      "télécommunications": 7815,
      "approuvées": 7816,
      "stratégiques": 7817,
      "transférer": 7818,
      "déroger": 7819,
      "dimension": 7820,
      "évacuation": 7821,
      "bais": 7822,
      "éva": 7823,
      "lait": 7824,
      "réanimation": 7825,
      "souscriptions": 7826,
      "111": 7827,
      "équivalence": 7828,
      "rejetée": 7829,
      "acquittement": 7830,
      "détaché": 7831,
      "validé": 7832,
      "expédit": 7833,
      "230": 7834,
      "faux": 7835,
      "mouv": 7836,
      "semi": 7837,
      "dialogue": 7838,
      "niers": 7839,
      "érique": 7840,
      "référentiels": 7841,
      "appelées": 7842,
      "exigent": 7843,
      "trajet": 7844,
      "définissant": 7845,
      "combustibles": 7846,
      "préférence": 7847,
      "carburants": 7848,
      "brig": 7849,
      "jau": 7850,
      "vr": 7851,
      "iss": 7852,
      "chent": 7853,
      "arrêts": 7854,
      "hyper": 7855,
      "intervenants": 7856,
      "centraux": 7857,
      "1992": 7858,
      "simples": 7859,
      "multiples": 7860,
      "franchise": 7861,
      "flui": 7862,
      "emploie": 7863,
      "quator": 7864,
      "estimée": 7865,
      "hane": 7866,
      "indirecte": 7867,
      "substituée": 7868,
      "effica": 7869,
      "kilomètres": 7870,
      "hydrocarbures": 7871,
      "ventilation": 7872,
      "absten": 7873,
      "récolte": 7874,
      "prérogatives": 7875,
      "375": 7876,
      "529": 7877,
      "800": 7878,
      "eutes": 7879,
      "faut": 7880,
      "évi": 7881,
      "entrées": 7882,
      "alpes": 7883,
      "micité": 7884,
      "ailles": 7885,
      "certifiant": 7886,
      "traitées": 7887,
      "différent": 7888,
      "liquidée": 7889,
      "sollicitée": 7890,
      "hypothé": 7891,
      "sismicité": 7892,
      "emballages": 7893,
      "progressive": 7894,
      "prolongée": 7895,
      "revalor": 7896,
      "ores": 7897,
      "opti": 7898,
      "servie": 7899,
      "électro": 7900,
      "inviter": 7901,
      "passées": 7902,
      "hypothèses": 7903,
      "prorogé": 7904,
      "réprimée": 7905,
      "km": 7906,
      "1955": 7907,
      "subir": 7908,
      "réalisant": 7909,
      "bonifi": 7910,
      "nominale": 7911,
      "rembourser": 7912,
      "hôte": 7913,
      "pécuniaires": 7914,
      "quotidienne": 7915,
      "ha": 7916,
      "orations": 7917,
      "urbains": 7918,
      "alsa": 7919,
      "jugées": 7920,
      "transporteurs": 7921,
      "1253": 7922,
      "605": 7923,
      "exonérations": 7924,
      "psychologique": 7925,
      "élaborer": 7926,
      "paramètres": 7927,
      "reprochés": 7928,
      "gatoire": 7929,
      "interval": 7930,
      "subsi": 7931,
      "liquide": 7932,
      "provisoires": 7933,
      "populaire": 7934,
      "agerie": 7935,
      "immatriculée": 7936,
      "chemins": 7937,
      "anomalie": 7938,
      "archéologique": 7939,
      "indésirables": 7940,
      "adéquation": 7941,
      "promouv": 7942,
      "agère": 7943,
      "\">-": 7944,
      "opposé": 7945,
      "obli": 7946,
      "vols": 7947,
      "éries": 7948,
      "biolog": 7949,
      "susmentionné": 7950,
      "indices": 7951,
      "catas": 7952,
      "réservé": 7953,
      "limat": 7954,
      "médias": 7955,
      "déléguées": 7956,
      "1989": 7957,
      "modulation": 7958,
      "cautionnement": 7959,
      "psychiatriques": 7960,
      "minier": 7961,
      "soup": 7962,
      "interprofessionnelle": 7963,
      "portions": 7964,
      "adoptée": 7965,
      "intermédiation": 7966,
      "continent": 7967,
      "ascendant": 7968,
      "abords": 7969,
      "natura": 7970,
      "parallèle": 7971,
      "griefs": 7972,
      "gy": 7973,
      "nalisation": 7974,
      "orale": 7975,
      "promes": 7976,
      "permission": 7977,
      "doctor": 7978,
      "ègent": 7979,
      "rendement": 7980,
      "ministères": 7981,
      "déléguée": 7982,
      "académiques": 7983,
      "contractuelle": 7984,
      "rattachée": 7985,
      "technologie": 7986,
      "valide": 7987,
      "pompier": 7988,
      "écoulée": 7989,
      "phytopharmaceutiques": 7990,
      "basse": 7991,
      "réutilisation": 7992,
      "opport": 7993,
      "river": 7994,
      "résumé": 7995,
      "cédées": 7996,
      "interdépartementale": 7997,
      "relais": 7998,
      "eute": 7999,
      "conventionnelles": 8000,
      "176": 8001,
      "menaces": 8002,
      "accorde": 8003,
      "refusée": 8004,
      "choisir": 8005,
      "consentie": 8006,
      "mécaniques": 8007,
      "incorporation": 8008,
      "kinésithérapeute": 8009,
      "climat": 8010,
      "intensité": 8011,
      "sénat": 8012,
      "tubercu": 8013,
      "expi": 8014,
      "maximales": 8015,
      "importants": 8016,
      "audiovisuel": 8017,
      "coefficients": 8018,
      "consolidée": 8019,
      "réalité": 8020,
      "podolog": 8021,
      "terdecies": 8022,
      "accro": 8023,
      "1947": 8024,
      "justifiées": 8025,
      "attention": 8026,
      "examinée": 8027,
      "rapporteurs": 8028,
      "souhaitent": 8029,
      "importantes": 8030,
      "remédier": 8031,
      "repas": 8032,
      "inclusion": 8033,
      "filiation": 8034,
      "agréments": 8035,
      "canalisation": 8036,
      "adapter": 8037,
      "239": 8038,
      "hauts": 8039,
      "délibéré": 8040,
      "finals": 8041,
      "préco": 8042,
      "culaires": 8043,
      "the": 8044,
      "exploités": 8045,
      "contrefaçon": 8046,
      "ologue": 8047,
      "commissariat": 8048,
      "routes": 8049,
      "médicamenteux": 8050,
      "proportionnel": 8051,
      "provisoirement": 8052,
      "indirectes": 8053,
      "ministériels": 8054,
      "masseur": 8055,
      "remboursables": 8056,
      "acheminement": 8057,
      "fes": 8058,
      "dénommée": 8059,
      "ordonnées": 8060,
      "apportés": 8061,
      "versaire": 8062,
      "satisf": 8063,
      "neutr": 8064,
      "prorog": 8065,
      "périodiquement": 8066,
      "hypothèques": 8067,
      "flottant": 8068,
      "combustible": 8069,
      "évasion": 8070,
      "sinc": 8071,
      "intra": 8072,
      "lire": 8073,
      "réparties": 8074,
      "opposables": 8075,
      "2027": 8076,
      "gains": 8077,
      "affiliées": 8078,
      "violence": 8079,
      "circuler": 8080,
      "concili": 8081,
      "sapeur": 8082,
      "dégâts": 8083,
      "mit": 8084,
      "alg": 8085,
      "chance": 8086,
      "esthés": 8087,
      "aiguë": 8088,
      "pel": 8089,
      "géré": 8090,
      "nies": 8091,
      "verb": 8092,
      "bénévo": 8093,
      "réunir": 8094,
      "priorités": 8095,
      "cumulée": 8096,
      "journalier": 8097,
      "taxation": 8098,
      "conflits": 8099,
      "complexité": 8100,
      "frontières": 8101,
      "gage": 8102,
      "mères": 8103,
      "yn": 8104,
      "recharge": 8105,
      "contiennent": 8106,
      "illicite": 8107,
      "composent": 8108,
      "expulsion": 8109,
      "souvent": 8110,
      "accou": 8111,
      "représentée": 8112,
      "produisent": 8113,
      "commandants": 8114,
      "devront": 8115,
      "assig": 8116,
      "gouvern": 8117,
      "libérales": 8118,
      "bourse": 8119,
      "restriction": 8120,
      "ascenseurs": 8121,
      "□</": 8122,
      "néga": 8123,
      "travers": 8124,
      "élevée": 8125,
      "contrevenant": 8126,
      "particu": 8127,
      "contribuant": 8128,
      "fournissant": 8129,
      "maternel": 8130,
      "financées": 8131,
      "écoulé": 8132,
      "héritier": 8133,
      "abandon": 8134,
      "meublés": 8135,
      "regroupant": 8136,
      "aquatique": 8137,
      "funér": 8138,
      "çants": 8139,
      "siègent": 8140,
      "opère": 8141,
      "soustr": 8142,
      "publier": 8143,
      "affecte": 8144,
      "volus": 8145,
      "engagé": 8146,
      "appuy": 8147,
      "récusation": 8148,
      "époque": 8149,
      "dignité": 8150,
      "promouvoir": 8151,
      "gouvernance": 8152,
      "féri": 8153,
      "pect": 8154,
      "carnet": 8155,
      "affect": 8156,
      "environnementaux": 8157,
      "revenant": 8158,
      "adhérentes": 8159,
      "solidairement": 8160,
      "opinion": 8161,
      "téléservice": 8162,
      "lesdites": 8163,
      "récent": 8164,
      "fru": 8165,
      "générateur": 8166,
      "dater": 8167,
      "déclaratives": 8168,
      "maintenus": 8169,
      "préparé": 8170,
      "recommandation": 8171,
      "articulation": 8172,
      "différends": 8173,
      "citoyenneté": 8174,
      "cales": 8175,
      "détenant": 8176,
      "sible": 8177,
      "fract": 8178,
      "blessure": 8179,
      "mondi": 8180,
      "volontariat": 8181,
      "existent": 8182,
      "protégées": 8183,
      "investie": 8184,
      "souscripteurs": 8185,
      "mémoires": 8186,
      "grades": 8187,
      "éditeurs": 8188,
      "semestre": 8189,
      "clairement": 8190,
      "interprète": 8191,
      "délinqu": 8192,
      "tours": 8193,
      "récipi": 8194,
      "déclen": 8195,
      "interopér": 8196,
      "intervenues": 8197,
      "préparant": 8198,
      "1107": 8199,
      "gamètes": 8200,
      "réussite": 8201,
      "température": 8202,
      "êtres": 8203,
      "ani": 8204,
      "arré": 8205,
      "assise": 8206,
      "torale": 8207,
      "vil": 8208,
      "révis": 8209,
      "transporter": 8210,
      "opérer": 8211,
      "122": 8212,
      "accompagnant": 8213,
      "automatis": 8214,
      "prochaine": 8215,
      "muti": 8216,
      "rassemb": 8217,
      "deurs": 8218,
      "diplo": 8219,
      "graphie": 8220,
      "auront": 8221,
      "radioactives": 8222,
      "architecte": 8223,
      "éclairage": 8224,
      "disparition": 8225,
      "divulgation": 8226,
      "fruiti": 8227,
      "équ": 8228,
      "édition": 8229,
      "teau": 8230,
      "impér": 8231,
      "signale": 8232,
      "gramme": 8233,
      "rouge": 8234,
      "284": 8235,
      "handicapée": 8236,
      "pertinence": 8237,
      "alogues": 8238,
      "empreintes": 8239,
      "baisse": 8240,
      "atté": 8241,
      "potable": 8242,
      "immin": 8243,
      "écritures": 8244,
      "1995": 8245,
      "existante": 8246,
      "neufs": 8247,
      "correctives": 8248,
      "meilleur": 8249,
      "extraction": 8250,
      "atténu": 8251,
      "df": 8252,
      "mér": 8253,
      "tire": 8254,
      "urne": 8255,
      "siers": 8256,
      "apposition": 8257,
      "perp": 8258,
      "datant": 8259,
      "franc": 8260,
      "impay": 8261,
      "équipé": 8262,
      "culturelle": 8263,
      "télécommunication": 8264,
      "loués": 8265,
      "augmentée": 8266,
      "transférée": 8267,
      "fiduciaire": 8268,
      "paralysie": 8269,
      "précoce": 8270,
      "679": 8271,
      "ole": 8272,
      "inobservation": 8273,
      "sonore": 8274,
      "urement": 8275,
      "\">-</": 8276,
      "formées": 8277,
      "utilisent": 8278,
      "octies": 8279,
      "dentaire": 8280,
      "banques": 8281,
      "1991": 8282,
      "implantés": 8283,
      "significatif": 8284,
      "rappelle": 8285,
      "manquantes": 8286,
      "primitif": 8287,
      "bro": 8288,
      "expositions": 8289,
      "licences": 8290,
      "mentionnent": 8291,
      "admise": 8292,
      "conventionnés": 8293,
      "ordonnant": 8294,
      "265": 8295,
      "entraînent": 8296,
      "kinésithérapeutes": 8297,
      "précisions": 8298,
      "fondamentaux": 8299,
      "extinction": 8300,
      "expéditeur": 8301,
      "panne": 8302,
      "tival": 8303,
      "exceptionnels": 8304,
      "urgente": 8305,
      "contester": 8306,
      "interdites": 8307,
      "comparaison": 8308,
      "masseurs": 8309,
      "équipés": 8310,
      "correctionnel": 8311,
      "blanc": 8312,
      "pupilles": 8313,
      "gardien": 8314,
      "ele": 8315,
      "relogement": 8316,
      "dépréci": 8317,
      "veur": 8318,
      "soign": 8319,
      "nuire": 8320,
      "légion": 8321,
      "précédée": 8322,
      "spécificités": 8323,
      "identifiées": 8324,
      "choisit": 8325,
      "confirmation": 8326,
      "portuaires": 8327,
      "explications": 8328,
      "sujets": 8329,
      "déficience": 8330,
      "til": 8331,
      "classée": 8332,
      "lycée": 8333,
      "amiante": 8334,
      "émane": 8335,
      "embarquement": 8336,
      "renforcement": 8337,
      "quatorze": 8338,
      "210": 8339,
      "spont": 8340,
      "cheur": 8341,
      "trien": 8342,
      "constitutif": 8343,
      "doub": 8344,
      "probatoire": 8345,
      "constructeur": 8346,
      "potentiels": 8347,
      "trouvant": 8348,
      "encaissement": 8349,
      "remorque": 8350,
      "embryons": 8351,
      "abattage": 8352,
      "scénari": 8353,
      "présomption": 8354,
      "aque": 8355,
      "anesthés": 8356,
      "concom": 8357,
      "courante": 8358,
      "exécuté": 8359,
      "quota": 8360,
      "efficace": 8361,
      "700": 8362,
      "diaire": 8363,
      "réadaptation": 8364,
      "impu": 8365,
      "intérim": 8366,
      "gardes": 8367,
      "mieux": 8368,
      "délibérants": 8369,
      "langues": 8370,
      "décrites": 8371,
      "hôpital": 8372,
      "infections": 8373,
      "adhérer": 8374,
      "sensibilisation": 8375,
      "ades": 8376,
      "pâ": 8377,
      "tiens": 8378,
      "anni": 8379,
      "réévaluation": 8380,
      "déclarent": 8381,
      "traitance": 8382,
      "invitation": 8383,
      "ouvrable": 8384,
      "offrir": 8385,
      "mutualisation": 8386,
      "parental": 8387,
      "aménagés": 8388,
      "accrédité": 8389,
      "facturés": 8390,
      "administrer": 8391,
      "jamais": 8392,
      "festival": 8393,
      "05": 8394,
      "fla": 8395,
      "pseu": 8396,
      "coordonner": 8397,
      "apportent": 8398,
      "nécessitent": 8399,
      "modifica": 8400,
      "2026": 8401,
      "patron": 8402,
      "rémunérés": 8403,
      "bilans": 8404,
      "tarifaire": 8405,
      "462": 8406,
      "quartiers": 8407,
      "actualisée": 8408,
      "dérogatoire": 8409,
      "protocoles": 8410,
      "implique": 8411,
      "cellule": 8412,
      "pyro": 8413,
      "réservistes": 8414,
      "délinquance": 8415,
      "fur": 8416,
      "reprend": 8417,
      "professionnalisation": 8418,
      "guide": 8419,
      "éte": 8420,
      "tie": 8421,
      "invention": 8422,
      "lesdits": 8423,
      "concourir": 8424,
      "cipé": 8425,
      "\">,": 8426,
      "rati": 8427,
      "osité": 8428,
      "réglementés": 8429,
      "rémunéré": 8430,
      "attaché": 8431,
      "requér": 8432,
      "alcoolique": 8433,
      "punis": 8434,
      "quotidien": 8435,
      "professeur": 8436,
      "aquatiques": 8437,
      "cadastr": 8438,
      "beau": 8439,
      "mentale": 8440,
      "aix": 8441,
      "imposée": 8442,
      "assor": 8443,
      "convocations": 8444,
      "assimilée": 8445,
      "détachés": 8446,
      "impartialité": 8447,
      "quittance": 8448,
      "psychiatrie": 8449,
      "privilèges": 8450,
      "lever": 8451,
      "relig": 8452,
      "ancier": 8453,
      "testament": 8454,
      "civiques": 8455,
      "résilier": 8456,
      "successives": 8457,
      "tares": 8458,
      "hectares": 8459,
      "fret": 8460,
      "omission": 8461,
      "liqué": 8462,
      "aphies": 8463,
      "intent": 8464,
      "laisser": 8465,
      "importés": 8466,
      "ajouté": 8467,
      "495": 8468,
      "certificateur": 8469,
      "perspective": 8470,
      "combinaison": 8471,
      "interopérabilité": 8472,
      "nalité": 8473,
      "insolvabilité": 8474,
      "vienne": 8475,
      "péréqu": 8476,
      "contrôlé": 8477,
      "plancher": 8478,
      "défenseur": 8479,
      "apparente": 8480,
      "indirect": 8481,
      "1609": 8482,
      "rubriques": 8483,
      "attribue": 8484,
      "téléphonique": 8485,
      "ajustement": 8486,
      "arrérages": 8487,
      "péréquation": 8488,
      "lâ": 8489,
      "titr": 8490,
      "repris": 8491,
      "décomp": 8492,
      "consistance": 8493,
      "différences": 8494,
      "apprenti": 8495,
      "rédigée": 8496,
      "ryth": 8497,
      "exclues": 8498,
      "nuisances": 8499,
      "altération": 8500,
      "nettoyage": 8501,
      "détection": 8502,
      "prote": 8503,
      "imposés": 8504,
      "accus": 8505,
      "signaux": 8506,
      "modifie": 8507,
      "inflig": 8508,
      "fermé": 8509,
      "permanentes": 8510,
      "supprimer": 8511,
      "envisagés": 8512,
      "séparée": 8513,
      "assujetties": 8514,
      "multiplié": 8515,
      "touristiques": 8516,
      "innov": 8517,
      "binôme": 8518,
      "pluralité": 8519,
      "subsidiaire": 8520,
      "lite": 8521,
      "olymp": 8522,
      "paramé": 8523,
      "alit": 8524,
      "expl": 8525,
      "organisent": 8526,
      "péné": 8527,
      "salubrité": 8528,
      "munis": 8529,
      "avenir": 8530,
      "spécifiquement": 8531,
      "démissionnaire": 8532,
      "conférer": 8533,
      "dividendes": 8534,
      "da": 8535,
      "iles": 8536,
      "qualit": 8537,
      "finale": 8538,
      "lits": 8539,
      "initiation": 8540,
      "décidées": 8541,
      "prêter": 8542,
      "acheteurs": 8543,
      "régissent": 8544,
      "consécutive": 8545,
      "tonne": 8546,
      "récipro": 8547,
      "substitué": 8548,
      "faibles": 8549,
      "plongée": 8550,
      "libellé": 8551,
      "mille": 8552,
      "liant": 8553,
      "confor": 8554,
      "méconnaître": 8555,
      "consistant": 8556,
      "collection": 8557,
      "exigés": 8558,
      "bailleurs": 8559,
      "investigation": 8560,
      "enquêteurs": 8561,
      "écarts": 8562,
      "compagnies": 8563,
      "compétitions": 8564,
      "perspectives": 8565,
      "pects": 8566,
      "ck": 8567,
      "pur": 8568,
      "exacte": 8569,
      "sanctionnant": 8570,
      "gravement": 8571,
      "alloué": 8572,
      "devenu": 8573,
      "incorpore": 8574,
      "dématérialisé": 8575,
      "www": 8576,
      "systématique": 8577,
      "concomit": 8578,
      "anniversaire": 8579,
      "cav": 8580,
      "nour": 8581,
      "reprises": 8582,
      "oral": 8583,
      "sonores": 8584,
      "manut": 8585,
      "prison": 8586,
      "locatives": 8587,
      "indivision": 8588,
      "nateurs": 8589,
      "259": 8590,
      "champs": 8591,
      "concédante": 8592,
      "hydraulique": 8593,
      "honorabilité": 8594,
      "recycla": 8595,
      ">–": 8596,
      "nou": 8597,
      "incomplète": 8598,
      "quad": 8599,
      "abais": 8600,
      "terie": 8601,
      "tutelles": 8602,
      "arrêter": 8603,
      "brutes": 8604,
      "rencontre": 8605,
      "courte": 8606,
      "réservée": 8607,
      "véni": 8608,
      "ferme": 8609,
      "attestée": 8610,
      "exprimer": 8611,
      "sessions": 8612,
      "ministérielle": 8613,
      "compétition": 8614,
      "soupçon": 8615,
      "incon": 8616,
      "voté": 8617,
      "sécurisé": 8618,
      "employer": 8619,
      "circonstance": 8620,
      "diligent": 8621,
      "successifs": 8622,
      "bibliothèques": 8623,
      "723": 8624,
      "valant": 8625,
      "exploité": 8626,
      "implicite": 8627,
      "accomplit": 8628,
      "détaillant": 8629,
      "fiducie": 8630,
      "posséder": 8631,
      "château": 8632,
      "distinguant": 8633,
      "bag": 8634,
      "vre": 8635,
      "concourt": 8636,
      "chang": 8637,
      "utation": 8638,
      "produisant": 8639,
      "consent": 8640,
      "montage": 8641,
      "1965": 8642,
      "cachet": 8643,
      "réglementations": 8644,
      "163": 8645,
      "barre": 8646,
      "multilatéral": 8647,
      "distinctes": 8648,
      "sorties": 8649,
      "hypothéc": 8650,
      "bres": 8651,
      "centi": 8652,
      "obser": 8653,
      "jugé": 8654,
      "entière": 8655,
      "détour": 8656,
      "synthé": 8657,
      "chien": 8658,
      "matérielles": 8659,
      "suffisants": 8660,
      "résidu": 8661,
      "réunie": 8662,
      "annuités": 8663,
      "hormis": 8664,
      "pourvus": 8665,
      "alsace": 8666,
      "liquéfi": 8667,
      "adi": 8668,
      "jac": 8669,
      "encours": 8670,
      "accomplie": 8671,
      "primaires": 8672,
      "pratiqué": 8673,
      "1635": 8674,
      "polygam": 8675,
      "exprimées": 8676,
      "continuent": 8677,
      "incompatibilité": 8678,
      "touristique": 8679,
      "satisfaction": 8680,
      "polygamie": 8681,
      "434": 8682,
      "provin": 8683,
      "stable": 8684,
      "datée": 8685,
      "exploitées": 8686,
      "réservation": 8687,
      "subdivision": 8688,
      "guer": 8689,
      "162": 8690,
      "importateurs": 8691,
      "journalis": 8692,
      "indicateur": 8693,
      "garantissent": 8694,
      "citation": 8695,
      "jard": 8696,
      "alé": 8697,
      "suisse": 8698,
      "logique": 8699,
      "221": 8700,
      "234": 8701,
      "comparaître": 8702,
      "incluses": 8703,
      "psychique": 8704,
      "chimique": 8705,
      "contracté": 8706,
      "fouilles": 8707,
      "expiré": 8708,
      "grés": 8709,
      "hoc": 8710,
      "endet": 8711,
      "issant": 8712,
      "entour": 8713,
      "immun": 8714,
      "obtient": 8715,
      "expire": 8716,
      "député": 8717,
      "légalité": 8718,
      "exploite": 8719,
      "signaler": 8720,
      "apparents": 8721,
      "convoquer": 8722,
      "louer": 8723,
      "module": 8724,
      "assesseur": 8725,
      "simplifié": 8726,
      "retraçant": 8727,
      "lende": 8728,
      "pupille": 8729,
      "réserviste": 8730,
      "formateurs": 8731,
      "souterraines": 8732,
      "doi": 8733,
      "fos": 8734,
      "\">(": 8735,
      "209": 8736,
      "produc": 8737,
      "commissionnés": 8738,
      "phé": 8739,
      "assume": 8740,
      "laisse": 8741,
      "automobile": 8742,
      "pertinents": 8743,
      "correctionnelle": 8744,
      "assorties": 8745,
      "anticipation": 8746,
      "transitoire": 8747,
      "entrepôt": 8748,
      "coupe": 8749,
      "pouve": 8750,
      "sait": 8751,
      "acts": 8752,
      "opté": 8753,
      "inélig": 8754,
      "alise": 8755,
      "ancienne": 8756,
      "canal": 8757,
      "consultées": 8758,
      "menée": 8759,
      "accueillis": 8760,
      "chiens": 8761,
      "examiné": 8762,
      "vulnérabilité": 8763,
      "endettement": 8764,
      "pouvez": 8765,
      "549": 8766,
      "turb": 8767,
      "reten": 8768,
      "reconversion": 8769,
      "coproduction": 8770,
      "semes": 8771,
      "usager": 8772,
      "régler": 8773,
      "supporter": 8774,
      "sauvage": 8775,
      "roues": 8776,
      "suivies": 8777,
      "concessionnaires": 8778,
      "externes": 8779,
      "aéroportu": 8780,
      "odontologie": 8781,
      "standard": 8782,
      "interprétation": 8783,
      "iens": 8784,
      "éthique": 8785,
      "adh": 8786,
      "égaux": 8787,
      "générique": 8788,
      "transportés": 8789,
      "doute": 8790,
      "hybri": 8791,
      "affiché": 8792,
      "subordonner": 8793,
      "retirés": 8794,
      "citoyens": 8795,
      "semences": 8796,
      "fausse": 8797,
      "incarc": 8798,
      "abstenir": 8799,
      "paramédic": 8800,
      "inconvéni": 8801,
      "lendemain": 8802,
      "322": 8803,
      "arth": 8804,
      "colis": 8805,
      "acquiert": 8806,
      "présumé": 8807,
      "mine": 8808,
      "organisatrices": 8809,
      "élevages": 8810,
      "précau": 8811,
      "réalisateur": 8812,
      "confie": 8813,
      "adopter": 8814,
      "immatriculé": 8815,
[...]
