{
  "version": "1.0",
  "truncation": null,
  "padding": null,
  "added_tokens": [
    {
      "id": 0,
      "content": "[PAD]",
      "single_word": false,
      "lstrip": false,
      "rstrip": false,
      "normalized": false,
      "special": true
    },
    {
      "id": 1,
      "content": "[UNK]",
      "single_word": false,
      "lstrip": false,
      "rstrip": false,
      "normalized": false,
      "special": true
    },
    {
      "id": 2,
      "content": "[EOS]",
      "single_word": false,
      "lstrip": false,
      "rstrip": false,
      "normalized": false,
      "special": true
    }
  ],
  "normalizer": {
    "type": "Sequence",
    "normalizers": [
      {
        "type": "Lowercase"
      },
      {
        "type": "StripAccents"
      }
    ]
  },
  "pre_tokenizer": {
    "type": "Whitespace"
  },
  "post_processor": null,
  "decoder": null,
  "model": {
    "type": "BPE",
    "dropout": null,
    "unk_token": "[UNK]",
    "continuing_subword_prefix": null,
    "end_of_word_suffix": null,
    "fuse_unk": false,
    "byte_fallback": false,
    "ignore_merges": false,
    "vocab": {
      "[PAD]": 0,
      "[UNK]": 1,
      "[EOS]": 2,
      "!": 3,
      "\"": 4,
      "#": 5,
      "%": 6,
      "&": 7,
      "'": 8,
      "(": 9,
      ")": 10,
      "*": 11,
      "+": 12,
      ",": 13,
      "-": 14,
      ".": 15,
      "/": 16,
      "0": 17,
      "1": 18,
      "2": 19,
      "3": 20,
      "4": 21,
      "5": 22,
      "6": 23,
      "7": 24,
      "8": 25,
      "9": 26,
      ":": 27,
      ";": 28,
      "<": 29,
      "=": 30,
      ">": 31,
      "?": 32,
      "@": 33,
      "[": 34,
      "]": 35,
      "^": 36,
      "_": 37,
      "a": 38,
      "b": 39,
      "c": 40,
      "d": 41,
      "e": 42,
      "f": 43,
      "g": 44,
      "h": 45,
      "i": 46,
      "j": 47,
      "k": 48,
      "l": 49,
      "m": 50,
      "n": 51,
      "o": 52,
      "p": 53,
      "q": 54,
      "r": 55,
      "s": 56,
      "t": 57,
      "u": 58,
      "v": 59,
      "w": 60,
      "x": 61,
      "y": 62,
      "z": 63,
      "{": 64,
      "|": 65,
      "}": 66,
      "¤": 67,
      "§": 68,
      "¨": 69,
      "«": 70,
      "­": 71,
      "°": 72,
      "²": 73,
      "³": 74,
      "µ": 75,
      "¸": 76,
      "¹": 77,
      "º": 78,
      "»": 79,
      "¼": 80,
      "×": 81,
      "à": 82,
      "á": 83,
      "â": 84,
      "ä": 85,
      "ç": 86,
      "è": 87,
      "é": 88,
      "ê": 89,
      "ë": 90,
      "í": 91,
      "î": 92,
      "ï": 93,
      "ó": 94,
      "ô": 95,
      "ö": 96,
      "ù": 97,
      "û": 98,
      "ü": 99,
      "ý": 100,
      "ÿ": 101,
      "ă": 102,
      "œ": 103,
      "š": 104,
      "ţ": 105,
      "ʹ": 106,
      "˂": 107,
      "ˮ": 108,
      "ά": 109,
      "έ": 110,
      "ή": 111,
      "ί": 112,
      "α": 113,
      "β": 114,
      "γ": 115,
      "δ": 116,
      "ε": 117,
      "η": 118,
      "θ": 119,
      "ι": 120,
      "κ": 121,
      "λ": 122,
      "μ": 123,
      "ν": 124,
      "ο": 125,
      "π": 126,
      "ρ": 127,
      "ς": 128,
      "σ": 129,
      "τ": 130,
      "υ": 131,
      "χ": 132,
      "ω": 133,
      "ό": 134,
      "ύ": 135,
      "ώ": 136,
      "а": 137,
      "в": 138,
      "г": 139,
      "д": 140,
      "е": 141,
      "ж": 142,
      "и": 143,
      "к": 144,
      "м": 145,
      "н": 146,
      "о": 147,
      "р": 148,
      "с": 149,
      "т": 150,
      "у": 151,
      "ц": 152,
      "ч": 153,
      "ᵉ": 154,
      "‒": 155,
      "–": 156,
      "—": 157,
      "―": 158,
      "‘": 159,
      "’": 160,
      "“": 161,
      "”": 162,
      "‟": 163,
      "•": 164,
      "…": 165,
      "‰": 166,
      "⁶": 167,
      "⁹": 168,
      "€": 169,
      "∑": 170,
      "−": 171,
      "∫": 172,
      "≤": 173,
      "≥": 174,
      "■": 175,
      "□": 176,
      "●": 177,
      "☐": 178,
      "ﬀ": 179,
      "ﬁ": 180,
      "ﬂ": 181,
      "es": 182,
      "on": 183,
      "ti": 184,
      "en": 185,
      "de": 186,
      "le": 187,
      "tion": 188,
      "re": 189,
      "an": 190,
      "is": 191,
      "ent": 192,
      "ar": 193,
      "la": 194,
      "er": 195,
      "ou": 196,
      "in": 197,
      "pr": 198,
      "les": 199,
      "et": 200,
      "au": 201,
      "it": 202,
      "qu": 203,
      "du": 204,
      "or": 205,
      "ation": 206,
      "des": 207,
      "li": 208,
      "ur": 209,
      "un": 210,
      "tr": 211,
      "és": 212,
      "ment": 213,
      "con": 214,
      "co": 215,
      "te": 216,
      "par": 217,
      "ce": 218,
      "dé": 219,
      "ant": 220,
      "si": 221,
      "><": 222,
      "al": 223,
      "se": 224,
      "ci": 225,
      "di": 226,
      "que": 227,
      "il": 228,
      "ré": 229,
      "tic": 230,
      "com": 231,
      "ch": 232,
      "ans": 233,
      "artic": 234,
      "at": 235,
      "td": 236,
      "our": 237,
      "son": 238,
      "ér": 239,
      "ne": 240,
      "as": 241,
      "est": 242,
      "ai": 243,
      "article": 244,
      "ac": 245,
      "res": 246,
      "aux": 247,
      "pro": 248,
      "tre": 249,
      "ap": 250,
      "ab": 251,
      "fi": 252,
      "me": 253,
      "ité": 254,
      "ét": 255,
      "dans": 256,
      "né": 257,
      "une": 258,
      "tions": 259,
      "pré": 260,
      "pe": 261,
      "ag": 262,
      "po": 263,
      "ex": 264,
      "ces": 265,
      "=\"": 266,
      "gn": 267,
      "ali": 268,
      "pour": 269,
      "mo": 270,
      "ve": 271,
      "su": 272,
      "ale": 273,
      "so": 274,
      "ter": 275,
      "sur": 276,
      "ention": 277,
      "prés": 278,
      "lle": 279,
      "align": 280,
      "vi": 281,
      "aire": 282,
      "lic": 283,
      "lo": 284,
      "comp": 285,
      "sion": 286,
      "min": 287,
      "sont": 288,
      "us": 289,
      "per": 290,
      "ée": 291,
      "mis": 292,
      "></": 293,
      "ie": 294,
      "for": 295,
      "</": 296,
      "ations": 297,
      "app": 298,
      "av": 299,
      "ut": 300,
      "mention": 301,
      "ées": 302,
      "qui": 303,
      "prév": 304,
      "dis": 305,
      "ins": 306,
      "ue": 307,
      "présent": 308,
      "ction": 309,
      "mb": 310,
      "lis": 311,
      "im": 312,
      "ance": 313,
      "ad": 314,
      "man": 315,
      "ma": 316,
      "ont": 317,
      "ure": 318,
      "aut": 319,
      "déc": 320,
      "\">": 321,
      "ments": 322,
      "pu": 323,
      "ion": 324,
      "posi": 325,
      "tif": 326,
      "teur": 327,
      "ser": 328,
      "form": 329,
      "minis": 330,
      "gé": 331,
      "tiv": 332,
      "op": 333,
      "oi": 334,
      "applic": 335,
      "20": 336,
      "person": 337,
      "no": 338,
      "leur": 339,
      "ff": 340,
      "soci": 341,
      "ort": 342,
      "mi": 343,
      "ors": 344,
      "cu": 345,
      "ais": 346,
      "lu": 347,
      "fin": 348,
      "pub": 349,
      "ég": 350,
      "ités": 351,
      "tou": 352,
      "eur": 353,
      "mentionné": 354,
      "am": 355,
      "ge": 356,
      "contr": 357,
      "peut": 358,
      "mes": 359,
      "étab": 360,
      "ob": 361,
      "lors": 362,
      "int": 363,
      "condi": 364,
      "ri": 365,
      "rés": 366,
      "disposi": 367,
      "ques": 368,
      "aires": 369,
      "code": 370,
      "cas": 371,
      "ait": 372,
      "rec": 373,
      "pris": 374,
      "mp": 375,
      "cent": 376,
      "ence": 377,
      "pas": 378,
      "do": 379,
      "autor": 380,
      "être": 381,
      "sé": 382,
      "tu": 383,
      "ro": 384,
      "conditions": 385,
      "comm": 386,
      "rég": 387,
      "vent": 388,
      "seil": 389,
      "conseil": 390,
      "char": 391,
      "sou": 392,
      "pl": 393,
      "lai": 394,
      "sement": 395,
      "prévu": 396,
      "ère": 397,
      "cé": 398,
      "cet": 399,
      "fr": 400,
      "ès": 401,
      "id": 402,
      "fon": 403,
      "st": 404,
      "établis": 405,
      "age": 406,
      "lles": 407,
      "mé": 408,
      "parti": 409,
      "cer": 410,
      "application": 411,
      "tri": 412,
      "ux": 413,
      "ers": 414,
      "deman": 415,
      "cation": 416,
      "rit": 417,
      "ten": 418,
      "té": 419,
      "ord": 420,
      "entre": 421,
      "able": 422,
      "iné": 423,
      "tifi": 424,
      "jus": 425,
      "org": 426,
      "organ": 427,
      "ni": 428,
      "dispositions": 429,
      "mission": 430,
      "port": 431,
      "servi": 432,
      "ain": 433,
      "ts": 434,
      "lt": 435,
      "end": 436,
      "ii": 437,
      "lef": 438,
      "left": 439,
      "ants": 440,
      "ju": 441,
      "érie": 442,
      "aliné": 443,
      "mbre": 444,
      "ens": 445,
      "inter": 446,
      "tes": 447,
      "gr": 448,
      "organis": 449,
      "iv": 450,
      "center": 451,
      "nation": 452,
      "trans": 453,
      "personne": 454,
      "demande": 455,
      "sa": 456,
      "cette": 457,
      "été": 458,
      "articles": 459,
      "nés": 460,
      "ministr": 461,
      "etat": 462,
      "tive": 463,
      "public": 464,
      "fix": 465,
      "titre": 466,
      "mê": 467,
      "ours": 468,
      "prévues": 469,
      "ales": 470,
      "jet": 471,
      "ouv": 472,
      "alinéa": 473,
      "dro": 474,
      "exer": 475,
      "ec": 476,
      "ois": 477,
      "pre": 478,
      "nement": 479,
      "ls": 480,
      "titu": 481,
      "acc": 482,
      "lorsque": 483,
      "sant": 484,
      "bu": 485,
      "ession": 486,
      "ision": 487,
      "mar": 488,
      "sous": 489,
      "prof": 490,
      "rée": 491,
      "trav": 492,
      "droit": 493,
      "administr": 494,
      "vo": 495,
      "tement": 496,
      "commun": 497,
      "direc": 498,
      "gén": 499,
      "représent": 500,
      "ail": 501,
      "pé": 502,
      "elle": 503,
      "nes": 504,
      "fait": 505,
      "ainsi": 506,
      "isation": 507,
      "lement": 508,
      "ig": 509,
      "201": 510,
      "sup": 511,
      "produ": 512,
      "ret": 513,
      "génér": 514,
      "près": 515,
      "profession": 516,
      "\"><": 517,
      "dic": 518,
      "ses": 519,
      "ption": 520,
      "ché": 521,
      "tres": 522,
      "met": 523,
      "der": 524,
      "ense": 525,
      "opér": 526,
      "ave": 527,
      "tis": 528,
      "che": 529,
      "établissement": 530,
      "même": 531,
      "délai": 532,
      "éri": 533,
      "premi": 534,
      "pon": 535,
      "ges": 536,
      "ème": 537,
      "rela": 538,
      "th": 539,
      "ministre": 540,
      "dont": 541,
      "peu": 542,
      "défin": 543,
      "ables": 544,
      "activ": 545,
      "peuvent": 546,
      "lé": 547,
      "arr": 548,
      "personnes": 549,
      "cur": 550,
      "cons": 551,
      "eff": 552,
      "don": 553,
      "deux": 554,
      "cha": 555,
      "liv": 556,
      "mise": 557,
      "lon": 558,
      "née": 559,
      "ident": 560,
      "avec": 561,
      "territ": 562,
      "mentionnés": 563,
      "professionne": 564,
      "eu": 565,
      "publi": 566,
      "non": 567,
      "alités": 568,
      "ine": 569,
      "emp": 570,
      "ir": 571,
      "ori": 572,
      "inform": 573,
      "décret": 574,
      "arrê": 575,
      "tives": 576,
      "autorité": 577,
      "président": 578,
      "décision": 579,
      "dépar": 580,
      "exp": 581,
      "ite": 582,
      "mentionnées": 583,
      "ate": 584,
      "chargé": 585,
      "toute": 586,
      "prise": 587,
      "lui": 588,
      "santé": 589,
      "èg": 590,
      "pri": 591,
      "mont": 592,
      "région": 593,
      "dés": 594,
      "règ": 595,
      "mod": 596,
      "\"></": 597,
      "tru": 598,
      "00": 599,
      "fici": 600,
      "bi": 601,
      "ven": 602,
      "leurs": 603,
      "travail": 604,
      "uti": 605,
      "vis": 606,
      "ay": 607,
      "cré": 608,
      "soit": 609,
      "assur": 610,
      "ents": 611,
      "procé": 612,
      "pos": 613,
      "compét": 614,
      "concer": 615,
      "suiv": 616,
      "alité": 617,
      "tifs": 618,
      "après": 619,
      "ult": 620,
      "commission": 621,
      "mbres": 622,
      "éle": 623,
      "ct": 624,
      "lar": 625,
      "sécur": 626,
      "lig": 627,
      "oire": 628,
      "bé": 629,
      "service": 630,
      "tout": 631,
      "tify": 632,
      "justify": 633,
      "ils": 634,
      "ouve": 635,
      "contrat": 636,
      "sécurité": 637,
      "érieur": 638,
      "avis": 639,
      "compte": 640,
      "sements": 641,
      "nu": 642,
      "modalités": 643,
      "général": 644,
      "premier": 645,
      "teurs": 646,
      "mois": 647,
      "ver": 648,
      "ari": 649,
      "dép": 650,
      "nées": 651,
      "colle": 652,
      "durée": 653,
      "loi": 654,
      "alis": 655,
      "montant": 656,
      "béné": 657,
      "date": 658,
      "alement": 659,
      "oir": 660,
      "ique": 661,
      "lég": 662,
      "objet": 663,
      "ble": 664,
      "contrô": 665,
      "car": 666,
      "anci": 667,
      "table": 668,
      "prévue": 669,
      "collec": 670,
      "membres": 671,
      "plus": 672,
      "département": 673,
      "cri": 674,
      "br": 675,
      "dat": 676,
      "intér": 677,
      "fonction": 678,
      "arrêté": 679,
      "produit": 680,
      "services": 681,
      "résult": 682,
      "ilité": 683,
      "enti": 684,
      "loc": 685,
      "ères": 686,
      "moins": 687,
      "cip": 688,
      "action": 689,
      "éché": 690,
      "ances": 691,
      "sus": 692,
      "ception": 693,
      "respon": 694,
      "gar": 695,
      "eurs": 696,
      "déclar": 697,
      "lation": 698,
      "ph": 699,
      "apit": 700,
      "aff": 701,
      "défini": 702,
      "cla": 703,
      "por": 704,
      "cours": 705,
      "crit": 706,
      "ente": 707,
      "stat": 708,
      "chaque": 709,
      "mentionnée": 710,
      "lè": 711,
      "trois": 712,
      "bles": 713,
      "judi": 714,
      "act": 715,
      "lieu": 716,
      "directeur": 717,
      "gestion": 718,
      "publique": 719,
      "autres": 720,
      "pla": 721,
      "sociale": 722,
      "activité": 723,
      "partie": 724,
      "sans": 725,
      "exerci": 726,
      "déf": 727,
      "lib": 728,
      "effec": 729,
      "cor": 730,
      "établissements": 731,
      "ième": 732,
      "val": 733,
      "not": 734,
      "indi": 735,
      "ative": 736,
      "échéant": 737,
      "ences": 738,
      "ctions": 739,
      "ature": 740,
      "hab": 741,
      "termin": 742,
      "conform": 743,
      "tribu": 744,
      "applicables": 745,
      "amment": 746,
      "oblig": 747,
      "lorsqu": 748,
      "anti": 749,
      "formation": 750,
      "autre": 751,
      "explo": 752,
      "ra": 753,
      "opé": 754,
      "cat": 755,
      "dit": 756,
      "vention": 757,
      "ures": 758,
      "ément": 759,
      "trait": 760,
      "exercice": 761,
      "remp": 762,
      "cess": 763,
      "prises": 764,
      "ren": 765,
      "19": 766,
      "détermin": 767,
      "ordon": 768,
      "préc": 769,
      "contrôle": 770,
      "jour": 771,
      "propri": 772,
      "mati": 773,
      "représentant": 774,
      "national": 775,
      "bénéfici": 776,
      "territori": 777,
      "10": 778,
      "nom": 779,
      "notamment": 780,
      "administration": 781,
      "utilis": 782,
      "europé": 783,
      "suivant": 784,
      "nationale": 785,
      "procédu": 786,
      "sy": 787,
      "fér": 788,
      "ta": 789,
      "associ": 790,
      "selon": 791,
      "tal": 792,
      "tant": 793,
      "rer": 794,
      "médic": 795,
      "ress": 796,
      "exploit": 797,
      "tenu": 798,
      "avant": 799,
      "uv": 800,
      "ement": 801,
      "fran": 802,
      "forme": 803,
      "spé": 804,
      "européen": 805,
      "spéci": 806,
      "imp": 807,
      "agri": 808,
      "vant": 809,
      "cin": 810,
      "ner": 811,
      "financi": 812,
      "autorisation": 813,
      "ffi": 814,
      "fond": 815,
      "sit": 816,
      "exé": 817,
      "apport": 818,
      "ille": 819,
      "gement": 820,
      "laire": 821,
      "iti": 822,
      "respe": 823,
      "ayant": 824,
      "elles": 825,
      "som": 826,
      "oupe": 827,
      "nécess": 828,
      "div": 829,
      "position": 830,
      "doit": 831,
      "nature": 832,
      "union": 833,
      "équi": 834,
      "cour": 835,
      "préf": 836,
      "ang": 837,
      "année": 838,
      "élec": 839,
      "entreprise": 840,
      "derni": 841,
      "moy": 842,
      "prend": 843,
      "réser": 844,
      "société": 845,
      "franç": 846,
      "français": 847,
      "clas": 848,
      "sal": 849,
      "lim": 850,
      "docu": 851,
      "fixées": 852,
      "accord": 853,
      "judici": 854,
      "collectiv": 855,
      "200": 856,
      "uation": 857,
      "œuv": 858,
      "écon": 859,
      "cal": 860,
      "écono": 861,
      "ati": 862,
      "ca": 863,
      "déliv": 864,
      "organisme": 865,
      "cad": 866,
      "pres": 867,
      "compter": 868,
      "informations": 869,
      "oc": 870,
      "résultant": 871,
      "quis": 872,
      "log": 873,
      "transport": 874,
      "ouver": 875,
      "lusi": 876,
      "commer": 877,
      "tech": 878,
      "quel": 879,
      "droits": 880,
      "conn": 881,
      "érieure": 882,
      "produits": 883,
      "assu": 884,
      "loy": 885,
      "to": 886,
      "tification": 887,
      "hi": 888,
      "section": 889,
      "valign": 890,
      "amen": 891,
      "actions": 892,
      "également": 893,
      "convention": 894,
      "règlement": 895,
      "nouve": 896,
      "faire": 897,
      "préfet": 898,
      "péri": 899,
      "dant": 900,
      "groupe": 901,
      "ateur": 902,
      "référ": 903,
      "jours": 904,
      "sub": 905,
      "prest": 906,
      "pério": 907,
      "opération": 908,
      "salari": 909,
      "onnement": 910,
      "ign": 911,
      "ages": 912,
      "fois": 913,
      "mun": 914,
      "agré": 915,
      "difi": 916,
      "projet": 917,
      "serv": 918,
      "lée": 919,
      "conformément": 920,
      "liste": 921,
      "assurance": 922,
      "accomp": 923,
      "déclaration": 924,
      "tin": 925,
      "organismes": 926,
      "ôt": 927,
      "dent": 928,
      "eng": 929,
      "inv": 930,
      "trib": 931,
      "procédure": 932,
      "france": 933,
      "mots": 934,
      "sign": 935,
      "précis": 936,
      "mique": 937,
      "proc": 938,
      "nombre": 939,
      "ération": 940,
      "modifi": 941,
      "exécu": 942,
      "charge": 943,
      "rapport": 944,
      "jo": 945,
      "techni": 946,
      "cadre": 947,
      "13": 948,
      "rempla": 949,
      "vé": 950,
      "relatives": 951,
      "chapit": 952,
      "truction": 953,
      "endant": 954,
      "celui": 955,
      "can": 956,
      "communi": 957,
      "pen": 958,
      "alisation": 959,
      "réalis": 960,
      "quelle": 961,
      "judiciaire": 962,
      "uli": 963,
      "permet": 964,
      "tribun": 965,
      "constitu": 966,
      "sais": 967,
      "cher": 968,
      "opérations": 969,
      "appe": 970,
      "effectu": 971,
      "instal": 972,
      "cult": 973,
      "livre": 974,
      "mat": 975,
      "œuvre": 976,
      "fonds": 977,
      "où": 978,
      "autoris": 979,
      "202": 980,
      "celle": 981,
      "cription": 982,
      "ass": 983,
      "iii": 984,
      "agence": 985,
      "intéres": 986,
      "enseig": 987,
      "membre": 988,
      "attribu": 989,
      "aleur": 990,
      "fa": 991,
      "part": 992,
      "cep": 993,
      "ier": 994,
      "ante": 995,
      "os": 996,
      "asse": 997,
      "précé": 998,
      "réserve": 999,
      "celles": 1000,
      "ris": 1001,
      "justifi": 1002,
      "respons": 1003,
      "contre": 1004,
      "entreprises": 1005,
      "chapitre": 1006,
      "gis": 1007,
      "15": 1008,
      "étés": 1009,
      "professionnelle": 1010,
      "caract": 1011,
      "comptes": 1012,
      "établi": 1013,
      "temp": 1014,
      "travaux": 1015,
      "mesures": 1016,
      "pén": 1017,
      "valeur": 1018,
      "charg": 1019,
      "regis": 1020,
      "laquelle": 1021,
      "plusi": 1022,
      "plusieurs": 1023,
      "uelle": 1024,
      "el": 1025,
      "top": 1026,
      "lab": 1027,
      "uri": 1028,
      "itaire": 1029,
      "mandat": 1030,
      "four": 1031,
      "activités": 1032,
      "sance": 1033,
      "abilité": 1034,
      "clu": 1035,
      "xe": 1036,
      "habit": 1037,
      "tés": 1038,
      "publics": 1039,
      "médi": 1040,
      "employ": 1041,
      "cession": 1042,
      "état": 1043,
      "consu": 1044,
      "poli": 1045,
      "tection": 1046,
      "tribunal": 1047,
      "dem": 1048,
      "comité": 1049,
      "vir": 1050,
      "désig": 1051,
      "quelles": 1052,
      "eux": 1053,
      "délég": 1054,
      "effet": 1055,
      "deuxième": 1056,
      "seu": 1057,
      "aison": 1058,
      "protection": 1059,
      "tiers": 1060,
      "réception": 1061,
      "définies": 1062,
      "ordonn": 1063,
      "pai": 1064,
      "san": 1065,
      "garanti": 1066,
      "oivent": 1067,
      "soumis": 1068,
      "envir": 1069,
      "cais": 1070,
      "élé": 1071,
      "appli": 1072,
      "affec": 1073,
      "wid": 1074,
      "width": 1075,
      "plan": 1076,
      "lit": 1077,
      "sau": 1078,
      "tiques": 1079,
      "12": 1080,
      "désign": 1081,
      "environnement": 1082,
      "données": 1083,
      "intérê": 1084,
      "exécution": 1085,
      "mil": 1086,
      "éval": 1087,
      "territoire": 1088,
      "culture": 1089,
      "eau": 1090,
      "agents": 1091,
      "/>": 1092,
      "régi": 1093,
      "cl": 1094,
      "ordre": 1095,
      "indem": 1096,
      "amé": 1097,
      "prim": 1098,
      "indemn": 1099,
      "ueil": 1100,
      "pendant": 1101,
      "ensemb": 1102,
      "appel": 1103,
      "sociétés": 1104,
      "agrico": 1105,
      "inf": 1106,
      "règles": 1107,
      "dernier": 1108,
      "test": 1109,
      "infr": 1110,
      "prévus": 1111,
      "présente": 1112,
      "tous": 1113,
      "ssi": 1114,
      "moyen": 1115,
      "dée": 1116,
      "gu": 1117,
      "matière": 1118,
      "mêmes": 1119,
      "recher": 1120,
      "supérieur": 1121,
      "avoir": 1122,
      "rele": 1123,
      "ensemble": 1124,
      "frais": 1125,
      "pron": 1126,
      "tique": 1127,
      "maj": 1128,
      "réglement": 1129,
      "juge": 1130,
      "diff": 1131,
      "correspon": 1132,
      "délib": 1133,
      "ann": 1134,
      "mer": 1135,
      "lution": 1136,
      "information": 1137,
      "pronon": 1138,
      "représentants": 1139,
      "nent": 1140,
      "paiement": 1141,
      "partic": 1142,
      "ines": 1143,
      "pension": 1144,
      "dus": 1145,
      "période": 1146,
      "disposition": 1147,
      "ard": 1148,
      "doivent": 1149,
      "chan": 1150,
      "particip": 1151,
      "tation": 1152,
      "nant": 1153,
      "cations": 1154,
      "laires": 1155,
      "ist": 1156,
      "contri": 1157,
      "mor": 1158,
      "outre": 1159,
      "joint": 1160,
      "respect": 1161,
      "candi": 1162,
      "particuli": 1163,
      "commis": 1164,
      "pa": 1165,
      "fonctions": 1166,
      "civi": 1167,
      "adres": 1168,
      "taux": 1169,
      "comme": 1170,
      "candidat": 1171,
      "européenne": 1172,
      "pren": 1173,
      "catég": 1174,
      "pi": 1175,
      "certifi": 1176,
      "agement": 1177,
      "raison": 1178,
      "dg": 1179,
      "qualité": 1180,
      "budg": 1181,
      "sens": 1182,
      "étr": 1183,
      "éléments": 1184,
      "nécessaires": 1185,
      "communes": 1186,
      "na": 1187,
      "registre": 1188,
      "tron": 1189,
      "num": 1190,
      "connais": 1191,
      "naire": 1192,
      "déce": 1193,
      "em": 1194,
      "iques": 1195,
      "administrative": 1196,
      "11": 1197,
      "décembre": 1198,
      "juri": 1199,
      "gation": 1200,
      "étrang": 1201,
      "cond": 1202,
      "fer": 1203,
      "hu": 1204,
      "remplac": 1205,
      "portant": 1206,
      "méde": 1207,
      "dou": 1208,
      "contribu": 1209,
      "enseignement": 1210,
      "documents": 1211,
      ".</": 1212,
      "voi": 1213,
      "exception": 1214,
      "diction": 1215,
      "mie": 1216,
      "exploitation": 1217,
      "acquis": 1218,
      "30": 1219,
      "étaire": 1220,
      "fé": 1221,
      "ôts": 1222,
      "000": 1223,
      "phy": 1224,
      "déb": 1225,
      "missions": 1226,
      "dossi": 1227,
      "1er": 1228,
      "mettre": 1229,
      "défaut": 1230,
      "suivantes": 1231,
      "cir": 1232,
      "ats": 1233,
      "obligations": 1234,
      "ceux": 1235,
      "xim": 1236,
      "parties": 1237,
      "crédit": 1238,
      "desti": 1239,
      "constat": 1240,
      "mala": 1241,
      "étu": 1242,
      "équipe": 1243,
      "professionnel": 1244,
      "emploi": 1245,
      "ture": 1246,
      "siè": 1247,
      "saint": 1248,
      "inves": 1249,
      "calcu": 1250,
      "régional": 1251,
      "quê": 1252,
      "entes": 1253,
      "accompag": 1254,
      "vers": 1255,
      "22": 1256,
      "comman": 1257,
      "collectivités": 1258,
      "quat": 1259,
      "toutefois": 1260,
      "tien": 1261,
      "assemb": 1262,
      "électron": 1263,
      "col": 1264,
      "class": 1265,
      "ordonnance": 1266,
      "condu": 1267,
      "meu": 1268,
      "olog": 1269,
      "capit": 1270,
      "anne": 1271,
      "priv": 1272,
      "économique": 1273,
      "prati": 1274,
      "zon": 1275,
      "éner": 1276,
      "retrait": 1277,
      "ze": 1278,
      "fixé": 1279,
      "administra": 1280,
      "défense": 1281,
      "mesure": 1282,
      "place": 1283,
      "sauf": 1284,
      "dét": 1285,
      "17": 1286,
      "consult": 1287,
      "référence": 1288,
      "ul": 1289,
      "enf": 1290,
      "aide": 1291,
      "bilité": 1292,
      "16": 1293,
      "cinq": 1294,
      "die": 1295,
      "auprès": 1296,
      "prin": 1297,
      "chac": 1298,
      "commune": 1299,
      "cau": 1300,
      "régime": 1301,
      "ffici": 1302,
      "physi": 1303,
      "mani": 1304,
      "vue": 1305,
      "biens": 1306,
      "titulaire": 1307,
      "enses": 1308,
      "organisation": 1309,
      "gram": 1310,
      "lations": 1311,
      "production": 1312,
      "ill": 1313,
      "française": 1314,
      "personnel": 1315,
      "dossier": 1316,
      "acte": 1317,
      "ouvr": 1318,
      "relevant": 1319,
      "lève": 1320,
      "rémun": 1321,
      "hicu": 1322,
      "véhicu": 1323,
      "pouv": 1324,
      "commerce": 1325,
      "renouve": 1326,
      "vie": 1327,
      "salariés": 1328,
      "compétente": 1329,
      "dépenses": 1330,
      "social": 1331,
      "ire": 1332,
      "dér": 1333,
      "voie": 1334,
      "èces": 1335,
      "fixe": 1336,
      "recherche": 1337,
      "nouvelle": 1338,
      "cteur": 1339,
      "pose": 1340,
      "ler": 1341,
      "applicable": 1342,
      "accès": 1343,
      "fonctionnement": 1344,
      "six": 1345,
      "fis": 1346,
      "notifi": 1347,
      "um": 1348,
      "statut": 1349,
      "caisse": 1350,
      "let": 1351,
      "préa": 1352,
      "atoire": 1353,
      "situation": 1354,
      "sui": 1355,
      "ban": 1356,
      "toutes": 1357,
      "prestations": 1358,
      "commiss": 1359,
      "titres": 1360,
      "major": 1361,
      "complé": 1362,
      "évaluation": 1363,
      "gie": 1364,
      "chargés": 1365,
      "veill": 1366,
      "chambre": 1367,
      "14": 1368,
      "consi": 1369,
      "institu": 1370,
      "vier": 1371,
      "tenant": 1372,
      "offi": 1373,
      "suppl": 1374,
      "amén": 1375,
      "budget": 1376,
      "mation": 1377,
      "amende": 1378,
      "uni": 1379,
      "syst": 1380,
      "princip": 1381,
      "relative": 1382,
      "iden": 1383,
      "cap": 1384,
      "ites": 1385,
      "rig": 1386,
      "ly": 1387,
      "fication": 1388,
      "ba": 1389,
      "agrément": 1390,
      "anim": 1391,
      "complément": 1392,
      "ataire": 1393,
      "jan": 1394,
      "tro": 1395,
      "cotis": 1396,
      "rées": 1397,
      "tissement": 1398,
      "maine": 1399,
      "consom": 1400,
      "janvier": 1401,
      "situ": 1402,
      "connaissance": 1403,
      "syn": 1404,
      "abs": 1405,
      "édu": 1406,
      "marché": 1407,
      "appliqu": 1408,
      "program": 1409,
      "civile": 1410,
      "cien": 1411,
      "lable": 1412,
      "collectivité": 1413,
      "exig": 1414,
      "men": 1415,
      "distribu": 1416,
      "assemblée": 1417,
      "police": 1418,
      "urs": 1419,
      "fourn": 1420,
      "pay": 1421,
      "lesquelles": 1422,
      "oires": 1423,
      "auc": 1424,
      "respec": 1425,
      "cepti": 1426,
      "maxim": 1427,
      "suscepti": 1428,
      "siège": 1429,
      "actes": 1430,
      "vision": 1431,
      "usage": 1432,
      "nive": 1433,
      "déro": 1434,
      "permettant": 1435,
      "adap": 1436,
      "reven": 1437,
      "jusqu": 1438,
      "mon": 1439,
      "aph": 1440,
      "générale": 1441,
      "confi": 1442,
      "minist": 1443,
      "adresse": 1444,
      "intérieur": 1445,
      "départemental": 1446,
      "coopération": 1447,
      "veillance": 1448,
      "territoriales": 1449,
      "mobi": 1450,
      "sol": 1451,
      "précise": 1452,
      "trie": 1453,
      "république": 1454,
      "délégu": 1455,
      "indivi": 1456,
      "impôts": 1457,
      "immeu": 1458,
      "utilisation": 1459,
      "agis": 1460,
      "assurer": 1461,
      "ateurs": 1462,
      "gue": 1463,
      "employeur": 1464,
      "ho": 1465,
      "compris": 1466,
      "accor": 1467,
      "troisième": 1468,
      "temps": 1469,
      "document": 1470,
      "recours": 1471,
      "bil": 1472,
      "commerci": 1473,
      "limite": 1474,
      "hors": 1475,
      "inte": 1476,
      "individu": 1477,
      "rédu": 1478,
      "sein": 1479,
      "éro": 1480,
      "répon": 1481,
      "uel": 1482,
      "cle": 1483,
      "attest": 1484,
      "lop": 1485,
      "inscrit": 1486,
      "ître": 1487,
      "techniques": 1488,
      "première": 1489,
      "mut": 1490,
      "chef": 1491,
      "prix": 1492,
      "velop": 1493,
      "surveillance": 1494,
      "bes": 1495,
      "navi": 1496,
      "risques": 1497,
      "clusion": 1498,
      "°,": 1499,
      "notification": 1500,
      "appar": 1501,
      "quête": 1502,
      "itaires": 1503,
      "caractère": 1504,
      "certificat": 1505,
      "location": 1506,
      "intérêt": 1507,
      "mises": 1508,
      "quels": 1509,
      "accueil": 1510,
      "régionale": 1511,
      "tra": 1512,
      "logement": 1513,
      "base": 1514,
      "vente": 1515,
      "ancement": 1516,
      "agriculture": 1517,
      "exercer": 1518,
      "dev": 1519,
      "compor": 1520,
      "esti": 1521,
      "illet": 1522,
      "tit": 1523,
      "quali": 1524,
      "tenir": 1525,
      "atri": 1526,
      "différ": 1527,
      "pie": 1528,
      "office": 1529,
      "arma": 1530,
      "observ": 1531,
      "crip": 1532,
      "contrats": 1533,
      "entité": 1534,
      "réalisation": 1535,
      "atte": 1536,
      "cée": 1537,
      "naires": 1538,
      "ing": 1539,
      "ministres": 1540,
      "énergie": 1541,
      "ref": 1542,
      "soins": 1543,
      "net": 1544,
      "agricole": 1545,
      "écrit": 1546,
      "construction": 1547,
      "médica": 1548,
      "pan": 1549,
      "jec": 1550,
      "désigné": 1551,
      "comprend": 1552,
      "chet": 1553,
      "chés": 1554,
      "lais": 1555,
      "décisions": 1556,
      "offici": 1557,
      "audi": 1558,
      "niveau": 1559,
      "conserv": 1560,
      "juillet": 1561,
      "puis": 1562,
      "minim": 1563,
      "initi": 1564,
      "mariti": 1565,
      "rection": 1566,
      "pièces": 1567,
      "indus": 1568,
      "ventions": 1569,
      "directement": 1570,
      "informe": 1571,
      "labor": 1572,
      "maladie": 1573,
      "dix": 1574,
      "remb": 1575,
      "quatre": 1576,
      "nelle": 1577,
      "absence": 1578,
      "tari": 1579,
      "gre": 1580,
      "fig": 1581,
      "alid": 1582,
      "électronique": 1583,
      "beso": 1584,
      "excé": 1585,
      "centre": 1586,
      "locaux": 1587,
      "installations": 1588,
      "tice": 1589,
      "50": 1590,
      "examen": 1591,
      "liqui": 1592,
      "intéressé": 1593,
      "copie": 1594,
      "relatif": 1595,
      "conjoint": 1596,
      "communale": 1597,
      "orig": 1598,
      "instruction": 1599,
      "suivants": 1600,
      "rou": 1601,
      "tent": 1602,
      "collè": 1603,
      "devant": 1604,
      "précédent": 1605,
      "moyens": 1606,
      "territoriale": 1607,
      "ht": 1608,
      "compétences": 1609,
      "cipl": 1610,
      "discipl": 1611,
      "commissaire": 1612,
      "truct": 1613,
      "bis": 1614,
      "civ": 1615,
      "font": 1616,
      "ition": 1617,
      "syndic": 1618,
      "condition": 1619,
      "technique": 1620,
      "ches": 1621,
      "capac": 1622,
      "euros": 1623,
      "capital": 1624,
      "financement": 1625,
      "eures": 1626,
      "quin": 1627,
      "correspondant": 1628,
      "objec": 1629,
      "tableau": 1630,
      "ût": 1631,
      "assure": 1632,
      "bénéfi": 1633,
      "obligation": 1634,
      "titulaires": 1635,
      "dès": 1636,
      "dévelop": 1637,
      "exper": 1638,
      "autorités": 1639,
      "réso": 1640,
      "dy": 1641,
      "tenus": 1642,
      "isme": 1643,
      "2019": 1644,
      "demandeur": 1645,
      "charges": 1646,
      "chi": 1647,
      "propriétaire": 1648,
      "ède": 1649,
      "bo": 1650,
      "traitement": 1651,
      "taxe": 1652,
      "inscription": 1653,
      "ressort": 1654,
      "publiques": 1655,
      "égal": 1656,
      "véri": 1657,
      "industrie": 1658,
      "professionnels": 1659,
      "soli": 1660,
      "31": 1661,
      "reç": 1662,
      "bon": 1663,
      "pharma": 1664,
      "sommes": 1665,
      "2013": 1666,
      "right": 1667,
      "exc": 1668,
      "off": 1669,
      "installation": 1670,
      "tenue": 1671,
      "25": 1672,
      "rémunération": 1673,
      "expir": 1674,
      "alinéas": 1675,
      "ues": 1676,
      "désignés": 1677,
      "procure": 1678,
      "éris": 1679,
      "muni": 1680,
      "considé": 1681,
      "résolution": 1682,
      "concernant": 1683,
      "éducation": 1684,
      "tient": 1685,
      "cause": 1686,
      "çant": 1687,
      "expiration": 1688,
      "inaire": 1689,
      "fixée": 1690,
      "délibér": 1691,
      "mobili": 1692,
      "orie": 1693,
      "hy": 1694,
      "êche": 1695,
      "ources": 1696,
      "étranger": 1697,
      "habil": 1698,
      "heures": 1699,
      "juridiction": 1700,
      "cées": 1701,
      "ga": 1702,
      "intég": 1703,
      "domaine": 1704,
      "communiqu": 1705,
      "dérogation": 1706,
      "illes": 1707,
      "porte": 1708,
      "tot": 1709,
      "groupement": 1710,
      "point": 1711,
      "post": 1712,
      "réd": 1713,
      "tée": 1714,
      "bâ": 1715,
      "intéress": 1716,
      "justice": 1717,
      "nomin": 1718,
      "18": 1719,
      "bal": 1720,
      "modification": 1721,
      "direction": 1722,
      "tements": 1723,
      "aménagement": 1724,
      "remplacés": 1725,
      "mici": 1726,
      "agent": 1727,
      "concerne": 1728,
      "possi": 1729,
      "rest": 1730,
      "compétence": 1731,
      "vol": 1732,
      "impôt": 1733,
      "ministère": 1734,
      "domici": 1735,
      "procéder": 1736,
      "personnels": 1737,
      "spécifi": 1738,
      "calcul": 1739,
      "médecin": 1740,
      "déci": 1741,
      "proposition": 1742,
      "poser": 1743,
      "bénéficiaire": 1744,
      "procureur": 1745,
      "indiqu": 1746,
      "voir": 1747,
      "développe": 1748,
      "gements": 1749,
      "propriété": 1750,
      "motiv": 1751,
      "prê": 1752,
      "peine": 1753,
      "supérieure": 1754,
      "catégorie": 1755,
      "tivement": 1756,
      "électri": 1757,
      "2014": 1758,
      "pouvoir": 1759,
      "adress": 1760,
      "garantie": 1761,
      "redev": 1762,
      "intercommunale": 1763,
      "matérie": 1764,
      "exploitant": 1765,
      "pit": 1766,
      "communication": 1767,
      "association": 1768,
      "radi": 1769,
      "23": 1770,
      "refus": 1771,
      "recomman": 1772,
      "définis": 1773,
      "suff": 1774,
      "évent": 1775,
      "prendre": 1776,
      "financiers": 1777,
      "eaux": 1778,
      "spor": 1779,
      "ot": 1780,
      "versement": 1781,
      "ouverture": 1782,
      "développement": 1783,
      "réseau": 1784,
      "occu": 1785,
      "assis": 1786,
      "sent": 1787,
      "réunion": 1788,
      "fs": 1789,
      "préci": 1790,
      "égale": 1791,
      "issu": 1792,
      "responsable": 1793,
      "fisc": 1794,
      "hé": 1795,
      "tbo": 1796,
      "tbody": 1797,
      "comb": 1798,
      "24": 1799,
      "fais": 1800,
      "due": 1801,
      "zone": 1802,
      "nements": 1803,
      "caractéris": 1804,
      "recouv": 1805,
      "nor": 1806,
      "financier": 1807,
      "condam": 1808,
      "cotisations": 1809,
      "rembour": 1810,
      "régu": 1811,
      "dépôt": 1812,
      "afin": 1813,
      "fam": 1814,
      "ru": 1815,
      "assi": 1816,
      "investissement": 1817,
      "préjudi": 1818,
      "cti": 1819,
      "orient": 1820,
      "urg": 1821,
      "comptable": 1822,
      "suivi": 1823,
      "abri": 1824,
      "clear": 1825,
      "sep": 1826,
      "none": 1827,
      "tance": 1828,
      "dipl": 1829,
      "transfer": 1830,
      "participation": 1831,
      "diplô": 1832,
      "délais": 1833,
      "import": 1834,
      "mili": 1835,
      "prévention": 1836,
      "indemnité": 1837,
      "professionnelles": 1838,
      "salarié": 1839,
      "ves": 1840,
      "responsabilité": 1841,
      "lettre": 1842,
      "affaires": 1843,
      "posé": 1844,
      "gueur": 1845,
      "système": 1846,
      "han": 1847,
      "interven": 1848,
      "transports": 1849,
      "rép": 1850,
      "rédaction": 1851,
      "oraire": 1852,
      "ressources": 1853,
      "ogr": 1854,
      "compétent": 1855,
      "civil": 1856,
      "fabri": 1857,
      "acqu": 1858,
      "nel": 1859,
      "2016": 1860,
      "ade": 1861,
      "observations": 1862,
      "chacun": 1863,
      "collège": 1864,
      "ple": 1865,
      "départements": 1866,
      "llement": 1867,
      "morale": 1868,
      "denti": 1869,
      "distribution": 1870,
      "préjudice": 1871,
      "procès": 1872,
      "débit": 1873,
      "hér": 1874,
      "origine": 1875,
      "soi": 1876,
      "puni": 1877,
      "atives": 1878,
      "poly": 1879,
      "moment": 1880,
      "engage": 1881,
      "appréci": 1882,
      "amp": 1883,
      "délivr": 1884,
      "annexe": 1885,
      "bâti": 1886,
      "convo": 1887,
      "risque": 1888,
      "réparti": 1889,
      "alidité": 1890,
      "lequel": 1891,
      "parlement": 1892,
      "adé": 1893,
      "affi": 1894,
      "total": 1895,
      "2021": 1896,
      "telle": 1897,
      "tenues": 1898,
      "culation": 1899,
      "centr": 1900,
      "cr": 1901,
      "enregistre": 1902,
      "bail": 1903,
      "juin": 1904,
      "main": 1905,
      "bien": 1906,
      "tard": 1907,
      "26": 1908,
      "cité": 1909,
      "figur": 1910,
      "faisant": 1911,
      "médicale": 1912,
      "suite": 1913,
      "donne": 1914,
      "perman": 1915,
      "const": 1916,
      "rement": 1917,
      "logements": 1918,
      "liquid": 1919,
      "inférieur": 1920,
      "comporte": 1921,
      "acci": 1922,
      "transmet": 1923,
      "économie": 1924,
      "lés": 1925,
      "mai": 1926,
      "jou": 1927,
      "demandes": 1928,
      "gestionnaire": 1929,
      "quinze": 1930,
      "ories": 1931,
      "endre": 1932,
      "parts": 1933,
      "cteurs": 1934,
      "catégories": 1935,
      "résid": 1936,
      "dispositif": 1937,
      "famili": 1938,
      "domicile": 1939,
      "solid": 1940,
      "détermine": 1941,
      "bénéfice": 1942,
      "concernés": 1943,
      "casion": 1944,
      "occasion": 1945,
      "procédures": 1946,
      "exerce": 1947,
      "maire": 1948,
      "vote": 1949,
      "pér": 1950,
      "ty": 1951,
      "dispose": 1952,
      "habitation": 1953,
      "demander": 1954,
      "capacité": 1955,
      "numéro": 1956,
      "victi": 1957,
      "dents": 1958,
      "maritime": 1959,
      "entra": 1960,
      "réput": 1961,
      "création": 1962,
      "assuré": 1963,
      "terme": 1964,
      "entraî": 1965,
      "xes": 1966,
      "délivrance": 1967,
      "instru": 1968,
      "paris": 1969,
      "équipements": 1970,
      "vigueur": 1971,
      "cement": 1972,
      "marchés": 1973,
      "criptions": 1974,
      "rece": 1975,
      "aître": 1976,
      "organisations": 1977,
      "compt": 1978,
      "qualifi": 1979,
      "supprim": 1980,
      "aient": 1981,
      "fins": 1982,
      "inspe": 1983,
      "appliquent": 1984,
      "objectifs": 1985,
      "comport": 1986,
      "aly": 1987,
      "sociales": 1988,
      "itation": 1989,
      "29": 1990,
      "annuel": 1991,
      "enquête": 1992,
      "nécessaire": 1993,
      "site": 1994,
      "fonci": 1995,
      "usion": 1996,
      "deme": 1997,
      "préalable": 1998,
      "résultats": 1999,
      "hos": 2000,
      "infraction": 2001,
      "retraite": 2002,
      "transmission": 2003,
      "références": 2004,
      "28": 2005,
      "pes": 2006,
      "associations": 2007,
      "bor": 2008,
      "requis": 2009,
      "prob": 2010,
      "transfert": 2011,
      "candidats": 2012,
      "excéder": 2013,
      "intégr": 2014,
      "intérêts": 2015,
      "aine": 2016,
      "unique": 2017,
      "uellement": 2018,
      "haut": 2019,
      "second": 2020,
      "financière": 2021,
      "équival": 2022,
      "manière": 2023,
      "caractéristiques": 2024,
      "ving": 2025,
      "attestation": 2026,
      "carte": 2027,
      "séjour": 2028,
      "satis": 2029,
      "légis": 2030,
      "atta": 2031,
      "peines": 2032,
      "attribution": 2033,
      "dicap": 2034,
      "programme": 2035,
      "handicap": 2036,
      "consommation": 2037,
      "bar": 2038,
      "aliment": 2039,
      "présenter": 2040,
      "2017": 2041,
      "conseiller": 2042,
      "dre": 2043,
      "hospit": 2044,
      "lablement": 2045,
      "pass": 2046,
      "municip": 2047,
      "cut": 2048,
      "associés": 2049,
      "dues": 2050,
      "recet": 2051,
      "années": 2052,
      "agricoles": 2053,
      "cou": 2054,
      "personn": 2055,
      "vient": 2056,
      "véhicule": 2057,
      "douan": 2058,
      "cert": 2059,
      "acquisition": 2060,
      "ps": 2061,
      "pêche": 2062,
      "supplé": 2063,
      "immeubles": 2064,
      "pru": 2065,
      "27": 2066,
      "physiques": 2067,
      "faite": 2068,
      "physique": 2069,
      "occup": 2070,
      "perç": 2071,
      "huit": 2072,
      "gaz": 2073,
      "susceptibles": 2074,
      "adop": 2075,
      "dom": 2076,
      "trat": 2077,
      "oit": 2078,
      "sû": 2079,
      "provision": 2080,
      "médec": 2081,
      "tées": 2082,
      "esp": 2083,
      "paration": 2084,
      "vingt": 2085,
      "véhicules": 2086,
      "arm": 2087,
      "uelles": 2088,
      "nésie": 2089,
      "calé": 2090,
      "ibles": 2091,
      "mais": 2092,
      "calédon": 2093,
      "consé": 2094,
      "oy": 2095,
      "calédonie": 2096,
      "polynésie": 2097,
      "identification": 2098,
      "je": 2099,
      "and": 2100,
      "lois": 2101,
      "métro": 2102,
      "21": 2103,
      "aven": 2104,
      "remise": 2105,
      "métropo": 2106,
      "consultation": 2107,
      "issue": 2108,
      "dur": 2109,
      "enfant": 2110,
      "remboursement": 2111,
      "suffis": 2112,
      "may": 2113,
      "partir": 2114,
      "jugement": 2115,
      "temporaire": 2116,
      "espa": 2117,
      "dération": 2118,
      "duquel": 2119,
      "infractions": 2120,
      "aucune": 2121,
      "espace": 2122,
      "relatifs": 2123,
      "ciné": 2124,
      "posée": 2125,
      "local": 2126,
      "fixés": 2127,
      "nég": 2128,
      "immédi": 2129,
      "auteur": 2130,
      "otte": 2131,
      "médical": 2132,
      "mayotte": 2133,
      "recueil": 2134,
      "ach": 2135,
      "exerçant": 2136,
      "marchan": 2137,
      "statuts": 2138,
      "199": 2139,
      "études": 2140,
      "conventions": 2141,
      "aides": 2142,
      "enregistrement": 2143,
      "suspension": 2144,
      "faits": 2145,
      "journ": 2146,
      "ètre": 2147,
      "sig": 2148,
      "engagement": 2149,
      "immobili": 2150,
      "ber": 2151,
      "univ": 2152,
      "définie": 2153,
      "dépend": 2154,
      "acces": 2155,
      "éco": 2156,
      "concerné": 2157,
      "2020": 2158,
      "territorial": 2159,
      "avor": 2160,
      "fourni": 2161,
      "acadé": 2162,
      "mars": 2163,
      "parmi": 2164,
      "dement": 2165,
      "dessus": 2166,
      "exécut": 2167,
      "magis": 2168,
      "volont": 2169,
      "finances": 2170,
      "applique": 2171,
      "militaire": 2172,
      "porter": 2173,
      "ataires": 2174,
      "médicament": 2175,
      "vérifi": 2176,
      "disp": 2177,
      "conseils": 2178,
      "conclu": 2179,
      "uels": 2180,
      "recettes": 2181,
      "fut": 2182,
      "formu": 2183,
      "identité": 2184,
      "contract": 2185,
      "ons": 2186,
      "permis": 2187,
      "urban": 2188,
      "rier": 2189,
      "volu": 2190,
      "vertu": 2191,
      "atoires": 2192,
      "publication": 2193,
      "aines": 2194,
      "délivré": 2195,
      "curr": 2196,
      "art": 2197,
      "conformité": 2198,
      "concl": 2199,
      "constru": 2200,
      "allocation": 2201,
      "iste": 2202,
      "bénéficier": 2203,
      "correspond": 2204,
      "fournis": 2205,
      "renouvellement": 2206,
      "mid": 2207,
      "partici": 2208,
      "70": 2209,
      "struct": 2210,
      "instit": 2211,
      "matique": 2212,
      "ies": 2213,
      "verbal": 2214,
      "délibération": 2215,
      "lieux": 2216,
      "interdiction": 2217,
      "concession": 2218,
      "intermédi": 2219,
      "classe": 2220,
      "inférieure": 2221,
      "assist": 2222,
      "60": 2223,
      "communaut": 2224,
      "procédé": 2225,
      "support": 2226,
      "glo": 2227,
      "propre": 2228,
      "liation": 2229,
      "enfants": 2230,
      "lité": 2231,
      "institut": 2232,
      "dle": 2233,
      "appor": 2234,
      "regar": 2235,
      "identifi": 2236,
      "prélève": 2237,
      "chacune": 2238,
      "cientifi": 2239,
      "scientifi": 2240,
      "accep": 2241,
      "oci": 2242,
      "groupements": 2243,
      "middle": 2244,
      "lesquels": 2245,
      "voix": 2246,
      "marchandis": 2247,
      "él": 2248,
      "chets": 2249,
      "100": 2250,
      "quatri": 2251,
      "particulier": 2252,
      "demeure": 2253,
      "quatrième": 2254,
      "étaires": 2255,
      "itée": 2256,
      "garde": 2257,
      "agr": 2258,
      "analy": 2259,
      "concurr": 2260,
      "reté": 2261,
      "dées": 2262,
      "désignation": 2263,
      "subst": 2264,
      "liber": 2265,
      "portion": 2266,
      "orti": 2267,
      "besoins": 2268,
      "çon": 2269,
      "sanction": 2270,
      "uve": 2271,
      "imes": 2272,
      "lir": 2273,
      "ono": 2274,
      "affér": 2275,
      "périm": 2276,
      "engag": 2277,
      "réguli": 2278,
      "toire": 2279,
      "75": 2280,
      "nomination": 2281,
      "nouveau": 2282,
      "règle": 2283,
      "pati": 2284,
      "prestation": 2285,
      "garanties": 2286,
      "supplément": 2287,
      "cols": 2288,
      "élus": 2289,
      "colspan": 2290,
      "complémentaire": 2291,
      "détention": 2292,
      "figurant": 2293,
      "rur": 2294,
      "décès": 2295,
      "ao": 2296,
      "éch": 2297,
      "déterminée": 2298,
      "recouvrement": 2299,
      "sanitaire": 2300,
      "greff": 2301,
      "més": 2302,
      "morales": 2303,
      "diplôme": 2304,
      "sûreté": 2305,
      "obligatoire": 2306,
      "urbanisme": 2307,
      "cli": 2308,
      "aucun": 2309,
      "administratif": 2310,
      "vement": 2311,
      "fac": 2312,
      "déchets": 2313,
      "plein": 2314,
      "bénéficiaires": 2315,
      "use": 2316,
      "oct": 2317,
      "négoci": 2318,
      "mét": 2319,
      "pays": 2320,
      "iter": 2321,
      "saisie": 2322,
      "projets": 2323,
      "délégué": 2324,
      "débiteur": 2325,
      "nove": 2326,
      "novembre": 2327,
      "itenti": 2328,
      "sco": 2329,
      "envis": 2330,
      "pénitenti": 2331,
      "militaires": 2332,
      "concernée": 2333,
      "2018": 2334,
      "cés": 2335,
      "obre": 2336,
      "août": 2337,
      "2023": 2338,
      "octobre": 2339,
      "proportion": 2340,
      "bure": 2341,
      "preuve": 2342,
      "posées": 2343,
      "spécialis": 2344,
      "forfait": 2345,
      "fournit": 2346,
      "matri": 2347,
      "positions": 2348,
      "2022": 2349,
      "établie": 2350,
      "rev": 2351,
      "sociaux": 2352,
      "intervention": 2353,
      "réduction": 2354,
      "secré": 2355,
      "adressée": 2356,
      "engagements": 2357,
      "cy": 2358,
      "transmis": 2359,
      "ologie": 2360,
      "rési": 2361,
      "40": 2362,
      "aur": 2363,
      "uses": 2364,
      "présentation": 2365,
      "mandataire": 2366,
      "somme": 2367,
      "recommandée": 2368,
      "pénal": 2369,
      "cant": 2370,
      "concurrence": 2371,
      "tour": 2372,
      "départementale": 2373,
      "antes": 2374,
      "compren": 2375,
      "dispositifs": 2376,
      "critères": 2377,
      "financières": 2378,
      "corps": 2379,
      "télé": 2380,
      "résidence": 2381,
      "cel": 2382,
      "appr": 2383,
      "exist": 2384,
      "unité": 2385,
      "zones": 2386,
      "susceptible": 2387,
      "rédi": 2388,
      "exclusi": 2389,
      "actifs": 2390,
      "univers": 2391,
      "exon": 2392,
      "auto": 2393,
      "domm": 2394,
      "égard": 2395,
      "délégation": 2396,
      "regard": 2397,
      "border": 2398,
      "lissement": 2399,
      "revenus": 2400,
      "maines": 2401,
      "sché": 2402,
      "dépas": 2403,
      "immatri": 2404,
      "urgence": 2405,
      "entend": 2406,
      "favor": 2407,
      "liés": 2408,
      "répartition": 2409,
      "instance": 2410,
      "entrée": 2411,
      "opérateur": 2412,
      "aute": 2413,
      "chargée": 2414,
      "suc": 2415,
      "hiques": 2416,
      "alors": 2417,
      "sec": 2418,
      "soumises": 2419,
      "enseignements": 2420,
      "mutu": 2421,
      "greffe": 2422,
      "posés": 2423,
      "erre": 2424,
      "manque": 2425,
      ").": 2426,
      "élabor": 2427,
      "composition": 2428,
      "dq": 2429,
      "tel": 2430,
      "dqtable": 2431,
      "électricité": 2432,
      "enne": 2433,
      "dique": 2434,
      "offre": 2435,
      "propres": 2436,
      "entretien": 2437,
      "2015": 2438,
      "donner": 2439,
      "appartenant": 2440,
      "comportant": 2441,
      "arch": 2442,
      "chois": 2443,
      "autono": 2444,
      "signature": 2445,
      "particulières": 2446,
      "clé": 2447,
      "dentiel": 2448,
      "emb": 2449,
      "miques": 2450,
      "va": 2451,
      "placement": 2452,
      "dû": 2453,
      "agit": 2454,
      "ock": 2455,
      "exclusion": 2456,
      "secteur": 2457,
      "intéressés": 2458,
      "suit": 2459,
      "probation": 2460,
      "empris": 2461,
      "emprisonnement": 2462,
      "présence": 2463,
      "délibérations": 2464,
      "résultat": 2465,
      "ertion": 2466,
      "face": 2467,
      "infi": 2468,
      "âge": 2469,
      "type": 2470,
      "justifica": 2471,
      "contribution": 2472,
      "manif": 2473,
      "préalablement": 2474,
      "infir": 2475,
      "stock": 2476,
      "198": 2477,
      "conservation": 2478,
      "revenu": 2479,
      "déterminé": 2480,
      "armées": 2481,
      "artis": 2482,
      "publicité": 2483,
      "pénale": 2484,
      "patri": 2485,
      "prescriptions": 2486,
      "conforme": 2487,
      "ètres": 2488,
      "paragr": 2489,
      "animaux": 2490,
      "paragraph": 2491,
      "motivée": 2492,
      "expéri": 2493,
      "délivrée": 2494,
      "connaître": 2495,
      "travailleurs": 2496,
      "compens": 2497,
      "insertion": 2498,
      "permettre": 2499,
      "lou": 2500,
      "fonctionnaires": 2501,
      "liquidation": 2502,
      "posant": 2503,
      "oix": 2504,
      "concours": 2505,
      "mobil": 2506,
      "sanctions": 2507,
      "78": 2508,
      "voy": 2509,
      "limites": 2510,
      "terr": 2511,
      "dispon": 2512,
      "ciens": 2513,
      "formations": 2514,
      "chambres": 2515,
      "procède": 2516,
      "marchandises": 2517,
      "wal": 2518,
      "una": 2519,
      "destinés": 2520,
      "douanes": 2521,
      "wallis": 2522,
      "prun": 2523,
      "futuna": 2524,
      "patrimo": 2525,
      "périmètre": 2526,
      "prudentiel": 2527,
      "immeuble": 2528,
      "mul": 2529,
      "héber": 2530,
      "gouver": 2531,
      "indic": 2532,
      "vice": 2533,
      "uit": 2534,
      "créanci": 2535,
      "dédu": 2536,
      "provis": 2537,
      "agers": 2538,
      "prononcée": 2539,
      "inc": 2540,
      "minimum": 2541,
      "dispens": 2542,
      "hon": 2543,
      "emprun": 2544,
      "tations": 2545,
      "dernière": 2546,
      "prescrit": 2547,
      "titude": 2548,
      "quanti": 2549,
      "forê": 2550,
      "réglementaire": 2551,
      "èle": 2552,
      "statu": 2553,
      "habilité": 2554,
      "congé": 2555,
      "concernées": 2556,
      "posent": 2557,
      "totale": 2558,
      "infor": 2559,
      "distin": 2560,
      "atement": 2561,
      "bois": 2562,
      "vée": 2563,
      "déterminées": 2564,
      "avo": 2565,
      "ctor": 2566,
      "façon": 2567,
      "soumise": 2568,
      "politique": 2569,
      "aphiques": 2570,
      "solidar": 2571,
      "ordin": 2572,
      "ible": 2573,
      "nul": 2574,
      "ajou": 2575,
      "etats": 2576,
      "réglementation": 2577,
      "assurances": 2578,
      "conclusion": 2579,
      "compati": 2580,
      "unités": 2581,
      "vét": 2582,
      "habilités": 2583,
      "majorité": 2584,
      "subordon": 2585,
      "indemnités": 2586,
      "érés": 2587,
      "points": 2588,
      "améli": 2589,
      "opposition": 2590,
      "popu": 2591,
      "disciplinaire": 2592,
      "èmes": 2593,
      "visés": 2594,
      "constitution": 2595,
      "affectés": 2596,
      "pouvant": 2597,
      "atif": 2598,
      "formes": 2599,
      "tier": 2600,
      "indication": 2601,
      "orientation": 2602,
      "clôt": 2603,
      "ouvrages": 2604,
      "relève": 2605,
      "aphique": 2606,
      "mu": 2607,
      "attributions": 2608,
      "ouvrage": 2609,
      "vétér": 2610,
      "exigences": 2611,
      "chiff": 2612,
      "œuvres": 2613,
      "communications": 2614,
      "famille": 2615,
      "bureau": 2616,
      ")</": 2617,
      "plant": 2618,
      "privé": 2619,
      "exemp": 2620,
      "circonst": 2621,
      "champ": 2622,
      "pénitentiaire": 2623,
      "oeu": 2624,
      "avr": 2625,
      "contraire": 2626,
      "nuclé": 2627,
      "aér": 2628,
      "bio": 2629,
      "immédiatement": 2630,
      "pression": 2631,
      "évalu": 2632,
      "choix": 2633,
      "avocat": 2634,
      "contenu": 2635,
      "tenti": 2636,
      "fédération": 2637,
      "he": 2638,
      "avril": 2639,
      "xte": 2640,
      "grat": 2641,
      "rural": 2642,
      "profit": 2643,
      "propriétaires": 2644,
      "équipement": 2645,
      "els": 2646,
      "prévision": 2647,
      "atteint": 2648,
      "oeuv": 2649,
      "indique": 2650,
      "versées": 2651,
      "subs": 2652,
      "conti": 2653,
      "affectation": 2654,
      "besoin": 2655,
      "accompagnement": 2656,
      "trou": 2657,
      "médicaments": 2658,
      "att": 2659,
      "patrimoine": 2660,
      "matériels": 2661,
      "collectif": 2662,
      "depuis": 2663,
      "valeurs": 2664,
      "vu": 2665,
      "maximum": 2666,
      "inscrits": 2667,
      "sport": 2668,
      "liées": 2669,
      "65": 2670,
      "donné": 2671,
      "fraction": 2672,
      "solidarité": 2673,
      "ane": 2674,
      "certaines": 2675,
      "hospitali": 2676,
      "èrement": 2677,
      "2010": 2678,
      "employeurs": 2679,
      "étudi": 2680,
      "libre": 2681,
      "maximale": 2682,
      "lant": 2683,
      "inten": 2684,
      "corse": 2685,
      "tiss": 2686,
      "caisses": 2687,
      "secret": 2688,
      "dite": 2689,
      "schéma": 2690,
      "gne": 2691,
      "auquel": 2692,
      "seur": 2693,
      "changement": 2694,
      "saisi": 2695,
      "respectivement": 2696,
      "périodes": 2697,
      "atteinte": 2698,
      "contin": 2699,
      "annuelle": 2700,
      "régulation": 2701,
      "matogr": 2702,
      "signi": 2703,
      "inci": 2704,
      "scr": 2705,
      "numéri": 2706,
      "cinématogr": 2707,
      "effectuée": 2708,
      "complémentaires": 2709,
      "invalidité": 2710,
      "trente": 2711,
      "ext": 2712,
      "utilisés": 2713,
      "scientifique": 2714,
      "reti": 2715,
      "sollic": 2716,
      "autorisé": 2717,
      "organe": 2718,
      "simp": 2719,
      "pluri": 2720,
      "provisoire": 2721,
      "exprim": 2722,
      "hés": 2723,
      "réalisées": 2724,
      "bilan": 2725,
      "contrôles": 2726,
      "effectué": 2727,
      "métropole": 2728,
      "associé": 2729,
      "judiciaires": 2730,
      "rendu": 2731,
      "paragraphe": 2732,
      "soient": 2733,
      "réalisée": 2734,
      "réglementaires": 2735,
      "nommé": 2736,
      "itié": 2737,
      "divers": 2738,
      "moitié": 2739,
      "lies": 2740,
      "continu": 2741,
      "39": 2742,
      "pier": 2743,
      "consomma": 2744,
      "),": 2745,
      "clôture": 2746,
      "2009": 2747,
      "guy": 2748,
      "contraven": 2749,
      "contraventions": 2750,
      "lées": 2751,
      "appropri": 2752,
      "my": 2753,
      "obtenir": 2754,
      "érieurement": 2755,
      "seul": 2756,
      "déclarations": 2757,
      "élector": 2758,
      "élection": 2759,
      "abro": 2760,
      "utin": 2761,
      "individuelle": 2762,
      "scrutin": 2763,
      "colon": 2764,
      "bulle": 2765,
      "76": 2766,
      "bulletin": 2767,
      "vac": 2768,
      "nommés": 2769,
      "réseaux": 2770,
      "autorisations": 2771,
      "loyer": 2772,
      "volution": 2773,
      "45": 2774,
      "effets": 2775,
      "sera": 2776,
      "guyane": 2777,
      "cinqui": 2778,
      "exercent": 2779,
      "obst": 2780,
      "intermédiaire": 2781,
      "rejet": 2782,
      "possibilité": 2783,
      "guerre": 2784,
      "rh": 2785,
      "\",": 2786,
      "fact": 2787,
      "fusion": 2788,
      "agissant": 2789,
      "pierre": 2790,
      "auxquelles": 2791,
      "renseignements": 2792,
      "spe": 2793,
      "désigne": 2794,
      "électroniques": 2795,
      "thè": 2796,
      "commissions": 2797,
      "détail": 2798,
      "visées": 2799,
      "chement": 2800,
      "cinquième": 2801,
      "35": 2802,
      "ws": 2803,
      "élè": 2804,
      "radio": 2805,
      "assimil": 2806,
      "préven": 2807,
      "principal": 2808,
      "fem": 2809,
      "gouvernement": 2810,
      "circulation": 2811,
      "ise": 2812,
      "coût": 2813,
      "centres": 2814,
      "encour": 2815,
      "effectuées": 2816,
      "indépend": 2817,
      "administrateur": 2818,
      "mineur": 2819,
      "stage": 2820,
      "matières": 2821,
      "ouvert": 2822,
      "bénéficient": 2823,
      "vari": 2824,
      "requête": 2825,
      "2012": 2826,
      "inspection": 2827,
      "dépla": 2828,
      "approbation": 2829,
      "envisag": 2830,
      "règlements": 2831,
      "accordée": 2832,
      "experti": 2833,
      "élèves": 2834,
      "ratta": 2835,
      "maintien": 2836,
      "lut": 2837,
      "psy": 2838,
      "entr": 2839,
      "mainten": 2840,
      "rows": 2841,
      "réaliser": 2842,
      "rowspan": 2843,
      "contest": 2844,
      "définit": 2845,
      "notifiée": 2846,
      "vrier": 2847,
      "seurs": 2848,
      "février": 2849,
      "gés": 2850,
      "imposition": 2851,
      "nationaux": 2852,
      "nationales": 2853,
      "accident": 2854,
      "élig": 2855,
      "déj": 2856,
      "établit": 2857,
      "rédigé": 2858,
      "titue": 2859,
      "acquit": 2860,
      "circonstances": 2861,
      "greffi": 2862,
      "join": 2863,
      "neu": 2864,
      "nelles": 2865,
      "déjà": 2866,
      "légal": 2867,
      "évolution": 2868,
      "créances": 2869,
      "arrêt": 2870,
      "nique": 2871,
      "foresti": 2872,
      "forfaitaire": 2873,
      "dres": 2874,
      "secours": 2875,
      "noms": 2876,
      "ére": 2877,
      "connu": 2878,
      "rend": 2879,
      "tembre": 2880,
      "lèvent": 2881,
      "septembre": 2882,
      "actif": 2883,
      "accompagnée": 2884,
      "ements": 2885,
      "colonne": 2886,
      "émission": 2887,
      "effectif": 2888,
      "convocation": 2889,
      "approuv": 2890,
      "38": 2891,
      "définitive": 2892,
      "grand": 2893,
      "échan": 2894,
      "circons": 2895,
      "prélèvement": 2896,
      "navire": 2897,
      "feu": 2898,
      "unes": 2899,
      "opérateurs": 2900,
      "statue": 2901,
      "taxes": 2902,
      "législa": 2903,
      "ologique": 2904,
      "relèvent": 2905,
      "oration": 2906,
      "douze": 2907,
      "rains": 2908,
      "131": 2909,
      "audio": 2910,
      "oeuvre": 2911,
      "victime": 2912,
      "participer": 2913,
      "parten": 2914,
      "500": 2915,
      "suspen": 2916,
      "effectuer": 2917,
      "accessi": 2918,
      "ess": 2919,
      "terrains": 2920,
      "matéri": 2921,
      "hébergement": 2922,
      "maî": 2923,
      "listes": 2924,
      "vio": 2925,
      "qualification": 2926,
      "cotisation": 2927,
      "aus": 2928,
      "îles": 2929,
      "économiques": 2930,
      "régimes": 2931,
      "mutualité": 2932,
      "aptitude": 2933,
      "miquelon": 2934,
      "\".": 2935,
      "dotation": 2936,
      "certification": 2937,
      "admis": 2938,
      "audience": 2939,
      "compétentes": 2940,
      "familles": 2941,
      "supprimés": 2942,
      "jeunes": 2943,
      "fournir": 2944,
      "vés": 2945,
      "réun": 2946,
      "consign": 2947,
      "présidents": 2948,
      "systèmes": 2949,
      "contributions": 2950,
      "fili": 2951,
      "prior": 2952,
      "municipal": 2953,
      "autonomie": 2954,
      "ordination": 2955,
      "crédits": 2956,
      "long": 2957,
      "gi": 2958,
      "bate": 2959,
      "conser": 2960,
      "2004": 2961,
      "renouvelable": 2962,
      "conséqu": 2963,
      "49": 2964,
      "ibilité": 2965,
      "tor": 2966,
      "effectués": 2967,
      "surface": 2968,
      "générales": 2969,
      "lié": 2970,
      "vation": 2971,
      "adhér": 2972,
      "sections": 2973,
      "implant": 2974,
      "prestataire": 2975,
      "immatriculation": 2976,
      "marti": 2977,
      "informé": 2978,
      "seule": 2979,
      "mètres": 2980,
      "mensu": 2981,
      "modèle": 2982,
      "diri": 2983,
      "tention": 2984,
      "maître": 2985,
      "seuil": 2986,
      "objets": 2987,
      "inaires": 2988,
      "habilitation": 2989,
      "assistance": 2990,
      "hésion": 2991,
      "gré": 2992,
      "structure": 2993,
      "dition": 2994,
      "modifications": 2995,
      "autorisés": 2996,
      "estime": 2997,
      "régular": 2998,
      "destin": 2999
    },
    "merges": [
      [
        "e",
        "s"
      ],
      [
        "o",
        "n"
      ],
      [
        "t",
        "i"
      ],
      [
        "e",
        "n"
      ],
      [
        "d",
        "e"
      ],
      [
        "l",
        "e"
      ],
      [
        "ti",
        "on"
      ],
      [
        "r",
        "e"
      ],
      [
        "a",
        "n"
      ],
      [
        "i",
        "s"
      ],
      [
        "en",
        "t"
      ],
      [
        "a",
        "r"
      ],
      [
        "l",
        "a"
      ],
      [
        "e",
        "r"
      ],
      [
        "o",
        "u"
      ],
      [
        "i",
        "n"
      ],
      [
        "p",
        "r"
      ],
      [
        "l",
        "es"
      ],
      [
        "e",
        "t"
      ],
      [
        "a",
        "u"
      ],
      [
        "i",
        "t"
      ],
      [
        "q",
        "u"
      ],
      [
        "d",
        "u"
      ],
      [
        "o",
        "r"
      ],
      [
        "a",
        "tion"
      ],
      [
        "d",
        "es"
      ],
      [
        "l",
        "i"
      ],
      [
        "u",
        "r"
      ],
      [
        "u",
        "n"
      ],
      [
        "t",
        "r"
      ],
      [
        "é",
        "s"
      ],
      [
        "m",
        "ent"
      ],
      [
        "c",
        "on"
      ],
      [
        "c",
        "o"
      ],
      [
        "t",
        "e"
      ],
      [
        "p",
        "ar"
      ],
      [
        "c",
        "e"
      ],
      [
        "d",
        "é"
      ],
      [
        "an",
        "t"
      ],
      [
        "s",
        "i"
      ],
      [
        ">",
        "<"
      ],
      [
        "a",
        "l"
      ],
      [
        "s",
        "e"
      ],
      [
        "c",
        "i"
      ],
      [
        "d",
        "i"
      ],
      [
        "qu",
        "e"
      ],
      [
        "i",
        "l"
      ],
      [
        "r",
        "é"
      ],
      [
        "ti",
        "c"
      ],
      [
        "co",
        "m"
      ],
      [
        "c",
        "h"
      ],
      [
        "an",
        "s"
      ],
      [
        "ar",
        "tic"
      ],
      [
        "a",
        "t"
      ],
      [
        "t",
        "d"
      ],
      [
        "ou",
        "r"
      ],
      [
        "s",
        "on"
      ],
      [
        "é",
        "r"
      ],
      [
        "n",
        "e"
      ],
      [
        "a",
        "s"
      ],
      [
        "es",
        "t"
      ],
      [
        "a",
        "i"
      ],
      [
        "artic",
        "le"
      ],
      [
        "a",
        "c"
      ],
      [
        "r",
        "es"
      ],
      [
        "au",
        "x"
      ],
      [
        "pr",
        "o"
      ],
      [
        "t",
        "re"
      ],
      [
        "a",
        "p"
      ],
      [
        "a",
        "b"
      ],
      [
        "f",
        "i"
      ],
      [
        "m",
        "e"
      ],
      [
        "it",
        "é"
      ],
      [
        "é",
        "t"
      ],
      [
        "d",
        "ans"
      ],
      [
        "n",
        "é"
      ],
      [
        "un",
        "e"
      ],
      [
        "tion",
        "s"
      ],
      [
        "pr",
        "é"
      ],
      [
        "p",
        "e"
      ],
      [
        "a",
        "g"
      ],
      [
        "p",
        "o"
      ],
      [
        "e",
        "x"
      ],
      [
        "c",
        "es"
      ],
      [
        "=",
        "\""
      ],
      [
        "g",
        "n"
      ],
      [
        "a",
        "li"
      ],
      [
        "p",
        "our"
      ],
      [
        "m",
        "o"
      ],
      [
        "v",
        "e"
      ],
      [
        "s",
        "u"
      ],
      [
        "a",
        "le"
      ],
      [
        "s",
        "o"
      ],
      [
        "t",
        "er"
      ],
      [
        "s",
        "ur"
      ],
      [
        "en",
        "tion"
      ],
      [
        "pr",
        "és"
      ],
      [
        "l",
        "le"
      ],
      [
        "ali",
        "gn"
      ],
      [
        "v",
        "i"
      ],
      [
        "ai",
        "re"
      ],
      [
        "li",
        "c"
      ],
      [
        "l",
        "o"
      ],
      [
        "com",
        "p"
      ],
      [
        "si",
        "on"
      ],
      [
        "m",
        "in"
      ],
      [
        "son",
        "t"
      ],
      [
        "u",
        "s"
      ],
      [
        "p",
        "er"
      ],
      [
        "é",
        "e"
      ],
      [
        "m",
        "is"
      ],
      [
        "><",
        "/"
      ],
      [
        "i",
        "e"
      ],
      [
        "f",
        "or"
      ],
      [
        "<",
        "/"
      ],
      [
        "ation",
        "s"
      ],
      [
        "ap",
        "p"
      ],
      [
        "a",
        "v"
      ],
      [
        "u",
        "t"
      ],
      [
        "m",
        "ention"
      ],
      [
        "é",
        "es"
      ],
      [
        "qu",
        "i"
      ],
      [
        "pré",
        "v"
      ],
      [
        "d",
        "is"
      ],
      [
        "in",
        "s"
      ],
      [
        "u",
        "e"
      ],
      [
        "prés",
        "ent"
      ],
      [
        "c",
        "tion"
      ],
      [
        "m",
        "b"
      ],
      [
        "l",
        "is"
      ],
      [
        "i",
        "m"
      ],
      [
        "an",
        "ce"
      ],
      [
        "a",
        "d"
      ],
      [
        "m",
        "an"
      ],
      [
        "m",
        "a"
      ],
      [
        "on",
        "t"
      ],
      [
        "u",
        "re"
      ],
      [
        "au",
        "t"
      ],
      [
        "dé",
        "c"
      ],
      [
        "\"",
        ">"
      ],
      [
        "ment",
        "s"
      ],
      [
        "p",
        "u"
      ],
      [
        "i",
        "on"
      ],
      [
        "po",
        "si"
      ],
      [
        "ti",
        "f"
      ],
      [
        "te",
        "ur"
      ],
      [
        "s",
        "er"
      ],
      [
        "for",
        "m"
      ],
      [
        "min",
        "is"
      ],
      [
        "g",
        "é"
      ],
      [
        "ti",
        "v"
      ],
      [
        "o",
        "p"
      ],
      [
        "o",
        "i"
      ],
      [
        "app",
        "lic"
      ],
      [
        "2",
        "0"
      ],
      [
        "per",
        "son"
      ],
      [
        "n",
        "o"
      ],
      [
        "le",
        "ur"
      ],
      [
        "f",
        "f"
      ],
      [
        "so",
        "ci"
      ],
      [
        "or",
        "t"
      ],
      [
        "m",
        "i"
      ],
      [
        "or",
        "s"
      ],
      [
        "c",
        "u"
      ],
      [
        "a",
        "is"
      ],
      [
        "l",
        "u"
      ],
      [
        "f",
        "in"
      ],
      [
        "pu",
        "b"
      ],
      [
        "é",
        "g"
      ],
      [
        "it",
        "és"
      ],
      [
        "t",
        "ou"
      ],
      [
        "e",
        "ur"
      ],
      [
        "mention",
        "né"
      ],
      [
        "a",
        "m"
      ],
      [
        "g",
        "e"
      ],
      [
        "con",
        "tr"
      ],
      [
        "pe",
        "ut"
      ],
      [
        "m",
        "es"
      ],
      [
        "ét",
        "ab"
      ],
      [
        "o",
        "b"
      ],
      [
        "l",
        "ors"
      ],
      [
        "in",
        "t"
      ],
      [
        "con",
        "di"
      ],
      [
        "r",
        "i"
      ],
      [
        "r",
        "és"
      ],
      [
        "dis",
        "posi"
      ],
      [
        "qu",
        "es"
      ],
      [
        "ai",
        "res"
      ],
      [
        "co",
        "de"
      ],
      [
        "c",
        "as"
      ],
      [
        "a",
        "it"
      ],
      [
        "re",
        "c"
      ],
      [
        "pr",
        "is"
      ],
      [
        "m",
        "p"
      ],
      [
        "c",
        "ent"
      ],
      [
        "en",
        "ce"
      ],
      [
        "p",
        "as"
      ],
      [
        "d",
        "o"
      ],
      [
        "aut",
        "or"
      ],
      [
        "ê",
        "tre"
      ],
      [
        "s",
        "é"
      ],
      [
        "t",
        "u"
      ],
      [
        "r",
        "o"
      ],
      [
        "condi",
        "tions"
      ],
      [
        "com",
        "m"
      ],
      [
        "ré",
        "g"
      ],
      [
        "v",
        "ent"
      ],
      [
        "se",
        "il"
      ],
      [
        "con",
        "seil"
      ],
      [
        "ch",
        "ar"
      ],
      [
        "s",
        "ou"
      ],
      [
        "p",
        "l"
      ],
      [
        "la",
        "i"
      ],
      [
        "se",
        "ment"
      ],
      [
        "prév",
        "u"
      ],
      [
        "è",
        "re"
      ],
      [
        "c",
        "é"
      ],
      [
        "c",
        "et"
      ],
      [
        "f",
        "r"
      ],
      [
        "è",
        "s"
      ],
      [
        "i",
        "d"
      ],
      [
        "f",
        "on"
      ],
      [
        "s",
        "t"
      ],
      [
        "étab",
        "lis"
      ],
      [
        "ag",
        "e"
      ],
      [
        "l",
        "les"
      ],
      [
        "m",
        "é"
      ],
      [
        "par",
        "ti"
      ],
      [
        "c",
        "er"
      ],
      [
        "applic",
        "ation"
      ],
      [
        "tr",
        "i"
      ],
      [
        "u",
        "x"
      ],
      [
        "er",
        "s"
      ],
      [
        "de",
        "man"
      ],
      [
        "c",
        "ation"
      ],
      [
        "r",
        "it"
      ],
      [
        "t",
        "en"
      ],
      [
        "t",
        "é"
      ],
      [
        "or",
        "d"
      ],
      [
        "ent",
        "re"
      ],
      [
        "ab",
        "le"
      ],
      [
        "in",
        "é"
      ],
      [
        "ti",
        "fi"
      ],
      [
        "j",
        "us"
      ],
      [
        "or",
        "g"
      ],
      [
        "org",
        "an"
      ],
      [
        "n",
        "i"
      ],
      [
        "disposi",
        "tions"
      ],
      [
        "mis",
        "sion"
      ],
      [
        "p",
        "ort"
      ],
      [
        "ser",
        "vi"
      ],
      [
        "a",
        "in"
      ],
      [
        "t",
        "s"
      ],
      [
        "l",
        "t"
      ],
      [
        "en",
        "d"
      ],
      [
        "i",
        "i"
      ],
      [
        "le",
        "f"
      ],
      [
        "lef",
        "t"
      ],
      [
        "ant",
        "s"
      ],
      [
        "j",
        "u"
      ],
      [
        "ér",
        "ie"
      ],
      [
        "al",
        "iné"
      ],
      [
        "mb",
        "re"
      ],
      [
        "en",
        "s"
      ],
      [
        "in",
        "ter"
      ],
      [
        "t",
        "es"
      ],
      [
        "g",
        "r"
      ],
      [
        "organ",
        "is"
      ],
      [
        "i",
        "v"
      ],
      [
        "cent",
        "er"
      ],
      [
        "n",
        "ation"
      ],
      [
        "tr",
        "ans"
      ],
      [
        "person",
        "ne"
      ],
      [
        "deman",
        "de"
      ],
      [
        "s",
        "a"
      ],
      [
        "cet",
        "te"
      ],
      [
        "ét",
        "é"
      ],
      [
        "artic",
        "les"
      ],
      [
        "n",
        "és"
      ],
      [
        "minis",
        "tr"
      ],
      [
        "et",
        "at"
      ],
      [
        "ti",
        "ve"
      ],
      [
        "pub",
        "lic"
      ],
      [
        "fi",
        "x"
      ],
      [
        "ti",
        "tre"
      ],
      [
        "m",
        "ê"
      ],
      [
        "our",
        "s"
      ],
      [
        "prévu",
        "es"
      ],
      [
        "a",
        "les"
      ],
      [
        "j",
        "et"
      ],
      [
        "ou",
        "v"
      ],
      [
        "aliné",
        "a"
      ],
      [
        "d",
        "ro"
      ],
      [
        "ex",
        "er"
      ],
      [
        "e",
        "c"
      ],
      [
        "o",
        "is"
      ],
      [
        "p",
        "re"
      ],
      [
        "ne",
        "ment"
      ],
      [
        "l",
        "s"
      ],
      [
        "ti",
        "tu"
      ],
      [
        "ac",
        "c"
      ],
      [
        "lors",
        "que"
      ],
      [
        "s",
        "ant"
      ],
      [
        "b",
        "u"
      ],
      [
        "es",
        "sion"
      ],
      [
        "is",
        "ion"
      ],
      [
        "m",
        "ar"
      ],
      [
        "sou",
        "s"
      ],
      [
        "pro",
        "f"
      ],
      [
        "ré",
        "e"
      ],
      [
        "tr",
        "av"
      ],
      [
        "dro",
        "it"
      ],
      [
        "ad",
        "ministr"
      ],
      [
        "v",
        "o"
      ],
      [
        "te",
        "ment"
      ],
      [
        "comm",
        "un"
      ],
      [
        "di",
        "rec"
      ],
      [
        "gé",
        "n"
      ],
      [
        "re",
        "présent"
      ],
      [
        "a",
        "il"
      ],
      [
        "p",
        "é"
      ],
      [
        "e",
        "lle"
      ],
      [
        "n",
        "es"
      ],
      [
        "f",
        "ait"
      ],
      [
        "ain",
        "si"
      ],
      [
        "is",
        "ation"
      ],
      [
        "le",
        "ment"
      ],
      [
        "i",
        "g"
      ],
      [
        "20",
        "1"
      ],
      [
        "su",
        "p"
      ],
      [
        "pro",
        "du"
      ],
      [
        "re",
        "t"
      ],
      [
        "gén",
        "ér"
      ],
      [
        "pr",
        "ès"
      ],
      [
        "prof",
        "ession"
      ],
      [
        "\"",
        "><"
      ],
      [
        "di",
        "c"
      ],
      [
        "s",
        "es"
      ],
      [
        "p",
        "tion"
      ],
      [
        "ch",
        "é"
      ],
      [
        "tr",
        "es"
      ],
      [
        "m",
        "et"
      ],
      [
        "de",
        "r"
      ],
      [
        "en",
        "se"
      ],
      [
        "op",
        "ér"
      ],
      [
        "a",
        "ve"
      ],
      [
        "ti",
        "s"
      ],
      [
        "ch",
        "e"
      ],
      [
        "établis",
        "sement"
      ],
      [
        "mê",
        "me"
      ],
      [
        "dé",
        "lai"
      ],
      [
        "ér",
        "i"
      ],
      [
        "pre",
        "mi"
      ],
      [
        "p",
        "on"
      ],
      [
        "g",
        "es"
      ],
      [
        "è",
        "me"
      ],
      [
        "re",
        "la"
      ],
      [
        "t",
        "h"
      ],
      [
        "minis",
        "tre"
      ],
      [
        "d",
        "ont"
      ],
      [
        "pe",
        "u"
      ],
      [
        "dé",
        "fin"
      ],
      [
        "ab",
        "les"
      ],
      [
        "ac",
        "tiv"
      ],
      [
        "peu",
        "vent"
      ],
      [
        "l",
        "é"
      ],
      [
        "ar",
        "r"
      ],
      [
        "person",
        "nes"
      ],
      [
        "c",
        "ur"
      ],
      [
        "con",
        "s"
      ],
      [
        "e",
        "ff"
      ],
      [
        "d",
        "on"
      ],
      [
        "de",
        "ux"
      ],
      [
        "ch",
        "a"
      ],
      [
        "li",
        "v"
      ],
      [
        "mis",
        "e"
      ],
      [
        "l",
        "on"
      ],
      [
        "né",
        "e"
      ],
      [
        "id",
        "ent"
      ],
      [
        "ave",
        "c"
      ],
      [
        "ter",
        "rit"
      ],
      [
        "mention",
        "nés"
      ],
      [
        "profession",
        "ne"
      ],
      [
        "e",
        "u"
      ],
      [
        "pub",
        "li"
      ],
      [
        "n",
        "on"
      ],
      [
        "al",
        "ités"
      ],
      [
        "in",
        "e"
      ],
      [
        "e",
        "mp"
      ],
      [
        "i",
        "r"
      ],
      [
        "or",
        "i"
      ],
      [
        "in",
        "form"
      ],
      [
        "déc",
        "ret"
      ],
      [
        "arr",
        "ê"
      ],
      [
        "tiv",
        "es"
      ],
      [
        "autor",
        "ité"
      ],
      [
        "prés",
        "ident"
      ],
      [
        "déc",
        "ision"
      ],
      [
        "dé",
        "par"
      ],
      [
        "ex",
        "p"
      ],
      [
        "it",
        "e"
      ],
      [
        "mentionné",
        "es"
      ],
      [
        "a",
        "te"
      ],
      [
        "char",
        "gé"
      ],
      [
        "tou",
        "te"
      ],
      [
        "pris",
        "e"
      ],
      [
        "lu",
        "i"
      ],
      [
        "sant",
        "é"
      ],
      [
        "è",
        "g"
      ],
      [
        "pr",
        "i"
      ],
      [
        "m",
        "ont"
      ],
      [
        "rég",
        "ion"
      ],
      [
        "d",
        "és"
      ],
      [
        "r",
        "èg"
      ],
      [
        "mo",
        "d"
      ],
      [
        "\"",
        "></"
      ],
      [
        "tr",
        "u"
      ],
      [
        "0",
        "0"
      ],
      [
        "fi",
        "ci"
      ],
      [
        "b",
        "i"
      ],
      [
        "v",
        "en"
      ],
      [
        "leur",
        "s"
      ],
      [
        "trav",
        "ail"
      ],
      [
        "u",
        "ti"
      ],
      [
        "v",
        "is"
      ],
      [
        "a",
        "y"
      ],
      [
        "c",
        "ré"
      ],
      [
        "so",
        "it"
      ],
      [
        "as",
        "sur"
      ],
      [
        "ent",
        "s"
      ],
      [
        "pro",
        "cé"
      ],
      [
        "po",
        "s"
      ],
      [
        "comp",
        "ét"
      ],
      [
        "con",
        "cer"
      ],
      [
        "su",
        "iv"
      ],
      [
        "al",
        "ité"
      ],
      [
        "tif",
        "s"
      ],
      [
        "a",
        "près"
      ],
      [
        "u",
        "lt"
      ],
      [
        "com",
        "mission"
      ],
      [
        "mb",
        "res"
      ],
      [
        "é",
        "le"
      ],
      [
        "c",
        "t"
      ],
      [
        "l",
        "ar"
      ],
      [
        "sé",
        "cur"
      ],
      [
        "li",
        "g"
      ],
      [
        "oi",
        "re"
      ],
      [
        "b",
        "é"
      ],
      [
        "servi",
        "ce"
      ],
      [
        "tou",
        "t"
      ],
      [
        "tif",
        "y"
      ],
      [
        "jus",
        "tify"
      ],
      [
        "il",
        "s"
      ],
      [
        "ou",
        "ve"
      ],
      [
        "contr",
        "at"
      ],
      [
        "sécur",
        "ité"
      ],
      [
        "érie",
        "ur"
      ],
      [
        "av",
        "is"
      ],
      [
        "comp",
        "te"
      ],
      [
        "se",
        "ments"
      ],
      [
        "n",
        "u"
      ],
      [
        "mod",
        "alités"
      ],
      [
        "génér",
        "al"
      ],
      [
        "premi",
        "er"
      ],
      [
        "teur",
        "s"
      ],
      [
        "mo",
        "is"
      ],
      [
        "v",
        "er"
      ],
      [
        "ar",
        "i"
      ],
      [
        "dé",
        "p"
      ],
      [
        "né",
        "es"
      ],
      [
        "co",
        "lle"
      ],
      [
        "du",
        "rée"
      ],
      [
        "lo",
        "i"
      ],
      [
        "al",
        "is"
      ],
      [
        "mont",
        "ant"
      ],
      [
        "bé",
        "né"
      ],
      [
        "d",
        "ate"
      ],
      [
        "ale",
        "ment"
      ],
      [
        "oi",
        "r"
      ],
      [
        "i",
        "que"
      ],
      [
        "l",
        "ég"
      ],
      [
        "ob",
        "jet"
      ],
      [
        "b",
        "le"
      ],
      [
        "contr",
        "ô"
      ],
      [
        "c",
        "ar"
      ],
      [
        "an",
        "ci"
      ],
      [
        "t",
        "able"
      ],
      [
        "prév",
        "ue"
      ],
      [
        "colle",
        "c"
      ],
      [
        "me",
        "mbres"
      ],
      [
        "pl",
        "us"
      ],
      [
        "dépar",
        "tement"
      ],
      [
        "c",
        "ri"
      ],
      [
        "b",
        "r"
      ],
      [
        "d",
        "at"
      ],
      [
        "int",
        "ér"
      ],
      [
        "fon",
        "ction"
      ],
      [
        "arrê",
        "té"
      ],
      [
        "produ",
        "it"
      ],
      [
        "servi",
        "ces"
      ],
      [
        "rés",
        "ult"
      ],
      [
        "il",
        "ité"
      ],
      [
        "en",
        "ti"
      ],
      [
        "lo",
        "c"
      ],
      [
        "è",
        "res"
      ],
      [
        "mo",
        "ins"
      ],
      [
        "ci",
        "p"
      ],
      [
        "ac",
        "tion"
      ],
      [
        "é",
        "ché"
      ],
      [
        "an",
        "ces"
      ],
      [
        "su",
        "s"
      ],
      [
        "ce",
        "ption"
      ],
      [
        "res",
        "pon"
      ],
      [
        "g",
        "ar"
      ],
      [
        "eur",
        "s"
      ],
      [
        "déc",
        "lar"
      ],
      [
        "la",
        "tion"
      ],
      [
        "p",
        "h"
      ],
      [
        "ap",
        "it"
      ],
      [
        "a",
        "ff"
      ],
      [
        "défin",
        "i"
      ],
      [
        "c",
        "la"
      ],
      [
        "p",
        "or"
      ],
      [
        "c",
        "ours"
      ],
      [
        "c",
        "rit"
      ],
      [
        "ent",
        "e"
      ],
      [
        "st",
        "at"
      ],
      [
        "cha",
        "que"
      ],
      [
        "mentionné",
        "e"
      ],
      [
        "l",
        "è"
      ],
      [
        "tr",
        "ois"
      ],
      [
        "b",
        "les"
      ],
      [
        "ju",
        "di"
      ],
      [
        "ac",
        "t"
      ],
      [
        "li",
        "eu"
      ],
      [
        "direc",
        "teur"
      ],
      [
        "ges",
        "tion"
      ],
      [
        "publi",
        "que"
      ],
      [
        "au",
        "tres"
      ],
      [
        "p",
        "la"
      ],
      [
        "soci",
        "ale"
      ],
      [
        "activ",
        "ité"
      ],
      [
        "parti",
        "e"
      ],
      [
        "s",
        "ans"
      ],
      [
        "exer",
        "ci"
      ],
      [
        "dé",
        "f"
      ],
      [
        "li",
        "b"
      ],
      [
        "eff",
        "ec"
      ],
      [
        "c",
        "or"
      ],
      [
        "établis",
        "sements"
      ],
      [
        "i",
        "ème"
      ],
      [
        "v",
        "al"
      ],
      [
        "no",
        "t"
      ],
      [
        "in",
        "di"
      ],
      [
        "a",
        "tive"
      ],
      [
        "éché",
        "ant"
      ],
      [
        "en",
        "ces"
      ],
      [
        "c",
        "tions"
      ],
      [
        "at",
        "ure"
      ],
      [
        "h",
        "ab"
      ],
      [
        "ter",
        "min"
      ],
      [
        "con",
        "form"
      ],
      [
        "tri",
        "bu"
      ],
      [
        "applic",
        "ables"
      ],
      [
        "am",
        "ment"
      ],
      [
        "ob",
        "lig"
      ],
      [
        "lors",
        "qu"
      ],
      [
        "an",
        "ti"
      ],
      [
        "form",
        "ation"
      ],
      [
        "au",
        "tre"
      ],
      [
        "exp",
        "lo"
      ],
      [
        "r",
        "a"
      ],
      [
        "op",
        "é"
      ],
      [
        "c",
        "at"
      ],
      [
        "d",
        "it"
      ],
      [
        "v",
        "ention"
      ],
      [
        "ur",
        "es"
      ],
      [
        "é",
        "ment"
      ],
      [
        "tr",
        "ait"
      ],
      [
        "exerci",
        "ce"
      ],
      [
        "re",
        "mp"
      ],
      [
        "ces",
        "s"
      ],
      [
        "pris",
        "es"
      ],
      [
        "r",
        "en"
      ],
      [
        "1",
        "9"
      ],
      [
        "dé",
        "termin"
      ],
      [
        "ord",
        "on"
      ],
      [
        "pré",
        "c"
      ],
      [
        "contrô",
        "le"
      ],
      [
        "j",
        "our"
      ],
      [
        "pro",
        "pri"
      ],
      [
        "ma",
        "ti"
      ],
      [
        "représent",
        "ant"
      ],
      [
        "nation",
        "al"
      ],
      [
        "béné",
        "fici"
      ],
      [
        "territ",
        "ori"
      ],
      [
        "1",
        "0"
      ],
      [
        "no",
        "m"
      ],
      [
        "not",
        "amment"
      ],
      [
        "administr",
        "ation"
      ],
      [
        "uti",
        "lis"
      ],
      [
        "eur",
        "opé"
      ],
      [
        "suiv",
        "ant"
      ],
      [
        "nation",
        "ale"
      ],
      [
        "procé",
        "du"
      ],
      [
        "s",
        "y"
      ],
      [
        "f",
        "ér"
      ],
      [
        "t",
        "a"
      ],
      [
        "as",
        "soci"
      ],
      [
        "se",
        "lon"
      ],
      [
        "t",
        "al"
      ],
      [
        "t",
        "ant"
      ],
      [
        "re",
        "r"
      ],
      [
        "mé",
        "dic"
      ],
      [
        "res",
        "s"
      ],
      [
        "explo",
        "it"
      ],
      [
        "ten",
        "u"
      ],
      [
        "av",
        "ant"
      ],
      [
        "u",
        "v"
      ],
      [
        "e",
        "ment"
      ],
      [
        "fr",
        "an"
      ],
      [
        "for",
        "me"
      ],
      [
        "s",
        "pé"
      ],
      [
        "europé",
        "en"
      ],
      [
        "spé",
        "ci"
      ],
      [
        "im",
        "p"
      ],
      [
        "ag",
        "ri"
      ],
      [
        "v",
        "ant"
      ],
      [
        "c",
        "in"
      ],
      [
        "n",
        "er"
      ],
      [
        "fin",
        "anci"
      ],
      [
        "autor",
        "isation"
      ],
      [
        "f",
        "fi"
      ],
      [
        "fon",
        "d"
      ],
      [
        "s",
        "it"
      ],
      [
        "ex",
        "é"
      ],
      [
        "app",
        "ort"
      ],
      [
        "il",
        "le"
      ],
      [
        "ge",
        "ment"
      ],
      [
        "lai",
        "re"
      ],
      [
        "i",
        "ti"
      ],
      [
        "res",
        "pe"
      ],
      [
        "ay",
        "ant"
      ],
      [
        "e",
        "lles"
      ],
      [
        "so",
        "m"
      ],
      [
        "ou",
        "pe"
      ],
      [
        "né",
        "cess"
      ],
      [
        "di",
        "v"
      ],
      [
        "posi",
        "tion"
      ],
      [
        "do",
        "it"
      ],
      [
        "n",
        "ature"
      ],
      [
        "un",
        "ion"
      ],
      [
        "é",
        "qui"
      ],
      [
        "c",
        "our"
      ],
      [
        "pré",
        "f"
      ],
      [
        "an",
        "g"
      ],
      [
        "an",
        "née"
      ],
      [
        "éle",
        "c"
      ],
      [
        "entre",
        "prise"
      ],
      [
        "der",
        "ni"
      ],
      [
        "mo",
        "y"
      ],
      [
        "pr",
        "end"
      ],
      [
        "rés",
        "er"
      ],
      [
        "soci",
        "été"
      ],
      [
        "fran",
        "ç"
      ],
      [
        "franç",
        "ais"
      ],
      [
        "cla",
        "s"
      ],
      [
        "s",
        "al"
      ],
      [
        "li",
        "m"
      ],
      [
        "do",
        "cu"
      ],
      [
        "fix",
        "ées"
      ],
      [
        "acc",
        "ord"
      ],
      [
        "judi",
        "ci"
      ],
      [
        "collec",
        "tiv"
      ],
      [
        "20",
        "0"
      ],
      [
        "u",
        "ation"
      ],
      [
        "œ",
        "uv"
      ],
      [
        "é",
        "con"
      ],
      [
        "c",
        "al"
      ],
      [
        "écon",
        "o"
      ],
      [
        "a",
        "ti"
      ],
      [
        "c",
        "a"
      ],
      [
        "dé",
        "liv"
      ],
      [
        "organis",
        "me"
      ],
      [
        "c",
        "ad"
      ],
      [
        "pr",
        "es"
      ],
      [
        "comp",
        "ter"
      ],
      [
        "inform",
        "ations"
      ],
      [
        "o",
        "c"
      ],
      [
        "résult",
        "ant"
      ],
      [
        "qu",
        "is"
      ],
      [
        "lo",
        "g"
      ],
      [
        "trans",
        "port"
      ],
      [
        "ouv",
        "er"
      ],
      [
        "lu",
        "si"
      ],
      [
        "comm",
        "er"
      ],
      [
        "te",
        "ch"
      ],
      [
        "que",
        "l"
      ],
      [
        "droit",
        "s"
      ],
      [
        "con",
        "n"
      ],
      [
        "érie",
        "ure"
      ],
      [
        "produit",
        "s"
      ],
      [
        "as",
        "su"
      ],
      [
        "lo",
        "y"
      ],
      [
        "t",
        "o"
      ],
      [
        "tifi",
        "cation"
      ],
      [
        "h",
        "i"
      ],
      [
        "se",
        "ction"
      ],
      [
        "v",
        "align"
      ],
      [
        "am",
        "en"
      ],
      [
        "ac",
        "tions"
      ],
      [
        "ég",
        "alement"
      ],
      [
        "con",
        "vention"
      ],
      [
        "règ",
        "lement"
      ],
      [
        "n",
        "ouve"
      ],
      [
        "f",
        "aire"
      ],
      [
        "préf",
        "et"
      ],
      [
        "p",
        "éri"
      ],
      [
        "d",
        "ant"
      ],
      [
        "gr",
        "oupe"
      ],
      [
        "a",
        "teur"
      ],
      [
        "ré",
        "fér"
      ],
      [
        "j",
        "ours"
      ],
      [
        "su",
        "b"
      ],
      [
        "pr",
        "est"
      ],
      [
        "péri",
        "o"
      ],
      [
        "opér",
        "ation"
      ],
      [
        "sal",
        "ari"
      ],
      [
        "on",
        "nement"
      ],
      [
        "i",
        "gn"
      ],
      [
        "ag",
        "es"
      ],
      [
        "f",
        "ois"
      ],
      [
        "m",
        "un"
      ],
      [
        "ag",
        "ré"
      ],
      [
        "di",
        "fi"
      ],
      [
        "pro",
        "jet"
      ],
      [
        "ser",
        "v"
      ],
      [
        "l",
        "ée"
      ],
      [
        "conform",
        "ément"
      ],
      [
        "lis",
        "te"
      ],
      [
        "assur",
        "ance"
      ],
      [
        "ac",
        "comp"
      ],
      [
        "déclar",
        "ation"
      ],
      [
        "ti",
        "n"
      ],
      [
        "organis",
        "mes"
      ],
      [
        "ô",
        "t"
      ],
      [
        "d",
        "ent"
      ],
      [
        "en",
        "g"
      ],
      [
        "in",
        "v"
      ],
      [
        "tri",
        "b"
      ],
      [
        "procédu",
        "re"
      ],
      [
        "fr",
        "ance"
      ],
      [
        "mo",
        "ts"
      ],
      [
        "si",
        "gn"
      ],
      [
        "préc",
        "is"
      ],
      [
        "mi",
        "que"
      ],
      [
        "pro",
        "c"
      ],
      [
        "no",
        "mbre"
      ],
      [
        "ér",
        "ation"
      ],
      [
        "mo",
        "difi"
      ],
      [
        "exé",
        "cu"
      ],
      [
        "char",
        "ge"
      ],
      [
        "r",
        "apport"
      ],
      [
        "j",
        "o"
      ],
      [
        "tech",
        "ni"
      ],
      [
        "cad",
        "re"
      ],
      [
        "1",
        "3"
      ],
      [
        "remp",
        "la"
      ],
      [
        "v",
        "é"
      ],
      [
        "rela",
        "tives"
      ],
      [
        "ch",
        "apit"
      ],
      [
        "tru",
        "ction"
      ],
      [
        "end",
        "ant"
      ],
      [
        "ce",
        "lui"
      ],
      [
        "c",
        "an"
      ],
      [
        "commun",
        "i"
      ],
      [
        "p",
        "en"
      ],
      [
        "al",
        "isation"
      ],
      [
        "ré",
        "alis"
      ],
      [
        "que",
        "lle"
      ],
      [
        "judici",
        "aire"
      ],
      [
        "u",
        "li"
      ],
      [
        "per",
        "met"
      ],
      [
        "trib",
        "un"
      ],
      [
        "cons",
        "titu"
      ],
      [
        "s",
        "ais"
      ],
      [
        "ch",
        "er"
      ],
      [
        "opér",
        "ations"
      ],
      [
        "ap",
        "pe"
      ],
      [
        "effec",
        "tu"
      ],
      [
        "ins",
        "tal"
      ],
      [
        "cu",
        "lt"
      ],
      [
        "liv",
        "re"
      ],
      [
        "m",
        "at"
      ],
      [
        "œuv",
        "re"
      ],
      [
        "fond",
        "s"
      ],
      [
        "o",
        "ù"
      ],
      [
        "autor",
        "is"
      ],
      [
        "20",
        "2"
      ],
      [
        "ce",
        "lle"
      ],
      [
        "cri",
        "ption"
      ],
      [
        "as",
        "s"
      ],
      [
        "ii",
        "i"
      ],
      [
        "ag",
        "ence"
      ],
      [
        "intér",
        "es"
      ],
      [
        "ense",
        "ig"
      ],
      [
        "me",
        "mbre"
      ],
      [
        "at",
        "tribu"
      ],
      [
        "ale",
        "ur"
      ],
      [
        "f",
        "a"
      ],
      [
        "par",
        "t"
      ],
      [
        "ce",
        "p"
      ],
      [
        "i",
        "er"
      ],
      [
        "an",
        "te"
      ],
      [
        "o",
        "s"
      ],
      [
        "as",
        "se"
      ],
      [
        "pré",
        "cé"
      ],
      [
        "réser",
        "ve"
      ],
      [
        "ce",
        "lles"
      ],
      [
        "r",
        "is"
      ],
      [
        "jus",
        "tifi"
      ],
      [
        "respon",
        "s"
      ],
      [
        "con",
        "tre"
      ],
      [
        "entre",
        "prises"
      ],
      [
        "chapit",
        "re"
      ],
      [
        "g",
        "is"
      ],
      [
        "1",
        "5"
      ],
      [
        "ét",
        "és"
      ],
      [
        "professionne",
        "lle"
      ],
      [
        "car",
        "act"
      ],
      [
        "comp",
        "tes"
      ],
      [
        "étab",
        "li"
      ],
      [
        "te",
        "mp"
      ],
      [
        "trav",
        "aux"
      ],
      [
        "mes",
        "ures"
      ],
      [
        "pé",
        "n"
      ],
      [
        "v",
        "aleur"
      ],
      [
        "char",
        "g"
      ],
      [
        "re",
        "gis"
      ],
      [
        "la",
        "quelle"
      ],
      [
        "p",
        "lusi"
      ],
      [
        "plusi",
        "eurs"
      ],
      [
        "ue",
        "lle"
      ],
      [
        "e",
        "l"
      ],
      [
        "t",
        "op"
      ],
      [
        "la",
        "b"
      ],
      [
        "ur",
        "i"
      ],
      [
        "it",
        "aire"
      ],
      [
        "man",
        "dat"
      ],
      [
        "f",
        "our"
      ],
      [
        "activ",
        "ités"
      ],
      [
        "s",
        "ance"
      ],
      [
        "ab",
        "ilité"
      ],
      [
        "c",
        "lu"
      ],
      [
        "x",
        "e"
      ],
      [
        "hab",
        "it"
      ],
      [
        "t",
        "és"
      ],
      [
        "public",
        "s"
      ],
      [
        "mé",
        "di"
      ],
      [
        "emp",
        "loy"
      ],
      [
        "ces",
        "sion"
      ],
      [
        "ét",
        "at"
      ],
      [
        "con",
        "su"
      ],
      [
        "po",
        "li"
      ],
      [
        "te",
        "ction"
      ],
      [
        "tribun",
        "al"
      ],
      [
        "de",
        "m"
      ],
      [
        "com",
        "ité"
      ],
      [
        "vi",
        "r"
      ],
      [
        "dés",
        "ig"
      ],
      [
        "que",
        "lles"
      ],
      [
        "e",
        "ux"
      ],
      [
        "dé",
        "lég"
      ],
      [
        "eff",
        "et"
      ],
      [
        "deux",
        "ième"
      ],
      [
        "se",
        "u"
      ],
      [
        "ais",
        "on"
      ],
      [
        "pro",
        "tection"
      ],
      [
        "ti",
        "ers"
      ],
      [
        "ré",
        "ception"
      ],
      [
        "défini",
        "es"
      ],
      [
        "ordon",
        "n"
      ],
      [
        "p",
        "ai"
      ],
      [
        "s",
        "an"
      ],
      [
        "gar",
        "anti"
      ],
      [
        "oi",
        "vent"
      ],
      [
        "sou",
        "mis"
      ],
      [
        "en",
        "vir"
      ],
      [
        "c",
        "ais"
      ],
      [
        "é",
        "lé"
      ],
      [
        "app",
        "li"
      ],
      [
        "aff",
        "ec"
      ],
      [
        "w",
        "id"
      ],
      [
        "wid",
        "th"
      ],
      [
        "pl",
        "an"
      ],
      [
        "l",
        "it"
      ],
      [
        "s",
        "au"
      ],
      [
        "ti",
        "ques"
      ],
      [
        "1",
        "2"
      ],
      [
        "dés",
        "ign"
      ],
      [
        "envir",
        "onnement"
      ],
      [
        "don",
        "nées"
      ],
      [
        "intér",
        "ê"
      ],
      [
        "exécu",
        "tion"
      ],
      [
        "m",
        "il"
      ],
      [
        "é",
        "val"
      ],
      [
        "territ",
        "oire"
      ],
      [
        "cult",
        "ure"
      ],
      [
        "e",
        "au"
      ],
      [
        "ag",
        "ents"
      ],
      [
        "/",
        ">"
      ],
      [
        "rég",
        "i"
      ],
      [
        "c",
        "l"
      ],
      [
        "ord",
        "re"
      ],
      [
        "in",
        "dem"
      ],
      [
        "am",
        "é"
      ],
      [
        "pr",
        "im"
      ],
      [
        "indem",
        "n"
      ],
      [
        "ue",
        "il"
      ],
      [
        "p",
        "endant"
      ],
      [
        "ense",
        "mb"
      ],
      [
        "appe",
        "l"
      ],
      [
        "soci",
        "étés"
      ],
      [
        "agri",
        "co"
      ],
      [
        "in",
        "f"
      ],
      [
        "règ",
        "les"
      ],
      [
        "derni",
        "er"
      ],
      [
        "t",
        "est"
      ],
      [
        "in",
        "fr"
      ],
      [
        "prév",
        "us"
      ],
      [
        "présent",
        "e"
      ],
      [
        "tou",
        "s"
      ],
      [
        "s",
        "si"
      ],
      [
        "moy",
        "en"
      ],
      [
        "dé",
        "e"
      ],
      [
        "g",
        "u"
      ],
      [
        "mati",
        "ère"
      ],
      [
        "mê",
        "mes"
      ],
      [
        "re",
        "cher"
      ],
      [
        "sup",
        "érieur"
      ],
      [
        "av",
        "oir"
      ],
      [
        "re",
        "le"
      ],
      [
        "ensemb",
        "le"
      ],
      [
        "fr",
        "ais"
      ],
      [
        "pr",
        "on"
      ],
      [
        "ti",
        "que"
      ],
      [
        "ma",
        "j"
      ],
      [
        "rég",
        "lement"
      ],
      [
        "ju",
        "ge"
      ],
      [
        "di",
        "ff"
      ],
      [
        "cor",
        "respon"
      ],
      [
        "dé",
        "lib"
      ],
      [
        "an",
        "n"
      ],
      [
        "m",
        "er"
      ],
      [
        "lu",
        "tion"
      ],
      [
        "inform",
        "ation"
      ],
      [
        "pron",
        "on"
      ],
      [
        "représent",
        "ants"
      ],
      [
        "n",
        "ent"
      ],
      [
        "pai",
        "ement"
      ],
      [
        "par",
        "tic"
      ],
      [
        "in",
        "es"
      ],
      [
        "pen",
        "sion"
      ],
      [
        "du",
        "s"
      ],
      [
        "pério",
        "de"
      ],
      [
        "disposi",
        "tion"
      ],
      [
        "ar",
        "d"
      ],
      [
        "d",
        "oivent"
      ],
      [
        "ch",
        "an"
      ],
      [
        "parti",
        "cip"
      ],
      [
        "t",
        "ation"
      ],
      [
        "n",
        "ant"
      ],
      [
        "c",
        "ations"
      ],
      [
        "lai",
        "res"
      ],
      [
        "is",
        "t"
      ],
      [
        "contr",
        "i"
      ],
      [
        "m",
        "or"
      ],
      [
        "ou",
        "tre"
      ],
      [
        "jo",
        "int"
      ],
      [
        "respe",
        "ct"
      ],
      [
        "can",
        "di"
      ],
      [
        "partic",
        "uli"
      ],
      [
        "com",
        "mis"
      ],
      [
        "p",
        "a"
      ],
      [
        "fon",
        "ctions"
      ],
      [
        "ci",
        "vi"
      ],
      [
        "ad",
        "res"
      ],
      [
        "t",
        "aux"
      ],
      [
        "com",
        "me"
      ],
      [
        "candi",
        "dat"
      ],
      [
        "européen",
        "ne"
      ],
      [
        "pr",
        "en"
      ],
      [
        "cat",
        "ég"
      ],
      [
        "p",
        "i"
      ],
      [
        "cer",
        "tifi"
      ],
      [
        "age",
        "ment"
      ],
      [
        "r",
        "aison"
      ],
      [
        "d",
        "g"
      ],
      [
        "qu",
        "alité"
      ],
      [
        "bu",
        "dg"
      ],
      [
        "s",
        "ens"
      ],
      [
        "é",
        "tr"
      ],
      [
        "élé",
        "ments"
      ],
      [
        "nécess",
        "aires"
      ],
      [
        "commun",
        "es"
      ],
      [
        "n",
        "a"
      ],
      [
        "regis",
        "tre"
      ],
      [
        "tr",
        "on"
      ],
      [
        "nu",
        "m"
      ],
      [
        "conn",
        "ais"
      ],
      [
        "n",
        "aire"
      ],
      [
        "dé",
        "ce"
      ],
      [
        "e",
        "m"
      ],
      [
        "i",
        "ques"
      ],
      [
        "administr",
        "ative"
      ],
      [
        "1",
        "1"
      ],
      [
        "déce",
        "mbre"
      ],
      [
        "j",
        "uri"
      ],
      [
        "g",
        "ation"
      ],
      [
        "étr",
        "ang"
      ],
      [
        "con",
        "d"
      ],
      [
        "f",
        "er"
      ],
      [
        "h",
        "u"
      ],
      [
        "rempla",
        "c"
      ],
      [
        "port",
        "ant"
      ],
      [
        "mé",
        "de"
      ],
      [
        "d",
        "ou"
      ],
      [
        "contri",
        "bu"
      ],
      [
        "enseig",
        "nement"
      ],
      [
        "docu",
        "ments"
      ],
      [
        ".",
        "</"
      ],
      [
        "v",
        "oi"
      ],
      [
        "ex",
        "ception"
      ],
      [
        "di",
        "ction"
      ],
      [
        "m",
        "ie"
      ],
      [
        "exploit",
        "ation"
      ],
      [
        "ac",
        "quis"
      ],
      [
        "3",
        "0"
      ],
      [
        "ét",
        "aire"
      ],
      [
        "f",
        "é"
      ],
      [
        "ô",
        "ts"
      ],
      [
        "00",
        "0"
      ],
      [
        "ph",
        "y"
      ],
      [
        "dé",
        "b"
      ],
      [
        "mission",
        "s"
      ],
      [
        "do",
        "ssi"
      ],
      [
        "1",
        "er"
      ],
      [
        "met",
        "tre"
      ],
      [
        "déf",
        "aut"
      ],
      [
        "suivant",
        "es"
      ],
      [
        "ci",
        "r"
      ],
      [
        "at",
        "s"
      ],
      [
        "oblig",
        "ations"
      ],
      [
        "ce",
        "ux"
      ],
      [
        "x",
        "im"
      ],
      [
        "parti",
        "es"
      ],
      [
        "cré",
        "dit"
      ],
      [
        "des",
        "ti"
      ],
      [
        "con",
        "stat"
      ],
      [
        "ma",
        "la"
      ],
      [
        "ét",
        "u"
      ],
      [
        "équi",
        "pe"
      ],
      [
        "professionne",
        "l"
      ],
      [
        "emp",
        "loi"
      ],
      [
        "t",
        "ure"
      ],
      [
        "si",
        "è"
      ],
      [
        "sa",
        "int"
      ],
      [
        "inv",
        "es"
      ],
      [
        "cal",
        "cu"
      ],
      [
        "région",
        "al"
      ],
      [
        "qu",
        "ê"
      ],
      [
        "ent",
        "es"
      ],
      [
        "accomp",
        "ag"
      ],
      [
        "v",
        "ers"
      ],
      [
        "2",
        "2"
      ],
      [
        "com",
        "man"
      ],
      [
        "collectiv",
        "ités"
      ],
      [
        "qu",
        "at"
      ],
      [
        "toute",
        "fois"
      ],
      [
        "ti",
        "en"
      ],
      [
        "asse",
        "mb"
      ],
      [
        "élec",
        "tron"
      ],
      [
        "co",
        "l"
      ],
      [
        "clas",
        "s"
      ],
      [
        "ordonn",
        "ance"
      ],
      [
        "con",
        "du"
      ],
      [
        "me",
        "u"
      ],
      [
        "o",
        "log"
      ],
      [
        "c",
        "apit"
      ],
      [
        "an",
        "ne"
      ],
      [
        "pr",
        "iv"
      ],
      [
        "écono",
        "mique"
      ],
      [
        "pr",
        "ati"
      ],
      [
        "z",
        "on"
      ],
      [
        "é",
        "ner"
      ],
      [
        "re",
        "trait"
      ],
      [
        "z",
        "e"
      ],
      [
        "fix",
        "é"
      ],
      [
        "administr",
        "a"
      ],
      [
        "déf",
        "ense"
      ],
      [
        "mes",
        "ure"
      ],
      [
        "pla",
        "ce"
      ],
      [
        "sau",
        "f"
      ],
      [
        "dé",
        "t"
      ],
      [
        "1",
        "7"
      ],
      [
        "consu",
        "lt"
      ],
      [
        "référ",
        "ence"
      ],
      [
        "u",
        "l"
      ],
      [
        "en",
        "f"
      ],
      [
        "ai",
        "de"
      ],
      [
        "b",
        "ilité"
      ],
      [
        "1",
        "6"
      ],
      [
        "cin",
        "q"
      ],
      [
        "di",
        "e"
      ],
      [
        "au",
        "près"
      ],
      [
        "pr",
        "in"
      ],
      [
        "ch",
        "ac"
      ],
      [
        "comm",
        "une"
      ],
      [
        "c",
        "au"
      ],
      [
        "régi",
        "me"
      ],
      [
        "f",
        "fici"
      ],
      [
        "phy",
        "si"
      ],
      [
        "man",
        "i"
      ],
      [
        "v",
        "ue"
      ],
      [
        "bi",
        "ens"
      ],
      [
        "titu",
        "laire"
      ],
      [
        "ens",
        "es"
      ],
      [
        "organis",
        "ation"
      ],
      [
        "gr",
        "am"
      ],
      [
        "la",
        "tions"
      ],
      [
        "produ",
        "ction"
      ],
      [
        "il",
        "l"
      ],
      [
        "français",
        "e"
      ],
      [
        "personne",
        "l"
      ],
      [
        "dossi",
        "er"
      ],
      [
        "ac",
        "te"
      ],
      [
        "ouv",
        "r"
      ],
      [
        "rele",
        "vant"
      ],
      [
        "lè",
        "ve"
      ],
      [
        "ré",
        "mun"
      ],
      [
        "hi",
        "cu"
      ],
      [
        "vé",
        "hicu"
      ],
      [
        "p",
        "ouv"
      ],
      [
        "commer",
        "ce"
      ],
      [
        "ren",
        "ouve"
      ],
      [
        "vi",
        "e"
      ],
      [
        "salari",
        "és"
      ],
      [
        "compét",
        "ente"
      ],
      [
        "dép",
        "enses"
      ],
      [
        "soci",
        "al"
      ],
      [
        "i",
        "re"
      ],
      [
        "dé",
        "r"
      ],
      [
        "vo",
        "ie"
      ],
      [
        "è",
        "ces"
      ],
      [
        "fix",
        "e"
      ],
      [
        "recher",
        "che"
      ],
      [
        "nouve",
        "lle"
      ],
      [
        "c",
        "teur"
      ],
      [
        "po",
        "se"
      ],
      [
        "le",
        "r"
      ],
      [
        "applic",
        "able"
      ],
      [
        "acc",
        "ès"
      ],
      [
        "fonction",
        "nement"
      ],
      [
        "si",
        "x"
      ],
      [
        "f",
        "is"
      ],
      [
        "no",
        "tifi"
      ],
      [
        "u",
        "m"
      ],
      [
        "stat",
        "ut"
      ],
      [
        "cais",
        "se"
      ],
      [
        "le",
        "t"
      ],
      [
        "pré",
        "a"
      ],
      [
        "at",
        "oire"
      ],
      [
        "sit",
        "uation"
      ],
      [
        "su",
        "i"
      ],
      [
        "b",
        "an"
      ],
      [
        "tou",
        "tes"
      ],
      [
        "prest",
        "ations"
      ],
      [
        "commis",
        "s"
      ],
      [
        "ti",
        "tres"
      ],
      [
        "maj",
        "or"
      ],
      [
        "comp",
        "lé"
      ],
      [
        "éval",
        "uation"
      ],
      [
        "g",
        "ie"
      ],
      [
        "charg",
        "és"
      ],
      [
        "ve",
        "ill"
      ],
      [
        "cha",
        "mbre"
      ],
      [
        "1",
        "4"
      ],
      [
        "con",
        "si"
      ],
      [
        "ins",
        "titu"
      ],
      [
        "vi",
        "er"
      ],
      [
        "ten",
        "ant"
      ],
      [
        "o",
        "ffi"
      ],
      [
        "sup",
        "pl"
      ],
      [
        "amé",
        "n"
      ],
      [
        "budg",
        "et"
      ],
      [
        "m",
        "ation"
      ],
      [
        "amen",
        "de"
      ],
      [
        "un",
        "i"
      ],
      [
        "sy",
        "st"
      ],
      [
        "prin",
        "cip"
      ],
      [
        "rela",
        "tive"
      ],
      [
        "id",
        "en"
      ],
      [
        "c",
        "ap"
      ],
      [
        "it",
        "es"
      ],
      [
        "ri",
        "g"
      ],
      [
        "l",
        "y"
      ],
      [
        "fi",
        "cation"
      ],
      [
        "b",
        "a"
      ],
      [
        "agré",
        "ment"
      ],
      [
        "an",
        "im"
      ],
      [
        "complé",
        "ment"
      ],
      [
        "at",
        "aire"
      ],
      [
        "j",
        "an"
      ],
      [
        "tr",
        "o"
      ],
      [
        "co",
        "tis"
      ],
      [
        "ré",
        "es"
      ],
      [
        "tis",
        "sement"
      ],
      [
        "ma",
        "ine"
      ],
      [
        "con",
        "som"
      ],
      [
        "jan",
        "vier"
      ],
      [
        "sit",
        "u"
      ],
      [
        "connais",
        "sance"
      ],
      [
        "sy",
        "n"
      ],
      [
        "ab",
        "s"
      ],
      [
        "é",
        "du"
      ],
      [
        "mar",
        "ché"
      ],
      [
        "appli",
        "qu"
      ],
      [
        "pro",
        "gram"
      ],
      [
        "civi",
        "le"
      ],
      [
        "ci",
        "en"
      ],
      [
        "la",
        "ble"
      ],
      [
        "collectiv",
        "ité"
      ],
      [
        "ex",
        "ig"
      ],
      [
        "m",
        "en"
      ],
      [
        "dis",
        "tribu"
      ],
      [
        "assemb",
        "lée"
      ],
      [
        "poli",
        "ce"
      ],
      [
        "ur",
        "s"
      ],
      [
        "four",
        "n"
      ],
      [
        "p",
        "ay"
      ],
      [
        "les",
        "quelles"
      ],
      [
        "oi",
        "res"
      ],
      [
        "au",
        "c"
      ],
      [
        "respe",
        "c"
      ],
      [
        "cep",
        "ti"
      ],
      [
        "ma",
        "xim"
      ],
      [
        "sus",
        "cepti"
      ],
      [
        "siè",
        "ge"
      ],
      [
        "ac",
        "tes"
      ],
      [
        "v",
        "ision"
      ],
      [
        "us",
        "age"
      ],
      [
        "ni",
        "ve"
      ],
      [
        "dé",
        "ro"
      ],
      [
        "permet",
        "tant"
      ],
      [
        "ad",
        "ap"
      ],
      [
        "re",
        "ven"
      ],
      [
        "jus",
        "qu"
      ],
      [
        "m",
        "on"
      ],
      [
        "ap",
        "h"
      ],
      [
        "génér",
        "ale"
      ],
      [
        "con",
        "fi"
      ],
      [
        "minis",
        "t"
      ],
      [
        "adres",
        "se"
      ],
      [
        "int",
        "érieur"
      ],
      [
        "département",
        "al"
      ],
      [
        "co",
        "opération"
      ],
      [
        "veill",
        "ance"
      ],
      [
        "territori",
        "ales"
      ],
      [
        "mo",
        "bi"
      ],
      [
        "so",
        "l"
      ],
      [
        "précis",
        "e"
      ],
      [
        "tr",
        "ie"
      ],
      [
        "ré",
        "publique"
      ],
      [
        "délég",
        "u"
      ],
      [
        "indi",
        "vi"
      ],
      [
        "imp",
        "ôts"
      ],
      [
        "im",
        "meu"
      ],
      [
        "utilis",
        "ation"
      ],
      [
        "ag",
        "is"
      ],
      [
        "assu",
        "rer"
      ],
      [
        "a",
        "teurs"
      ],
      [
        "g",
        "ue"
      ],
      [
        "employ",
        "eur"
      ],
      [
        "h",
        "o"
      ],
      [
        "com",
        "pris"
      ],
      [
        "acc",
        "or"
      ],
      [
        "trois",
        "ième"
      ],
      [
        "temp",
        "s"
      ],
      [
        "docu",
        "ment"
      ],
      [
        "rec",
        "ours"
      ],
      [
        "b",
        "il"
      ],
      [
        "commer",
        "ci"
      ],
      [
        "lim",
        "ite"
      ],
      [
        "h",
        "ors"
      ],
      [
        "in",
        "te"
      ],
      [
        "indivi",
        "du"
      ],
      [
        "ré",
        "du"
      ],
      [
        "se",
        "in"
      ],
      [
        "ér",
        "o"
      ],
      [
        "ré",
        "pon"
      ],
      [
        "ue",
        "l"
      ],
      [
        "c",
        "le"
      ],
      [
        "at",
        "test"
      ],
      [
        "lo",
        "p"
      ],
      [
        "ins",
        "crit"
      ],
      [
        "î",
        "tre"
      ],
      [
        "techni",
        "ques"
      ],
      [
        "premi",
        "ère"
      ],
      [
        "m",
        "ut"
      ],
      [
        "che",
        "f"
      ],
      [
        "pri",
        "x"
      ],
      [
        "ve",
        "lop"
      ],
      [
        "sur",
        "veillance"
      ],
      [
        "b",
        "es"
      ],
      [
        "na",
        "vi"
      ],
      [
        "ris",
        "ques"
      ],
      [
        "clu",
        "sion"
      ],
      [
        "°",
        ","
      ],
      [
        "no",
        "tification"
      ],
      [
        "ap",
        "par"
      ],
      [
        "quê",
        "te"
      ],
      [
        "it",
        "aires"
      ],
      [
        "caract",
        "ère"
      ],
      [
        "certifi",
        "cat"
      ],
      [
        "lo",
        "cation"
      ],
      [
        "intérê",
        "t"
      ],
      [
        "mis",
        "es"
      ],
      [
        "que",
        "ls"
      ],
      [
        "acc",
        "ueil"
      ],
      [
        "région",
        "ale"
      ],
      [
        "tr",
        "a"
      ],
      [
        "lo",
        "gement"
      ],
      [
        "ba",
        "se"
      ],
      [
        "vent",
        "e"
      ],
      [
        "ance",
        "ment"
      ],
      [
        "agri",
        "culture"
      ],
      [
        "exer",
        "cer"
      ],
      [
        "de",
        "v"
      ],
      [
        "comp",
        "or"
      ],
      [
        "es",
        "ti"
      ],
      [
        "ille",
        "t"
      ],
      [
        "ti",
        "t"
      ],
      [
        "qu",
        "ali"
      ],
      [
        "ten",
        "ir"
      ],
      [
        "a",
        "tri"
      ],
      [
        "diff",
        "ér"
      ],
      [
        "p",
        "ie"
      ],
      [
        "offi",
        "ce"
      ],
      [
        "ar",
        "ma"
      ],
      [
        "ob",
        "serv"
      ],
      [
        "cri",
        "p"
      ],
      [
        "contrat",
        "s"
      ],
      [
        "enti",
        "té"
      ],
      [
        "ré",
        "alisation"
      ],
      [
        "at",
        "te"
      ],
      [
        "c",
        "ée"
      ],
      [
        "n",
        "aires"
      ],
      [
        "in",
        "g"
      ],
      [
        "ministr",
        "es"
      ],
      [
        "éner",
        "gie"
      ],
      [
        "re",
        "f"
      ],
      [
        "so",
        "ins"
      ],
      [
        "n",
        "et"
      ],
      [
        "agrico",
        "le"
      ],
      [
        "é",
        "crit"
      ],
      [
        "cons",
        "truction"
      ],
      [
        "médic",
        "a"
      ],
      [
        "p",
        "an"
      ],
      [
        "j",
        "ec"
      ],
      [
        "désig",
        "né"
      ],
      [
        "com",
        "prend"
      ],
      [
        "ch",
        "et"
      ],
      [
        "ch",
        "és"
      ],
      [
        "la",
        "is"
      ],
      [
        "décision",
        "s"
      ],
      [
        "o",
        "ffici"
      ],
      [
        "au",
        "di"
      ],
      [
        "nive",
        "au"
      ],
      [
        "con",
        "serv"
      ],
      [
        "ju",
        "illet"
      ],
      [
        "pu",
        "is"
      ],
      [
        "min",
        "im"
      ],
      [
        "in",
        "iti"
      ],
      [
        "mar",
        "iti"
      ],
      [
        "re",
        "ction"
      ],
      [
        "pi",
        "èces"
      ],
      [
        "in",
        "dus"
      ],
      [
        "ven",
        "tions"
      ],
      [
        "direc",
        "tement"
      ],
      [
        "in",
        "forme"
      ],
      [
        "lab",
        "or"
      ],
      [
        "mala",
        "die"
      ],
      [
        "di",
        "x"
      ],
      [
        "re",
        "mb"
      ],
      [
        "quat",
        "re"
      ],
      [
        "ne",
        "lle"
      ],
      [
        "abs",
        "ence"
      ],
      [
        "t",
        "ari"
      ],
      [
        "g",
        "re"
      ],
      [
        "fi",
        "g"
      ],
      [
        "ali",
        "d"
      ],
      [
        "électron",
        "ique"
      ],
      [
        "bes",
        "o"
      ],
      [
        "ex",
        "cé"
      ],
      [
        "cent",
        "re"
      ],
      [
        "loc",
        "aux"
      ],
      [
        "instal",
        "lations"
      ],
      [
        "ti",
        "ce"
      ],
      [
        "5",
        "0"
      ],
      [
        "ex",
        "amen"
      ],
      [
        "li",
        "qui"
      ],
      [
        "intéres",
        "sé"
      ],
      [
        "co",
        "pie"
      ],
      [
        "rela",
        "tif"
      ],
      [
        "con",
        "joint"
      ],
      [
        "commun",
        "ale"
      ],
      [
        "or",
        "ig"
      ],
      [
        "ins",
        "truction"
      ],
      [
        "suiv",
        "ants"
      ],
      [
        "r",
        "ou"
      ],
      [
        "t",
        "ent"
      ],
      [
        "col",
        "lè"
      ],
      [
        "de",
        "vant"
      ],
      [
        "précé",
        "dent"
      ],
      [
        "moy",
        "ens"
      ],
      [
        "territori",
        "ale"
      ],
      [
        "h",
        "t"
      ],
      [
        "compét",
        "ences"
      ],
      [
        "ci",
        "pl"
      ],
      [
        "dis",
        "cipl"
      ],
      [
        "commiss",
        "aire"
      ],
      [
        "tru",
        "ct"
      ],
      [
        "b",
        "is"
      ],
      [
        "ci",
        "v"
      ],
      [
        "f",
        "ont"
      ],
      [
        "i",
        "tion"
      ],
      [
        "syn",
        "dic"
      ],
      [
        "condi",
        "tion"
      ],
      [
        "techni",
        "que"
      ],
      [
        "ch",
        "es"
      ],
      [
        "cap",
        "ac"
      ],
      [
        "eur",
        "os"
      ],
      [
        "capit",
        "al"
      ],
      [
        "fin",
        "ancement"
      ],
      [
        "eur",
        "es"
      ],
      [
        "qu",
        "in"
      ],
      [
        "correspon",
        "dant"
      ],
      [
        "ob",
        "jec"
      ],
      [
        "table",
        "au"
      ],
      [
        "û",
        "t"
      ],
      [
        "assu",
        "re"
      ],
      [
        "béné",
        "fi"
      ],
      [
        "oblig",
        "ation"
      ],
      [
        "titu",
        "laires"
      ],
      [
        "d",
        "ès"
      ],
      [
        "dé",
        "velop"
      ],
      [
        "ex",
        "per"
      ],
      [
        "autor",
        "ités"
      ],
      [
        "rés",
        "o"
      ],
      [
        "d",
        "y"
      ],
      [
        "ten",
        "us"
      ],
      [
        "is",
        "me"
      ],
      [
        "201",
        "9"
      ],
      [
        "demande",
        "ur"
      ],
      [
        "char",
        "ges"
      ],
      [
        "ch",
        "i"
      ],
      [
        "propri",
        "étaire"
      ],
      [
        "è",
        "de"
      ],
      [
        "b",
        "o"
      ],
      [
        "trait",
        "ement"
      ],
      [
        "ta",
        "xe"
      ],
      [
        "ins",
        "cription"
      ],
      [
        "ress",
        "ort"
      ],
      [
        "publi",
        "ques"
      ],
      [
        "ég",
        "al"
      ],
      [
        "v",
        "éri"
      ],
      [
        "indus",
        "trie"
      ],
      [
        "professionne",
        "ls"
      ],
      [
        "so",
        "li"
      ],
      [
        "3",
        "1"
      ],
      [
        "re",
        "ç"
      ],
      [
        "b",
        "on"
      ],
      [
        "ph",
        "arma"
      ],
      [
        "som",
        "mes"
      ],
      [
        "201",
        "3"
      ],
      [
        "rig",
        "ht"
      ],
      [
        "ex",
        "c"
      ],
      [
        "o",
        "ff"
      ],
      [
        "instal",
        "lation"
      ],
      [
        "ten",
        "ue"
      ],
      [
        "2",
        "5"
      ],
      [
        "rémun",
        "ération"
      ],
      [
        "exp",
        "ir"
      ],
      [
        "aliné",
        "as"
      ],
      [
        "u",
        "es"
      ],
      [
        "désign",
        "és"
      ],
      [
        "proc",
        "ure"
      ],
      [
        "ér",
        "is"
      ],
      [
        "mun",
        "i"
      ],
      [
        "consi",
        "dé"
      ],
      [
        "réso",
        "lution"
      ],
      [
        "concer",
        "nant"
      ],
      [
        "édu",
        "cation"
      ],
      [
        "ti",
        "ent"
      ],
      [
        "cau",
        "se"
      ],
      [
        "ç",
        "ant"
      ],
      [
        "expir",
        "ation"
      ],
      [
        "in",
        "aire"
      ],
      [
        "fix",
        "ée"
      ],
      [
        "délib",
        "ér"
      ],
      [
        "mobi",
        "li"
      ],
      [
        "or",
        "ie"
      ],
      [
        "h",
        "y"
      ],
      [
        "ê",
        "che"
      ],
      [
        "our",
        "ces"
      ],
      [
        "étrang",
        "er"
      ],
      [
        "hab",
        "il"
      ],
      [
        "h",
        "eures"
      ],
      [
        "juri",
        "diction"
      ],
      [
        "c",
        "ées"
      ],
      [
        "g",
        "a"
      ],
      [
        "int",
        "ég"
      ],
      [
        "do",
        "maine"
      ],
      [
        "communi",
        "qu"
      ],
      [
        "déro",
        "gation"
      ],
      [
        "il",
        "les"
      ],
      [
        "por",
        "te"
      ],
      [
        "to",
        "t"
      ],
      [
        "groupe",
        "ment"
      ],
      [
        "po",
        "int"
      ],
      [
        "po",
        "st"
      ],
      [
        "ré",
        "d"
      ],
      [
        "t",
        "ée"
      ],
      [
        "b",
        "â"
      ],
      [
        "intéres",
        "s"
      ],
      [
        "jus",
        "tice"
      ],
      [
        "no",
        "min"
      ],
      [
        "1",
        "8"
      ],
      [
        "b",
        "al"
      ],
      [
        "modifi",
        "cation"
      ],
      [
        "di",
        "rection"
      ],
      [
        "te",
        "ments"
      ],
      [
        "amén",
        "agement"
      ],
      [
        "remplac",
        "és"
      ],
      [
        "mi",
        "ci"
      ],
      [
        "ag",
        "ent"
      ],
      [
        "concer",
        "ne"
      ],
      [
        "pos",
        "si"
      ],
      [
        "r",
        "est"
      ],
      [
        "compét",
        "ence"
      ],
      [
        "vo",
        "l"
      ],
      [
        "imp",
        "ôt"
      ],
      [
        "minist",
        "ère"
      ],
      [
        "do",
        "mici"
      ],
      [
        "procé",
        "der"
      ],
      [
        "personne",
        "ls"
      ],
      [
        "spéci",
        "fi"
      ],
      [
        "calcu",
        "l"
      ],
      [
        "méde",
        "cin"
      ],
      [
        "dé",
        "ci"
      ],
      [
        "pro",
        "position"
      ],
      [
        "po",
        "ser"
      ],
      [
        "bénéfici",
        "aire"
      ],
      [
        "procure",
        "ur"
      ],
      [
        "indi",
        "qu"
      ],
      [
        "v",
        "oir"
      ],
      [
        "dévelop",
        "pe"
      ],
      [
        "ge",
        "ments"
      ],
      [
        "propri",
        "été"
      ],
      [
        "mo",
        "tiv"
      ],
      [
        "pr",
        "ê"
      ],
      [
        "pe",
        "ine"
      ],
      [
        "sup",
        "érieure"
      ],
      [
        "catég",
        "orie"
      ],
      [
        "tive",
        "ment"
      ],
      [
        "élec",
        "tri"
      ],
      [
        "201",
        "4"
      ],
      [
        "pouv",
        "oir"
      ],
      [
        "ad",
        "ress"
      ],
      [
        "garanti",
        "e"
      ],
      [
        "re",
        "dev"
      ],
      [
        "inter",
        "communale"
      ],
      [
        "mat",
        "érie"
      ],
      [
        "exploit",
        "ant"
      ],
      [
        "p",
        "it"
      ],
      [
        "communi",
        "cation"
      ],
      [
        "associ",
        "ation"
      ],
      [
        "ra",
        "di"
      ],
      [
        "2",
        "3"
      ],
      [
        "ref",
        "us"
      ],
      [
        "re",
        "comman"
      ],
      [
        "défin",
        "is"
      ],
      [
        "su",
        "ff"
      ],
      [
        "é",
        "vent"
      ],
      [
        "prend",
        "re"
      ],
      [
        "financi",
        "ers"
      ],
      [
        "e",
        "aux"
      ],
      [
        "s",
        "por"
      ],
      [
        "o",
        "t"
      ],
      [
        "ver",
        "sement"
      ],
      [
        "ouver",
        "ture"
      ],
      [
        "développe",
        "ment"
      ],
      [
        "rés",
        "eau"
      ],
      [
        "oc",
        "cu"
      ],
      [
        "ass",
        "is"
      ],
      [
        "s",
        "ent"
      ],
      [
        "ré",
        "union"
      ],
      [
        "f",
        "s"
      ],
      [
        "pré",
        "ci"
      ],
      [
        "ég",
        "ale"
      ],
      [
        "is",
        "su"
      ],
      [
        "respons",
        "able"
      ],
      [
        "fis",
        "c"
      ],
      [
        "h",
        "é"
      ],
      [
        "t",
        "bo"
      ],
      [
        "tbo",
        "dy"
      ],
      [
        "com",
        "b"
      ],
      [
        "2",
        "4"
      ],
      [
        "f",
        "ais"
      ],
      [
        "du",
        "e"
      ],
      [
        "zon",
        "e"
      ],
      [
        "ne",
        "ments"
      ],
      [
        "caract",
        "éris"
      ],
      [
        "rec",
        "ouv"
      ],
      [
        "n",
        "or"
      ],
      [
        "financi",
        "er"
      ],
      [
        "cond",
        "am"
      ],
      [
        "cotis",
        "ations"
      ],
      [
        "remb",
        "our"
      ],
      [
        "rég",
        "u"
      ],
      [
        "dép",
        "ôt"
      ],
      [
        "a",
        "fin"
      ],
      [
        "f",
        "am"
      ],
      [
        "r",
        "u"
      ],
      [
        "as",
        "si"
      ],
      [
        "inves",
        "tissement"
      ],
      [
        "pré",
        "judi"
      ],
      [
        "c",
        "ti"
      ],
      [
        "ori",
        "ent"
      ],
      [
        "ur",
        "g"
      ],
      [
        "comp",
        "table"
      ],
      [
        "sui",
        "vi"
      ],
      [
        "ab",
        "ri"
      ],
      [
        "cle",
        "ar"
      ],
      [
        "se",
        "p"
      ],
      [
        "non",
        "e"
      ],
      [
        "t",
        "ance"
      ],
      [
        "di",
        "pl"
      ],
      [
        "trans",
        "fer"
      ],
      [
        "particip",
        "ation"
      ],
      [
        "dipl",
        "ô"
      ],
      [
        "dé",
        "lais"
      ],
      [
        "im",
        "port"
      ],
      [
        "mi",
        "li"
      ],
      [
        "prév",
        "ention"
      ],
      [
        "indemn",
        "ité"
      ],
      [
        "professionne",
        "lles"
      ],
      [
        "salari",
        "é"
      ],
      [
        "v",
        "es"
      ],
      [
        "respons",
        "abilité"
      ],
      [
        "let",
        "tre"
      ],
      [
        "aff",
        "aires"
      ],
      [
        "po",
        "sé"
      ],
      [
        "gue",
        "ur"
      ],
      [
        "syst",
        "ème"
      ],
      [
        "h",
        "an"
      ],
      [
        "inter",
        "ven"
      ],
      [
        "transport",
        "s"
      ],
      [
        "ré",
        "p"
      ],
      [
        "réd",
        "action"
      ],
      [
        "or",
        "aire"
      ],
      [
        "ress",
        "ources"
      ],
      [
        "o",
        "gr"
      ],
      [
        "compét",
        "ent"
      ],
      [
        "civ",
        "il"
      ],
      [
        "f",
        "abri"
      ],
      [
        "ac",
        "qu"
      ],
      [
        "ne",
        "l"
      ],
      [
        "201",
        "6"
      ],
      [
        "a",
        "de"
      ],
      [
        "observ",
        "ations"
      ],
      [
        "chac",
        "un"
      ],
      [
        "collè",
        "ge"
      ],
      [
        "p",
        "le"
      ],
      [
        "dépar",
        "tements"
      ],
      [
        "lle",
        "ment"
      ],
      [
        "mor",
        "ale"
      ],
      [
        "d",
        "enti"
      ],
      [
        "distribu",
        "tion"
      ],
      [
        "préjudi",
        "ce"
      ],
      [
        "proc",
        "ès"
      ],
      [
        "déb",
        "it"
      ],
      [
        "h",
        "ér"
      ],
      [
        "orig",
        "ine"
      ],
      [
        "so",
        "i"
      ],
      [
        "p",
        "uni"
      ],
      [
        "a",
        "tives"
      ],
      [
        "po",
        "ly"
      ],
      [
        "mo",
        "ment"
      ],
      [
        "eng",
        "age"
      ],
      [
        "ap",
        "préci"
      ],
      [
        "am",
        "p"
      ],
      [
        "déliv",
        "r"
      ],
      [
        "anne",
        "xe"
      ],
      [
        "bâ",
        "ti"
      ],
      [
        "con",
        "vo"
      ],
      [
        "ris",
        "que"
      ],
      [
        "ré",
        "parti"
      ],
      [
        "alid",
        "ité"
      ],
      [
        "le",
        "quel"
      ],
      [
        "par",
        "lement"
      ],
      [
        "a",
        "dé"
      ],
      [
        "a",
        "ffi"
      ],
      [
        "to",
        "tal"
      ],
      [
        "202",
        "1"
      ],
      [
        "te",
        "lle"
      ],
      [
        "tenu",
        "es"
      ],
      [
        "cu",
        "lation"
      ],
      [
        "cent",
        "r"
      ],
      [
        "c",
        "r"
      ],
      [
        "en",
        "registre"
      ],
      [
        "b",
        "ail"
      ],
      [
        "ju",
        "in"
      ],
      [
        "ma",
        "in"
      ],
      [
        "bi",
        "en"
      ],
      [
        "t",
        "ard"
      ],
      [
        "2",
        "6"
      ],
      [
        "c",
        "ité"
      ],
      [
        "fig",
        "ur"
      ],
      [
        "fais",
        "ant"
      ],
      [
        "médic",
        "ale"
      ],
      [
        "su",
        "ite"
      ],
      [
        "don",
        "ne"
      ],
      [
        "per",
        "man"
      ],
      [
        "con",
        "st"
      ],
      [
        "re",
        "ment"
      ],
      [
        "lo",
        "gements"
      ],
      [
        "liqui",
        "d"
      ],
      [
        "inf",
        "érieur"
      ],
      [
        "compor",
        "te"
      ],
      [
        "ac",
        "ci"
      ],
      [
        "trans",
        "met"
      ],
      [
        "écono",
        "mie"
      ],
      [
        "l",
        "és"
      ],
      [
        "m",
        "ai"
      ],
      [
        "j",
        "ou"
      ],
      [
        "deman",
        "des"
      ],
      [
        "gestion",
        "naire"
      ],
      [
        "quin",
        "ze"
      ],
      [
        "ori",
        "es"
      ],
      [
        "end",
        "re"
      ],
      [
        "par",
        "ts"
      ],
      [
        "c",
        "teurs"
      ],
      [
        "catég",
        "ories"
      ],
      [
        "rés",
        "id"
      ],
      [
        "disposi",
        "tif"
      ],
      [
        "fa",
        "mili"
      ],
      [
        "domici",
        "le"
      ],
      [
        "soli",
        "d"
      ],
      [
        "détermin",
        "e"
      ],
      [
        "bénéfi",
        "ce"
      ],
      [
        "concer",
        "nés"
      ],
      [
        "ca",
        "sion"
      ],
      [
        "oc",
        "casion"
      ],
      [
        "procédu",
        "res"
      ],
      [
        "exer",
        "ce"
      ],
      [
        "m",
        "aire"
      ],
      [
        "vo",
        "te"
      ],
      [
        "p",
        "ér"
      ],
      [
        "t",
        "y"
      ],
      [
        "dis",
        "pose"
      ],
      [
        "habit",
        "ation"
      ],
      [
        "demande",
        "r"
      ],
      [
        "capac",
        "ité"
      ],
      [
        "num",
        "éro"
      ],
      [
        "vi",
        "cti"
      ],
      [
        "d",
        "ents"
      ],
      [
        "mariti",
        "me"
      ],
      [
        "ent",
        "ra"
      ],
      [
        "rép",
        "ut"
      ],
      [
        "cré",
        "ation"
      ],
      [
        "assur",
        "é"
      ],
      [
        "ter",
        "me"
      ],
      [
        "entra",
        "î"
      ],
      [
        "x",
        "es"
      ],
      [
        "délivr",
        "ance"
      ],
      [
        "ins",
        "tru"
      ],
      [
        "par",
        "is"
      ],
      [
        "équipe",
        "ments"
      ],
      [
        "vi",
        "gueur"
      ],
      [
        "ce",
        "ment"
      ],
      [
        "mar",
        "chés"
      ],
      [
        "crip",
        "tions"
      ],
      [
        "re",
        "ce"
      ],
      [
        "a",
        "ître"
      ],
      [
        "organis",
        "ations"
      ],
      [
        "comp",
        "t"
      ],
      [
        "quali",
        "fi"
      ],
      [
        "sup",
        "prim"
      ],
      [
        "ai",
        "ent"
      ],
      [
        "f",
        "ins"
      ],
      [
        "ins",
        "pe"
      ],
      [
        "appliqu",
        "ent"
      ],
      [
        "objec",
        "tifs"
      ],
      [
        "comp",
        "ort"
      ],
      [
        "al",
        "y"
      ],
      [
        "soci",
        "ales"
      ],
      [
        "it",
        "ation"
      ],
      [
        "2",
        "9"
      ],
      [
        "ann",
        "uel"
      ],
      [
        "en",
        "quête"
      ],
      [
        "nécess",
        "aire"
      ],
      [
        "s",
        "ite"
      ],
      [
        "fon",
        "ci"
      ],
      [
        "u",
        "sion"
      ],
      [
        "de",
        "me"
      ],
      [
        "préa",
        "lable"
      ],
      [
        "résult",
        "ats"
      ],
      [
        "h",
        "os"
      ],
      [
        "infr",
        "action"
      ],
      [
        "retrait",
        "e"
      ],
      [
        "trans",
        "mission"
      ],
      [
        "référ",
        "ences"
      ],
      [
        "2",
        "8"
      ],
      [
        "p",
        "es"
      ],
      [
        "associ",
        "ations"
      ],
      [
        "b",
        "or"
      ],
      [
        "re",
        "quis"
      ],
      [
        "pro",
        "b"
      ],
      [
        "transfer",
        "t"
      ],
      [
        "candidat",
        "s"
      ],
      [
        "excé",
        "der"
      ],
      [
        "intég",
        "r"
      ],
      [
        "intérê",
        "ts"
      ],
      [
        "ain",
        "e"
      ],
      [
        "un",
        "ique"
      ],
      [
        "uelle",
        "ment"
      ],
      [
        "h",
        "aut"
      ],
      [
        "se",
        "cond"
      ],
      [
        "financi",
        "ère"
      ],
      [
        "équi",
        "val"
      ],
      [
        "mani",
        "ère"
      ],
      [
        "caractéris",
        "tiques"
      ],
      [
        "v",
        "ing"
      ],
      [
        "attest",
        "ation"
      ],
      [
        "car",
        "te"
      ],
      [
        "sé",
        "jour"
      ],
      [
        "sa",
        "tis"
      ],
      [
        "lég",
        "is"
      ],
      [
        "at",
        "ta"
      ],
      [
        "pe",
        "ines"
      ],
      [
        "attribu",
        "tion"
      ],
      [
        "dic",
        "ap"
      ],
      [
        "program",
        "me"
      ],
      [
        "han",
        "dicap"
      ],
      [
        "consom",
        "mation"
      ],
      [
        "b",
        "ar"
      ],
      [
        "ali",
        "ment"
      ],
      [
        "présent",
        "er"
      ],
      [
        "201",
        "7"
      ],
      [
        "conseil",
        "ler"
      ],
      [
        "d",
        "re"
      ],
      [
        "hos",
        "pit"
      ],
      [
        "lab",
        "lement"
      ],
      [
        "pas",
        "s"
      ],
      [
        "muni",
        "cip"
      ],
      [
        "c",
        "ut"
      ],
      [
        "associ",
        "és"
      ],
      [
        "du",
        "es"
      ],
      [
        "rec",
        "et"
      ],
      [
        "an",
        "nées"
      ],
      [
        "agrico",
        "les"
      ],
      [
        "c",
        "ou"
      ],
      [
        "person",
        "n"
      ],
      [
        "vi",
        "ent"
      ],
      [
        "véhicu",
        "le"
      ],
      [
        "dou",
        "an"
      ],
      [
        "cer",
        "t"
      ],
      [
        "acquis",
        "ition"
      ],
      [
        "p",
        "s"
      ],
      [
        "p",
        "êche"
      ],
      [
        "suppl",
        "é"
      ],
      [
        "immeu",
        "bles"
      ],
      [
        "pr",
        "u"
      ],
      [
        "2",
        "7"
      ],
      [
        "physi",
        "ques"
      ],
      [
        "fait",
        "e"
      ],
      [
        "physi",
        "que"
      ],
      [
        "occu",
        "p"
      ],
      [
        "per",
        "ç"
      ],
      [
        "hu",
        "it"
      ],
      [
        "ga",
        "z"
      ],
      [
        "suscepti",
        "bles"
      ],
      [
        "ad",
        "op"
      ],
      [
        "do",
        "m"
      ],
      [
        "tr",
        "at"
      ],
      [
        "o",
        "it"
      ],
      [
        "s",
        "û"
      ],
      [
        "pro",
        "vision"
      ],
      [
        "méde",
        "c"
      ],
      [
        "t",
        "ées"
      ],
      [
        "es",
        "p"
      ],
      [
        "par",
        "ation"
      ],
      [
        "ving",
        "t"
      ],
      [
        "véhicu",
        "les"
      ],
      [
        "ar",
        "m"
      ],
      [
        "ue",
        "lles"
      ],
      [
        "nés",
        "ie"
      ],
      [
        "cal",
        "é"
      ],
      [
        "i",
        "bles"
      ],
      [
        "ma",
        "is"
      ],
      [
        "calé",
        "don"
      ],
      [
        "con",
        "sé"
      ],
      [
        "o",
        "y"
      ],
      [
        "calédon",
        "ie"
      ],
      [
        "poly",
        "nésie"
      ],
      [
        "iden",
        "tification"
      ],
      [
        "j",
        "e"
      ],
      [
        "an",
        "d"
      ],
      [
        "lo",
        "is"
      ],
      [
        "mé",
        "tro"
      ],
      [
        "2",
        "1"
      ],
      [
        "av",
        "en"
      ],
      [
        "re",
        "mise"
      ],
      [
        "métro",
        "po"
      ],
      [
        "consult",
        "ation"
      ],
      [
        "issu",
        "e"
      ],
      [
        "du",
        "r"
      ],
      [
        "enf",
        "ant"
      ],
      [
        "rembour",
        "sement"
      ],
      [
        "suff",
        "is"
      ],
      [
        "ma",
        "y"
      ],
      [
        "parti",
        "r"
      ],
      [
        "ju",
        "gement"
      ],
      [
        "temp",
        "oraire"
      ],
      [
        "es",
        "pa"
      ],
      [
        "dér",
        "ation"
      ],
      [
        "du",
        "quel"
      ],
      [
        "infr",
        "actions"
      ],
      [
        "auc",
        "une"
      ],
      [
        "espa",
        "ce"
      ],
      [
        "rela",
        "tifs"
      ],
      [
        "c",
        "iné"
      ],
      [
        "pos",
        "ée"
      ],
      [
        "loc",
        "al"
      ],
      [
        "fix",
        "és"
      ],
      [
        "né",
        "g"
      ],
      [
        "im",
        "médi"
      ],
      [
        "au",
        "teur"
      ],
      [
        "ot",
        "te"
      ],
      [
        "médic",
        "al"
      ],
      [
        "may",
        "otte"
      ],
      [
        "rec",
        "ueil"
      ],
      [
        "a",
        "ch"
      ],
      [
        "exer",
        "çant"
      ],
      [
        "mar",
        "chan"
      ],
      [
        "statut",
        "s"
      ],
      [
        "19",
        "9"
      ],
      [
        "étu",
        "des"
      ],
      [
        "con",
        "ventions"
      ],
      [
        "ai",
        "des"
      ],
      [
        "enregistre",
        "ment"
      ],
      [
        "sus",
        "pension"
      ],
      [
        "fait",
        "s"
      ],
      [
        "jour",
        "n"
      ],
      [
        "è",
        "tre"
      ],
      [
        "si",
        "g"
      ],
      [
        "eng",
        "agement"
      ],
      [
        "im",
        "mobili"
      ],
      [
        "b",
        "er"
      ],
      [
        "un",
        "iv"
      ],
      [
        "défin",
        "ie"
      ],
      [
        "dép",
        "end"
      ],
      [
        "ac",
        "ces"
      ],
      [
        "é",
        "co"
      ],
      [
        "concer",
        "né"
      ],
      [
        "20",
        "20"
      ],
      [
        "territori",
        "al"
      ],
      [
        "av",
        "or"
      ],
      [
        "four",
        "ni"
      ],
      [
        "ac",
        "adé"
      ],
      [
        "mar",
        "s"
      ],
      [
        "par",
        "mi"
      ],
      [
        "de",
        "ment"
      ],
      [
        "des",
        "sus"
      ],
      [
        "exé",
        "cut"
      ],
      [
        "m",
        "agis"
      ],
      [
        "vol",
        "ont"
      ],
      [
        "fin",
        "ances"
      ],
      [
        "appli",
        "que"
      ],
      [
        "mil",
        "itaire"
      ],
      [
        "por",
        "ter"
      ],
      [
        "at",
        "aires"
      ],
      [
        "médica",
        "ment"
      ],
      [
        "véri",
        "fi"
      ],
      [
        "dis",
        "p"
      ],
      [
        "conseil",
        "s"
      ],
      [
        "con",
        "clu"
      ],
      [
        "ue",
        "ls"
      ],
      [
        "recet",
        "tes"
      ],
      [
        "f",
        "ut"
      ],
      [
        "form",
        "u"
      ],
      [
        "id",
        "entité"
      ],
      [
        "contr",
        "act"
      ],
      [
        "on",
        "s"
      ],
      [
        "per",
        "mis"
      ],
      [
        "ur",
        "ban"
      ],
      [
        "ri",
        "er"
      ],
      [
        "vo",
        "lu"
      ],
      [
        "ver",
        "tu"
      ],
      [
        "at",
        "oires"
      ],
      [
        "public",
        "ation"
      ],
      [
        "ain",
        "es"
      ],
      [
        "déliv",
        "ré"
      ],
      [
        "cur",
        "r"
      ],
      [
        "ar",
        "t"
      ],
      [
        "conform",
        "ité"
      ],
      [
        "con",
        "cl"
      ],
      [
        "cons",
        "tru"
      ],
      [
        "al",
        "location"
      ],
      [
        "is",
        "te"
      ],
      [
        "bénéfici",
        "er"
      ],
      [
        "correspon",
        "d"
      ],
      [
        "fourn",
        "is"
      ],
      [
        "renouve",
        "llement"
      ],
      [
        "mi",
        "d"
      ],
      [
        "parti",
        "ci"
      ],
      [
        "7",
        "0"
      ],
      [
        "s",
        "truct"
      ],
      [
        "ins",
        "tit"
      ],
      [
        "mati",
        "que"
      ],
      [
        "i",
        "es"
      ],
      [
        "ver",
        "bal"
      ],
      [
        "délib",
        "ération"
      ],
      [
        "li",
        "eux"
      ],
      [
        "inter",
        "diction"
      ],
      [
        "con",
        "cession"
      ],
      [
        "inter",
        "médi"
      ],
      [
        "clas",
        "se"
      ],
      [
        "inf",
        "érieure"
      ],
      [
        "ass",
        "ist"
      ],
      [
        "6",
        "0"
      ],
      [
        "commun",
        "aut"
      ],
      [
        "procé",
        "dé"
      ],
      [
        "sup",
        "port"
      ],
      [
        "g",
        "lo"
      ],
      [
        "pro",
        "pre"
      ],
      [
        "li",
        "ation"
      ],
      [
        "enf",
        "ants"
      ],
      [
        "l",
        "ité"
      ],
      [
        "instit",
        "ut"
      ],
      [
        "d",
        "le"
      ],
      [
        "app",
        "or"
      ],
      [
        "re",
        "gar"
      ],
      [
        "iden",
        "tifi"
      ],
      [
        "pré",
        "lève"
      ],
      [
        "chac",
        "une"
      ],
      [
        "cien",
        "tifi"
      ],
      [
        "s",
        "cientifi"
      ],
      [
        "ac",
        "cep"
      ],
      [
        "o",
        "ci"
      ],
      [
        "groupe",
        "ments"
      ],
      [
        "mid",
        "dle"
      ],
      [
        "les",
        "quels"
      ],
      [
        "voi",
        "x"
      ],
      [
        "marchan",
        "dis"
      ],
      [
        "é",
        "l"
      ],
      [
        "chet",
        "s"
      ],
      [
        "1",
        "00"
      ],
      [
        "qu",
        "atri"
      ],
      [
        "particuli",
        "er"
      ],
      [
        "deme",
        "ure"
      ],
      [
        "quatri",
        "ème"
      ],
      [
        "ét",
        "aires"
      ],
      [
        "ité",
        "e"
      ],
      [
        "gar",
        "de"
      ],
      [
        "ag",
        "r"
      ],
      [
        "an",
        "aly"
      ],
      [
        "con",
        "curr"
      ],
      [
        "re",
        "té"
      ],
      [
        "dé",
        "es"
      ],
      [
        "désign",
        "ation"
      ],
      [
        "sub",
        "st"
      ],
      [
        "lib",
        "er"
      ],
      [
        "por",
        "tion"
      ],
      [
        "or",
        "ti"
      ],
      [
        "beso",
        "ins"
      ],
      [
        "ç",
        "on"
      ],
      [
        "san",
        "ction"
      ],
      [
        "u",
        "ve"
      ],
      [
        "im",
        "es"
      ],
      [
        "li",
        "r"
      ],
      [
        "on",
        "o"
      ],
      [
        "aff",
        "ér"
      ],
      [
        "pér",
        "im"
      ],
      [
        "eng",
        "ag"
      ],
      [
        "rég",
        "uli"
      ],
      [
        "t",
        "oire"
      ],
      [
        "7",
        "5"
      ],
      [
        "nomin",
        "ation"
      ],
      [
        "nouve",
        "au"
      ],
      [
        "règ",
        "le"
      ],
      [
        "p",
        "ati"
      ],
      [
        "prest",
        "ation"
      ],
      [
        "garanti",
        "es"
      ],
      [
        "suppl",
        "ément"
      ],
      [
        "co",
        "ls"
      ],
      [
        "él",
        "us"
      ],
      [
        "cols",
        "pan"
      ],
      [
        "complément",
        "aire"
      ],
      [
        "dét",
        "ention"
      ],
      [
        "figur",
        "ant"
      ],
      [
        "r",
        "ur"
      ],
      [
        "déc",
        "ès"
      ],
      [
        "a",
        "o"
      ],
      [
        "é",
        "ch"
      ],
      [
        "détermin",
        "ée"
      ],
      [
        "recouv",
        "rement"
      ],
      [
        "san",
        "itaire"
      ],
      [
        "gre",
        "ff"
      ],
      [
        "m",
        "és"
      ],
      [
        "mor",
        "ales"
      ],
      [
        "diplô",
        "me"
      ],
      [
        "sû",
        "reté"
      ],
      [
        "oblig",
        "atoire"
      ],
      [
        "urban",
        "isme"
      ],
      [
        "c",
        "li"
      ],
      [
        "auc",
        "un"
      ],
      [
        "administra",
        "tif"
      ],
      [
        "ve",
        "ment"
      ],
      [
        "f",
        "ac"
      ],
      [
        "dé",
        "chets"
      ],
      [
        "ple",
        "in"
      ],
      [
        "bénéfici",
        "aires"
      ],
      [
        "u",
        "se"
      ],
      [
        "o",
        "ct"
      ],
      [
        "nég",
        "oci"
      ],
      [
        "m",
        "ét"
      ],
      [
        "pay",
        "s"
      ],
      [
        "it",
        "er"
      ],
      [
        "sais",
        "ie"
      ],
      [
        "projet",
        "s"
      ],
      [
        "délégu",
        "é"
      ],
      [
        "débit",
        "eur"
      ],
      [
        "no",
        "ve"
      ],
      [
        "nove",
        "mbre"
      ],
      [
        "it",
        "enti"
      ],
      [
        "s",
        "co"
      ],
      [
        "en",
        "vis"
      ],
      [
        "pén",
        "itenti"
      ],
      [
        "mil",
        "itaires"
      ],
      [
        "concer",
        "née"
      ],
      [
        "201",
        "8"
      ],
      [
        "c",
        "és"
      ],
      [
        "ob",
        "re"
      ],
      [
        "ao",
        "ût"
      ],
      [
        "202",
        "3"
      ],
      [
        "oct",
        "obre"
      ],
      [
        "pro",
        "portion"
      ],
      [
        "b",
        "ure"
      ],
      [
        "pre",
        "uve"
      ],
      [
        "pos",
        "ées"
      ],
      [
        "spéci",
        "alis"
      ],
      [
        "for",
        "fait"
      ],
      [
        "fourn",
        "it"
      ],
      [
        "ma",
        "tri"
      ],
      [
        "posi",
        "tions"
      ],
      [
        "202",
        "2"
      ],
      [
        "établi",
        "e"
      ],
      [
        "re",
        "v"
      ],
      [
        "soci",
        "aux"
      ],
      [
        "inter",
        "vention"
      ],
      [
        "rédu",
        "ction"
      ],
      [
        "se",
        "cré"
      ],
      [
        "adress",
        "ée"
      ],
      [
        "engage",
        "ments"
      ],
      [
        "c",
        "y"
      ],
      [
        "trans",
        "mis"
      ],
      [
        "olog",
        "ie"
      ],
      [
        "rés",
        "i"
      ],
      [
        "4",
        "0"
      ],
      [
        "au",
        "r"
      ],
      [
        "us",
        "es"
      ],
      [
        "présent",
        "ation"
      ],
      [
        "mandat",
        "aire"
      ],
      [
        "som",
        "me"
      ],
      [
        "recomman",
        "dée"
      ],
      [
        "pén",
        "al"
      ],
      [
        "c",
        "ant"
      ],
      [
        "concurr",
        "ence"
      ],
      [
        "t",
        "our"
      ],
      [
        "département",
        "ale"
      ],
      [
        "ant",
        "es"
      ],
      [
        "com",
        "pren"
      ],
      [
        "disposi",
        "tifs"
      ],
      [
        "crit",
        "ères"
      ],
      [
        "financi",
        "ères"
      ],
      [
        "cor",
        "ps"
      ],
      [
        "té",
        "lé"
      ],
      [
        "résid",
        "ence"
      ],
      [
        "ce",
        "l"
      ],
      [
        "ap",
        "pr"
      ],
      [
        "ex",
        "ist"
      ],
      [
        "un",
        "ité"
      ],
      [
        "zon",
        "es"
      ],
      [
        "suscepti",
        "ble"
      ],
      [
        "ré",
        "di"
      ],
      [
        "exc",
        "lusi"
      ],
      [
        "ac",
        "tifs"
      ],
      [
        "univ",
        "ers"
      ],
      [
        "ex",
        "on"
      ],
      [
        "aut",
        "o"
      ],
      [
        "dom",
        "m"
      ],
      [
        "ég",
        "ard"
      ],
      [
        "délég",
        "ation"
      ],
      [
        "regar",
        "d"
      ],
      [
        "bor",
        "der"
      ],
      [
        "lis",
        "sement"
      ],
      [
        "reven",
        "us"
      ],
      [
        "ma",
        "ines"
      ],
      [
        "s",
        "ché"
      ],
      [
        "dé",
        "pas"
      ],
      [
        "im",
        "matri"
      ],
      [
        "urg",
        "ence"
      ],
      [
        "ent",
        "end"
      ],
      [
        "f",
        "avor"
      ],
      [
        "li",
        "és"
      ],
      [
        "réparti",
        "tion"
      ],
      [
        "ins",
        "tance"
      ],
      [
        "ent",
        "rée"
      ],
      [
        "opér",
        "ateur"
      ],
      [
        "au",
        "te"
      ],
      [
        "charg",
        "ée"
      ],
      [
        "su",
        "c"
      ],
      [
        "hi",
        "ques"
      ],
      [
        "al",
        "ors"
      ],
      [
        "se",
        "c"
      ],
      [
        "soumis",
        "es"
      ],
      [
        "enseig",
        "nements"
      ],
      [
        "mut",
        "u"
      ],
      [
        "greff",
        "e"
      ],
      [
        "pos",
        "és"
      ],
      [
        "er",
        "re"
      ],
      [
        "man",
        "que"
      ],
      [
        ")",
        "."
      ],
      [
        "é",
        "labor"
      ],
      [
        "com",
        "position"
      ],
      [
        "d",
        "q"
      ],
      [
        "te",
        "l"
      ],
      [
        "dq",
        "table"
      ],
      [
        "électri",
        "cité"
      ],
      [
        "en",
        "ne"
      ],
      [
        "di",
        "que"
      ],
      [
        "off",
        "re"
      ],
      [
        "pro",
        "pres"
      ],
      [
        "entre",
        "tien"
      ],
      [
        "201",
        "5"
      ],
      [
        "don",
        "ner"
      ],
      [
        "appar",
        "tenant"
      ],
      [
        "comport",
        "ant"
      ],
      [
        "ar",
        "ch"
      ],
      [
        "ch",
        "ois"
      ],
      [
        "aut",
        "ono"
      ],
      [
        "sign",
        "ature"
      ],
      [
        "particuli",
        "ères"
      ],
      [
        "c",
        "lé"
      ],
      [
        "denti",
        "el"
      ],
      [
        "e",
        "mb"
      ],
      [
        "mi",
        "ques"
      ],
      [
        "v",
        "a"
      ],
      [
        "place",
        "ment"
      ],
      [
        "d",
        "û"
      ],
      [
        "ag",
        "it"
      ],
      [
        "oc",
        "k"
      ],
      [
        "ex",
        "clusion"
      ],
      [
        "se",
        "cteur"
      ],
      [
        "intéress",
        "és"
      ],
      [
        "su",
        "it"
      ],
      [
        "prob",
        "ation"
      ],
      [
        "em",
        "pris"
      ],
      [
        "empris",
        "onnement"
      ],
      [
        "prés",
        "ence"
      ],
      [
        "délibér",
        "ations"
      ],
      [
        "résult",
        "at"
      ],
      [
        "er",
        "tion"
      ],
      [
        "fa",
        "ce"
      ],
      [
        "in",
        "fi"
      ],
      [
        "â",
        "ge"
      ],
      [
        "ty",
        "pe"
      ],
      [
        "justifi",
        "ca"
      ],
      [
        "contribu",
        "tion"
      ],
      [
        "mani",
        "f"
      ],
      [
        "préa",
        "lablement"
      ],
      [
        "infi",
        "r"
      ],
      [
        "st",
        "ock"
      ],
      [
        "19",
        "8"
      ],
      [
        "conserv",
        "ation"
      ],
      [
        "reven",
        "u"
      ],
      [
        "détermin",
        "é"
      ],
      [
        "arm",
        "ées"
      ],
      [
        "ar",
        "tis"
      ],
      [
        "public",
        "ité"
      ],
      [
        "pén",
        "ale"
      ],
      [
        "pa",
        "tri"
      ],
      [
        "pres",
        "criptions"
      ],
      [
        "con",
        "forme"
      ],
      [
        "è",
        "tres"
      ],
      [
        "par",
        "agr"
      ],
      [
        "anim",
        "aux"
      ],
      [
        "paragr",
        "aph"
      ],
      [
        "motiv",
        "ée"
      ],
      [
        "exp",
        "éri"
      ],
      [
        "déliv",
        "rée"
      ],
      [
        "conn",
        "aître"
      ],
      [
        "travail",
        "leurs"
      ],
      [
        "comp",
        "ens"
      ],
      [
        "ins",
        "ertion"
      ],
      [
        "permet",
        "tre"
      ],
      [
        "l",
        "ou"
      ],
      [
        "fonction",
        "naires"
      ],
      [
        "liquid",
        "ation"
      ],
      [
        "po",
        "sant"
      ],
      [
        "oi",
        "x"
      ],
      [
        "con",
        "cours"
      ],
      [
        "mo",
        "bil"
      ],
      [
        "san",
        "ctions"
      ],
      [
        "7",
        "8"
      ],
      [
        "vo",
        "y"
      ],
      [
        "lim",
        "ites"
      ],
      [
        "ter",
        "r"
      ],
      [
        "dis",
        "pon"
      ],
      [
        "ci",
        "ens"
      ],
      [
        "form",
        "ations"
      ],
      [
        "cha",
        "mbres"
      ],
      [
        "proc",
        "ède"
      ],
      [
        "marchandis",
        "es"
      ],
      [
        "w",
        "al"
      ],
      [
        "un",
        "a"
      ],
      [
        "desti",
        "nés"
      ],
      [
        "douan",
        "es"
      ],
      [
        "wal",
        "lis"
      ],
      [
        "pr",
        "un"
      ],
      [
        "fut",
        "una"
      ],
      [
        "patri",
        "mo"
      ],
      [
        "périm",
        "ètre"
      ],
      [
        "pru",
        "dentiel"
      ],
      [
        "immeu",
        "ble"
      ],
      [
        "m",
        "ul"
      ],
      [
        "hé",
        "ber"
      ],
      [
        "g",
        "ouver"
      ],
      [
        "in",
        "dic"
      ],
      [
        "vi",
        "ce"
      ],
      [
        "u",
        "it"
      ],
      [
        "cré",
        "anci"
      ],
      [
        "dé",
        "du"
      ],
      [
        "pro",
        "vis"
      ],
      [
        "ag",
        "ers"
      ],
      [
        "pronon",
        "cée"
      ],
      [
        "in",
        "c"
      ],
      [
        "minim",
        "um"
      ],
      [
        "disp",
        "ens"
      ],
      [
        "h",
        "on"
      ],
      [
        "em",
        "prun"
      ],
      [
        "t",
        "ations"
      ],
      [
        "derni",
        "ère"
      ],
      [
        "pres",
        "crit"
      ],
      [
        "titu",
        "de"
      ],
      [
        "qu",
        "anti"
      ],
      [
        "for",
        "ê"
      ],
      [
        "réglement",
        "aire"
      ],
      [
        "è",
        "le"
      ],
      [
        "stat",
        "u"
      ],
      [
        "hab",
        "ilité"
      ],
      [
        "con",
        "gé"
      ],
      [
        "concer",
        "nées"
      ],
      [
        "pos",
        "ent"
      ],
      [
        "tot",
        "ale"
      ],
      [
        "in",
        "for"
      ],
      [
        "dis",
        "tin"
      ],
      [
        "a",
        "tement"
      ],
      [
        "b",
        "ois"
      ],
      [
        "v",
        "ée"
      ],
      [
        "détermin",
        "ées"
      ],
      [
        "av",
        "o"
      ],
      [
        "ct",
        "or"
      ],
      [
        "fa",
        "çon"
      ],
      [
        "sou",
        "mise"
      ],
      [
        "poli",
        "tique"
      ],
      [
        "ap",
        "hiques"
      ],
      [
        "solid",
        "ar"
      ],
      [
        "ord",
        "in"
      ],
      [
        "i",
        "ble"
      ],
      [
        "nu",
        "l"
      ],
      [
        "a",
        "jou"
      ],
      [
        "etat",
        "s"
      ],
      [
        "réglement",
        "ation"
      ],
      [
        "assur",
        "ances"
      ],
      [
        "con",
        "clusion"
      ],
      [
        "comp",
        "ati"
      ],
      [
        "un",
        "ités"
      ],
      [
        "v",
        "ét"
      ],
      [
        "habil",
        "ités"
      ],
      [
        "major",
        "ité"
      ],
      [
        "sub",
        "ordon"
      ],
      [
        "indemn",
        "ités"
      ],
      [
        "ér",
        "és"
      ],
      [
        "point",
        "s"
      ],
      [
        "amé",
        "li"
      ],
      [
        "op",
        "position"
      ],
      [
        "po",
        "pu"
      ],
      [
        "discipl",
        "inaire"
      ],
      [
        "è",
        "mes"
      ],
      [
        "vis",
        "és"
      ],
      [
        "constitu",
        "tion"
      ],
      [
        "affec",
        "tés"
      ],
      [
        "pouv",
        "ant"
      ],
      [
        "a",
        "tif"
      ],
      [
        "form",
        "es"
      ],
      [
        "ti",
        "er"
      ],
      [
        "indi",
        "cation"
      ],
      [
        "orient",
        "ation"
      ],
      [
        "cl",
        "ôt"
      ],
      [
        "ouvr",
        "ages"
      ],
      [
        "re",
        "lève"
      ],
      [
        "aph",
        "ique"
      ],
      [
        "m",
        "u"
      ],
      [
        "attribu",
        "tions"
      ],
      [
        "ouvr",
        "age"
      ],
      [
        "vét",
        "ér"
      ],
      [
        "exig",
        "ences"
      ],
      [
        "chi",
        "ff"
      ],
      [
        "œuv",
        "res"
      ],
      [
        "communi",
        "cations"
      ],
      [
        "fam",
        "ille"
      ],
      [
        "bure",
        "au"
      ],
      [
        ")",
        "</"
      ],
      [
        "pl",
        "ant"
      ],
      [
        "priv",
        "é"
      ],
      [
        "ex",
        "emp"
      ],
      [
        "cir",
        "const"
      ],
      [
        "ch",
        "amp"
      ],
      [
        "pénitenti",
        "aire"
      ],
      [
        "o",
        "eu"
      ],
      [
        "av",
        "r"
      ],
      [
        "contr",
        "aire"
      ],
      [
        "nu",
        "clé"
      ],
      [
        "a",
        "ér"
      ],
      [
        "bi",
        "o"
      ],
      [
        "immédi",
        "atement"
      ],
      [
        "pr",
        "ession"
      ],
      [
        "éval",
        "u"
      ],
      [
        "ch",
        "oix"
      ],
      [
        "avo",
        "cat"
      ],
      [
        "con",
        "tenu"
      ],
      [
        "ten",
        "ti"
      ],
      [
        "fé",
        "dération"
      ],
      [
        "h",
        "e"
      ],
      [
        "avr",
        "il"
      ],
      [
        "x",
        "te"
      ],
      [
        "gr",
        "at"
      ],
      [
        "rur",
        "al"
      ],
      [
        "prof",
        "it"
      ],
      [
        "propri",
        "étaires"
      ],
      [
        "équipe",
        "ment"
      ],
      [
        "e",
        "ls"
      ],
      [
        "prév",
        "ision"
      ],
      [
        "atte",
        "int"
      ],
      [
        "oeu",
        "v"
      ],
      [
        "indi",
        "que"
      ],
      [
        "vers",
        "ées"
      ],
      [
        "sub",
        "s"
      ],
      [
        "con",
        "ti"
      ],
      [
        "affec",
        "tation"
      ],
      [
        "beso",
        "in"
      ],
      [
        "accompag",
        "nement"
      ],
      [
        "tr",
        "ou"
      ],
      [
        "médica",
        "ments"
      ],
      [
        "at",
        "t"
      ],
      [
        "patrimo",
        "ine"
      ],
      [
        "matérie",
        "ls"
      ],
      [
        "collec",
        "tif"
      ],
      [
        "de",
        "puis"
      ],
      [
        "valeur",
        "s"
      ],
      [
        "v",
        "u"
      ],
      [
        "maxim",
        "um"
      ],
      [
        "inscrit",
        "s"
      ],
      [
        "s",
        "port"
      ],
      [
        "li",
        "ées"
      ],
      [
        "6",
        "5"
      ],
      [
        "don",
        "né"
      ],
      [
        "fr",
        "action"
      ],
      [
        "solidar",
        "ité"
      ],
      [
        "an",
        "e"
      ],
      [
        "cert",
        "aines"
      ],
      [
        "hospit",
        "ali"
      ],
      [
        "ère",
        "ment"
      ],
      [
        "201",
        "0"
      ],
      [
        "employ",
        "eurs"
      ],
      [
        "étu",
        "di"
      ],
      [
        "lib",
        "re"
      ],
      [
        "maxim",
        "ale"
      ],
      [
        "l",
        "ant"
      ],
      [
        "int",
        "en"
      ],
      [
        "cor",
        "se"
      ],
      [
        "tis",
        "s"
      ],
      [
        "cais",
        "ses"
      ],
      [
        "sec",
        "ret"
      ],
      [
        "d",
        "ite"
      ],
      [
        "sché",
        "ma"
      ],
      [
        "g",
        "ne"
      ],
      [
        "au",
        "quel"
      ],
      [
        "se",
        "ur"
      ],
      [
        "chan",
        "gement"
      ],
      [
        "sais",
        "i"
      ],
      [
        "respec",
        "tivement"
      ],
      [
        "pério",
        "des"
      ],
      [
        "atte",
        "inte"
      ],
      [
        "con",
        "tin"
      ],
      [
        "ann",
        "uelle"
      ],
      [
        "régu",
        "lation"
      ],
      [
        "mat",
        "ogr"
      ],
      [
        "sign",
        "i"
      ],
      [
        "in",
        "ci"
      ],
      [
        "s",
        "cr"
      ],
      [
        "num",
        "éri"
      ],
      [
        "ciné",
        "matogr"
      ],
      [
        "effectu",
        "ée"
      ],
      [
        "complément",
        "aires"
      ],
      [
        "inv",
        "alidité"
      ],
      [
        "tr",
        "ente"
      ],
      [
        "ex",
        "t"
      ],
      [
        "utilis",
        "és"
      ],
      [
        "scientifi",
        "que"
      ],
      [
        "re",
        "ti"
      ],
      [
        "sol",
        "lic"
      ],
      [
        "autoris",
        "é"
      ],
      [
        "organ",
        "e"
      ],
      [
        "si",
        "mp"
      ],
      [
        "pl",
        "uri"
      ],
      [
        "provis",
        "oire"
      ],
      [
        "ex",
        "prim"
      ],
      [
        "h",
        "és"
      ],
      [
        "réalis",
        "ées"
      ],
      [
        "bil",
        "an"
      ],
      [
        "contrô",
        "les"
      ],
      [
        "effectu",
        "é"
      ],
      [
        "métropo",
        "le"
      ],
      [
        "associ",
        "é"
      ],
      [
        "judici",
        "aires"
      ],
      [
        "ren",
        "du"
      ],
      [
        "paragraph",
        "e"
      ],
      [
        "soi",
        "ent"
      ],
      [
        "réalis",
        "ée"
      ],
      [
        "réglement",
        "aires"
      ],
      [
        "nom",
        "mé"
      ],
      [
        "iti",
        "é"
      ],
      [
        "div",
        "ers"
      ],
      [
        "mo",
        "itié"
      ],
      [
        "li",
        "es"
      ],
      [
        "conti",
        "nu"
      ],
      [
        "3",
        "9"
      ],
      [
        "p",
        "ier"
      ],
      [
        "consom",
        "ma"
      ],
      [
        ")",
        ","
      ],
      [
        "clôt",
        "ure"
      ],
      [
        "200",
        "9"
      ],
      [
        "gu",
        "y"
      ],
      [
        "contr",
        "aven"
      ],
      [
        "contraven",
        "tions"
      ],
      [
        "l",
        "ées"
      ],
      [
        "ap",
        "propri"
      ],
      [
        "m",
        "y"
      ],
      [
        "ob",
        "tenir"
      ],
      [
        "érieure",
        "ment"
      ],
      [
        "seu",
        "l"
      ],
      [
        "déclar",
        "ations"
      ],
      [
        "éle",
        "ctor"
      ],
      [
        "éle",
        "ction"
      ],
      [
        "ab",
        "ro"
      ],
      [
        "uti",
        "n"
      ],
      [
        "individu",
        "elle"
      ],
      [
        "scr",
        "utin"
      ],
      [
        "co",
        "lon"
      ],
      [
        "bu",
        "lle"
      ],
      [
        "7",
        "6"
      ],
      [
        "bulle",
        "tin"
      ],
      [
        "v",
        "ac"
      ],
      [
        "nom",
        "més"
      ],
      [
        "rés",
        "eaux"
      ],
      [
        "autoris",
        "ations"
      ],
      [
        "loy",
        "er"
      ],
      [
        "vo",
        "lution"
      ],
      [
        "4",
        "5"
      ],
      [
        "effet",
        "s"
      ],
      [
        "ser",
        "a"
      ],
      [
        "guy",
        "ane"
      ],
      [
        "cin",
        "qui"
      ],
      [
        "exer",
        "cent"
      ],
      [
        "ob",
        "st"
      ],
      [
        "intermédi",
        "aire"
      ],
      [
        "re",
        "jet"
      ],
      [
        "possi",
        "bilité"
      ],
      [
        "gu",
        "erre"
      ],
      [
        "r",
        "h"
      ],
      [
        "\"",
        ","
      ],
      [
        "f",
        "act"
      ],
      [
        "f",
        "usion"
      ],
      [
        "agis",
        "sant"
      ],
      [
        "pier",
        "re"
      ],
      [
        "aux",
        "quelles"
      ],
      [
        "r",
        "enseignements"
      ],
      [
        "s",
        "pe"
      ],
      [
        "désig",
        "ne"
      ],
      [
        "électron",
        "iques"
      ],
      [
        "th",
        "è"
      ],
      [
        "commission",
        "s"
      ],
      [
        "dét",
        "ail"
      ],
      [
        "vis",
        "ées"
      ],
      [
        "che",
        "ment"
      ],
      [
        "cinqui",
        "ème"
      ],
      [
        "3",
        "5"
      ],
      [
        "w",
        "s"
      ],
      [
        "é",
        "lè"
      ],
      [
        "radi",
        "o"
      ],
      [
        "assi",
        "mil"
      ],
      [
        "prév",
        "en"
      ],
      [
        "princip",
        "al"
      ],
      [
        "f",
        "em"
      ],
      [
        "gouver",
        "nement"
      ],
      [
        "cir",
        "culation"
      ],
      [
        "is",
        "e"
      ],
      [
        "co",
        "ût"
      ],
      [
        "cent",
        "res"
      ],
      [
        "en",
        "cour"
      ],
      [
        "effectu",
        "ées"
      ],
      [
        "in",
        "dépend"
      ],
      [
        "administr",
        "ateur"
      ],
      [
        "min",
        "eur"
      ],
      [
        "st",
        "age"
      ],
      [
        "mati",
        "ères"
      ],
      [
        "ouver",
        "t"
      ],
      [
        "bénéfici",
        "ent"
      ],
      [
        "v",
        "ari"
      ],
      [
        "re",
        "quête"
      ],
      [
        "201",
        "2"
      ],
      [
        "inspe",
        "ction"
      ],
      [
        "dép",
        "la"
      ],
      [
        "ap",
        "probation"
      ],
      [
        "envis",
        "ag"
      ],
      [
        "règle",
        "ments"
      ],
      [
        "accor",
        "dée"
      ],
      [
        "exper",
        "ti"
      ],
      [
        "élè",
        "ves"
      ],
      [
        "r",
        "atta"
      ],
      [
        "main",
        "tien"
      ],
      [
        "l",
        "ut"
      ],
      [
        "p",
        "sy"
      ],
      [
        "ent",
        "r"
      ],
      [
        "ma",
        "inten"
      ],
      [
        "ro",
        "ws"
      ],
      [
        "réalis",
        "er"
      ],
      [
        "rows",
        "pan"
      ],
      [
        "con",
        "test"
      ],
      [
        "défin",
        "it"
      ],
      [
        "notifi",
        "ée"
      ],
      [
        "v",
        "rier"
      ],
      [
        "se",
        "urs"
      ],
      [
        "fé",
        "vrier"
      ],
      [
        "g",
        "és"
      ],
      [
        "im",
        "position"
      ],
      [
        "nation",
        "aux"
      ],
      [
        "nation",
        "ales"
      ],
      [
        "acci",
        "dent"
      ],
      [
        "é",
        "lig"
      ],
      [
        "dé",
        "j"
      ],
      [
        "étab",
        "lit"
      ],
      [
        "rédi",
        "gé"
      ],
      [
        "tit",
        "ue"
      ],
      [
        "acqu",
        "it"
      ],
      [
        "circonst",
        "ances"
      ],
      [
        "gre",
        "ffi"
      ],
      [
        "jo",
        "in"
      ],
      [
        "ne",
        "u"
      ],
      [
        "ne",
        "lles"
      ],
      [
        "déj",
        "à"
      ],
      [
        "lég",
        "al"
      ],
      [
        "é",
        "volution"
      ],
      [
        "cré",
        "ances"
      ],
      [
        "arrê",
        "t"
      ],
      [
        "ni",
        "que"
      ],
      [
        "for",
        "esti"
      ],
      [
        "forfait",
        "aire"
      ],
      [
        "d",
        "res"
      ],
      [
        "se",
        "cours"
      ],
      [
        "nom",
        "s"
      ],
      [
        "é",
        "re"
      ],
      [
        "con",
        "nu"
      ],
      [
        "r",
        "end"
      ],
      [
        "te",
        "mbre"
      ],
      [
        "lè",
        "vent"
      ],
      [
        "sep",
        "tembre"
      ],
      [
        "ac",
        "tif"
      ],
      [
        "accompag",
        "née"
      ],
      [
        "e",
        "ments"
      ],
      [
        "colon",
        "ne"
      ],
      [
        "é",
        "mission"
      ],
      [
        "effec",
        "tif"
      ],
      [
        "convo",
        "cation"
      ],
      [
        "appr",
        "ouv"
      ],
      [
        "3",
        "8"
      ],
      [
        "défini",
        "tive"
      ],
      [
        "gr",
        "and"
      ],
      [
        "é",
        "chan"
      ],
      [
        "cir",
        "cons"
      ],
      [
        "prélève",
        "ment"
      ],
      [
        "navi",
        "re"
      ],
      [
        "f",
        "eu"
      ],
      [
        "un",
        "es"
      ],
      [
        "opér",
        "ateurs"
      ],
      [
        "stat",
        "ue"
      ],
      [
        "ta",
        "xes"
      ],
      [
        "légis",
        "la"
      ],
      [
        "olog",
        "ique"
      ],
      [
        "re",
        "lèvent"
      ],
      [
        "or",
        "ation"
      ],
      [
        "dou",
        "ze"
      ],
      [
        "ra",
        "ins"
      ],
      [
        "13",
        "1"
      ],
      [
        "audi",
        "o"
      ],
      [
        "oeuv",
        "re"
      ],
      [
        "victi",
        "me"
      ],
      [
        "partici",
        "per"
      ],
      [
        "par",
        "ten"
      ],
      [
        "5",
        "00"
      ],
      [
        "sus",
        "pen"
      ],
      [
        "effectu",
        "er"
      ],
      [
        "acces",
        "si"
      ],
      [
        "es",
        "s"
      ],
      [
        "ter",
        "rains"
      ],
      [
        "mat",
        "éri"
      ],
      [
        "héber",
        "gement"
      ],
      [
        "ma",
        "î"
      ],
      [
        "lis",
        "tes"
      ],
      [
        "vi",
        "o"
      ],
      [
        "quali",
        "fication"
      ],
      [
        "cotis",
        "ation"
      ],
      [
        "au",
        "s"
      ],
      [
        "î",
        "les"
      ],
      [
        "écono",
        "miques"
      ],
      [
        "rég",
        "imes"
      ],
      [
        "mutu",
        "alité"
      ],
      [
        "ap",
        "titude"
      ],
      [
        "mique",
        "lon"
      ],
      [
        "\"",
        "."
      ],
      [
        "do",
        "tation"
      ],
      [
        "cer",
        "tification"
      ],
      [
        "ad",
        "mis"
      ],
      [
        "audi",
        "ence"
      ],
      [
        "compét",
        "entes"
      ],
      [
        "fam",
        "illes"
      ],
      [
        "supprim",
        "és"
      ],
      [
        "je",
        "unes"
      ],
      [
        "fourni",
        "r"
      ],
      [
        "v",
        "és"
      ],
      [
        "ré",
        "un"
      ],
      [
        "con",
        "sign"
      ],
      [
        "président",
        "s"
      ],
      [
        "syst",
        "èmes"
      ],
      [
        "contribu",
        "tions"
      ],
      [
        "fi",
        "li"
      ],
      [
        "pri",
        "or"
      ],
      [
        "municip",
        "al"
      ],
      [
        "autono",
        "mie"
      ],
      [
        "ordin",
        "ation"
      ],
      [
        "crédit",
        "s"
      ],
      [
        "lon",
        "g"
      ],
      [
        "g",
        "i"
      ],
      [
        "b",
        "ate"
      ],
      [
        "con",
        "ser"
      ],
      [
        "200",
        "4"
      ],
      [
        "renouve",
        "lable"
      ],
      [
        "consé",
        "qu"
      ],
      [
        "4",
        "9"
      ],
      [
        "i",
        "bilité"
      ],
      [
        "t",
        "or"
      ],
      [
        "effectu",
        "és"
      ],
      [
        "sur",
        "face"
      ],
      [
        "génér",
        "ales"
      ],
      [
        "li",
        "é"
      ],
      [
        "v",
        "ation"
      ],
      [
        "ad",
        "hér"
      ],
      [
        "se",
        "ctions"
      ],
      [
        "im",
        "plant"
      ],
      [
        "prest",
        "ataire"
      ],
      [
        "immatri",
        "culation"
      ],
      [
        "mar",
        "ti"
      ],
      [
        "inform",
        "é"
      ],
      [
        "seu",
        "le"
      ],
      [
        "m",
        "ètres"
      ],
      [
        "men",
        "su"
      ],
      [
        "mod",
        "èle"
      ],
      [
        "di",
        "ri"
      ],
      [
        "t",
        "ention"
      ],
      [
        "ma",
        "ître"
      ],
      [
        "seu",
        "il"
      ],
      [
        "objet",
        "s"
      ],
      [
        "in",
        "aires"
      ],
      [
        "habil",
        "itation"
      ],
      [
        "assist",
        "ance"
      ],
      [
        "hés",
        "ion"
      ],
      [
        "g",
        "ré"
      ],
      [
        "struct",
        "ure"
      ],
      [
        "di",
        "tion"
      ],
      [
        "modifi",
        "cations"
      ],
      [
        "autoris",
        "és"
      ],
      [
        "esti",
        "me"
      ],
      [
        "régu",
        "lar"
      ],
      [
        "des",
        "tin"
      ]
    ]
  }
}